#version: 0.2
Ġ Ð
Ð ¾
Ð µ
Ð °
Ð ¸
Ñ Ĥ
Ñ ģ
Ð ½
Ñ Ģ
Ð¾ Ð
Ð »
Ñ ĥ
Ð º
Ñ ı
Ð ²
Ñ ĭ
Ð ¼
Ñ Į
ĠÐ ¿
Ð ´
Ġ Ñģ
ĠÐ ²
Ñ ĩ
ĠÐ ½
Ñģ ÑĤ
Ðµ Ð½
ÑĢ Ð°
Ð ·
ĠÐ ¸
ĠÐ ¾
Ð¾Ð ²
Ñ ħ
Ð ¿
ĠÐ º
Ð ¹
Ð ±
Ð ³
ÑĢ Ðµ
ÑĤ Ð¾
Ð° Ð»
Ñ Ī
ĠÐ ´
Ð¾Ð »
Ð¾Ð ¼
Ðµ ÑĤ
Ñ İ
Ð½ Ð¸
ĠÐ ¼
ĠÐ½ Ð°
Ðµ Ð»
Ġ ÑĤ
ÑĢ Ð¸
Ð ¶
Ð¾Ð ´
Ð½ Ð¾
ĠÐ ±
Ð¾Ð ³
Ð½ Ñĭ
ÑĤ ÑĮ
Ðµ ÑĢ
Ñ Ĩ
ĠÐ½ Ðµ
Ð¾Ð ¹
Ð½ Ð°
ĠÐ ·
Ð» Ð¸
Ġ Ñĩ
Ñģ Ðº
Ġ Ñĥ
Ñģ Ñı
ÑĢ Ð¾
Ð» Ð°
Ð° Ðº
ĠÐ¿ Ð¾
Ñ ī
ĠÐ ³
ÐµÐ½ Ð¸
â Ģ
Ðµ Ð¼
Ġ Ñ
Ð¸ ÑĤ
Ð² Ð°
Ðº Ð°
ÑĢ Ñĥ
ÑĤ Ð¸
Ð¾Ð³ Ð¾
Ð´ Ð°
Ð¾Ð ±
ĠÐ· Ð°
Ð¾ ÑĢ
Ġ ÑĢÐ°
ĠÐ µ
Ð¼ Ð¸
ÑĤ Ð°
Ðµ Ð¹
Ð¾ Ð½
Ñģ ÑĮ
ĠÑ į
ĠÐ »
ĠÐ¾ ÑĤ
Ð³ Ð¾
Ð¾Ð ¶
Ð° Ð½
Ð¸ Ð»
ĠÐ Ĵ
ÑģÑĤ Ð²
ĠÐ °
Ð¾Ð º
Â ł
Ð¾ ÑĤ
ĠÐ¿ ÑĢÐ¸
Ġ Ċ
ĠÐ± Ñĭ
ĠÑĩ ÑĤÐ¾
Ð¸ Ð½
Ġ -
ÑĨ Ð¸
ĠÐ Ł
Ð» Ñı
Ð¾Ð» ÑĮ
ĠÐ¾ Ð±
Ðº Ð¸
Ðµ Ð´
âĢ Ķ
ĠÐ ¡
Ġ t
ĠÐ² Ñĭ
ÐµÐ» ÑĮ
Ð¾Ð ·
Ñĩ Ðµ
ĠÐ Ŀ
Ð½ Ñĥ
ĠÐ ¶
ÑĢ Ñĭ
Ð° Ð¼
ĠÐ¿ ÑĢÐ¾
Ð¾ Ñģ
h e
Ñ Ħ
ÑģÑĤ Ð¸
Ð¾Ð² Ð°
ÑĢÐµ Ð´
ĠÐ ļ
Ð½ Ðµ
Ðº Ð¾
Ð¸ Ð¼
Ġ a
Ð¸ Ñħ
Ñģ Ðµ
i n
ĠÐ¸ Ð·
Ð¾Ð ¿
Ñĩ Ð°
Ð°Ð» Ð¸
ĠÐ ŀ
Ð½ Ð¾Ð¹
Ġ Ñı
Ð² Ð¾
ÑģÑĤ Ð°
Ð² Ð¸
ĠÐ ľ
ĠÑģ ÑĤ
Ðµ ÑĢÐµ
ĠÐ¿ Ð¾Ð´
ÑģÑĤ ÑĮ
Ð» Ðµ
ÐµÐ½Ð¸ Ñı
ĠÐº Ð°Ðº
Ð¼ Ð°
Ġ 1
Ð· Ð°
Ð½Ñĭ Ñħ
Ð°Ð» ÑĮ
Ð½ Ð¾Ð³Ð¾
Ð» Ð¾
Ñģ Ð¿
ĠÐº Ð¾
ĠÐ¿ ÑĢ
ĠÐ Ĳ
Ñģ Ð¸
Ð° ÑĢ
Ġ Ñħ
âĢ ĵ
e r
ĠÑĢÐ° Ð·
Ñĥ Ð´
Ñĩ Ð¸
Ð½Ñĭ Ðµ
Ġ ÑĢÐµ
ĠÐ Ķ
Ð½Ñĭ Ð¹
Ð¶ Ðµ
ĠÑĤ Ð°Ðº
Ðº Ñĥ
Ð°Ð» Ð°
Ñī Ðµ
ĠÐ ¢
Ġ "
ĠÐ ĺ
ÑĪ Ð¸
o n
ÑģÑĤ Ð¾
Ġt he
ÑĤ Ðµ
Ð½ Ñı
ÑĪ Ðµ
Ñİ ÑĤ
ÐµÐ½Ð¸ Ðµ
ĠÑ Ħ
Â »
Â «
ĠÐ ł
Ġ (
ĠÐ¿ Ð¾Ð»
ĠÐ² ÑģÐµ
Ð´ Ðµ
ĠÑģ Ð¾
Ġ Â«
ĠÑģ Ð»
ĠÐºÐ¾ ÑĤÐ¾
ĠÑį ÑĤÐ¾
Ð¼ Ðµ
ÑĢ Ð¾Ð²
ÐµÑĤ ÑģÑı
Ð¸ Ðµ
Ð³ Ð°
Ñĥ ÑĤ
Ð´ Ð¸
ÑĢÐ° Ð²
Ñħ Ð¾Ð´
Ġ 2
ĠÐ¾ Ð½
Ñ ĳ
r e
Âł Ð
ÑĤ Ð¾Ð¼
ĠÑģ Ð¿
. .
Ñģ Ð»
ÑĩÐµ ÑģÐº
Ðµ Ð·
Ġ ÑĤÐ¾
Ð¼ ÐµÐ½
ĠÐ ĳ
ĠÐµ Ð³Ð¾
ÑĤÑĮ ÑģÑı
Ñģ Ð°
Ðµ Ðº
Ð¸ Ð¹
Ġ âĢĶ
Ð¸ Ð·
Ðµ Ð²
Ð¿ Ð°
o r
ĠÐ½ Ð¾
Ñĥ Ñİ
a n
ĠÑĤ Ðµ
ĠÐ´ Ð¾
ĠÐ» Ð¸
ÑĢ Ñı
ÐµÐ½ ÑĮ
Ðº Ð¾Ð²
ĠÑģ Ð²Ð¾
Ð° Ñı
Ð» ÑĮ
e d
ĠÐ ĵ
ĠÐ¿ ÑĢÐµÐ´
Ñı ÑĤ
ĠÐº Ð°
a t
Ð¾Ð»ÑĮ ÐºÐ¾
e n
Ġ s
Ð½Ñĭ Ð¼
ĠÐ½ Ð¸
ÐµÐ» Ð¸
Ð½Ð¾ Ðµ
Ð¾Ð´ Ð°
ĠÐ´ Ð»Ñı
Ð½Ð¸ Ñı
Ġ o
Ġ w
Ñĥ Ð¶
Ð² Ðµ
Ð½ Ð¾Ð¼
ÑĤ Ñĭ
Ð½Ð° Ñı
i s
Ð² ÐµÑĢ
ÑĤ Ñĥ
ÑĨÐ¸ Ð¸
Ð´ Ñĥ
ÐµÐ» Ð°
Ð¾Ð³ Ð´Ð°
ĠÐ¼ Ðµ
ĠÐ¾ Ð´
a r
Ð² Ñĭ
i t
Ð° Ñģ
Ð ¡
Ð½Ð¸ Ðµ
a l
ÑģÑĤÐ° Ð²
ĠÐ² Ð¾
ĠÐº Ð¾Ð½
ÑģÑĤÐ² ÐµÐ½
ÑĢÑĥ Ð³
ĠÐº Ð¾Ð¼
ÑĤ ÐµÐ»ÑĮ
e s
Ð¸ÑĤ ÐµÐ»ÑĮ
ĠÐ¶ Ðµ
Ð°Ð» Ð¾
Ð² ÐµÑĤ
Ð¸ Ð´
Ġ ÑĢÑĥ
ĠÑģ Ðµ
ĠÐ´ Ð°
Ðº Ðµ
ĠÑģ Ð°Ð¼
ĠÐ¸ Ð½
n d
ĠÐ Ľ
ĠÐ¿ ÑĢÐµ
Ġ ÑĪ
Ð¿ Ð¸
ĠÐ¿ ÐµÑĢÐµ
Ġ c
Ġ ÑĨ
Ġo f
ĠÑģ ÑĤÐ°
ĠÐ± ÑĥÐ´
Ġ in
Ð¼ Ñĥ
ÑĢÐ° Ð·
Ñ į
Ñģ Ð»Ð¸
Ġ f
ĠÐ ķ
ĠÐ² Ð¾Ð·
Ð° Ð·
ĠÐºÐ¾ÑĤÐ¾ ÑĢÑĭ
ĠÐ¼ Ð¾Ð¶
Ð³ Ð¸
ĠÐ £
Ð½ Ð¾Ð²
Ñĥ Ñĩ
Ðµ Ñģ
Ð± Ð¾
ÑĨ Ð°
ÐºÐ° Ð·
Ð¾Ð² Ð¾
ÑĢÐ° Ð½
Ð½Ð¾ ÑģÑĤÐ¸
Ð Ĳ
ĠÐ» Ñİ
ÑĢ Ð¾Ð¼
Âł âĢĶ
Ð½Ð¾ ÑģÑĤÑĮ
Ð» Ñİ
ÑģÑĤ Ð²Ð°
ĠÐ Ń
Ð¶ Ð°
Ð¾Ð± Ñĭ
ÑĢÐµ Ð¼
ĠÐ ¯
Ð ŀ
Ġ b
ĠÐ Ĺ
a s
ĠÐ¼ Ð°
Ðº Ð¾Ð¼
Ð± Ðµ
Ð» ÐµÐ½
ÑĪ ÑĮ
ĠÐ±Ñĭ Ð»Ð¾
ĠÐĿ Ð°
ĠÐ¾ Ñģ
Ð¾Ð² Ñĭ
Ñĥ Ð±
Ġ p
ÐµÐ½ ÑĤ
0 0
Ð¾ Ðµ
ÑĢÐ¾ Ñģ
Ð¸ ÑĤÑĮ
Ñĭ Ð²Ð°
Ġ âĢĵ
ĠÐ¿ Ð¾Ðº
ĠÐ¾ Ð¿
Ġa nd
âĢ ¦
ĠÐ¼ Ñĭ
in g
i c
ÑĤÐ¸ Ð²
Ð´ Ð¾
ĠÐ· Ð½Ð°
ÑģÑĤÐ² Ð¾
ĠÐ¼ ÐµÐ½
ĠÐ¿Ð¾ Ñģ
Ðµ ÑĢÐ°
Ñİ Ñī
Ġ1 9
Ð½Ñĥ Ñİ
ÑĪ Ð°
ĠÐ¸ Ð»Ð¸
Ñĥ ÑĢ
Ð Ł
Ñĥ Ð¿
r o
Ð¶ Ð¸
ĠÐ± Ð¾Ð»ÑĮ
Ð Ĵ
ĠÐ¾ Ð½Ð°
ÑĢ Ð¾Ð´
ÑģÐº Ð¾Ð¹
ĠÐ¼ Ð¸
Ð Ŀ
ĠÑĢÐ° Ñģ
Ð ļ
ĠÐ±Ñĭ Ð»
Ð° Ð¹
ĠÑĤ Ð¾Ð»ÑĮÐºÐ¾
ĠÐ §
ĠÑģ Ð²
ĠÐ´ Ð¾Ð»
Ñ Ĭ
i on
ĠÑģ ÑĤÐ¾
ĠÑĤ Ñĭ
Ñĩ Ð½Ð¾
Ð¸Ð» ÑĮ
ĠÐ¸ Ñħ
ĠÐ² ÑĢÐµÐ¼
ĠÑģ Ð¼
Ð´ Ñĭ
Ð»Ð° ÑģÑĮ
ĠÐ´ ÑĢÑĥÐ³
ĠÐ¼ÐµÐ½ Ñı
Ð± Ñı
ĠÐ¼ Ð¾
Ð» ÑģÑı
Ð¾Ð» Ðµ
ĠÐ· Ð°Ðº
Ð°Ð» ÑģÑı
Ġt o
Ð¸ Ñģ
ÑĤ Ð¾Ð²
ÐµÐ» Ð¾Ð²
ĠÐ¿ Ð¾Ð¼
Ġ S
l e
Ð¾ Ñĩ
ÑģÐº Ð¾Ð³Ð¾
ĠÑģ Ð¾Ð±
ĠÑģ Ð¾Ð²
Ð¾Ð´ Ñĥ
ĠÐµ Ðµ
.. .
Ð½Ð¸ Ð¼Ð°
ÑĤ Ð¾Ð±Ñĭ
ĠÑĥ Ð¶Ðµ
ĠÐ ¤
ÐµÐ¼ Ñĥ
Ġ m
Ð ł
Ñī Ð¸
Ð ĺ
ĠÐ² Ð·
ĠÐ¿ ÐµÑĢ
Ñī Ð°
Ð± Ð¾ÑĤ
Ġ d
ĠÐ³ Ð»Ð°
ĠÑį ÑĤ
ĠÐĿ Ð¾
ĠÐ² Ðµ
Ð½Ð¸ Ðº
Ð¸ Ð²
ĠÐ´ Ðµ
ĠÐ¾ Ð½Ð¸
Ð¸ Ñı
Ð´ ÐµÐ»
Ñĥ Ð¼
ĠÐ± ÐµÐ·
Ð½Ð¸ Ð¸
Ð»Ð¸ ÑģÑĮ
Ġ h
ĠÑĩ ÑĤÐ¾Ð±Ñĭ
0 1
ÑĤÐ¾ ÑĢ
ÑĢ Ð¾Ð²Ð°
ĠÐ¼ Ð¾Ð³
Ð½Ñĭ Ð¼Ð¸
Ñĩ Ð¸ÑĤ
ĠÐ³ Ð¾ÑĢ
Ðº Ð¾Ð¹
Ð¾ ÑĢÐ¾
ÐµÐ½Ð¸ Ð¸
ĠÐµ ÑīÐµ
o u
Ð° ÑĤ
ĠÐ² Ñģ
ĠÐ ¥
Ġ C
Ñĭ Ñħ
ĠÑĩ Ð°
ĠÐ¿ Ðµ
ĠÐ¸ Ð¼
ĠÐ³ Ð¾Ð»
ÑģÑĤ Ð°Ð½
Ġ A
ĠÑĩ ÐµÐ»Ð¾Ð²
ÑģÐº Ð¸Ð¹
ĠÐ³ Ð¾Ð´Ð°
Ð ľ
ÐµÑĤ Ðµ
ÑģÐ» ÐµÐ´
ÑĨÐ¸ Ñı
ĠÐ¼ Ð½Ðµ
ĠÐº Ð¾Ð³Ð´Ð°
Ġ T
i l
Ð¼ ÐµÑĢ
Ð ¢
ĠÐ¾ Ðº
ÑĦ Ð¸
Ð»Ðµ Ðº
ÑģÑĤÐ¾ Ñı
ĠÐ½Ð° Ð¿
Ñĥ Ð´Ð°
ĠÐ² Ð°
ĠÐ¸ ÑģÐ¿
ÐµÐ½ Ð°
ĠÑģÑĤ ÑĢÐ°
ÑĨ Ðµ
Ð¾Ð³ Ð¸
ÑİÑĤ ÑģÑı
ĠÑį ÑĤÐ¾Ð¼
ÐµÐ» Ð¾
Âł âĢĵ
Ñı Ð²
Ð± Ð°
ĠÐ²ÑĢÐµÐ¼ Ñı
Ñĥ Ñħ
ĠÐ¿ Ð¾Ð²
Ð¸Ð» ÑģÑı
Ðº ÑĢÐ°
ĠÐ½Ð° Ñģ
) .
en t
Ġ 3
ĠÐŀ Ð½
Ð± Ð¸
Ñĥ ÑĩÐ°
ÑģÐº Ð°
ĠÐ¿ Ð»Ð°
Ð Ķ
Ð¾Ð» Ð¸
ĠÐŁ Ð¾
Ð¾Ð¼ Ñĥ
Ð¾Ð²Ð¾ ÑĢÐ¸
ĠÐµ ÑģÐ»Ð¸
ĠÑĩ ÐµÐ¼
ĠÐ¿ Ð¾Ð·
ĠÑģ Ðº
ÐµÐ» Ñı
ĠÐĿ Ðµ
Ð² Ð¾Ð´
ĠÐ² ÐµÑĢ
ĠÐ¿ ÑĢÐ°Ð²
ĠÐ¿ Ñĥ
Ð½Ð¸ ÐºÐ°
o m
Ñĭ Ðµ
ĠÐ±ÑĥÐ´ ÐµÑĤ
Ð¾Ð»ÑĮ Ð·
ÑĤ ÐµÑĢ
ÑģÑĤ Ðµ
Ð³ ÑĢÐ°
Ð½ ÐµÐ¹
ĠÐ» Ðµ
Ð¸ÑĤ ÑģÑı
Ð· Ð¸
s t
ĠÐ¿ Ð°
ĠÐ¿ÑĢ Ð¾Ð²
ĠÐ¿ Ð¾Ð¿
Ð¾ Ð½Ð°
Ñĩ ÐµÐ½ÑĮ
ĠÐ½Ð° Ñĩ
ĠÑģ ÐºÐ°Ð·
Ð¸Ð» Ð¾
Ð¾Ñģ ÑģÐ¸
ĠÐ»Ñİ Ð±
Ġ M
Â» .
Ð°Ð»Ð¾ ÑģÑĮ
e l
Ð¿ Ñĥ
ĠÐ² Ð¸Ð´
a m
ĠÑĤ ÐµÐ¼
Ð´ ÐµÑĢ
ÐµÐ½ Ð½Ð¾
ĠÑį ÑĤÐ¸
ÐµÑĤ Ð°
Ð¿ ÐµÑĢ
ÑĨ Ñĭ
Ð²Ð° ÑĤÑĮ
Ð¾Ð¶ Ðµ
ÑĨÐ¸ Ð¾Ð½
Ð³ Ñĥ
Ð¸Ð¼ Ð¾
Ñĭ Ð¹
Ġ re
ÑģÑĤ ÑĢÐµ
ĠÐ´Ð¾Ð» Ð¶
Ð½Ð¸ Ð¹
Ð¸ Ð½Ð°
Ð· Ð½Ð°
Ð³ Ð¾Ð´
Ð°Ð»Ð¸ ÑģÑĮ
Ð¸Ð½ Ñĥ
ĠÐŃ ÑĤÐ¾
Ñħ Ð°
ÐµÐ½Ð¸ Ð¹
Ġ2 01
ĠÐł Ð¾ÑģÑģÐ¸
ÑĢÐ° Ð¶
ĠÐ¼Ð¾Ð¶ ÐµÑĤ
Ñĥ Ð»ÑĮ
Ñĥ ÑĪ
ĠÐ±Ñĭ Ð»Ð¸
ÑģÑĤ ÑĢÐ°
Ð¶ Ð´
ĠÐº ÑĢÐ°
Ð¼ Ð¾ÑĤ
" ,
ĠÑĢÐ° Ð±Ð¾ÑĤ
Ð½Ñĥ Ð»
ĠÐ±Ñĭ Ð»Ð°
Ġ I
o l
Ð¾Ð»Ðµ Ðµ
Â» ,
Ð¿ Ð¾Ð»
ĠÐµ ÑģÑĤÑĮ
Ð¾Ð½ Ðµ
ĠÐ´ Ð¾Ð¼
ÑĦ Ð¾ÑĢ
ÐµÐ¹ ÑģÑĤÐ²
Ð» ÐµÐ½Ð¸Ñı
Ð¼ Ñĭ
Ð± Ñĭ
ĠÐ¿Ð¾ Ñĩ
Ð¼ ÐµÑĤ
ĠÐ° Ð²
Ð¼ Ð¾Ð¶
ĠÑĤ Ð¾Ð³Ð¾
Ð¸ Ð»Ð¸
" .
Ð¸ÑĤ Ðµ
Ñĩ ÐµÐ½
Ð² ÑĪÐ¸
ĠÐ¶ Ð¸Ð·
Ð¸ Ðº
ÑĢ Ð¾Ð¹
ÑģÐº Ð¸Ñħ
) ,
ĠÐ´Ð° Ð¶Ðµ
Ð· Ñĭ
Ð² Ð°Ð»
ÑģÑĤ ÑĢÐ¾
ĠÐ¾ ÑĩÐµÐ½ÑĮ
ĠÐ½Ð¸ Ðº
Ġ ÑĢ
ĠÐ¼Ð¾Ð¶ Ð½Ð¾
ĠÐ¿ÑĢÐ¾ Ð¸Ð·
ÐµÐ» Ðµ
ÑĢÑĥ Ð´
a c
ÑĢÐ° Ðº
Ñĥ Ñģ
ĠÑģ Ð¸
ÑĢÐ¸ Ð¸
Ġ B
ĠÑį Ðº
ĠÐ±Ñĭ ÑĤÑĮ
ÐµÐ½Ð¸ Ñİ
ĠÐ´ Ð¸
Ñĥ ÑīÐµ
ÑĮ Ñİ
Ð³ Ð»Ñı
ĠÑĤ ÑĢÐµ
Ð¿ ÑĢÐ¸
ĠÐºÐ¾ÑĤÐ¾ÑĢÑĭ Ðµ
Ð°Ð» Ðµ
ĠÐ¾ ÑĢ
Ðµ Ð³Ð¾
ĠÑģÐµ Ð±Ñı
Ð½Ð¸ Ð¼
ĠÐŁ ÑĢÐ¸
Ð½Ðµ Ðµ
Ġ P
ĠÑĤ Ð¾Ð¼
ĠÐ¿Ð¾ ÑĤÐ¾Ð¼
Ġ l
ÑĪ Ð¸Ñħ
a d
ĠÐµ Ð¼Ñĥ
ĠÑħ Ð¾ÑĤ
Ð°Ð»Ð° ÑģÑĮ
ĠÑįÑĤ Ð¾Ð³Ð¾
ÐµÐ½Ð¸ ÐµÐ¼
e t
ĠÐĶ Ð°
Ð¸ Ð¼Ð¸
Ð ĳ
ĠÐ¾Ð± ÑĬ
ĠÐļ Ð°Ðº
ĠÐ» ÐµÑĤ
ÑĢ ÐµÐ½
ĠÐ³ Ð´Ðµ
ÑĢÑı Ð´
Ñı ÑĤÑĮ
ÑģÑĤÐ°Ð½ Ð¾Ð²
Ð ķ
ĠÑĥ Ð¿
ĠÑģÐ» ÐµÐ´
ÑģÑĤ ÑĥÐ¿
ĠÐ¢ Ð°Ðº
Ð´ ÐµÑĤ
ĠÐ³ Ð¾Ð²Ð¾ÑĢÐ¸
ĠÐĹ Ð°
Ñĥ Ð¼Ð°
ĠÐ¿ Ð¸
Ġ n
ĠÐ½ ÐµÑĤ
Ð¸ÑĤ Ð°
ÑĢÑĥ Ð¿
e c
ÐµÐ½ Ñĭ
ĠÑı Ð²
Ð ĵ
Ġw as
ĠÐ¿Ð¾Ñģ Ð»Ðµ
ĠÐĴ Ñĭ
Ñģ Ñĭ
ÐµÐ» ÐµÐ¹
Ñģ Ð¾Ð²
ÑģÑĤÐ² Ñĥ
ĠÐ² Ð¸
Ð» Ñĭ
u r
ÑĢ Ð¾Ðº
Ġ H
Ð¾Ð³ ÑĢÐ°
Ðº ÑĢÑĭ
Ð¼ Ð¾
Ġt h
ĠÑģÐ¾ Ð¾Ð±
ÑĪ ÐµÐ¹
ĠÑģ ÑĢÐµÐ´
ĠÐºÐ¾ÑĤÐ¾ÑĢÑĭ Ð¹
ĠÐ¼ Ð¾Ð»
ĠÐ½ ÑĥÐ¶
Ġ 4
ĠÐ± Ð¾Ð»ÐµÐµ
ĠÐ ¨
Ð¿ Ðµ
Ð¸ ÑĩÐµÑģÐº
Ð² ÐµÐ´
ĠÑĤÐ°Ðº Ð¶Ðµ
ĠÑĢÐ° ÑģÐ¿
ĠÐº Ð¾ÑĢ
Ð¾Ð³ Ð°
ÑĮ Ñı
Ð½ Ð¾Ð²Ð°
i v
ĠÐ³ Ð¾Ð´Ñĥ
ĠÐ± Ðµ
ĠÐ½Ðµ Ð³Ð¾
Ðµ ÑĪÑĮ
ÑĤÐµ ÑĢÐ¸
o t
Ð½Ð¸ ÐºÐ¾Ð²
i d
ĠÐ¿ Ð°ÑĢ
ĠÐ¼ Ð½
ĠÐ¿Ð¾Ðº Ð°
ĠÑģ Ð¾Ð·
Ġ e
Ð¶ Ð´Ñĥ
Ġ N
Ñĥ Ð²
Ġ 5
ÑĩÐµ Ð³Ð¾
Ð²Ð° Ñı
ĠÐ¾ ÑģÑĤ
ĠÑģÑĤÐ¾ ÑĢÐ¾
ÑĨÐ¸ Ñİ
ÑĢÑĥ Ð¶
Ð½ ÑĮ
ĠÐ° Ðº
Ð» ÐµÐ½Ð¸Ðµ
ÑĩÐ° Ñģ
u s
ĠÐ´ ÐµÑĤ
ÑģÑĤÐ°Ð² Ð»Ñı
Ġ R
Ð»Ð° Ð´
ĠÐ² Ð¾Ð¿
ĠÐ¾ÑĤ Ð²ÐµÑĤ
ÑĤ Ñı
Ð» ÐµÐ¼
ÑĪÐµ Ð³Ð¾
ÐºÐ° Ð¼Ð¸
Ð° Ð²
t er
ĠÐº ÑĤÐ¾
Ð¾Ð²Ð° ÑĤÑĮ
ĠÐ³ Ð¾Ñģ
ÐºÐ° Ð·Ð°
ĠÐ¾Ð± ÑĢÐ°Ð·
ÑĢÐµ Ð¼ÐµÐ½
i m
Ġf or
Ð¾Ð² Ð¾ÑĢ
Ð±Ð¾ ÑĤÐ°
i g
at ion
ĠÐ´ ÐµÐ¹ÑģÑĤÐ²
Ð Ľ
Ġ on
ÑģÑĤ Ñĥ
ĠÐ´ ÐµÐ»Ð°
Ð² Ð¾Ð»
ĠÐ¿ÑĢ Ð¾Ð´
ÑĥÑİ Ñī
ĠÑģ ÐµÑĢ
i r
ÐµÑĢÐµ Ð·
ĠÑģÐ» ÑĥÑĩÐ°
ĠÑģÐºÐ°Ð· Ð°Ð»
ĠÑĤÐµ Ñħ
ÑĤÐ¸ ÑĩÐµÑģÐº
l y
ĠÐ´ Ð²
ÑĪ ÐµÐ»
ÐµÐ¹ ÑĩÐ°Ñģ
Ñĭ Ð¼
Ð° Ð´
ÑģÐº Ð¾Ð»ÑĮÐºÐ¾
ĠÐ´ ÐµÐ½ÑĮ
ĠÐ¿Ð¾ ÑģÐ»ÐµÐ´
ĠÐ² ÐµÐ´
ĠÑĤ Ð°Ð¼
Ð» ÐµÑĤ
ÑģÐ¿ Ðµ
ĠÑģÐ² Ñı
ĠÑĢÐµ Ð·
ĠÐ² Ð¾Ñģ
ĠÐº Ð¾Ð»
ĠÐ½ Ð¸Ñħ
Ġ D
ĠÑĥ ÑĩÐ°
Ġ is
ÑģÐº Ð¸Ðµ
Ð° Ð¼Ð¸
ĠÑĩÐµÐ»Ð¾Ð² ÐµÐº
ÑĢ Ð¾Ð¿
ĠÐ¾Ð± Ð»Ð°
ÑĤ ÐµÑĢÐµ
ĠÐ¿ÑĢÐ¾ ÑģÑĤÐ¾
Ð £
ĠÐ²Ñĭ Ñģ
ĠÑĢÐµ ÑĪ
ĠÐ±Ð¾Ð»ÑĮ ÑĪÐµ
ÑĨÐ¸ Ð°Ð»ÑĮ
Ð»Ð° Ñģ
ĠÐ´ Ð¾Ð±
Ð½Ð¾Ð¼ Ñĥ
Ð´ ÐµÐ»Ð°
Ġ F
Ð¿ÐµÑĢ ÑĮ
Ð¸ÑĤÐµÐ»ÑĮ Ð½Ð¾
Ñĥ Ð½
Ð¸Ð½ Ðµ
Ð¸ Ð»Ð°
ÑĢÐ° ÑĤ
Ġ2 00
Ð½Ð¸ ÐºÐ¸
ĠÐ²Ð¾Ð· Ð¼Ð¾Ð¶
ÑĨ Ñĥ
Ð´Ðµ ÑģÑĮ
Ð¾Ð² Ð¾Ð¹
ÑģÐº Ð°Ñı
Ð» Ð¾Ð¶
ÑĢÐ° Ñı
ÐºÐ° Ñħ
Ð² Ð°Ð»Ð¸
Ñĥ ÑĩÐ¸
ĠÑĥ ÑģÐ»
ĠÐ½Ðµ Ð¼
o w
u t
Ġ g
Ð³Ð° Ð½Ð¸
ĠÑĤ ÐµÑĢ
ĠÐłÐ¾ÑģÑģÐ¸ Ð¸
ĠÐ¾Ð´ Ð¸Ð½
ĠÑįÑĤÐ¾ ÑĤ
ĠÐķ ÑģÐ»Ð¸
ĠÐ±Ð¾Ð»ÑĮ ÑĪ
Ġ G
ĠÑĩÐµÐ»Ð¾Ð² Ðµ
Ð ¤
ÑĢÐ¸ Ñı
Ð± Ð¾ÑĢ
Ġ L
Ñĩ ÑĮ
ĠÐ° ÑĢ
ĠÐ¿Ðµ ÑĢÐµÐ´
ĠÐ¶ ÐµÐ½
ĠÑģÐµ Ð±Ðµ
Ð°Ð½ Ð´
ĠÐľ Ð¾
ĠÐ¾ÑĤ Ð½Ð¾
ĠÑĥ Ð´
ĠÐ½Ð° Ð´
ĠÐ¿ÑĢ Ð¾Ð±
ĠÐº Ð°ÑĢ
ÑĤ ÑĢÐ¸
ĠÑħ Ð¾ÑĢÐ¾
c h
a y
ĠÐ½Ð° Ð·
ĠÐ»Ñİ Ð´
Ð´Ð° Ð½
ĠÐ³ Ð¾Ð´
Ñĭ ÑĪ
ÑģÑĤÐ² Ðµ
Ð½Ðµ Ñģ
ĠÐ²ÑģÐµ Ñħ
ĠÐ¸ Ð¼Ðµ
Ð²Ð° ÐµÑĤ
ÑģÐº Ð¾Ð¼
ĠÐ¸ ÑģÑĤÐ¾
Ð¾Ðº Ð°
ĠÐ² Ð¾ÑĤ
Ñı Ñģ
ĠÐ° Ð½
ĠÐ½Ðµ Ð¿
Ð± Ñĥ
ĠÑıÐ² Ð»Ñı
ĠÐ¸ÑģÐ¿ Ð¾Ð»ÑĮÐ·
ĠÐ´ Ð°Ð½
ĠÐ²ÑģÐµ Ð³Ð¾
Ġ- -
Ð° Ð³
Ñĭ ÑĤ
Ġa s
ĠÑģÐ¿ Ðµ
ĠÐ¿Ð¾ ÑĤ
ĠÐ³ Ð¾
Ñı Ð½
ÑĤÐ¸ Ñı
ĠÐ² Ð¾Ð¹
Ġ W
ÑĪ ÐµÐ½
ĠÐĲ Ð½
Ð¾Ð²Ð° Ð½Ð¸Ñı
e m
u n
ĠÐ² Ð¾Ð´
ĠÐļ Ð°
Ð² Ð½Ð¾
ÑĤ Ð°Ðº
Ġ ÑĢÐ¾Ð´
ÑĤÐµÐ»ÑĮ Ð½Ð¾
Ð²Ðµ ÑģÑĤ
ĠÐ²Ð¾Ð¿ ÑĢÐ¾Ñģ
ĠÑĩ ÐµÑĢÐµÐ·
Ñı Ñī
ÑĤÐ¾ ÑĢÑĭ
ĠÐ¼Ðµ Ð¶Ð´Ñĥ
ĠÐ² Ð¾Ð»
ĠÐŀ Ð½Ð°
ÐµÑĤ Ñĭ
it h
ÑĥÐ´Ð° ÑĢ
ĠÐ¾ Ð³
ĠÐ ĸ
Ð¾Ñģ Ð¾Ð±
ĠÐ» ÑĥÑĩ
ĠÐ¿Ð¾ Ð½Ñı
ÑģÑĤ Ñĭ
ĠÐ¸ ÑģÐº
ĠÐ³Ð»Ð° Ð·Ð°
Ñģ Ñģ
Ð¾Ð¶ Ð´
ÑģÑĤÐ° Ð²Ð¸
ĠÐŀ ÑĤ
ĠÐ¼ Ð½Ð¾Ð³Ð¾
ÐºÐ¸ Ð¹
ĠÐ¿ Ð¾Ð±
ĠÐ´ Ð²Ð°
ĠT he
ĠÐ¾ÑĢ Ð³Ð°Ð½Ð¸
ÑĨ ÐµÐ²
ĠÐ½Ð° ÑħÐ¾Ð´
Ð»Ð° Ð²
ĠÐŀ Ð´
ĠÐ¿ÑĢÐ¾ ÑĤÐ¸Ð²
ĠÑģÐ» Ð¾Ð²
Ġ1 8
ÑĤ ÑĢÐ°
ĠÐ¾ÑĤ ÐºÑĢÑĭ
er s
Ñĥ Ðº
Ġ 6
Ð¹ ÑĤÐµ
Ñĥ Ñī
Ð¶ Ð´Ñĭ
Ð¸ Ð¸
Ð´Ð° ÑĤÑĮ
ĠÐ¼ ÑĥÐ¶
ĠÐ½Ðµ ÑģÐºÐ¾Ð»ÑĮÐºÐ¾
ĠÑģ ÐµÐ¼
Ð Ĺ
ÑĥÐ´ ÑĮ
u l
Ġs t
ĠÐ½Ð° Ð¼
ĠÐ·Ð° Ð¿
Ð± ÑĢÑı
Ġ E
ĠÐĴ ÑģÐµ
ĠÐ² Ð°Ñģ
Ð¾Ð½ Ð¾Ð¼
Ð¸ÑĤ Ñĥ
ĠÑĦ Ð¾ÑĢ
he r
Ð½Ñĥ Ð»ÑģÑı
ÐºÐ° Ð½
ÑĦÐ¾ÑĢ Ð¼Ð°
ĠÐ ¦
Ñĩ ÐµÐ¼
ĠÑģ ÐµÐ¹ÑĩÐ°Ñģ
ĠÑĤÐµ Ð±Ñı
ÑģÑĤ Ñı
c e
ÑģÑĤ ÐµÑĢ
ÑģÐº Ð°Ð·
ĠÑĤ Ð¾Ð¶Ðµ
ÐµÐ½ ÑĤÐ°
ĠÐ¼ ÐµÑĤ
Ð¸Ð»Ð¾ ÑģÑĮ
ĠÐ² ÑģÑĤÑĢÐµ
ĠÐ¾Ð± ÑĢÐ°
ĠÐ¿Ð¾ ÑĢ
ĠÑģÐ¸ ÑģÑĤ
ĠÐ´ Ð¾ÑĢ
ĠÐ½Ð¸ ÑĩÐµÐ³Ð¾
Ð½Ð¾ÑģÑĤÑĮ Ñİ
ĠÐ½Ðµ Ð¾Ð±
ĠÐ³Ð¾ÑĢ Ð¾Ð´
ĠÑģ Ð¸Ð»
Ð»Ð¸ Ñĩ
ĠÑįÑĤ Ð¾Ð¹
ĠÐ· Ð´ÐµÑģÑĮ
ĠÐ² Ð°Ð¼
Ġw ith
Ð½Ð° ÐºÐ¾
Ð¾Ð» Ð¾Ð³Ð¸
ĠÐ¿Ð¾Ð» ÑĥÑĩ
ĠÐ¸ Ñģ
Ð³ Ð´Ð°
Ð½ ÐµÑĤ
ĠÐľ Ñĭ
an d
ÑĤÐ¾ ÑĢÐ°
ÑıÑĤ ÐµÐ»ÑĮ
Ñĩ ÐµÑĤ
ĠÐ± Ð»Ð°
ĠÐºÐ¾Ð¼ Ð¿Ð°
ÑīÐµ Ð³Ð¾
Ð²Ð° ÑĢ
ĠÐ¶Ð¸Ð· Ð½Ð¸
ĠÑĥ Ð³
ÑģÑĤ Ð¾Ð²
Ñĩ ÐµÐ½Ð¸Ðµ
Ð ¯
ÐµÑĢ ÑĤ
ĠÑģÐ²Ð¾ ÐµÐ¹
c t
ĠÐ³ ÑĢÐ°
ĠÐºÐ¾Ð¼ Ð¿
Ġ ÑĢÑĭ
ĠÐ· ÐµÐ¼
a g
ĠÐŀ Ð±
ÑĢÐ¾ Ð½
Ð¿ Ð¾
Ð¼ÐµÐ½ Ð½Ð¾
ĠÑĥ Ð±
ĠÑĢÐ° Ð±Ð¾ÑĤÐ°
ĠÑĤ ÑĥÑĤ
Ð»Ð¾ ÑģÑĮ
ĠÐº Ñĥ
ĠÐ¿ ÑĢÐ°
ÑĥÐ»ÑĮ ÑĤÐ°
ÐµÐ½ Ð½ÑĭÑħ
ĠÐ½Ð° ÑĪ
ÐµÑĤ ÑĮ
ĠÐ½Ð° Ð´Ð¾
Ġ Ñİ
ÐµÐ´ Ð¸
Ð²Ð¸ Ð¶
Ð¾Ð²Ñĭ Ñħ
Ð² Ð¾Ð·
ĠÐ¾Ñģ Ð½Ð¾Ð²
Ð» Ð¾Ð²
ÂłÐ Ŀ
ÑĢÐ¾Ð² Ð°Ð½
ĠÐ² Ð¼Ðµ
Ð» ÑĥÐ±
ĠÐ¿ÑĢÐ¾ ÑĨ
Ð° ÑĢÐ¸
Ð¸ ÑĢ
ÑĢÐµ Ñģ
ĠÐ§ ÑĤÐ¾
Ð°Ð»ÑĮ Ð½Ð¾
ĠÐ² Ð»Ð°
Ġb e
ĠÐ´ ÑĢÑĥ
ĠÑģ ÑĩÐ¸ÑĤ
ĠÐ³Ð¾Ñģ ÑĥÐ´Ð°ÑĢ
ĠÑĢÐ°Ñģ Ñģ
ĠÑģ Ð²ÐµÑĤ
Ð² Ð¾Ð¹
is t
Ð° Ñħ
Ġ 7
o s
ĠÐ½ÐµÐ¾Ð± ÑħÐ¾Ð´
Ð¾Ð» Ð¾
ĠÐ¾ ÐºÐ°Ð·
ÐµÐ½ Ðµ
ĠÐŁ Ð¾Ñģ
ĠÐľÐ¾ ÑģÐº
Ġb y
t h
v er
ĠÐ½Ðµ Ð¹
ĠÑĤ ÑĢÐ¸
ĠÐ¿Ð¾Ð¼ Ð¾
ĠÑģÐ²Ð¾ Ñİ
Ð½Ñĥ Ð»Ð°
Ð³Ð¾Ð´ Ð½Ñı
ĠÐ¾Ð± Ðµ
Ð½ Ñİ
Ð´ Ð¸Ð½
ÑĩÐ¸ Ð½Ð°
Âł Âł
Ð² ÑĢÐ°
ĠÐ± Ð¾
Ð½Ð¸ Ñİ
ĠÐ¿ÑĢÐ¾Ð´ Ð¾Ð»
ĠÐ¿ÑĢÐ¸ Ð½Ñı
ĠÐ¼Ð° ÑĤÐµÑĢÐ¸
ÑĨÐ¸ Ð¹
ĠÐ´ Ð¾Ðº
ĠÐ± Ð°
ĠÑģÐ¸ÑģÑĤ ÐµÐ¼
ĠÑĤÐµ Ð¿ÐµÑĢÑĮ
Ġ J
ÑĪ ÐµÐ½Ð¸Ñı
ÑĤÐ¾Ð¼ Ñĥ
Ð»ÐµÐº Ñģ
Ðº Ð»Ñİ
Ð¸ Ñĩ
ĠÐ¸Ð½ ÑĤÐµÑĢÐµ
ĠÐ¼ Ñĥ
ĠÐµ Ð¹
ĠÐ· Ð²
Ð»Ð¸ Ð½
ÐµÐ½ Ð½ÑĭÐµ
ÑħÐ¾Ð´ Ð¸ÑĤ
ĠÑģ Ð¾Ð³
u m
ĠÐ¿ Ð»Ð¾
Ð½ ÐµÑĢ
ÑĪ Ð¾
ĠÑĩ ÑĥÐ²
ĠÐ¼ Ð°Ð»
ĠÐ¾Ñģ Ð¾Ð±
ÑĤ ÑģÑı
Ð ¨
ÑģÐº Ð¸
ĠÐ¿ÑĢÐ¾ ÑĪ
ĠÐĶ Ð¶
ĠÐ¿ÐµÑĢ Ð²Ñĭ
ĠÐ¿ Ð¾Ð¶
Ð´ ÑĨÐ°
ÑĥÐ± Ð»Ð¸
ĠÐ»Ð¸ ÑĪÑĮ
Ġa l
ĠÐ¿ÑĢÐµÐ´ ÑģÑĤÐ°Ð²
Ð¾Ð² Ð°Ð»
Ð» ÐµÐ¹
Ñĩ ÐµÑĢ
ĠÑģ Ð´ÐµÐ»Ð°
ĠÐº ÑĢÐ¸
ĠÑģÐ¿ Ð¾ÑģÐ¾Ð±
ĠÐ¸ Ð³
ĠÑģ ÑĥÑīÐµ
ĠÐŁ ÑĢÐ¾
Ð³ Ðµ
ÑģÑĤ ÐµÐ¹
Ð² Ð¾ÑĢ
Ð³Ð»Ñı Ð´
Ġ 8
Ñĩ ÐµÐ½Ð¸Ñı
ĠÑĤÐµ Ð±Ðµ
ÑĢ Ð¾Ð±
Ġ .
ĠÐ»Ðµ Ð³
ĠÐ²ÑģÐµ Ð³Ð´Ð°
ĠÑģÐ¾Ð² ÐµÑĢ
Ð¼ Ð°Ð½
Ð¸ Ð±
ĠÐ½ Ð¸Ð¼
Ñģ Ð½Ð¾
ĠÑĤÐ¾ ÑĤ
Ð½ Ð°Ð»
ÑĢÐ¸ Ð¹
ĠÐ´ ÐµÐ²
Ñĳ Ð½
Ð¾Ð²Ñĭ Ðµ
Ñħ Ð²Ð°
Ð½Ð¸ ÑĤÑĮ
Ñģ Ñĥ
r a
ÑĪÐ¸ Ð¹
ĠÐ¸Ð½ ÑĦÐ¾ÑĢÐ¼Ð°
ĠÐ»ÑİÐ´ ÐµÐ¹
ĠÐ½ÑĥÐ¶ Ð½Ð¾
ĠÐ²Ñģ ÐµÐ¼
Ñģ ÐµÐ¼
Ġw h
Ð²Ð¸ Ð´
ÑģÑĤÐ² Ð¾Ð¼
ÑĢÐ¾Ð²Ð° ÑĤÑĮ
ÑĤÐ¸ Ð½
Ðµ Ñħ
Ð± ÑĢÐ°
Ñį ÑĤÐ¾Ð¼Ñĥ
ĠÐ¼ Ð¸Ð½
Ð½Ð¸ ÐµÐ¼
ÑĢÐ¾ Ðµ
ÑĪÐ¸ Ðµ
Ð» Ñĥ
Ġa t
ĠÐ³Ð»Ð° Ð²
ĠÑĢÐ°Ð· Ð²
ÑĢÐµ Ð¹
Ġ1 0
ĠÐ³ Ð¾ÑĤ
ĠÐ³ ÑĢÑĥÐ¿
ÑĢ Ð¾Ð³Ð¾
ĠÑģ Ñĭ
ĠÐ¼Ð½ Ð¾Ð³
ro m
ĠÐĺ Ð½
ĠÑģÐ¾ ÑģÑĤÐ¾Ñı
ĠÑį ÑĤÐ°
ĠÑĤ Ð°
ĠÐ¶ Ð¸Ð²
ÐµÐ½ Ð½ÑĭÐ¹
Ð³Ð¾ ÑĤÐ¾Ð²
Ġ he
ĠÐ¿Ð¾ÑĤÐ¾Ð¼ Ñĥ
ÑĢÐµ Ð»
Ġa n
ĠÑģ ÑĥÐ´
ĠÐ´ ÐµÐ»
ÑĢÐ°Ð· Ñĥ
ÑĢÑĥ Ðº
Ð½ ÐµÐ¼
ĠÑģÑĤ Ð¾Ð»
Ð¾Ð² Ð¾Ð»ÑĮ
Ð½Ñĥ ÑĤÑĮ
ĠÑģÑĤ Ð°Ð»
ĠÑĤ ÐµÐ»Ðµ
ĠÑĥ Ð´Ð°
ĠÐ»Ð¸ ÑĨ
ĠÐ£ ÐºÑĢÐ°
' s
ĠÐ½Ðµ Ð´
r i
Ð¿ Ð¾Ð´
ĠÐ·Ð°Ðº Ð¾Ð½
ÐµÐ½ Ð¾
ĠÐ± Ð»Ð¸
Ġc on
r u
Ġ ÑĪÐµ
ĠÑĤÐ°Ðº Ð¾Ð¹
ĠÐ¢ Ñĭ
ĠÐ·Ð° ÑıÐ²
Ðµ ÑĨ
Ð½Ñĥ ÑĤ
Ñı ÑģÑĮ
ÐºÐ¸ Ñħ
ĠÑģ Ð¾ÑĤ
ĠÐ¾Ð± ÑīÐµ
ĠÑĢÐ° Ð¹
ÑĢÐ¾Ñģ ÑģÐ¸
ĠÑģÐ¾Ð± ÑģÑĤÐ²ÐµÐ½
ĠÐºÐ¾ÑĤÐ¾ ÑĢÐ°Ñı
ÑİÑī Ð¸Ñħ
ĠÑĥ Ð¶
ĠÐ¾Ð¿ ÑĢÐµÐ´
ĠÑģÐ¼ Ð¾ÑĤ
ĠÐĴ Ð¾
Ð¸ ÑĢÐ°
ĠÐ³Ð¾Ð» Ð¾Ð²
Ð¿Ð¸ Ñģ
ĠÑģÐ² Ð¾Ð¹
Ð¾Ð¶ Ð¸
es t
ĠÐĺ Ð·
Ð¿ ÑĢÐ°Ð²
ĠÑĥ ÑĤ
ĠÑĩ ÐµÑĢ
ÑģÐº Ð¾
Ð¾Ð³ÑĢÐ° Ð¼
ÑĢÐµ Ð±
Ð Ń
ĠÐŀ Ð½Ð¸
ĠÐ° Ð´
Ð½Ð¸ Ñħ
ĠÐ³Ð¾Ð» Ð¾Ñģ
ĠÐ¼ Ð¾Ð¼
ĠÐ¿ÑĢÐ¾Ð¸Ð· Ð²Ð¾Ð´
ĠÐ²ÑĢÐµÐ¼ ÐµÐ½Ð¸
ĠÑĤ Ñĥ
ĠÐ ®
Ð³ Ð¾ÑĢ
Ñĩ Ñĥ
ĠÑģÐ²Ð¾ Ð¸
1 9
ĠÑĢÐµÐ· ÑĥÐ»ÑĮÑĤÐ°
Ð´ Ð¾ÑĢ
Ġ O
Ġth at
ĠÑıÐ²Ð»Ñı ÐµÑĤÑģÑı
Ġ ,
Ð½Ð¸ Ñĩ
ÑĢÐ¾ ÑģÐ¸
Ð¼ ÐµÐ½Ð¸
ĠÐ¿ Ð¾Ð³
ĠÑģÐ¾Ð¾Ð± Ñī
ÑĢÐ¾ ÑĤ
ĠÑĩÐµÐ»Ð¾Ð²Ðµ ÐºÐ°
ĠÐ¿ÑĢ Ñı
Ðµ ÑĢÐ¸
ĠÑģÐ²Ð¾ Ð¸Ñħ
ĠÐ²ÑĭÑģ Ð¾Ðº
ÑĢÐµ Ð·
ÑĢÐµ ÑĤ
o d
ĠÐºÐ¾ÑĤÐ¾ÑĢÑĭ Ñħ
Ð·Ð° ÑĨÐ¸Ð¸
ĠÑģ ÐºÐ¾
ĠÐ´Ð¾Ð¼ Ð°
Ð¸ÑĤ ÐµÐ»ÐµÐ¹
ĠÑģ Ð°Ð¹
Ñĩ ÐºÐ¸
Ð¶ Ð°Ð»
Ñı ÑĤÐ¸
ĠÐ¼ Ð°Ñģ
ĠÐ² Ð½Ð¸Ð¼Ð°
ĠÑģÐ¾Ð· Ð´Ð°
ĠÐĿ Ð¸Ðº
ÑĢÐ¾Ñģ Ð¸Ð»
ĠÐ²Ñģ Ñĳ
ĠÐºÐ° ÑĩÐµ
ĠÑĤ Ð¾Ð³Ð´Ð°
o c
ĠÐº Ð°Ð¼
Ġ 9
Ð §
ĠÑĩ ÐµÐ³Ð¾
o p
ĠÐ² Ð´
ÑģÑĤ ÑĢÐ°Ð½
ĠÐ¼ Ð°ÑĢ
ĠÐĿ Ñĥ
ÑĢ ÑĮ
a v
ÑĢÐ° Ð²Ð¸
ĠÑĤ Ñı
ÑĪ Ð»Ð¸
ĠÑĢÑĥ Ð±
Ð½Ðµ Ð³Ð¾
ĠÑĨ ÐµÐ½ÑĤ
Ðµ Ðµ
ĠÐ¾ ÑĩÐµ
Ð¶Ð° ÑĤÑĮ
ĠÑĤÐ¾ ÑĢ
ĠÑģ Ð¸Ð»ÑĮ
ĠÑģ Ð¾Ð»
ĠÐ¿ÑĢÐ¸ Ð²
ĠÐŁ Ð¾Ð´
Ð¸ÑĤ Ð¸
Ð» Ð¾Ð¼
ĠÐ¾Ð± Ñĭ
ÑģÑĤÑĮ Ñİ
ĠÐº Ð½Ð¸
ÑīÐµ Ðµ
Ġ ÑĢÐ¾ÑģÑģÐ¸
Ġ v
Ñĩ Ð¸Ð½
Ð± ÑĥÐ´ÑĮ
ĠÑģ Ð´ÐµÐ»
ĠÐ¸Ð· Ð²ÐµÑģÑĤ
ĠÑģÐ» Ð¾Ð²Ð°
Ñ ĸ
ĠÐ²ÐµÐ´ ÑĮ
Ð» ÐµÐ´
ĠÐ¼Ð¾Ð³ ÑĥÑĤ
Ñı Ð·
Ð¾Ð²Ð° Ð½Ð¸Ðµ
Ð¾ÑĢ ÑĤ
Ġ ÑĢÐ¸
ÑģÐº Ð¸Ð¼
ĠÐ´ ÐµÑĢÐµ
ĠÐ¿Ð¾ Ð½Ð¸Ð¼Ð°
ĠÐ¼Ð¾Ð» Ð¾Ð´
Ñħ ÑĢÐ°
ĠÐ½Ðµ ÐºÐ¾
Ð³ Ð°Ð½
ĠÐ½Ðµ Ðµ
Ñħ Ð¸
ÑĪ Ð°Ñı
ĠÐ¿Ð¾Ð» Ð¾Ð¶
ĠÐĴ Ð°
ĠÐ¿Ð¾Ñĩ ÑĤÐ¸
ĠÐ´ ÑĥÐ¼Ð°
ĠÐ¸ Ð¼ÐµÐ½Ð½Ð¾
ĠÑģÑĤ ÑĢÐ¾
Ñİ ÑģÑĮ
ĠÐ¾Ð± Ñī
ĠÐ½Ðµ Ñģ
ĠÑħ Ð¾Ñĩ
Ð²Ð¸ Ñģ
Ð¾Ð¿ Ð¾Ð»
ÑĢÐ¾Ð¼ Ðµ
ĠÑĢÐ°Ñģ ÑģÐºÐ°Ð·
ĠÐ½Ð°Ð¿ ÑĢÐ°Ð²
ĠÑģÐ²Ð¾ ÐµÐ³Ð¾
a in
Ð¸ Ð½Ñĭ
Ð¸ÑĤ ÐµÐ»Ñı
ĠÑģÐ» ÑĥÐ¶
ÑİÑī Ð¸Ðµ
ÐµÐ½ Ð½Ð¾Ð¹
ĠÐĴ Ð¾ÑĤ
Ð²Ð° Ð½
Ð½Ð¸ Ð»
Ñı Ð»
ĠÐ½ Ð¾Ð²
ÑĢÐµ Ð²
ĠÐ² ÐµÐ»Ð¸
Ð¾Ð²Ñĭ Ð¹
ĠÐ´ ÐµÐ»Ð¾
Ð¶ Ñĥ
ĠÐ½Ð¸Ðº Ð°Ðº
ÑģÑĤ Ð¾Ð¹
ĠÐ±ÑĥÐ´ ÑĥÑĤ
Ð¿ Ð¸ÑĤ
ĠÐ»Ñİ Ð´Ð¸
ĠÑģÐ»ÑĥÑĩÐ° Ðµ
Ñı Ñħ
Ð²ÑĪÐ¸ ÑģÑĮ
e w
ĠÐºÐ¾ÑĤÐ¾ ÑĢÐ¾Ð¹
Ð¼Ðµ ÑĢÐ¸
ĠÐ¼Ðµ ÑģÑĤÐ¾
ÑĪ Ð¸Ð¼
ĠÐ³ ÑĢÑĥ
ĠÐ² ÑģÑı
Ġ1 5
ĠÐĲ Ð»ÐµÐºÑģ
ĠÐ² ÑĢÐ°
ĠÐ·Ð° Ð±
ĠÐķ Ð²
ĠÑĢÑĥ Ñģ
Ð½Ð¸ Ð·
ĠÐ¾Ð±Ð»Ð° ÑģÑĤÐ¸
ĠÐ·Ð° ÑĤ
ÑģÑĤÐ²ÐµÐ½ Ð½Ð¾
Ġ U
ĠÐ´ Ñĥ
ĠÐº ÑĢÐµ
ÑĪ Ð»Ð°
Ð¹ ÑĤÐ¸
ÐºÐ¸ Ðµ
ĠÑħ Ð¾
ĠÑģ ÐºÐ°Ð·Ð°
Ð¼ÐµÐ½ ÑĤÐ°
Ð²ÑĪÐ¸ Ð¹
Ñħ Ð¾ÑĤ
Ġ ÑĪÐ¸
ĠÐ¢ Ðµ
ĠÑĤ ÑĢÐ°
ĠÐ°Ð² ÑĤÐ¾Ð¼
re s
Ð¾ÑĤ Ð²ÐµÑĤ
ĠÐĶ Ð»Ñı
Ñĥ ÐµÑĤ
ĠÐľ Ð°
Ð²Ð¾ Ðµ
ĠÐ¿ÑĢÐ¾Ð± Ð»ÐµÐ¼
ÐµÑģ Ñģ
ĠÐ´ Ð°Ð»ÑĮ
ĠÐ±Ðµ ÑģÐ¿
ĠÐ¿Ð¾Ð· Ð²Ð¾Ð»
Ð½Ð¸ Ð±ÑĥÐ´ÑĮ
Ñĭ ÑĤÐ°
Ð³ Ð¾Ð²
Ġp ro
ĠÑģÐµ Ð³Ð¾Ð´Ð½Ñı
ĠÐ¼Ðµ ÑģÑĤ
Ġ K
ĠÐ¿Ð¾ Ñħ
ĠÑĦ Ð°Ðº
ĠÐ¶Ð¸Ð· Ð½ÑĮ
Ġf rom
ĠÑģÐ¾Ð± Ð¾Ð¹
ĠÑĩ Ð°Ñģ
Ð°Ð»ÑĮ Ð½Ð¾Ð¹
ĠÑĢÐ°Ð±Ð¾ÑĤ Ñĭ
ĠÐ¿ÑĢÐ¸ Ñģ
Ð²Ð° ÐµÑĤÑģÑı
ar t
ĠÑģÑĩÐ¸ÑĤ Ð°
ÑİÑī Ð¸Ð¹
ÑĩÐµÑģÐº Ð¸Ñħ
Ġ ÑĢÑıÐ´
Ġc om
ĠÐ´ ÐµÑĢ
ĠÐ·Ð° Ð¼ÐµÑĤ
Ð½Ð° Ñĩ
Ð»Ð° Ð½
q u
Ġ it
ÑĤÐ¾ Ñĩ
Ð´ÐµÑĢ Ð¶
ĠÑĥÐ¿ ÑĢÐ°Ð²
ĠÐ¿ÑĢÐ¾ Ð¸Ñģ
Ð´Ð° ÐµÑĤ
ĠÑħÐ¾ÑĤ Ñı
i a
ÑĦ ÑĦ
ĠÑģ ÑĢÐ°Ð·Ñĥ
ĠÐºÐ° Ð¶Ð´
ĠÐºÐ¾Ð½ Ðµ
u p
ĠÐ²Ð° Ð¶
Ð¾ ÑĢÐ¸
ĠÑĪ Ðº
Ñī Ñĳ
ĠÐ° Ð¿
ĠÑĥ Ñĩ
i f
ĠÐ² Ð½Ðµ
ĠÐ¡ ÑĤ
ÑĤÐ¸ Ð¹
ĠÐµ Ñĳ
ĠÐ¿ÐµÑĢ Ð²
Ñĳ Ð¼
ÑģÐº Ð¾Ð»ÑĮ
ĠÐºÐ°Ðº Ð¾Ð¹
ĠÑģÑĤÐ° ÑĤÑĮ
ÑĢÑĥ Ñİ
ĠÑĤ ÑĢÑĥÐ´
ÑĭÐ²Ð° ÑĤÑĮ
ĠÐ¿Ð¾Ð¼Ð¾ Ñī
ĠÐ¿Ð¾Ðº Ð°Ð·
ĠÑģ Ð½Ð¾Ð²Ð°
Ð¾Ð± ÑīÐµ
ĠÐ¡ Ð¾
ÑĤÑĥ ÑĢ
ĠÐ¿ÑĢÐ¾ ÐµÐº
il l
Ð¾Ð³ Ñĥ
Ñı Ð²Ð¸
ÑĢÐµ Ðº
Ð²Ð° ÑİÑĤ
it y
Ð¾Ð» Ð°
ĠÐĲ ÑĢ
ĠÐ´ Ð²Ðµ
ĠÑĥ Ð¼
ÑĩÐµÑģÐº Ð¾Ð¹
ĠÐ½Ð° Ðº
ĠÐºÐ¾Ð¼ Ð°Ð½
ÐºÐ° Ð¼
Ġ19 9
ÑģÐ» ÑĥÐ¶
ĠÐ¼Ð¸Ð½ ÑĥÑĤ
ÑģÐº Ð¾Ðµ
ĠÐ¿Ð¾Ð» ÑĥÑĩÐ¸
ĠÐ»ÑĥÑĩ ÑĪÐµ
ĠÐ¿ÑĢÐ¾ ÑĦ
ÐºÐ¾Ð² Ð¾Ð´
Ð¾Ð· Ñı
ÑıÑĤ ÑģÑı
ÑĤ ÐµÐ»Ñı
ĠÐ´ÑĢÑĥÐ³ Ð¸Ñħ
ĠÐºÐ¾Ð½ ÑĤ
b er
Ð¾ ÑĢÐ°
u d
ÑĭÐ²Ð° ÐµÑĤ
ĠÐ² ÑģÐ¿
ĠÐł Ðµ
Ð¿Ð° Ð´
ĠÑĥÑģÐ» Ð¾Ð²
Ñĳ ÑĤ
at e
Ð¾Ð¶ ÐµÑĤ
Ð°Ð»ÑĮ Ð½ÑĭÑħ
Ġ V
ĠÑĥ Ð²
ĠÑħÐ¾ÑĢÐ¾ ÑĪÐ¾
Ð¾Ð» Ð¾Ð´
ĠÑĨ ÐµÐ»
ĠÑħ Ð¾Ð´
Ð± Ð»Ð¸
Ð² Ð°Ð»Ð°
ĠÑĤÑĭ ÑģÑı
ĠÑĢÐ¾ÑģÑģÐ¸ Ð¹
Ġ1 2
a b
ĠÐ¿Ð¾Ð´ Ð¾Ð±
ĠÑĥ Ð»Ñĭ
Ð ¥
ÑĤÐ¾ ÑĢÐ¸
Ð°Ð» Ñĥ
ÑĮ Ðµ
Ð¸ ÑĤÑĮÑģÑı
Ð»Ð¸ Ñı
ĠÑı Ð·Ñĭ
Ð¿ Ñĭ
Ð°Ð»ÑĮ Ð½ÑĭÐµ
ĠÑĤ Ð¸
ĠÑģ Ð¸Ð´
ĠÐ» Ð°
ĠÐ¿ÑĢ Ð¾Ð³ÑĢÐ°Ð¼
ĠÑĨ Ð²ÐµÑĤ
ĉ ĉ
ĠÐ¿ Ð¾Ð»ÑĮÐ·
ĠÑģ ÑĤÐ¸
ĠÐ± ÑĢÐ°
ĠÐ± Ð°Ð½
ĠÑĩ Ð¸Ñģ
Ð²Ñĭ Ðµ
ĠÐļ Ð¾Ð³Ð´Ð°
ÑĤÐ¸ ÑĤÑĮ
Ġ2 0
ÑĢÐ° Ð»ÑĮ
Ñĩ Ð½Ð¾Ð¹
ĠÐ½Ðµ Ð±
ĠÐ´Ð¾Ð»Ð¶ ÐµÐ½
Ð¾Ð± Ð¾Ð´
Ġh is
ĠÑĤ ÑĢÑĥ
Ð¸ÑĤ ÐµÐ»Ð¸
ĠÐ¼ Ð¾ÑĢ
ĠÐ´Ð² ÑĥÑħ
ar d
ĠÑĥÑĩÐ° ÑģÑĤ
ÐµÑĢ Ñĭ
ĠÐ¿ÑĢ Ð¾Ð¿
Ð²Ð° ÑĤÑĮÑģÑı
T he
or t
Ð¶ ÐµÐ½
ĠÑĥ ÑģÑĤÐ°Ð½Ð¾Ð²
al l
ÐµÑĢ Ð¾
Ð¿ ÑĢÐ¾
ĠÐ¼ ÐµÐ´
ĠÑģÑĤÐ¾ÑĢÐ¾ Ð½Ñĭ
ĠÑĢÐµ Ð³Ð¸
ĠÑģÐ¾Ð² ÑģÐµÐ¼
ĠÑģ Ñĥ
ĠÑįÑĤÐ¸ Ñħ
ĠÐ½Ð° Ð´Ðµ
ĠÐ¿Ð¾ ÑıÐ²
Ð¾Ð½ Ð¾Ð²
i es
Ð¾Ðº Ð¾
ÑĩÐ° ÑĤ
ĠÐ²Ð¼Ðµ ÑģÑĤÐµ
Ġd e
ĠÑģ Ð»Ð¸
ĠÐ± Ð¾ÑĢ
ĠÐ¿ÑĢÐµÐ´ Ð»Ð¾Ð¶
ÑĪ ÐµÐ½Ð¸Ðµ
ĠÑĥ Ð²Ð¸
Ð´Ð¸ Ð²
Ð¿Ð¸ ÑģÐ°
Ġ /
ĠÑģÐ¾ Ð¾ÑĤÐ²ÐµÑĤ
Ð¾Ð½Ðµ ÑĨ
ĠÐ¼Ðµ ÑģÑı
ĠÑĢÐ°Ð· Ð³
ĠÐ½Ð° Ð±
ĠÐ¿Ð¾Ñģ Ð¼Ð¾ÑĤ
ĠÐ¾ ÑģÑĤÐ°
ÐµÑĢ Ð±
ĠÐ²Ðµ ÑģÑĮ
ĠÐ¶ ÐµÐ»
Ðµ Ð¿
ÂłÐ Ĵ
Ð¾Ð´ ÐµÑĢ
ĠÐ½Ð° ÑģÑĤÐ¾Ñı
ĠÑĥ ÑĢÐ¾Ð²
Ð· Ð¾Ð²
ÐµÐ» ÐµÐ½
ĠÐ³Ð¾ÑĢ Ð¾Ð´Ð°
ĠÐ½Ð¸Ðº Ð¾Ð³Ð´Ð°
ĠÐ½ÐµÐ¾Ð±ÑħÐ¾Ð´ Ð¸Ð¼Ð¾
ÐµÐ´ Ð¸Ð½
Ñī ÐµÐ½Ð¸Ñı
ĠÐ¿Ð¾Ñĩ ÐµÐ¼Ñĥ
a k
ĠÐ´ÐµÑĢÐµ Ð²
Ð°Ð»ÑĮ Ð½Ð¾Ð³Ð¾
ĠÐ¿ÑĢÐµ ÐºÑĢÐ°
Ð·Ð° Ð´
ĠÑħ Ð°
ĠÑĤ Ð²Ð¾
u b
o re
Ð½Ð¸ ÑĨÐ°
ig h
ĠÐ¶ ÐµÐ»Ð°
ĠÐ²Ñĭ ÑħÐ¾Ð´
ĠÐ¿Ð¾Ð² ÐµÑĢ
ÑģÑĤ ÑĢÐ¾Ð¹
ÑĤÐ¸ Ð»
ĠÑģÐºÐ°Ð·Ð° ÑĤÑĮ
ĠÐºÐ¾ÑĤÐ¾ ÑĢÐ¾Ð³Ð¾
Ð° ÑĢÐ°
ĠÐ¾ ÑĦÐ¸
ĠÐ²Ñĭ Ð¿Ð¾Ð»
ĠÐ¼ Ð¸Ð»
Ð¸ÑĤÑĥ Ð°
ÑĩÐµ ÑģÑĤÐ²Ð¾
ĠÑģÐ» Ð¾Ð¶
ÂłÐ Ł
Ð¶ Ð¸Ð¼
i an
Ðº Ð¾Ð³Ð¾
ĠÐ¾Ð± Ð¾
ÑĪ ÐºÐ¾Ð¼
ĠÑĢÑĥ ÐºÐ¸
ĠÐ¿ÑĢÐµ Ð·
Ð±Ð¸ ÑĢÐ°
ĠÐ¡ ÐµÑĢ
ÑĤÐ° Ð½
ĠÐ·Ð° Ð´Ð°
ĠÑģÑĤ ÑĢÐ°Ð½
ĠÐ´Ðµ ÑģÑı
ĠÐŀÐ´ Ð½Ð°ÐºÐ¾
ÑģÐ¸ Ð¸
ĠÑģÐ´ÐµÐ»Ð° ÑĤÑĮ
Ð¨ ÐĲ
ÑĢÐ° Ð±Ð¾ÑĤ
a p
ĠÐł Ð°Ð·
ĠÑĤ Ð¾Ð»
ĠÑĩ Ð¸
ĠÑģ Ð¾Ñģ
ĠÐ·Ð° Ð½Ñı
ĠÑĤÐµÑĢ ÑĢÐ¸
ĠI n
ĠÐ¾Ð´ Ð½Ð¾Ð¹
ĠÐ·Ð½Ð° Ñİ
Ñı Ð·Ð°
ĠÐ³ Ð¾Ð²Ð¾ÑĢ
Ð¾Ðº Ð¾Ð¹
ÐµÐ· Ð´
l d
ĠÑįÐº Ð¾Ð½Ð¾Ð¼
ĠÐº Ð¸
ĠÑģ ÐµÐº
ĠÐ² ÑĤÐ¾ÑĢ
Ñħ Ð¾
ic h
ĠÐµ ÑīÑĳ
ĠÑĥÐ»Ñĭ Ð±
Ð²Ðµ ÑģÑĤÐ¸
ĠÐŁ ÐµÑĤ
ĠÐ·Ð° Ð¼
Ð´ Ð°Ð»
Ñı Ð¼
ĠÐ± Ð¾Ð»
ĠÐŁ ÐµÑĢ
ĠÐ¾ÑĩÐµ ÑĢÐµÐ´
Ð½Ñĥ Ð»Ð°ÑģÑĮ
ĠÐ¼Ð¾Ð¼ ÐµÐ½ÑĤ
o v
Ð¶Ð´Ñĭ Ð¹
ĠÐł Ð°
ÑĤÑĥ ÑĢÑĭ
ÑģÑĤÑĥ Ð¿Ð°
ĠÑį ÑĤÑĥ
ĠÐ¸ Ñİ
ĠÐºÐ¾Ð½Ðµ ÑĩÐ½Ð¾
ĠÑĢÐµ Ð±
e ar
ÑĢÐµ ÑĤÑĮ
ĠÑĩÐ° ÑģÑĤÐ¸
ĠÑĥ Ð»Ð¸
Ġ ÑĢÐ¾
ĠÑģ ÐºÐ°
ÑĨ ÐµÐ½
ĠÐ²Ð¸ Ð´Ðµ
ĠÐľ Ð°ÑĢ
ÑĩÐ° ÑĤÑĮ
ĠÑĢÑĥ ÐºÐ¾Ð²Ð¾Ð´
ĠÐ¿ ÑĢÐ°Ðº
ÑĢ Ð¾Ð·
Ð² Ð¸Ð½
ĠÐ´ÑĢÑĥÐ³ Ð¾Ð¹
ĠÐ± ÐµÑĢÐµ
ĠS t
Ð°Ð»ÑĮ Ð½ÑĭÐ¹
Ð»Ð° Ð´Ð¸
ĠÐŁÐ¾Ñģ Ð»Ðµ
ĠÐ¿Ð¾Ð´ Ð½Ñı
ĠÐºÐ¾ÑĤÐ¾ ÑĢÐ¾Ð¼
ĠÐºÐ¾Ð¼ Ð½Ð°
Ð½Ð¸ ÑĤÐµÐ»ÑĮ
ĠÐ¸ Ð³ÑĢÐ°
ÑģÑĤÐ² Ð¸Ðµ
ĠÑģ Ð¼Ðµ
Ð»ÐµÐº ÑĤ
ĠÑģ Ð¸ÑĤÑĥÐ°
ĠÑįÐº ÑģÐ¿
Ġ1 7
ĠÐļ Ð¾Ð½
ĠÐ´Ð¾Ð»Ð¶ Ð½Ñĭ
ĠÐ¸Ð½ ÑĤÐµÑĢ
ÑģÐº ÑĥÑİ
Ð°Ð½ ÑĤ
ĠÑĤ Ð¾Ð²Ð°
es s
Ð· Ñı
ĠÐº ÑĥÑĢ
ÑģÑĤÐ°Ð²Ð¸ ÑĤÑĮ
Ð¾Ð± ÑĢÐ°Ð·
ÐºÐ° Ñı
ÂłÐ Ķ
Ñĩ Ð°Ð»
Ġ or
ĠÐ¿ Ð»Ðµ
ĠÐ´ Ð²Ð¸Ð¶
ĠÐ²Ð¾ Ð¾Ð±ÑīÐµ
ÑĪ Ñĥ
ÑĢÐ° Ð±
Ġ r
ĠÐ¡ Ð¨ÐĲ
ĠÑģÐ¼ ÐµÑĢ
Ñĩ ÐºÐ°
i p
ĠÑģ ÑĥÐ¼
Ð²Ð° Ð½Ð¸Ñı
ĠÐĽ Ð¸
ĠÐ½Ð° ÑĢÐ¾Ð´
ÑĩÐ¸ ÑĤÑĮ
ÑģÑĤÐ²Ñĥ ÐµÑĤ
ÐµÐ½ÑĤ Ð¾Ð²
ĠÐ±Ñĭ ÑģÑĤÑĢÐ¾
Ð¾Ð¼ Ð¸Ð½Ð°
ĠÐ½Ð° Ð·Ð°Ð´
ĠÑģÐ²Ð¾ Ðµ
ÑĩÐµÑģÐº Ð¾Ð³Ð¾
ĠÑģ Ð°
ĠÑģ Ð¾Ð¿
Ñī Ð¸ÑĤ
ĠÐ´Ð¾ ÑģÑĤÐ°
Ð½Ð° Ñħ
Ð½ ÐµÐ½Ð¸Ñı
Ñĥ Ð³
Ð¼Ð¸ Ð½Ð¸
Ð´ Ð¾Ð²
ĠÐ¿ÑĢÐ¾Ð² Ð¾Ð´
ĠÐŁ Ð¾ÑĤ
ĠÑģÐ¾Ð² ÐµÑĤ
ĠÐ¿ÑĢ Ð¾Ð´Ñĥ
ĠÑĤÐ°Ðº Ð¾Ðµ
ĠÐ¾Ð±ÑĢÐ°Ð· Ð¾Ð¼
ÐĿ Ð°
ĠÐ¶ÐµÐ½ ÑīÐ¸
ĠÐ¿ÑĢÐ¾ Ñģ
ÑĨÐ¸ Ð°Ð»Ð¸
ĠÐµ Ð´Ð¸Ð½
ĠÐ¸ Ð´Ðµ
ĠÐ± ÐµÐ»
ĠÑĢÐ°Ð·Ð² Ð¸ÑĤ
ĠÑįÑĤÐ¸ Ð¼
ĠÑĥ ÑģÐ¿
an t
ÂłÐ ¢
Ðµ ÑģÑĤ
ĠÐº Ð¾Ð»Ð¸
ĠÐ² Ð¿Ðµ
ĠÐºÐ° Ð·
_ _
ĠÐ²Ð· Ð³Ð»ÑıÐ´
at ed
Ð² Ð°Ð»ÑģÑı
ĠÑģÐ²Ñı Ð·
ĠÐ¾Ð´ Ð½Ð°
ÐµÐ½ Ð½Ð¾Ð³Ð¾
ĠÑĥ Ð´Ð¸Ð²
ĠÑģÐ²Ð¾ Ð¸Ð¼
ÑĤÐ¾ ÑĩÐ½Ð¾
ĠÐ¿ÑĢÐ¸ Ð·Ð½Ð°
Ð½Ð¸ ÑĨÑĭ
ĠÐ¾Ð¿ ÐµÑĢÐ°
ĠÐ² ÐµÑģ
ÑĨÐ¸ ÐµÐ¹
ĠÑĥ ÐºÑĢÐ°
ĠÐº ÑĢÐ¾Ð²
ÑģÑĤÐ²ÐµÐ½ Ð½Ð¾Ð¹
Ð³ Ð»Ð°
. ,
ĠÐ¸ Ð´
Ġa re
! !
ĠÐĲÐ»ÐµÐºÑģ Ð°Ð½Ð´
ÐµÐ´ ÐµÑĢÐ°
iv e
ĠÐ¼ Ð¾Ð¹
ĠÑģÐ¾Ð²ÐµÑĢ ÑĪ
ĠÐĽ Ñİ
Ð» Ð¾Ð½
ĠÑĤ Ð¾Ð¼Ñĥ
ĠÐ¼Ðµ ÑģÑĤÐ°
ĠÐº Ð»Ð¸
2 01
Ð¿Ð° Ñģ
ĠÐŁ Ð¾Ð»
ĠÐŁ Ñĥ
ĠÐ¿Ðµ ÑĢÐ¸
ĠÐľ Ð¸
ĠÐ¡ Ð¾Ð²
Ð¾Ð²Ð° Ñı
ĠÐ´ Ð²ÐµÑĢ
Ñĩ Ð½ÑĭÐ¹
Ð²Ð° Ð½Ð¸Ðµ
ĠÐ¾Ð´ Ð½Ð¾Ð³Ð¾
Ð° ÑĤÑĮ
ĠÑģÐ¾ÑĤ ÑĢÑĥÐ´
Ġ 0
ĠÐ´ÐµÐ»Ð° ÑĤÑĮ
ĠÐºÐ¾Ð¼Ð¿Ð° Ð½Ð¸Ð¸
ĠÑĥ Ð·
ÑĢ Ñİ
ÑĢÐ° Ñħ
ĠÐ¿ÑĢ Ð¾Ð´Ð°
ĠÑĤÑı Ð¶
ÑĩÐ° ÑģÑĤ
Ð½Ð¾ Ñģ
ÑĪ Ð»Ð¾
ĠÐºÑĢÐ° Ñģ
Ð½ Ð°Ð»Ð¸
ĠÐ² ÑĢÐµÐ¼ÐµÐ½
ÑĪÐ° ÑĤÑĮ
Ð¶ Ð´Ð°
ĠÐĿ Ð¸
ĠÐ³ ÑĢÐ°Ð¶
ÑĩÐµÑģÐº Ð¸Ðµ
ĠÐ¼Ð¸ Ð½Ð¸
ĠÐ³Ð¾ÑĤ Ð¾Ð²
Ð½Ð° Ð´
Ġ1 6
ĠÐ¿ÑĢÐµÐ´ Ð¿ÑĢÐ¸
ĠÐ¡ Ð°Ð¼
ĠÐ·Ð° Ð¼Ðµ
Ð¾ÑĢ Ð¾Ð¶
Ð´ Ð¶
ĠÐ´ÐµÐ² ÑĥÑĪ
ĠÐ¿Ð¾Ð» Ð¸
Ð¶ ÐµÑĤÑģÑı
ĠÐ¿ÑĢÐ¸ ÑħÐ¾Ð´
ĠÑĥ Ð²ÐµÑĢ
Ð¼ÐµÐ½ ÑĤ
ĠÑĤ ÑĢÐ°Ð½
ÑĤ ÐµÐ½
Ð°Ðº Ñģ
ĠÐ¸Ð½ ÑģÑĤ
ĠÐ½ÐµÐºÐ¾ ÑĤÐ¾ÑĢÑĭ
ĠÐ³ Ð»ÑĥÐ±
ÑĨ Ð¾Ð²
ĠÑģ Ð»Ðµ
ĠÐ½ Ð¾ÑĢ
ĠÐ²Ñĭ Ð·
ĠÐ½ Ð¾Ñģ
ÑĪÐµ Ðµ
ÑīÐ° ÐµÑĤ
ĠÑĥ ÑģÐ¿Ðµ
Ġ1 1
ĠÑħ Ð¾Ð·Ñı
ÑĥÐ¶ Ð´
ĠÐ²Ð¾Ð· Ð´Ñĥ
ĠÑģÐ°Ð¼ Ð¾
Ð¾Ð» ÐµÑĤ
ĠÐ¿ Ð¾Ð¹
ÑĤ ÐµÐ»ÐµÐ¹
ĠÐº Ð²Ð°ÑĢ
ĠÐ¾ ÑģÑĤÐ°Ð²
ĠÐµ Ð²
Ñı Ð±ÑĢÑı
ĠÐ´ Ð½Ñı
ÑĪ ÐºÐ¸
ĠÑĩÐ° ÑģÑĤÑĮ
ĠÐ² ÐºÐ»Ñİ
ĠÐ³ Ð°Ð·
ĠÐ¿ÑĢÐ¾Ð´Ñĥ Ðº
ÑĢÑĥ Ð¶Ð¸
ÐºÐ¸ Ð¼
s e
ĠÐ´Ð¾Ðº Ñĥ
ĠÐ¼Ð¸ ÑĢ
ÑıÑĤ Ð½Ð¾
Ð³ Ð»Ð¸
ĠÐ´Ðµ ÑıÑĤÐµÐ»ÑĮ
ÐµÐº ÑĤÐ¸Ð²
Ð¿ ÐµÑĢÐ°
Ð¾Ð»ÑĮ ÑĪ
g e
Ġ âĢ
Ñĥ ÑĤÑĮ
ĠÐº ÑĥÐ´Ð°
ĠÐķ Ð³Ð¾
en d
ou r
ĠÑģÐºÐ°Ð· Ð°Ð»Ð°
ÑģÐ¸ Ð¾Ð½
Ð½Ðµ Ð²
ĠÐ¡ ÑĤÐ°
ĠÐŀ Ñģ
ÑĤÐ¸ÑĩÐµÑģÐº Ð¸
ÐµÐ½ ÐµÑĢÐ°
Ð»Ñİ Ñĩ
ÑĤÐ¾ ÑĢÐ¸Ð¸
ĠÑĢÐ° Ð´Ð¸
ĠÐļ Ð¾Ð¼
Ð° Ð½Ð°
o g
Ġe x
ĠÐ·Ð° Ð²
ĠÑģÐ¾Ð± Ð¸ÑĢÐ°
Ð² ÑĪÐ¸Ñħ
ÑģÑĤ ÑĢÐ¸
ĠÐ¾Ð±Ðµ ÑģÐ¿Ðµ
Ð´Ð¾ Ñħ
ĠÐºÐ¾Ð½ ÑĨÐµ
Ð¸Ð½ Ð¾Ð¹
Ðº Ð½ÑĥÐ»
ÑģÑĤÐ¾Ñı Ð½
Ð¾Ð» Ð¾Ð²
Ġp l
ĠÐ¿Ð¾Ð¼ Ðµ
ĠÐ³ ÑĥÐ±
ĠÑģÐ»ÐµÐ´ ÑĥÑİÑī
ĠÐ¾ÑĤ Ñģ
ĠÑģÑĤÐ¾ Ð¸ÑĤ
ĠÐ¸Ð½ÑĤÐµÑĢÐµ Ñģ
ĠÐ³ Ð°
ÑĪ ÐºÐ°
Ñī ÐµÐ½Ð¸Ðµ
ÑĩÐ° ÐµÑĤ
Ð¡ Ð¡
n t
ĠÐ¾Ð´ Ð½Ð¾
Ð» Ð¾ÑĤ
ĠÑģÐ¿ ÑĢÐ¾ÑģÐ¸Ð»
ĠÐ¾Ðº Ð¾Ð»Ð¾
Ñī ÐµÐ½
Ġs e
ĠÑĥÑĩÐ° ÑģÑĤÐ¸
ÐµÐ» ÐµÐ¼
Ġc h
ÑģÑĤÐ² Ð¸Ñı
ÂłÐ Ĳ
er e
ÑģÑĤÐ² Ð¾Ð²
Ð´ÐµÑĢ Ð¶Ð¸
Ð¾Ð· Ð½Ð°
ÑĤÐ¸ Ð¸
Ð³Ð¾Ð´ Ð°ÑĢ
Ð¾Ð¿ Ð°Ñģ
ĠÑħÐ° ÑĢÐ°Ðº
Ñĳ Ð»
ÑĢÐ° Ð¼
ĠÐ¾Ð±ÑĬ ÑıÑģ
u nd
ĠÐ¼Ð° ÑĤ
ÑģÐ¸ Ð»Ð¸
el l
ĠÐĿ ÐµÑĤ
ĠÑĤÐ°Ðº Ð¸Ðµ
ÑĤÐ° Ð¼Ð¸
ĠÐ¿ÑĢÐµÐ´ ÑģÑĤÐ°Ð²Ð»Ñı
ĠÐ¿Ð¾ ÑįÑĤÐ¾Ð¼Ñĥ
ĠÐº ÑĢÑĭ
ĠÐ´ÑĢÑĥÐ³ Ð¸Ðµ
ĠÐ¿ÑĢÐ¸ Ð·
ĠÐ¼ Ð¾Ð´
ĠÐ¾ ÑģÑĤÐ°Ð½Ð¾Ð²
ĠÐ¸Ð¼Ðµ ÐµÑĤ
ĠÐ³Ð¾Ð»Ð¾Ð² Ñĥ
ĠÐº ÑĢÑĥÐ¿
ĠÑģ Ð¾Ð´ÐµÑĢ
ĠÐ¾ÑĤ Ð»Ð¸
Ġ ÑĢÐµÐ´
ÑĩÐµÑģÐº Ð¸Ð¹
ec t
ĠÐ¿ÑĢ Ð¾Ð¼
ĠÑĢÑıÐ´ Ð¾Ð¼
ĠÐł Ð¤
ĠÐ¿Ð¾ ÑĢÑıÐ´
Ð½Ð¸ ÐºÐ¾Ð¼
ĠÑģÐ»Ð¸ ÑĪÐºÐ¾Ð¼
ĠÑģÑĤÐ° ÑĢ
ĠÐ·Ð° Ð½Ð¸Ð¼Ð°
ĠÐº Ð¾Ñģ
Ð¾Ð» Ð¾Ð³
m ent
on g
ĠÐ¸ÑģÐ¿ Ð¾Ð»
Ġ1 4
ĠÑģ Ð°Ð¼Ð¸
ĠÐ¿ÑĢÐµÐ· Ð¸Ð´
i al
ĠÐ¼Ð¸ ÑĢÐ°
ÑĢÐ° Ñģ
Ġ Ġ
ĠÐº Ð°Ð½
in e
ĠÐ¼Ð°Ð» ÐµÐ½ÑĮ
Ð¼ÐµÑĢÐ¸ ÐºÐ°Ð½
Ð´ ÐµÐ»ÑĮ
Ð°Ð½ Ðº
Ð» ÐµÐ½Ð¸Ð¸
ĠÐ¾Ð± Ð½Ð°
ĠÐ¿ÑĢÐ¸ Ð¼ÐµÑĢ
Ð´ÑĨÐ° ÑĤÑĮ
Ñĭ Ð¼Ð¸
ĠÐº Ð»Ð°Ñģ
ĠÐ° Ð³
ĠÑģÑĤ Ð°Ð»Ð¾
ÐµÑĤ Ð¸
ÑĢÐ¸ Ð½
ĠÐ´ ÑĥÑħ
Ì ģ
Ġ ÑĨÐ¸
ÑĭÐ²Ð° ÐµÑĤÑģÑı
Ð´ ÐµÐ¼
Ð¾Ð» Ñı
ĠÐ¼Ð¾Ð³ Ñĥ
ar y
ÑģÐº Ð¾Ð²
ĠÐĵ Ð¾Ñģ
Ð²Ñĭ Ð¹
ĠÑģÐ¾ ÑģÑĤÐ°Ð²
ĠÐ¿ÑĢÐµ Ð¶
ĠÐ¿ÑĢÐ¾Ð² ÐµÐ´
Ġ19 4
ĠÑģÐ°Ð¼ Ð¾Ð¼
Ð¸ÑĤ Ð¸ÑĩÐµÑģÐº
ĠÑģÑĤ Ð°Ð»Ð¸
Ð·Ð° ÑĤÑĮ
Ð» Ð¾Ðº
ĠÐĴ Ð»Ð°Ð´Ð¸
ĠÐ´ Ð¾Ð³
ĠÐ´ ÐµÐ»Ðµ
ĠÐ¾Ð± ÑıÐ·Ð°
ĠÐľ Ð½Ðµ
Ñĩ Ð½ÑĭÑħ
ÑĤÐ¾ Ð½
ĠÐ¼Ðµ ÑģÑĤÐµ
ĠÐ´Ð¾ ÑģÑĤÐ¸
ĠÐ¿Ð¾Ð» ÑĥÑĩÐ°
ĠÐ²Ð´ ÑĢÑĥÐ³
ĠÑģÑĤÐ° Ð½Ð¾Ð²
Ð²ÐµÑĢ Ñħ
ĠÑĢÐ°Ð· Ð»Ð¸Ñĩ
am e
ĠÑĩ ÐµÑĤÑĭ
ÐµÑĢ Ð¾Ð²
Ð´Ð° Ð½Ð¸Ñı
1 0
Ð²Ð¸ Ð³Ð°
ĠÐ¿ÑĢÐ¸ Ð½
Ð»ÐµÐ½ Ð½Ð¾
ĠÑĩÐ° ÑģÑĤ
Ð²Ð° ÐµÐ¼
ĠÐ´ Ð°Ð»Ðµ
ĠÐºÐ¾ÑĤÐ¾ ÑĢÐ¾Ðµ
ĠC h
as t
ĠÐ¾Ð³ ÑĢÐ¾Ð¼
ĠÑĩ ÐµÑĤ
ĠÐ½Ð° ÑĩÐ¸Ð½Ð°
ĠÑĥ Ñģ
ĠÑģÐºÐ¾ ÑĢÐ¾
Ñİ Ð´Ð°
ĠÐ² ÐµÑĤ
ĠÑģÑĢÐµÐ´ Ð¸
Ñĩ Ð½ÑĭÐµ
ĠÐ¿Ð¾ ÑĤÐµÑĢ
Ðº Ð¾Ð½
ĠÐ½ÐµÐ¼ Ð½Ð¾Ð³Ð¾
ĠÐ¼ Ð»
ĠÐĽ Ðµ
ÑĦ Ð°
ĠÐ½Ð¸Ðº ÑĤÐ¾
ĠÑģÐ»Ð¾Ð² Ð½Ð¾
Ð¸Ð½ Ð¾Ð²
ĠÑĢÑĥ ÐºÑĥ
Ð²ÑĪÐ¸ Ðµ
Ð¾Ð²Ñĭ Ð¼
ĠÐ¿ÑĢ Ð¾Ðº
Ġ1 3
ĠÐ·Ð°ÑĤ ÐµÐ¼
ĠÐ·Ð°Ðº ÑĢÑĭ
Ñĩ Ð½Ð¾Ð³Ð¾
Ð´ Ñı
Ð°Ð» Ð¾Ð²
Ð¾Ð³ Ðµ
ĠÐ¿ÑĢÐ¾Ð´Ð¾Ð» Ð¶
ĠÐ² Ð½ÑĥÑĤ
ĠÐ· Ð´Ð¾ÑĢ
ĠÐ±ÑĥÐ´ ÑĤÐ¾
ĠÐ¶ Ð¸
ÑĤÑĭ Ð¹
ĠÐ² Ð¾Ðº
ĠÐ¿Ð¾ ÑģÑĤÐ¾ÑıÐ½
ĠÑģÐ¿Ðµ ÑĨÐ¸Ð°Ð»ÑĮ
Ñģ Ð¸Ñħ
g h
ÑĪ ÐµÐ¼
ĠÐ·Ð° Ð³
o st
ĠÑģ Ð»Ð°
ĠÐ´ÐµÑĤ ÐµÐ¹
Ð´ ÑĮ
Ð½Ð° Ð¼Ð¸
ĠÑĤÑĢÐµ Ð±
ĠÐº ÑĥÐ»ÑĮ
ÑĢÐ¸ Ð»
ĠÐ¸Ð· Ð¼ÐµÐ½
Ð´Ñĥ Ð¼
ÑģÑĤ Ð¾Ðº
o k
Ð½Ð¸ ÑĨ
ĠÐºÐ¾Ð½ÑĤ ÑĢ
ÑİÑī ÐµÐ¹
ÑĢ Ð¾Ð¶
Ð»Ñı ÑĢ
ĠÐ³Ð¾Ð²Ð¾ÑĢÐ¸ ÑĤ
ÑĦ ÐµÑĢ
ÂłÐ ¯
ĠÑĢÐ°ÑģÐ¿ Ð¾Ð»
ĠÐºÐ° Ð¶Ð´ÑĭÐ¹
ĠÑģÑĤÑĢÐ° Ð½Ñĭ
Ġ X
Ġ3 0
ÑģÑĤÑĥ Ð¿Ð¸
ÑģÐº Ðµ
ĠÐ´ Ð¾Ð²
ĠÐ¼ ÐµÑĢ
ĠÐ¼ Ñı
Ðº Ð»Ð°
00 0
Ð° Ð³Ð°
ĠÑģÐ¼ Ð¾Ð³
ÑģÑĤ Ð°Ð»
ĠÐ¿Ð¾Ð± ÐµÐ´
ĠÑĤÐ°Ðº Ð¸Ñħ
ĠÑģÐ¾Ð² ÑĢÐµÐ¼ÐµÐ½
ĠÐ°Ð²ÑĤÐ¾Ð¼ Ð¾Ð±
ĠÐ½ Ð¾Ð²Ð¾
ĠÐ¼Ð¸Ð» Ð»Ð¸
ÑĩÐ¸ Ðº
ĠÑį Ð½ÐµÑĢ
ĠÑģÐ¾Ð³ Ð»Ð°Ñģ
Ñĳ ÑĢ
Ñħ Ð¾Ð²
or d
Ġw ere
ĠÑĢÐµÐ± ÐµÐ½
ĠÑģÑĤÐ¾ÑĢÐ¾ Ð½Ñĥ
ĠÐ¾ÑĤ Ð¼ÐµÑĤ
Ñı ÐµÑĤ
Ð½Ð° ÑĢÐ¾Ð´
ĠÐ·Ð½Ð° ÐºÐ¾Ð¼
ÑģÑĤÐ²ÐµÐ½ Ð½Ð¾Ð³Ð¾
ĠÐ½Ð°Ð± Ð»Ñİ
ÑĦ Ð¾Ð½
ĠÐºÐ¾ÑĤÐ¾ ÑĢÑĥÑİ
Ð¼Ð¸Ð½Ð¸ ÑģÑĤÑĢÐ°
ĠÑģÑĤÐ° Ð½
Ð»Ð¸ Ð²Ð¾
Ð¿ Ð»Ð°
ĠÑģÐ² Ð¾Ð±Ð¾Ð´
Ð² Ñĥ
ĠÑģ Ð²Ð¸
Ð²Ñĭ Ñħ
ĠÐ¿ÑĢ Ð¾Ð³
ĠÐ¾Ðº Ð¾Ð½
ĠÐ·Ð½Ð° Ñĩ
ĠÐ¾ Ñī
ĠÐ¿Ð»Ð¾ ÑīÐ°
Ð¸ Ð»Ð¸ÑģÑĮ
Ð¾ Ð½Ð¸
Ġ201 5
Ð¼Ð¾Ð¶ Ð½Ð¾
Ñĩ ÐºÑĥ
Ñĩ ÐµÐ¹
Ñı Ð¼Ð¸
Ð¼Ð° ÑĤÑĢÐ¸
ÑĤÐ¾ ÑĢÐ¾Ð¼
ÑĢÐ¸ Ðº
Ñģ Ð¾Ð½
ÂłÐ ļ
ĠÐ¸ ÑĤ
ĠÐ¿ÐµÑĢÐ²Ñĭ Ð¹
ĠÐº Ð¾Ð³Ð¾
Ð½Ñĥ Ð²
ĠÑģÐ¾Ð³ Ð»Ð°
ĠÐ¼ÐµÐ½ ÐµÐµ
ÑĪ Ð½Ð¾
ÐµÐ»ÑĮ Ð·Ñı
ĠÑį Ð»ÐµÐºÑĤ
ÑĥÐ¼ Ð°Ð»
ÑĩÐ¸ Ðµ
ÑĭÐ²Ð° ÑİÑĤ
Ð»ÐµÐ½ Ñĭ
ÑĢÐµ Ð¿
ĠÐ²Ð¾Ð·Ð¼Ð¾Ð¶ Ð½Ð¾
ÑģÑĤÐ¾ ÑıÑĤÐµÐ»ÑĮ
ĠÑģÐ²Ñı Ð·Ð¸
ĠÐ¶ ÑĥÑĢ
ÑĤÐ¾ ÑĢÐ¾Ð²
p p
ĠÑĤÑĭÑģÑı Ñĩ
ĠÐ¿ Ð°Ð»ÑĮ
Ð½Ñı Ñı
Ġ le
ĠÐ¿ÑĢÐ¾ ÑģÑĤ
ĠÐ¸Ñģ ÑģÐ»ÐµÐ´
ÑĢÐ¸ ÑĤ
ĠÐ»Ð¸ÑĨ Ð¾
ÑĥÑīÐµ ÑģÑĤÐ²
s o
ĠÑĥÑģÐ»Ð¾Ð² Ð¸Ñı
ĠÑĢÐµ ÑĪÐ¸
re d
Ġ19 8
ÂłÐ ¡
Ð¾ ÑĤÐ¾
ĠÐ¾ Ð½Ð¾
ĠÐ²Ñģ Ñİ
ĠÑĦ Ð¸Ð»ÑĮ
ĠÐ²Ð¾Ñģ Ð¿
ĠÐ¿ÑĢÑı Ð¼Ð¾
ĠÐ±ÐµÐ· Ð¾Ð¿Ð°Ñģ
Ðµ ÑģÑĤÐ¸
ĠÐ¾ÑĤ Ð¿ÑĢÐ°Ð²
ĠÑĢÑĭ Ð½
ÑĢÐµ Ðµ
ĠÐľ Ðµ
ÑĢÐ° Ð¼Ð¸
ÑĤÐ° Ñħ
ĠÐ¿ Ð°Ð¼
Ð°Ð» Ñĭ
ĠÐ£ÐºÑĢÐ° Ð¸Ð½Ñĭ
Ð»Ñı ÑĤÑĮ
ĠÐĶ Ð¾
ĠÑĦ ÑĥÐ½
ĠÑĩÐ° ÑģÑĤÐ¾
Ð»Ð° Ð³Ð°
ĠÐ²Ñĭ Ð¿Ñĥ
ĠÑģÐ¼ Ñĭ
ĠÑĢÐ° ÑģÐº
Ð´Ð° ÑĢ
ÑĤÐ° Ð¼
ÑģÑĤ ÑĢÑĥÐº
Ġwh ich
ĠÐ²Ð¾Ð·Ð¼Ð¾Ð¶ Ð½Ð¾ÑģÑĤÑĮ
Ñĥ Ð»
ĠÑį ÑĦÑĦ
ĠÐ¢ Ð¾Ð»ÑĮÐºÐ¾
ÑĢÐ¾Ð²Ð° Ð½Ð¸Ñı
ÑĮ ÐµÐ·
ÑģÐµ Ð´Ð°
ĠÐ´ Ð¾Ð²Ð¾Ð»ÑĮ
ĠÐ¾Ð´ Ð½Ð°ÐºÐ¾
ĠÑģÐ¾ ÑģÑĤÐ°Ð²Ð»Ñı
ÐµÑĢ Ðº
ĠÐ° Ð¼ÐµÑĢÐ¸ÐºÐ°Ð½
Ġ y
ĠÐ¾ Ð¶Ð¸
1 8
ĠÐ´Ð¾Ð» Ð³Ð¾
ĠÐ¼ Ð¾Ðµ
ĠÐ°Ðº ÑĤÐ¸Ð²
ÑģÑĤÐ²ÐµÐ½ Ð½ÑĭÐ¹
ĠÑģÐ¾Ð²ÐµÑĢÑĪ ÐµÐ½Ð½Ð¾
ĠÐķÐ² ÑĢÐ¾Ð¿
ĠÐ¼Ð° ÑĪ
ĠÐ½Ð° ÑĢÑĥ
ĠÐ½Ðµ Ð¿ÑĢÐ¸
ĠÐ´Ð¾ÑģÑĤÐ° ÑĤÐ¾ÑĩÐ½Ð¾
ĠÐ¿ÑĢÐµÐ´ Ð¾
Ð´ÐµÑĤ ÑĮ
ĠÑħ Ð²Ð°
Ġ2 5
Ð°Ð¼ Ð°
ĠÐ¼ ÐµÐ½ÑĮ
ĠÐ½Ðµ Ð´Ð¾
ĠÐºÐ°Ðº Ð¸Ðµ
Ð¸ Ð³
ÑĢÑĥ ÐµÑĤ
ĠÐ¿ÑĢÐ°Ð² Ð¸ÑĤÐµÐ»ÑĮ
ĠÐ¿ÑĢÐ¸ Ð¼ÐµÐ½
ĠÐ¾ÑĤÐ²ÐµÑĤ Ð¸Ð»
u st
ĠÐ¸ÑģÑĤÐ¾ ÑĢÐ¸
ac k
ĠÐ±Ð»Ð¸ Ð·
ĠÑģÐ» ÑĭÑĪ
is h
ÑĤÐ¸ Ðµ
ĠÐ½Ð°Ñģ ÐµÐ»
igh t
ĠÐ¡ Ð°
ĠÐ¾ÑĢÐ³Ð°Ð½Ð¸ Ð·Ð°
ĠH e
ÑĭÐ²Ð° Ñı
ÑĢÐ°Ð· Ð´
ÐµÐ»Ð¾ ÑģÑĮ
ÑģÐ¿ ÑĥÐ±Ð»Ð¸
ĠÑģÐ¾Ð± ÑĢÐ°
ĠÑĤÐ°Ðº Ð¸Ð¼
ĠÑĩ ÑĥÑĤÑĮ
ĠÐ¾ÑĤÐ½Ð¾ ÑĪ
ÑĢÑĭ Ð²
ĠÐ¿Ð¸ ÑģÑĮ
Ð¸Ð½Ð° Ð½
Ð¸Ð¼Ð¾ ÑģÑĤÐ¸
e p
ĠÐ¿ÑĢÐ¾Ð¸Ð· Ð¾
ĠÐ½Ð°Ñĩ Ð°Ð»Ð°
ĠÐºÑĢÐ° Ð¹
ĠÐ°ÑĢ Ð¼Ð¸
ĠÑģÐ¾Ð¾ÑĤÐ²ÐµÑĤ ÑģÑĤÐ²
Ð¶ Ð¸ÑĤ
I I
ĠÑģÐ¿Ðµ ÑĨÐ¸Ð°Ð»Ð¸
ÐµÐ¼ Ð°
ÑģÐ¸ Ñı
i e
ÑĢÐµÐ´ Ð¸
ĠÐ¾Ð¿ÑĢÐµÐ´ ÐµÐ»
ĠÑĤÐ¾ Ð½
ĠÐĴÐ»Ð°Ð´Ð¸ Ð¼Ð¸
ĠÑģÑĤ Ð°Ð»Ð°
ÐºÑĥ Ð´Ð°
ĠÐºÐ²Ð°ÑĢ ÑĤÐ¸
ĠÐ½Ð° ÑĪÐµÐ¹
ĠÐ²Ð¾Ð· Ð²ÑĢÐ°
ÐµÐ´ ÑĮ
ĠÑĦ Ð¸Ð·
ĠÐĵ ÐµÑĢ
ĠÐ´ÐµÐ½ÑĮ Ð³Ð¸
r an
ĠÑĥ ÐºÐ°Ð·
ÑĤÐ°Ðº Ð¸
ĠÑĢÐ°Ð±Ð¾ÑĤ Ñĥ
ĠÐĲÐ½ Ð´
ĠÐ± ÐµÑģ
Ð¾Ð³ÑĢÐ° ÑĦÐ¸
u c
Ð»ÐµÐ½ Ð°
Ñĥ Ð·
ĠÐĳ Ñĭ
ĠÐļ Ð°ÑĢ
ĠÐ¡ Ðµ
ÑĢÐµ Ð¶Ð´
ÂłÐ ŀ
ĠÐ½Ð°Ñĩ Ð°Ð»
Ð¾ÑĢ Ñı
ĠÑĥ Ð·Ð½Ð°
1 2
ĠÑģ Ð¾Ð±Ñĭ
ĠÐĴ Ð¾Ð·
ĠÐ¾ Ð´Ðµ
ĠÐ¢ Ð¾
ĠÐ¾ Ð³ÑĢÐ°
ĠÐ² ÑħÐ¾Ð´
ĠÐŁ ÑĢÐµÐ´
ĠÑĢÑĥÐ± Ð»ÐµÐ¹
ĠÐ´ ÐµÐ¼
ĠÐ²Ð¾Ð¹ Ð½Ñĭ
ÑģÑĤÐ²ÐµÐ½ Ð½ÑĭÑħ
Ð½Ñı ÑĤÑĮ
ÑĢÑĥ Ñģ
ĠÐ´ Ð¾Ð¿
Ð»Ð¸ Ðº
ĠÐ² Ð½Ñĥ
ÑĦ Ðµ
Ġ201 4
ĠÑĥ Ð½Ð¸
ĠÐ´ÑĢÑĥ Ð³Ð°
ÑĢ ÐµÐ½Ð¸Ñı
ĠÐ¾ÑģÐ¾Ð± ÐµÐ½Ð½Ð¾
Ġs p
or k
ĠÐ¿Ð° ÑĢÐ°
ĠÑı Ð½
Ð¼ Ð¾Ð½
ÑģÐºÐ¾Ð»ÑĮ ÐºÑĥ
ĠÐ¿ÑĢÐ¸ ÑĪ
Ġ/ /
ĠÐŁ Ð¾Ñĩ
ĠÐ·Ð°ÑıÐ² Ð¸Ð»
Ġs h
Ñį Ð½
ÑģÐº Ð¾Ð¼Ñĥ
ÑĢÐµ Ð¶
ĠÑĤÐ¾ ÑĩÐ½Ð¾
ĠÑĢÐ° Ð±Ð¾
Ð² ÑĪÐµÐ³Ð¾
ÑģÑĤÐ² Ð¾Ð²Ð°Ð»
Ñĩ ÑĤÐ¾
Ð½Ð¸ ÑĨÑĥ
ĠÐ´ÐµÐ¹ÑģÑĤÐ² Ð¸ÑĤÐµÐ»ÑĮÐ½Ð¾
Ð½Ð¸ ÑĨÐµ
ĠÐ¿Ð¾Ð´ Ð³Ð¾ÑĤÐ¾Ð²
Ð¸ Ð»Ð°ÑģÑĮ
Ð¾ ÑĢÑĥÐ¶
ĠÑģÐ¾ ÑĨÐ¸Ð°Ð»ÑĮ
Ġ k
ÑĩÐµ ÑģÑĤÐ²Ð°
ĠÐ¿Ð¾ÑĤ ÑĢÐµÐ±
ĠÐ¿ ÑģÐ¸Ñħ
ĠÑĪÐ¸ ÑĢÐ¾Ðº
Ð°Ð»ÑĮ Ð½Ð¾Ðµ
ĠÑħÐ¾ ÑĤÑĮ
ĠÐļ Ð¾
ÑĤ Ð¾Ð¹
ĠÑģÑĤÑĢÐ¾ Ð¸ÑĤÐµÐ»ÑĮ
ĠÐ²Ð¾Ð· ÑĢÐ°
Ð¾ÑĤ Ðµ
ÐºÐ¾ Ðµ
ĠÐ¿ ÑıÑĤ
ĠÑĩÐµÑĤÑĭ ÑĢÐµ
Ð½ ÐµÐ½
ÑĪ ÑĥÑİ
ĠÐ¿ÐµÑĢÐ¸ Ð¾Ð´
ĠÐ¤ ÑĢÐ°Ð½
Ð° Ð±
ĠÐ¿ ÑıÑĤÑĮ
Ñı Ð»Ð¸
ÑİÑī Ð¸Ð¼
ÑĨÐ° Ð¼Ð¸
ĠÑįÑĤÐ¾Ð¼ Ñĥ
ÑĢÐµ ÑĤÐ°
Ð½ Ð°Ð»Ð°
ĠÐ¾ÑĤ Ðº
ĠÐ¿ÑĢÐ¾ÑĦ ÐµÑģ
ĠÐŁ ÑĢÐ°Ð²
ĠÐ·Ð½Ð° ÑĩÐ¸ÑĤ
ic al
ĠÐ¿Ð¾Ð¿ ÑĭÑĤ
ĠÐ¿Ð¾Ð» Ñĥ
ĠÐ½ Ð°Ð»
ĠÐ¿Ð¾ Ð¸
ĠÐ´ Ð½ÐµÐ¹
ÑĢÐ¸ ÑĤÑĮ
ĠÑħ Ð¾Ð»Ð¾Ð´
ĠÐĲ Ð²
ĠÐ½Ð¸ Ð¼Ð¸
ÑĤ ÐµÐ»Ð¸
ĠÐ½Ð° ÑĪÐ¸
ĠÑĩÐ¸Ñģ Ð»Ðµ
ĠÐŁÐ¾ ÑįÑĤÐ¾Ð¼Ñĥ
ĠÐ¢Ðµ Ð¿ÐµÑĢÑĮ
ÐµÐ² ÐµÑĢ
ĠÐ´Ð¾Ð»Ð¶ Ð½Ð°
Ð²Ð° Ð¹
ĠÐ½ÐµÐ¾Ð±ÑħÐ¾Ð´ Ð¸Ð¼
Ð²Ð¸ Ñĩ
ĠÐ½ Ð¾Ð¼
- -
Ð¾Ðº ÑĢÐ°
ĠÑģÐ¿ Ð¾ÑĢ
ĠÑģÐ°Ð¼ Ð¾Ð³Ð¾
ÑģÑĤÐ¸ ÑĤÑĮ
ĠÑĤ ÑĢ
ĠÐ¼Ð¾Ð¶ ÐµÑĤÐµ
ĠÐ²Ð»Ð° ÑģÑĤÐ¸
Ð²ÐµÑĢ Ñģ
Ð³Ð¸ Ð¸
ĠÐ²Ðµ ÑĩÐµÑĢ
Ð´ ÐµÐ½
ĠÐ¿ÑĢÐ¸ Ð´
ĠÑĥÑĤ Ð²ÐµÑĢ
ĠÑĨ ÐµÐ½
Ð¾ Ð½Ñĭ
ĠÑĤÐ°Ðº Ð¾Ð³Ð¾
ĠÐ¡ Ð¸
ĠÐ²Ð½ÑĥÑĤ ÑĢÐµÐ½
ĠÑħ ÑĥÐ´
ĠÐ²Ð½Ð¸Ð¼Ð° Ð½Ð¸Ðµ
ÑĤ Ð¾Ð±
Ð°Ð½ Ð½ÑĭÐµ
t her
ĠÐ¶ÐµÐ½ Ñī
Ñī ÐµÐ¹
ÑĢÐ¸ ÑģÑĤÐ¸
ÑĤ Ð½Ð¾
ĠÑĤÐµ Ð¿
ĠÐ¾ Ð¿Ð°Ñģ
ĠÑĢÐ° ÑģÑĤ
ĠÐ´Ð°Ð»ÑĮ ÑĪÐµ
ĠÐ·Ð° Ð´
ĠÐ²Ð¾Ðº ÑĢÑĥÐ³
ĠÐ·Ð° Ð²Ð¸Ñģ
Ð² Ð°Ð»Ð¸ÑģÑĮ
ĠÐ° Ð±
ĠÐ¿Ð¾ ÑģÑĤÐ°Ð²
ÑģÑĤ Ð¾Ð¼
ĠÑĤÐµÑĢÑĢÐ¸ ÑĤÐ¾ÑĢÐ¸Ð¸
ĠÐ¼ Ð½Ð¾Ð¹
Ġ *
ĠÑģÐ¸ÑģÑĤÐµÐ¼ Ñĭ
Ġ19 7
ĠÐ¾ÑĤ Ð´ÐµÐ»
ion s
ĠÐ³ ÐµÐ½ÐµÑĢÐ°
Ðº Ð¸Ð½
2 0
m er
ĠÐ¿ ÐµÑģ
Ð°Ð»Ð¸ Ð·
ÑģÐ» Ð¾Ð²
ĠÐ¼Ñĥ Ð·Ñĭ
ÂłÐ ľ
Ð¿Ð¾Ð» Ð½Ðµ
ĠÑĦ Ð¸Ð½Ð°Ð½
ĠÐ³Ð»Ð° Ð·
ĠÐ¼Ð° ÑĪÐ¸
ĠÐ³ Ð»
ĠÐ´Ð° Ð²Ð½Ð¾
ÑģÑĭ Ð»
ĠÐ· Ð½Ð°Ð»
Ð³Ð¾ÑĢ Ð¾Ð´
ĠÑģ ÑĩÐµÑĤ
ĠÐļ ÑĢÐ¾Ð¼Ðµ
ĠÐ¼ Ð°Ð»Ð¾
ÑĢÐ¸ Ð¼ÐµÑĢ
Ð¼ Ð¸ÑĤ
ÐµÑĢÐ± ÑĥÑĢ
ĠÐ³ÑĢÐ°Ð¶ Ð´Ð°Ð½
ĠÐ½ ÐµÐ»ÑĮÐ·Ñı
ĠÐ¾Ñģ Ð½Ð¾Ð²Ð°
ĠÑĥÐ² ÐµÐ»Ð¸
ĠÑģ ÐµÐ½ÑĤ
ÑĤÑĥ ÑĢÐ°
f f
ĠÐ¿ Ð¾Ð²Ñĭ
ĠÑģÐ¿ Ð¾ÐºÐ¾Ð¹
ĠÑħÐ¾ÑĤ ÐµÐ»
ĠÑģ Ð¸Ð¼
ĠÐ¾ ÑĪÐ¸
ĠÐ¾Ñģ ÑĥÑīÐµÑģÑĤÐ²
ĠÐ²ÑģÐ¿ Ð¾Ð¼
ĠÐ¼Ð¸ ÑĢÐµ
ĠÐ° Ð»
ĠÐĴ ÐµÑĢ
ĠÐ²Ð¾Ð» Ð¾Ñģ
ĠÐ¿ÑĢÐ¾ ÑħÐ¾Ð´
Ð¶ ÐµÐ½Ð¸Ñı
ĠÐºÐ° Ð±
ÐµÐº ÑĤ
Ð¸Ð½ Ð³
ÑģÐº Ñĥ
ĠÐ± Ð¸Ð·
ĠÐ´Ð²ÐµÑĢ ÑĮ
ĠÐ¿Ð¾Ð´ ÑĤ
Ð¾Ð¶Ð´ ÐµÐ½Ð¸Ñı
ĠÐ¼ ÐµÐ´Ð¸
ĠÑĢÐ°ÑģÐ¿Ð¾Ð» Ð¾Ð¶
Ġcom p
ĠÐ·Ð° ÑīÐ¸ÑĤ
Ð½Ð° Ð¼
ÑģÐ» Ñĥ
ĠÐ»Ð¸ Ð±Ð¾
Ñİ ÑīÐµÐ³Ð¾
ĠÐ¿ÑĢÐ° Ð²Ð¾
ĠÐ½Ð° Ð²ÐµÑĢ
ĠÐ²ÑĤÐ¾ÑĢ Ð¾Ð¹
ĠÐ´Ð¾Ð»Ð¶ Ð½Ð¾
Ġ [
Ñı Ð»Ð°
Ð¾Ð½Ðµ ÑĩÐ½Ð¾
Ð ĸ
Ð¾Ð²Ð° ÑĤÑĮÑģÑı
ĠÐ» Ð¸ÑĤ
ĠÐ±Ð»Ð° Ð³Ð¾Ð´Ð°ÑĢ
Ðŀ Ð½
Ð»Ðµ Ð³
ĠÑĢÐµÑĪ ÐµÐ½Ð¸Ðµ
ĠÐ¸ÑģÐ¿Ð¾Ð»ÑĮÐ· Ñĥ
ĠÐ¼Ð¾Ð³ Ð»Ð¸
ĠÐ½Ð° ÑĥÑĩ
ĠÐ´ Ð¾Ð¿Ð¾Ð»
Ñģ Ð¾
ÑĢÐ¾Ð´ Ðµ
ĠÐ¿Ð»Ð° Ð½
ĠÑĢÐ°Ð· Ð´
ĠÐ¿ÐµÑĢÐµ Ð´Ð°
ĠÐ²Ð½Ðµ ÑĪ
ĠÑģÐ»ÐµÐ´ ÑĥÐµÑĤ
ÐµÐ½ ÑĤÐ¸
c l
ĠÑģ ÑĢÐ¾Ðº
ĠÐ¿ÑĢÐ° Ð²Ð°
ĠÐ²Ð° ÑĢÐ¸
ĠÐ¸ÑģÐº ÑĥÑģ
Ð» ÐµÐ½Ð¸ÐµÐ¼
ĠÑģÐ»ÑĥÑĩÐ° Ð¹
ĠÑģ Ð¾Ð¼
ĠÐ¾ÑĤ Ð²Ðµ
ĠÐ²Ñģ ÐµÐ¹
ĠÐ¢ Ð°Ð¼
ĠÑħÐ¾Ñĩ Ñĥ
u e
ĠÐ½Ð° Ð·Ð½Ð°
Ð¸Ð¼Ð¾ ÑģÑĤÑĮ
Ð¾Ð± ÑĢÐ°
Ñģ Ð¾Ð¼
Ð½Ð¸ ÐºÑĥ
ĠÐĴ ÐµÐ»Ð¸
Ð¾Ð½ ÑĮ
ĠÑģÐ¿ Ñĥ
ĠÐ¥ Ð¾ÑĤ
ĠÐ¾ÑĤ ÐºÐ°Ð·
u re
ĠÑĪ ÑĤÐ°
ÑĤ Ð¾Ðº
ÑĢÑĥ Ð·
ĠÑĢÐ°Ð· Ð¼Ðµ
r y
Ñģ ÐµÑĢ
ÂłÐĶ Ð°
Ð¸ ÐºÐ¸
ĠÐ¿ÑĢÐ°Ð² Ð¸Ð»ÑĮ
ĠÐ· Ð°Ð»
Ð°Ð»ÑĮ Ð½Ð°Ñı
ÐµÐ» Ñİ
Ġ â
ĠÑĤ ÐµÐº
Ð½ Ðº
ÑĩÐ° Ñı
ÐµÐ½ ÑĤÑĭ
ĠÐ½Ð°Ð¿ ÑĢÐ¸Ð¼ÐµÑĢ
ÑģÐºÐ° ÑĤÑĮ
ĠÐ¿Ð¾ ÑģÑĤ
ĠÑĤÐµÑħ Ð½
ĠÐ´Ðµ ÐºÐ°
ĠÐĴ Ð°Ñģ
Ð¾Ð»Ð¾Ð³Ð¸ Ð¸
ÑĢÐ¾Ð² Ð°Ð»
ĠÐ¿ÑĢÐ¾ÑĨ ÐµÑģ
ĠÑĢÐ° Ð²Ð½Ð¾
ĠÐ¿ ÑĭÑĤÐ°
ĠÐ¿Ð¾Ð´ Ð´ÐµÑĢÐ¶
Ġ ...
Ġ19 6
ĠÐ½Ðµ Ð¸Ð·
ĠÑıÐ½ Ð²Ð°
ĠÐºÐ° Ð¶ÐµÑĤÑģÑı
Ð°ÐºÑģ Ð¸Ð¼
Ġ un
ÑĮ ÐµÑĢ
ĠÑĢÐ° Ð²
ĠÐºÐ¾ ÑĢÐ°Ð±
ĠÐ¿Ð¾Ð» Ð¸ÑĤÐ¸
ÑĢÐ¾ ÑģÐ°
ĠÑģÐµÑĢ ÑĮÐµÐ·
ÑģÑĤ ÑĢ
ĠÑĥ Ðº
ĠÐ±Ð¾Ð»ÑĮÑĪ Ð¾Ð¹
ĠÑģÐ¾ ÑħÑĢÐ°
ĠÐ½Ð° ÑĢ
Ġal so
ĠÐ¿ÑĢÐµÐ´ Ð¿Ð¾Ð»
ĠÐ½Ð° Ð¹ÑĤÐ¸
ÑĤ Ð°Ð»
ĠÐ¾ÑĢÐ³Ð°Ð½Ð¸ Ð·
ĠÑĩÐµÐ¼ Ð¿Ð¸
Ñİ Ð·
ĠÐ´ ÐµÐ½Ðµ
ĠÐ¿Ð¾Ð» Ð¸ÑĤÐ¸ÑĩÐµÑģÐº
ÐĿ Ðµ
ĠÑģÐº ÑĢÑĭ
ĠÐº ÑĢÑĥÐ³
ĠÐºÑĢÐ° ÑģÐ¸
ĠÐµ Ð´
ĠÑı ÑĢ
ir st
ĠÑģÐµÐ¼ ÑĮ
ag e
ou s
ĠÐºÐ°ÑĩÐµ ÑģÑĤÐ²Ðµ
Ð°Ð»Ñĥ Ð¹
Ð»Ñı ÐµÑĤÑģÑı
ÑģÐ¸ Ð±Ð¾
ĠÑģÐ¾Ð¾Ð± ÑīÐ°ÐµÑĤ
ĠÐ³Ð¾Ð²Ð¾ÑĢÐ¸ ÑĤÑĮ
ĠÑĦ ÐµÐ²
ĠÐ¿ ÑĢÐ°Ð·Ð´
1 5
Ġn ot
ĠÐ´Ð¾Ð± Ð°Ð²
ĠÐ¿ Ð¾Ð³Ð¸
ĠÐ¿Ð¾Ð» Ð½Ð¾ÑģÑĤÑĮÑİ
Ġh ad
ÑĢÐ°ÑĤ Ð½Ð¾
ĠÐ³Ð¾Ð» Ð¾Ð²Ð¾Ð¹
ĠÑģÑĤ ÑĢÐµ
Ð² Ð»Ð¸
Ð½Ñĥ ÑĤÑĮÑģÑı
ĠÐ½Ð° ÑĨÐ¸Ð¾Ð½
ÑĢÑĭ Ð¹
Ð ¦
ĠÐ²Ð¾Ð´ Ñĭ
ĠÐľ Ð¸Ñħ
ĠÐ½Ðµ Ð¼Ñĥ
ĠÐºÐ° Ð¿Ð¸ÑĤ
ĠÐ¼Ð° Ð³Ð°
ĠÐ¶Ð¸Ð² Ð¾ÑĤ
ÑĤ Ð¾Ð³Ð¾
Ġh as
ĠÐ½ Ñĥ
Ñī Ð¸Ð¹
ĠÐļ Ð¾ÑĢ
ĠÑĩÐ°Ñģ Ð¾Ð²
ĠÑĪÐº Ð¾Ð»
Ð½Ð¸ Ð½
ĠÐ³Ð¾Ð´ Ñĭ
ĠÐ¿ÑĢÐ¸ Ð½Ð¸Ð¼Ð°
as s
ĠÐºÐ¾Ð½ ÐºÑĥ
ĠÐ² Ð¾Ð²
ĠÐ² Ð¿Ð¾Ð»Ð½Ðµ
ĠÐ¼Ðµ Ñĩ
ĠÐ¿Ð¾Ð´ ÑħÐ¾Ð´
Ð°Ð½ ÑĤÐ°
ÑĩÐ° ÐµÑĤÑģÑı
ĠÐ¿ÑĢÐ¾ ÑĤÑı
ĠÐ³Ð¾Ð²Ð¾ÑĢÐ¸ Ð»
ĠÐ²Ð· Ð³Ð»Ñı
ĠÐ¾ÑĤ Ð´ÐµÐ»ÑĮ
ÑĢÐ¾ÑģÐ¸ Ð»Ð°
ĠÐ» ÐµÑģ
Ð¾Ð· Ð°
ÑĩÐµ ÑĢÐ°
ĠÐ´ÑĢÑĥ Ð·
3 0
Ð½ ÐµÐ½Ð¸Ðµ
ĠÑģÐ»Ð¾Ð² Ð°Ð¼
ĠÐ½Ð°ÑħÐ¾Ð´ Ð¸ÑĤÑģÑı
ĠÑĤ Ð°Ð½
ac e
ĠÑģÐµÑĢ Ð´
ĠÐ·Ð°Ðº Ð»Ñİ
Ð¾Ð²Ð° ÑĤÐµÐ»ÑĮ
ĠÐ± Ð°Ð·
ÑĤÑĭ Ðµ
i re
Ð¶ ÐµÐ½Ð¸Ðµ
Ð°Ðº Ð°
ĠÐ¿Ð¾Ð» Ð¾Ð²
ĠÑģÐº Ð¾Ð»ÑĮÐºÐ¾
ĠÑģÐ²Ð¾ ÐµÐ¼
ĠÑĤÐµ ÑĩÐµÐ½Ð¸Ðµ
ÑĨÐ¸ Ð¿
ĠÐº Ð¾Ð¿
ÑĩÐ° Ð¹
ĠÐ¸ÑģÑĤÐ¾ ÑĢÐ¸Ð¸
ĠÐĽ Ñĥ
ĠÐ¾Ðº ÑĤÑı
av e
ĠÐ¿Ð¾Ð· Ð´
ĠÑģÑĤ Ð¾Ð»Ð¸
i z
ĠÐ²Ð¸Ð´ ÐµÐ»
Ð¾Ð· Ð¸
ĠÑģ Ð±Ð¾ÑĢ
Ð¼Ð¾ÑĤ ÑĢÑı
ĠÐ´ÐµÐ¹ÑģÑĤÐ² Ð¸Ñı
ÑģÑĤÐ² Ð¾Ð²Ð°ÑĤÑĮ
ĠÐ¿Ð¾Ð¼Ð¾Ñī ÑĮÑİ
ĠÐ¾Ð± Ð¾ÑĢÐ¾
ĠÐ¤ ÐµÐ´ÐµÑĢÐ°
ĠÑĢÐµÐ·ÑĥÐ»ÑĮÑĤÐ° ÑĤÐµ
Ð·Ð¸ Ð¸
Ð» Ð¾Ð¿
Ð¾Ð½ Ð´
ĠÐº ÑĢÑĥ
ĠÑĩ Ð»ÐµÐ½
ĠÑĤ Ð¸Ñħ
Ð¶ Ð½Ð¾
Ð¾Ð¶ Ð°
ĠÐ¼Ð¾Ð³ Ð»Ð°
ĠÐ¿ÑĢÐ¸ Ð²Ñĭ
ÑĩÐµ Ðº
ĠÐ½Ð°Ðº Ð¾Ð½ÐµÑĨ
Ð½ÑĮ ÑĪÐµ
ĠÐ¼Ð¾ ÐµÐ¹
Ð½Ð¸ ÑĤ
ÑģÑĤ Ð½Ð¾
ĠÐ´Ð¾Ð²Ð¾Ð»ÑĮ Ð½Ð¾
ĠÐº Ð»ÑĥÐ±
ĠÑĤ Ð¾Ð¹
ĠÐ¿Ð¾Ð½Ñı Ð»
ĠÑĢÐ°Ð· ÑĢÐµ
on d
ĠÑģ ÑĢÐ°Ð²
Ñī Ð°Ñı
ÑĮ Ð¼Ð¸
ĠÐ°Ð´ Ð¼Ð¸Ð½Ð¸ÑģÑĤÑĢÐ°
ĠÑĥÐ´ Ð°Ð»Ð¾ÑģÑĮ
ĠÐ¾Ð¿ ÑıÑĤÑĮ
ĠÐ·Ð° Ð²ÐµÑĢ
Ð´Ð° Ð½Ð¸Ðµ
ĠÐ¿ÑĢÐµÐ¶ Ð´Ðµ
ĠÐ²Ñĭ ÑĪÐµ
ÑģÑı ÑĤ
ĠÐ¼ Ð¾Ð½
ig n
ĠÐ½Ðµ Ð²Ð¾Ð·
ĠÐº ÑĢÐ¾Ð¼Ðµ
Ð²Ð° ÑİÑĤÑģÑı
ĠÐ²Ð¾Ð· Ð½Ð¸Ðº
ĠÐ¿Ð¾Ð´ÑĤ Ð²ÐµÑĢ
ÑĢÐµÐ¼ÐµÐ½ Ð½Ð¾
ĠÑģÐ°Ð¼ Ð¾Ðµ
Ð¾Ð± ÑĢÐ°Ð¶
a il
ĠÐ·Ð° Ð¿Ð°
Ð¾ÑĤ Ñĭ
Ð¸ ÐºÐ°
ĠÑģÐ¿ Ð°
ĠÐ»Ð¸ ÑĨÐ°
ÑĦÐ¸ ÐºÐ°
ĠÐľ Ð¾Ð¶ÐµÑĤ
ÐµÐ½ Ð½ÑĭÐ¼
ĠÐ¾ÑĦÐ¸ ÑĨÐ¸Ð°Ð»ÑĮ
Ð¿Ñĥ ÑĤÐ°
ĠÑģÐ°Ð¼ Ð°
Ġ Y
ĠÑĢÐ° Ð½ÑĮÑĪÐµ
ĠÑĥ Ð»
ĠÐ»ÐµÐ³ ÐºÐ¾
Ð¿ Ð¾Ð¼
Ð²Ñĭ Ð¼
ĠÐ²Ñĭ Ð±Ð¾ÑĢ
ĠÐĹ Ð½Ð°
ĠÑĩ ÑĥÐ´
ĠÐ¸ÑģÑĤÐ¾ Ñĩ
ÑĢÐ° ÑĪÐ¸
ĠÐ¼ Ð°Ð»ÑĮ
ĠÐłÐ¾ÑģÑģÐ¸ Ð¹
ĠÐ¼Ñĭ ÑģÐ»
ĠÑĦÐµÐ² ÑĢÐ°
ĠÐ³ Ð¸
ÑģÑĤÐ° ÑĤÐ¸
ÑĢÐ¾Ð²Ð° Ð½Ð¸Ðµ
ĠÐ´Ð¸ ÑĢÐµÐº
Ð¾Ð» Ð¾ÑĤ
ĠÐ»ÑİÐ± Ð¾Ð²
ĠÐ³ ÑĢÐ¾Ð¼
Ð°Ð»ÑĮ Ð½ÑĭÐ¼
ĠÐ¿ÑĢÐ¸ Ð¾Ð±
ic e
ĠÐºÐ¾ÑĤÐ¾ÑĢÑĭ Ð¼
ĠÐ¿ÑĢÐµ ÑģÑĤÑĥÐ¿
ĠÑĢÐ°Ð·Ð²Ð¸ÑĤ Ð¸Ñı
ĠÐ¼Ð¸ ÑĢÐ¾Ð²
Ð¾ ÑģÑĤÐ¸
ÑģÑĤ Ð¸Ð½
ĠÑĥÐºÑĢÐ° Ð¸Ð½
ĠÐ¿Ð¾ÐºÐ° Ð·Ð°
ÑĤÐ¸ Ð»ÑģÑı
Ġw he
ĠÑĦÑĥÐ½ Ðº
ÑĢÐ° Ð±Ð¾ÑĤÐ°
ĠÑĩ Ðµ
p er
Ð½Ð°Ñĩ Ð°Ð»Ð°
ĠÐ¾ÑĤ Ð¿
Ð½Ð¾Ð² ÑĮ
ĠI t
ĠÐ½Ð° Ð¹
ĠÑĤ Ð°Ð¹
Ð¿Ð¸ ÑĤÑĮ
ĠÑĨ ÐµÐ»ÑĮ
ĠÐ·Ð° Ð±Ñĭ
Ñī Ð¸Ñħ
ĠÑĩÐµÑĤ Ð²ÐµÑĢ
ĠÑģ Ð½Ðµ
Ð½ Ð¾Ðº
Ð½Ñĥ Ð»Ð¸
ÑĩÐ¸ Ð½Ñĭ
ÑİÑī Ð°Ñı
id e
ÑĢ Ð´
om e
ĠÑģÐ» Ñĥ
ĠÑĦ Ð¾ÑĤ
Ð°Ð½ Ð½ÑĭÑħ
ĠÐ½ ÑĢÐ°Ð²
ĠÑĦ ÑĥÑĤ
Ð½Ð¸ÐºÐ° Ð¼Ð¸
ĠÐĺ Ð²Ð°
ĠÑģÐ²Ð¾ Ð¸Ð¼Ð¸
ĠÐ¾ÑĢÐ³Ð°Ð½Ð¸ Ð·Ð°ÑĨÐ¸Ð¸
ĠÑĪ Ð°Ð³
ĠÑģÐ°Ð¼ ÑĭÑħ
ÑĢ Ð¾Ð³
5 0
Ð½Ð¸ ÑĤÐµ
ÑĪ ÐµÐ¼Ñĥ
Ð» ÐµÑĢ
Ñĩ Ð½ÑĭÐ¼
ĠÐ¾ÑĤÐ½Ð¾ Ñģ
ĠU n
ĠÐ¿Ð¾Ð· Ð¸
ĠÐ´ ÑĢÐ°
ĠÐ¼Ð½Ð¾Ð³ Ð¸Ðµ
ÑģÐº Ð¸Ð¼Ð¸
m an
ĠÑĤ ÑĥÐ´Ð°
ĠÐ¿ÑĢÐ¾Ð² ÐµÑĢ
ĠÐ½Ð° ÑĪÐ¸Ñħ
Ð¾Ð¹ ÑĤÐ¸
Ðº Ð¾Ð²Ð°
ĠÐ¿ ÑĭÑĤ
ĠÐ± ÐµÐ´
ĠÐ½Ð¾ÑĢ Ð¼
er v
Ð¾ Ñħ
Ð±Ð¾ ÑĢÐ°
ÑĨ ÐµÐ¼
ĠÐ¾Ð´ Ð½Ð¸Ð¼
ĠÐ¿Ð¸ ÑģÐ°
ĠÐ¼Ñĭ ÑģÐ»Ð¸
Ġf irst
ĠÐ¸Ð½ÑĦÐ¾ÑĢÐ¼Ð° ÑĨÐ¸Ð¸
ĠÑģ Ð²Ðµ
ĠÐ± Ñİ
r it
ĠÐ¿ÑĢÐ¾ÑĦÐµÑģ ÑģÐ¸Ð¾Ð½
ĠÑĤÑĢÐ°Ð½ ÑģÐ¿
ĠÐ¼ ÐµÐ»
Ð°Ð½ Ð½ÑĭÐ¹
Ġ us
ĠÐ¾ÑĤÐ½Ð¾ ÑĪÐµÐ½Ð¸Ñı
ĠÐ°Ð² Ð³Ñĥ
Ñĥ ÑĢÐ°
ĠÐ½Ð° ÑģÑĤ
ĠÐ·Ð½Ð° ÐµÑĤ
ĠÑģÑĤ ÑĥÐ´
ĠÐ³ Ð»Ñı
ĠÐ³ ÑĢÐµ
ĠÐ½Ð°Ñĩ Ð°Ð»ÑĮ
ĠÑģ ÑĬ
ĠÐ·Ð´Ð¾ÑĢ Ð¾Ð²
Ð¾Ð¼ Ð°
f ter
Ð¾Ð²Ð° ÑĢÐ¸
ÑģÐ° Ð´
Ð± Ð¾Ð¹
ĠÑĢÐ°ÑģÐ¿ ÑĢÐ¾
ÑĤÐ¸ Ð¼
ĠÐĴ Ð°Ð¼
ÑĢÐ¸ ÑĤÐµÐ»ÑĮ
Ġc l
Ñı Ð»ÑģÑı
Ð Ļ
ÑĩÐµÑģÐº Ð°Ñı
Ġcon t
p t
ĠÐ¿Ð¾ ÑģÐºÐ¾Ð»ÑĮÐºÑĥ
ĠÐ¸Ð· Ð¼ÐµÐ½Ð¸
Ñĩ Ð¸Ð»
Ð¿ Ð¾Ñĩ
Ð½Ð¸ Ð»Ð°
ĠÐ¾Ð± Ñģ
ĠÑĥÐ´ Ð¾Ð±
ÑĢÐ¸ Ð·
Ð¸ÑĤ Ð°Ð¹
ÑħÐ° ÑĤÑĮ
ĠÐ¡ ÐµÐ¹ÑĩÐ°Ñģ
i b
Ð¾ ÑĢÑĥ
ĠÐºÐ¾Ð»Ð¸ ÑĩÐµÑģÑĤÐ²Ð¾
ÐºÑĥ Ð½
ĠÑģÐ¸Ð» Ñĭ
ĠÐºÐ° Ð¿
ĠÑģÐ´ÐµÐ» Ð°Ð»
Ġ2 2
. )
ÑĤÐ° Ñı
ĠÑĤÑĢÐµ Ð±Ñĥ
ÑĨ ÐµÐ¹
i k
ĠÐ± Ð°Ð»
Ñĩ Ð½Ð°Ñı
ÐµÐ¼ ÑģÑı
r ic
ÑĩÐ¸ ÑģÐ»
ĠÐ´ÐµÑıÑĤÐµÐ»ÑĮ Ð½Ð¾ÑģÑĤÐ¸
Ġ1 00
Ð± ÐµÑĢ
ĠÐ¸ Ð´ÐµÑĤ
1 7
ĠÐº Ð½Ñı
ĠÑģÐ¼ÐµÑĢ ÑĤÐ¸
Ð¶Ð° Ð¹
ĠÐ² Ð½Ð¾Ð²ÑĮ
ĠÑĤÑĢÐµ ÑĤÑĮ
Ñĥ Ð¿Ð°
ĠÐ¿Ñĥ ÑĤÐ¸
ĠÐĺ Ð»Ð¸
ĠÑģÑĤÐ° Ð²
ÑĤÐ° ÑĢ
Ð»Ð¸ Ð²
ĠÑĥÐ½Ð¸ Ð²ÐµÑĢÑģ
ĠÑĤÐ°Ðº Ð°Ñı
Ġa r
ĠÑģÐ¾Ð· Ð½Ð°
Ġ2 4
ĠÑĤÑĢÐµ Ñħ
ĠÐ¿Ð¾ ÑıÐ²Ð¸
Ð¸Ð± Ð¾Ð»ÐµÐµ
ĠÐ¼ÐµÐ½ÑĮ ÑĪÐµ
ĠÐ¾Ð´ Ð½Ñĥ
ĠÐ¿ÑĢÐµ Ð²ÑĢÐ°
ĠÐ½ Ð°Ð»Ð¸
ÑĤ ÐºÐ¸
ĠÐ¼ÐµÐ¶Ð´Ñĥ Ð½Ð°ÑĢÐ¾Ð´
Ð¿Ð° ÑĢÐ°
ĠÐ¼ÐµÑĤ Ð¾Ð´
ĠÑģÑĤ ÐµÐ½
ow n
ÐºÑĥ Ñİ
Ð´Ð¸ Ð¸
ÑģÐ¿ ÐµÐº
ĠÑģÐ°Ð¼ Ð¾Ð¹
ĠÑģÑĤ ÐµÐ¿
ĠÑĥÑĩÐ°ÑģÑĤÐ¸ Ðµ
ĠÐ±Ð¾ÑĢ ÑĮ
Ð½Ð¸ Ð»Ð¸
ĠÑĢÐ° Ð´Ð¾
ĠÐ¾ Ð·Ð½Ð°
Ð¾Ñĩ ÑĮ
Ð´ ÑĥÑĤ
Ð¼Ð° Ñħ
ĠÐ³ÑĢÑĥÐ¿ Ð¿Ñĭ
Ð±Ðµ Ð¶
ĠÐ´Ð° Ð²
Ð»Ðµ ÐºÐ°
ÑĤÐ¸ Ð»Ð¸
ĠÐº Ð¸Ð²
ĠÐ¿ Ð°ÑĤ
Ġre s
ĠÐ¿ÑĢÐµÐ´ Ð»Ð°Ð³Ð°
ĠÐ½Ð°Ð¿ ÑĢÑı
ĠÐ² Ð¿
ĠÐ°Ð¿ ÑĢÐµ
ĠÐ¾ÑĤÑģ ÑĥÑĤ
ĠÐ¼Ð¾ Ñı
ĠÐ± ÑĥÐ¼Ð°
ĠÐ±ÑĥÐ´ Ñĥ
ĠÐ´Ð¾ÐºÑĥ Ð¼ÐµÐ½
ÑģÑĤÐ° Ð½Ð°
ĠÐ´ Ð²Ð¾
ĠÑģÐ¾Ð´ÐµÑĢ Ð¶Ð°
ĠÐº ÑĥÐ¿
ÑĢÐµ Ð»Ð¸
ĠÐ½ Ñĭ
Ð´Ð¸ Ð½Ð°
? !
Ð½ Ð¾Ð³
ĠÐ¾Ðº ÑĢÑĥ
ÑĪÐ¸ ÑĤÑĮ
Ð± ÑĢÐµ
ĠÐļ ÑĤÐ¾
Ð²Ð¸ ÑĤÑĮ
ÑĤÑĭ Ñħ
ĠÐĳ Ð°
ĠÑĥÐ± Ð¸Ð¹
Ñģ Ð»Ð°
ĠÐ½Ðµ Ð·Ð°
ĠÐ¸Ð¼ Ñı
ĠÐ¿ÑĢÐ¸ Ð±Ñĭ
ĠÐ±Ð¾Ð»ÑĮÑĪ Ð¸Ð½
ĠÑĦ ÑĢÐ°Ð½
Ġa d
ĠÐ·Ð°Ðº Ð°Ð·
Ð²Ð¾Ð» Ñİ
ĠÐ¶ÐµÐ» ÐµÐ·
ĠÐľÐ¾ÑģÐº Ð²Ðµ
ĠÑĢÐµÑĪ Ð¸Ð»
ÐºÐ° ÑĢ
ĠÐĴ ÐµÐ´ÑĮ
ĠÐ½ Ð¸Ð·
ĠÐ´Ð¾ÑĢ Ð¾Ð³
ĠÐ± ÑĥÐº
ÑĢÐµ Ð»Ð°
ĠÐ½Ð° Ð³
ĠÐ²Ñĭ Ð±ÑĢÐ°
p ort
ĠÑģÑĥÑīÐµ ÑģÑĤÐ²
ÑĪÐ° ÐµÑĤ
ac t
ĠÐ¼Ð¾ Ñī
ĠÐ¾Ð±ÑĬ ÐµÐº
ĠÐ¿ÑĢÐ¸Ñģ ÑĥÑĤ
ĠÐ¾Ð¿ Ñĥ
ĠÑģÐ¸Ð»ÑĮ Ð½Ð¾
ĠÐ´ Ð»Ð¸Ð½
ĠT h
Ð³ Ð¾Ð²Ð¾ÑĢ
ĠÐ¢ Ð¾Ð³Ð´Ð°
Ð½Ð°Ð´ Ð»Ðµ
ĠÐ½ Ð¾Ð²ÑĭÐµ
ĠÐ¿Ñĥ Ð½Ðº
Ð¿ Ð°ÑĢ
ĠÐ¼Ð¾ Ð¸
Ġ Ñī
Ð¼ Ð¾Ð²
ĠÐ¿Ð¾Ð¿ Ñĥ
ĠÐ¼ ÐµÑĢÐµ
ĠÐ´ Ð»Ð¸
ÂłÂł ÂłÂł
ĠÐºÐ¾Ð¼ Ð°Ð½Ð´
ĠÐ¾ÑĤ Ð¼Ðµ
im e
ĠÐ¿Ð¾Ð´ Ð¾
ĠÐ²Ð¾Ð·Ð´Ñĥ Ñħ
ĠÐ¡ Ð²
w o
Ð»Ð° Ð³
at er
ĠÐ¾ÑĪÐ¸ Ð±
ĠÐŁ Ð°
Ġ ro
ĠÑģ Ð½Ð°
ĠÑĥ ÑħÐ¾Ð´
ĠÑĤ ÐµÐ»Ð¾
ĠÐ¾ÐºÐ¾Ð½ ÑĩÐ°
ĠÐ¢ ÐµÐ¼
ĠÑħ ÑĢÐ°
ÑĭÐ²Ð° ÐµÐ¼
ĠÑģÐ°Ð¼ ÑĭÐ¹
ĠÐ½ Ð¾Ð³Ð¸
ÑĪÐµ Ðº
ĠÐ± Ð¾Ð³
ĠÐ¿Ð¾ Ð½
ul t
ĠÐ² Ð¸Ð½
Ð¾Ð¶Ð¸ Ð´Ð°Ð½
ĠÐĿ Ð¾Ð²
ĠÐľ Ð¸Ð½
ÐºÐ¸ Ð¼Ð¸
ĠÑĤ ÑĢÐ°Ð²
1 1
ÑĪÐµ Ð²
ĠÐ¿ÑĢÐ¸ ÐºÐ°Ð·
ĠÐŁÐ¾ÑĤ Ð¾Ð¼
Ð»Ñı ÐµÑĤ
ĠÑĦ Ð¸
Ñģ Ð¾Ð»
ĠÑģÑĤÐ° ÑĢÐ°
ĠÐ³Ð¾ÑĢÐ¾Ð´ Ðµ
Ġin t
ĠÐ¸Ñģ ÑĩÐµ
Ðµ Ð²Ð°
ĠÐĵ Ð¾ÑĢ
ĠÑģ Ð½Ð¸
ĠÐ²Ð¾Ð¿ÑĢÐ¾Ñģ Ñĭ
ĠÑģ ÑĥÐ±
Ð°Ðº Ð¸
Ñĩ Ð½Ð¾Ðµ
Ð±Ð¸ Ð»Ð¸
ĠÐ»ÑİÐ± Ð¾Ð¹
ĠÐ¿Ð¾ ÑģÑĤÑĢÐ¾
Ð¸ ÐµÐ¼
ĠÑĥÐ¿ÑĢÐ°Ð² Ð»ÐµÐ½Ð¸Ñı
ÑģÑĤÐ²ÐµÐ½ Ð½ÑĭÐµ
ĠÑħÐ¾Ð·Ñı Ð¹
ĠÑģÐµÐ½ÑĤ ÑıÐ±ÑĢÑı
ĠÐ¼ Ð°Ñı
ĠÐ¿Ð¾Ð¼Ð¾ ÑīÐ¸
ĠÑģ Ð¾ÑĢ
Ð²Ð¸ Ð»Ð°
Ð¹ Ð½
ĠÐ¿ÑĢÐ¸ Ð½Ð°Ð´Ð»Ðµ
ĠÐ¿Ð¾Ð»ÑĥÑĩÐ¸ ÑĤÑĮ
Ġit s
Ð¾Ð¼ ÐµÑĤ
ĠÐ´Ð¾Ð» Ð»Ð°
Ð³ ÐµÐ¹
ĠÑĤ Ð¾Ð¿
Ġ5 0
ĠÐ¿Ð¾Ð²ÐµÑĢ Ñħ
ĠÑıÐ½Ð²Ð° ÑĢÑı
ÂłÐ §
ĠÑģÐ°Ð¹ ÑĤÐµ
ÑĨ ÐµÐ½Ð¸
Ð´ Ð°Ð»Ð¸
ĠÑĢÐ° Ð¼
ac h
ĠÐ¿Ð¾Ð»ÑĥÑĩ Ð¸Ð»
Ġthe ir
ĠÐ¿ÑĢÐ¾Ð¸Ñģ ÑħÐ¾Ð´Ð¸ÑĤ
Ġ ÑĢÑı
ĠÐ±ÐµÐ·Ð¾Ð¿Ð°Ñģ Ð½Ð¾ÑģÑĤÐ¸
ĠÑĢÐ°Ð±Ð¾ÑĤÐ° ÑĤÑĮ
ĠN o
ÐµÐ½ Ð½Ð°Ñı
ou t
ÑĤ Ð¾Ð¶
ÐµÐ· Ð´Ð°
he d
ĠÐ²Ñĭ ÑģÑĤÑĥÐ¿
p l
ÑģÐ¸ ÑĤÑĮ
ÑĩÐµ Ð±
ĠÐ¿Ð¾Ð´ Ð¾Ð·
ĠÑĤÑıÐ¶ ÐµÐ»
Ð¾Ð² Ð°Ð»Ð¸
ĠÑĨ Ð°ÑĢ
ÑıÐ· Ð°Ð½
ĠÑĤÑĢÐ° Ð´Ð¸
ĠÐ¿Ð¾Ð¼ Ð¾Ð³
Ð¾Ð± Ð¾Ð¹
ÐµÐ² Ð¾Ð¹
en ce
Ð² Ð°Ð»Ð°ÑģÑĮ
Ðº Ñģ
ĠÐĶÐ° Ð¶Ðµ
Ġ19 3
ĠÐ·Ð° Ð¿Ð¸
Ð¿ÑĢÐ¾ ÑĩÐµÐ¼
Ñį ÑĢ
ĠÑĤ ÐµÐ»
Ð° ÑĤÐ¸
ĠÐŁÐ¾Ñĩ ÐµÐ¼Ñĥ
ĠÐ½ Ð¾Ð²ÑĭÐ¹
Ð¡Ð¡ Ðł
Ġp art
ĠÑĤ Ð²Ð¾ÑĢ
a re
ĠÐ¶ Ð¸ÑĤÑĮ
ÑĮ ÑĤÐµ
ĠÐ½Ð° ÑĪÐµÐ³Ð¾
Ð´ Ð¾Ð¼
ÑģÐ¸ Ð²
ĠÐ¸Ð·Ð²ÐµÑģÑĤ Ð½Ð¾
ĠÑģ ÑİÐ´Ð°
ĠÐ½Ðµ ÑģÐºÐ¾Ð»ÑĮ
em ber
an g
ĠÐ¿Ð¾Ð½Ñı ÑĤÑĮ
ĠÑģ ÑĥÐ´ÑĮ
ĠÑĢÐµ Ð¶Ð¸Ð¼
Ð» ÐµÐ½Ð¸Ð¹
ĠÑģÑĢÐµÐ´ ÑģÑĤÐ²Ð°
Ð½Ñİ Ñİ
ĠÑĤ ÑĥÑĢ
ou nt
ĠÐ¾ÑĩÐµÑĢÐµÐ´ ÑĮ
ĠÐ· ÑĥÐ±
I n
Ð½Ð° ÑĩÐµ
ÂłÐ ĺ
ĠÐ²Ð¾ ÑģÐº
ĠÐ´ÑĥÐ¼Ð° Ñİ
Ð´Ð° ÑĤ
ÑĭÑĪ Ð»ÐµÐ½
ĠÐ¾ Ð·
ĠÐł Ð°Ð½
ĠÐºÐ¾ ÑĢÐ¾ÑĤ
Ð¾ÑĢ Ð¾Ð²
ation al
ĠÑĤÐµÐ»Ðµ ÑĦÐ¾Ð½
ÐĹ Ð°
ĠÐ½Ðµ Ð·
Ġ2 1
ĠÐ¾Ð±ÑĬ ÑıÐ²
Ð»Ð¸ Ð±Ð¾
Ġ j
ĠÐ¡ Ðº
ĠÑĢÐ°Ð¹ Ð¾Ð½Ð°
ĠÑįÐºÐ¾Ð½Ð¾Ð¼ Ð¸ÑĩÐµÑģÐº
ĠÑģÐ» Ð¾Ð²Ð¾
Ġ2 3
Ð» Ð¾Ð´
ĠÑĢÐ°Ð±Ð¾ÑĤ Ðµ
it ion
Ð» ÐµÐ½Ð¸Ñİ
ĠÐ¶ÐµÐ½ÑīÐ¸ Ð½Ð°
ĠÐ¾Ð´ Ð½Ð¾Ð¼
ĠÐ² Ð»Ð¸Ñı
ĠÐ¿ÑĢÐ¸ÑĪ Ð»Ð¾ÑģÑĮ
Ð²Ð°Ñı ÑģÑĮ
Ð¿ÐµÑĢ Ð²ÑĭÐµ
ĠÐ± Ð¾Ðº
Ġ :
ĠÐ¿ÑĢÐ°Ðº ÑĤÐ¸ÑĩÐµÑģÐºÐ¸
ĠÐ½Ð° Ð²
Ð¸ÑĤ ÐµÑĤÐ°
ĠÐ¾Ñģ Ð²
ĠÐĲÐ»ÐµÐºÑģÐ°Ð½Ð´ ÑĢ
ĠÑģÐ» ÑĥÑĩ
ĠÐ³ ÐµÑĢ
ĠÑĦÑĥÑĤ Ð±
ÑĪ ÐºÑĥ
ĠÐ¼Ð½Ð¾Ð³ Ð¸Ñħ
ĠÐ´ ÑĢÐµÐ²
ĠÐŁ Ð¾Ð¼
ÑĩÐµÑģÐº Ð¸
ÑģÑĤ Ð¸Ð»
ĠÐ¿Ð»Ð° Ð½Ð¸
ĠÐ² Ð¸Ð·
ÐµÐ½ Ð½Ð¾Ðµ
ÑĢÐµ ÑĨ
Ġ201 3
Ġb ut
Ð± Ð¸ÑĤ
ĠÐ¼ Ð³
ĠÑģ ÑĥÐ¿
ĠÐķ ÑīÐµ
Ð³ Ð¸Ð½
ĠÐ½ Ð¾Ð²ÑĭÑħ
ĠÐ² Ð·Ð°
ÐĿ Ð¾
ĠÑĥ ÑĩÐ¸ÑĤ
) )
ÑģÑĤÑı Ð¼Ð¸
ĠÐ¥Ð¾ÑĤ Ñı
Ð¶ ÐµÑĤ
ĠÑģÐµ ÐºÑĥÐ½
ĠÑĦÐµÐ²ÑĢÐ° Ð»Ñı
ĠÐ·Ð½Ð° ÑĤÑĮ
ĠÑģÐ²Ð¸ Ð´ÐµÑĤ
ĠÐ½ÐµÐ± Ð¾Ð»ÑĮÑĪ
ĠÐ¿ÑĢÐ°Ð² Ð´Ð°
ĠÑģÐ¿ ÑĢÐ°Ð²
Ð½ ÐµÐ¼Ñĥ
ĠÐ¾Ð±Ñĭ ÑĩÐ½Ð¾
c om
ĠÐĹ Ð´ÐµÑģÑĮ
ĠÐ² Ð½Ð¸Ð·
ĠÐ´Ð°Ð½ Ð½ÑĭÐ¼
ĠÐ±Ð»Ð° Ð³Ð¾
ĠÐ¼Ð» Ð½
Ġwh o
ĠÐ½Ð¾ ÑĩÑĮ
ĠÐ° Ð»ÑĮ
en s
Ð½Ñĥ Ð»Ð¸ÑģÑĮ
ĠÐ² ÐºÑĥ
ĠÐ±Ð¾Ð» ÐµÐ·
ĠÐłÐ¾ÑģÑģÐ¸ Ñı
ĠÐ´Ð¾ ÑģÑĤÑĥÐ¿
ÑĨ ÐµÐ½ÑĤ
ÑģÑĤÐ²ÐµÐ½ Ð½Ð¾Ðµ
ĠÐ²Ð¾Ð·Ð¼Ð¾Ð¶ Ð½Ð¾ÑģÑĤÐ¸
re e
ar k
Ðµ Ð±
ĠÐ¿Ð¾Ð» ÐµÐ·
ĠÐ½Ðµ Ð´ÐµÐ»
ĠÐ¿ÑĢÐµ ÑģÑģ
ĠÐŁ ÐµÑĢÐµ
ĠA l
ÑĢÐ° Ð¶Ð°
ĠÐºÐ¾Ð¼Ð¿Ð° Ð½Ð¸Ñı
ÑĨ Ð¸Ð½
ÐºÐ¾Ð¼ Ñĥ
Ð´Ð° ÑİÑĤ
ÑĩÐ¸ Ð²Ð¾
le ct
ĠÐ¢Ð°Ðº Ð¶Ðµ
Ñħ Ð¾Ð¼
Ñī Ð¸Ðµ
ÑĮ ÑİÑĤ
ÐµÐ½ Ñı
in d
Ð²Ð° Ñİ
Ġ ÑĢÐ¾Ð¼
ĠÑįÑĦÑĦ ÐµÐºÑĤÐ¸Ð²
ĠÐ± Ð¾Ð¹
ĠÐ» Ð¾
ĠÐ¾ÐºÑĤÑı Ð±ÑĢÑı
Ð¾Ð¶ Ð½Ð¾
Ð¼Ðµ ÑĨ
Ð¢ Ðŀ
ĠÐ°Ð½ ÑĤÐ¸
ĠÐ»Ð¸ÑĤ ÐµÑĢÐ°
ĠÐ± Ð¸
ĠÐ¾ÑĤ ÐµÑĨ
e y
ĠÐ´ Ð²Ð¸Ð³Ð°
ĠÑģ ÑģÑĭÐ»
ĠÑħÐ¾ÑĤ ÐµÐ»Ð¾ÑģÑĮ
ĠÐ¾Ð±Ð¾ ÑĢÑĥÐ´
ĠÑģÐ¾ ÑģÑĤÐ°
ĠÐ¿ ÑĥÐ±Ð»Ð¸
ÑĥÑĪ ÐºÐ°
ĠÑģÐ°Ð¼ ÑĭÐ¼
ĠÑģ Ð²ÐµÑĢ
ĠÐ¿ÑĢÐ¾ ÑģÑĤÑĢÐ°Ð½
ĠÐ¼ÐµÑĤ Ð°Ð»
Ð¾ ÑĦ
ĠÑģÐ¸ Ð»Ð°
ĠÐ° Ð²Ð¸
ation s
ĠÑĥ Ð¼ÐµÑĢ
Ð¸Ð½ ÑĤÐµÑĢÐµ
ĠÑģÐ¾Ð¾Ð±Ñī Ð¸Ð»
ĠÐºÐ¾Ð¼ Ð¼Ñĥ
__ __
Ñı ÑĤÐ¸Ñı
Ðµ Ð¶
Ð´Ð° Ð²
ÑģÑĤÐ²Ñĥ ÑİÑĤ
ĠÐºÐ° ÑģÐ°
ĠÐ¸ÑģÐ¿Ð¾Ð»ÑĮÐ· Ð¾Ð²Ð°ÑĤÑĮ
ĠÑĥÐ²Ð¸ Ð´ÐµÐ»
t e
ĠÐ¿ÑĢÐ¸ Ð±Ð»Ð¸
Ġon e
Ð¼Ð¸ Ð½
ĠÑĢÐµ Ð³Ñĥ
ĠÐ°ÑĢ Ñħ
ĠÐºÐ¾Ð½ ÑĦ
ĠÐ¿Ð¸ ÑĪ
ĠÑĥÐ¶ Ð°Ñģ
ÑĤÐ¸ ÐºÐ¸
ĠÑģÐºÐ¾ ÑĢÐµÐµ
ÑĢÐ¾ ÑĤÐ¸Ð²
ÑĤÐµ ÑĢÐ°
Ð¼ Ð¾Ð¹
Ð¼Ð° ÑĢ
ĠÐ´Ðµ Ð²Ð¾
ÑĢÐ¸ Ð½Ð°
ĠÑĥ Ð½Ð¸Ñĩ
ÂłÐĿ Ðµ
ĠÐ¿Ð¾ÑģÑĤÐ¾ÑıÐ½ Ð½Ð¾
ĠÐ¿Ð¾Ð¿ Ð°
Ñĥ Ð¼Ðµ
ĠÐ¿ÑĢÐ¾Ð±Ð»ÐµÐ¼ Ñĭ
ĠÐ¿ÑĢÐ¾Ð¸Ð· Ð½ÐµÑģ
ĠÐ¿ÑĢÐ¸ ÑĢÐ¾Ð´
ĠÐŃÑĤÐ¾ ÑĤ
ĠÑĢÐ°Ñģ ÑģÐºÐ°
Ð´Ð¸ Ð²Ð¸
ter n
Ġa b
ĠÑģÐ¾Ñģ ÐµÐ´
ol l
Ġa pp
ĠÐ¼ Ð°Ð½
ĠÐ²ÐµÑģÑĮ Ð¼Ð°
ĠÐŁ Ðµ
ĠÐļ Ð¸
ĠÐ¡ Ð¡Ð¡Ðł
ĠÐ½Ð° Ð¿Ð¸Ñģ
ĠÐĹ Ð°Ðº
ÑĩÐµÑģÐº Ð¾Ðµ
ĠÐĵÐµÑĢ Ð¼Ð°
Âł Ð³
ĠÐ¢ Ð°
ĠÐ·Ð° Ñģ
ĠÐł Ñĥ
ĠÐ¿Ð¾Ðº ÑĢÑĭ
ĠÑĢÐ°Ð· Ð´ÐµÐ»
am p
ĠÐ²Ñĭ ÑĢÐ°Ð¶
ĠÐ½ÐµÐºÐ¾ÑĤÐ¾ÑĢÑĭ Ðµ
ĠÐ¿ÑĢÐ¾ Ñĩ
Ð»ÐµÐ½ Ð¾
ĠÐ¸Ð½ Ð¾Ð³Ð´Ð°
ĠÐ¿Ð¾ ÑģÑĤÑĥÐ¿
ĠÑĥÐ²ÐµÑĢ ÐµÐ½
ÑĪÐ¸ ÑģÑĮ
ĠÐµÐ´ Ð²Ð°
ÐºÐ¾Ð¼ ÐµÐ½
Ð»Ð° Ð²Ð°
ĠÐ»ÑİÐ± Ð¸Ð¼
Ð¿ Ð¾Ð²
ĠÐĵ Ð»Ð°Ð²
.. ..
1 6
ĠÐºÐ°Ð· Ð°Ð»Ð¾ÑģÑĮ
Ð°Ñģ ÑģÐ°
Ð¼Ð¸ ÑĢÐ°
ĠÐºÑĢÐµ Ð¿
ĠÐ½Ðµ Ð¼ÐµÑĨ
Ġy ear
ĠÐ± ÑĢÐ¸
Ñħ Ñĥ
ĠÐĶ Ð¸
cl ud
Ġ her
ĠÐ½Ðµ Ð¾Ð¶Ð¸Ð´Ð°Ð½
ĠÐºÐ¾Ð½ ÑĨÐ°
ĠÑĩ Ð¸ÑĤ
ou ld
ĠÐĲ Ð»
ĠÐ¿Ð¾Ñĩ ÑĥÐ²
ÑĥÑİÑī Ð¸Ñħ
ĠÐ¾Ñī ÑĥÑī
Ðº ÐµÑĤ
ĠÐļ Ð¾Ð½ÐµÑĩÐ½Ð¾
Ð³ Ð¾Ð¼
] .
Ġt e
Ð¿ÑĢÐ¸ Ð¼ÐµÑĢ
ĠÐ½Ð° Ð¼Ð¸
ĠÑıÐ²Ð»Ñı ÑİÑĤÑģÑı
Ð°Ðº Ð¾Ð²
ĠÐ²Ðµ ÐºÐ°
ĠÐ¿ÑĢÐ¾ÑĪ Ð»
ĠÐĹ ÐµÐ¼
ĠÐ¿ Ð¸Ñģ
ÑīÐ° ÐµÑĤÑģÑı
n g
ÐµÑħ Ð°Ð»
ĠÑĢ Ð¾Ð·
Ġ19 5
1 4
ĠÑģÐ¸Ð» Ñĥ
ĠÐ¶ Ð¸Ð»
l and
ĠÑį Ð»ÐµÐ¼
ĠÐ¿ÑĢÐ¾ ÑıÐ²
ĠÐ¸Ð¼ ÐµÐ½Ð¸
ĠÐ¸ÑģÐº Ð»ÑİÑĩ
ĠÑĢÐ°Ð¹ Ð¾Ð½Ðµ
ÑĤÐ¸ Ð½Ð°
ĠÑģ ÐµÐ»ÑĮ
Ð± Ð¾Ð²
ĠÐ¾Ð¿ ÑĭÑĤ
ĠÐ¾Ð³ÑĢÐ° Ð½Ð¸
ĠÑģ Ð¾Ð¶
ĠÐ³Ð»Ð°Ð·Ð° Ð¼Ð¸
ĠÐ¿ÑĢÐ¾Ð´Ð¾Ð» Ð¶Ð°
ĠÑħÐ¾Ñĩ ÐµÑĤ
or n
al ly
ĠÐ²Ð½Ñĥ ÑĤÑĢÐ¸
ĠÐ¿Ð¾Ð¼Ð¾Ñī ÑĮ
or y
ÑĤÐ¸ ÑĤÑĮÑģÑı
ĠÐ´Ð°Ð»Ðµ ÐºÐ¾
ĠÐ¸ Ð½Ð¾
ĠÐ´Ð²Ðµ ÑĢÐ¸
o ok
ĠÑĢÐ° Ð½
ĠÑĢÑĥ ÐºÐ¾Ð¹
Ġh ave
ĠÐ¿Ñĥ ÑĤÑĮ
ĠÐ´ÐµÐºÐ° Ð±ÑĢÑı
ĠÐ·Ð°Ð¼ÐµÑĤ Ð¸Ð»
ÑĦÐ¾ÑĢ Ð¼Ð¸
Ðº Ð¾ÑĢ
ĠÑĩ Ð¸ÑĤÐ°
ĠÐ´Ð¾Ð¼ Ð¾Ð¹
ĠÑģÐµÑĢÐ´ ÑĨÐµ
Ð¾Ð» ÐµÐ²
Ð¾Ð¿ ÑĢÐ¸Ñı
ÑĨÑĥ Ð·
ĠÐ½ ÐµÐ½Ð°
ou nd
ĠÐ±ÑĥÐ´ ÐµÐ¼
Ġa c
ĠÐ¿ÑĢÐ¾ ÑĤÐ¸
o ol
ĠÐ¶ Ð°Ð»
ĠÐ½Ð° Ð¸Ð±Ð¾Ð»ÐµÐµ
ĠÐ¼Ð°ÑĢ ÑĤÐ°
ÑģÑĤÐ²ÐµÐ½ Ð½ÑĭÐ¼
ĠÑĤ ÐµÐ»Ð°
Ġpl ay
ĠÐ¿Ð¾Ð³Ð¸ Ð±
ĠÐ°Ð²ÑĤÐ¾Ð¼Ð¾Ð± Ð¸Ð»
ĠÑģÐ¾Ð» Ð½
Ð° ÑĤÐ°
ĠÐ½Ð°Ñĩ Ð°Ð»Ðµ
Ð ¬
ĠÐ³Ð¾ÑģÑĥÐ´Ð°ÑĢ ÑģÑĤÐ²Ð°
ĠÐ¼Ð³ Ð½Ð¾Ð²
ĠÑģ ÐµÐ·
2 00
ĠÑħÐ°ÑĢÐ°Ðº ÑĤÐµÑĢ
ĠÐ¼Ð½ Ð¾Ð¶Ðµ
ĠÐ¿ÑĢÐµÐºÑĢÐ° Ñģ
ĠÐ¼Ðµ ÑħÐ°
ĠÑģÑĤÑĢÐ° Ð½Ðµ
ĠÐ´Ð² Ð¾ÑĢ
ĠÐºÐ°Ðº Ð¾Ðµ
ĠÐ² ÑĢÐ¾Ð´Ðµ
u gh
Ñį Ð¹
ĠÑĢÐ°Ð· ÑĢÐ°Ð±Ð¾ÑĤ
ĠÐ§ ÐµÑĢ
Ġ2 6
ĠÐº Ð¼
Ġ201 2
Ð¼ Ð¾Ð¼
a w
Ð±Ð° ÑĤÑĭ
ÑĢÐµÐ¼ Ñı
Ġth is
ĠÐ²Ð¿Ðµ ÑĢÐµÐ´
ĠÐļ Ñĥ
ÑĢÐµÐ´ Ð¸ÑĤ
ĠÑĩÐµÐ¼Ð¿Ð¸ Ð¾Ð½Ð°
Ð² ÑĪÐµÐ¹
Ð· Ð¸Ð½
ÑĩÐ¸ Ð»Ð¸
Ð¿ Ð¾Ð½
Ñģ ÑģÐ¸
ĠÐŀ ÑĢ
res s
ĠÐļ ÑĢÑĭ
ĠÐ± Ñĥ
ĠÑģ ÑĦ
ĠÐ¿Ð° ÑĢÑĥ
Ġ2 8
ĠÑģÑĤÐ° Ð½ÐµÑĤ
Ð³ Ð°Ð»
ÐµÑĢ Ð½Ð°
ĠÐ¿ ÑĥÑĤ
Ð½Ð¸ ÐºÐµ
ÑĤ Ð¸ÑĤ
ĠÑĤÐµ Ð°ÑĤ
Ð¾Ð²Ð¾ ÑĢÐ°
ĠÐľ Ð°Ðº
ĠÐºÐ¾Ð½ÐºÑĥ ÑĢ
Ñı ÑĤÑĮÑģÑı
ÂłÐ Ń
ĠÐ¸ÑģÑĩÐµ Ð·
ĠÐ¿ÑĢÐ¾Ð¸Ñģ ÑħÐ¾Ð´
o ver
Ġ2 7
ĠÐ¿ÐµÑĢ Ð²Ð¾Ð¹
ĠÑĥ Ð±Ðµ
i le
ĠÐĴ Ð¾Ð»
ÑĪ ÐµÐ´
Ð°Ð´ Ð½Ð¾
ÑĤÐµÐ»ÑĮ ÑģÑĤÐ²Ð°
ĠÐ¿Ð¾ Ñį
ÑģÐ¾Ð» ÑİÑĤ
Ð´Ð° ÐµÑĤÑģÑı
Ð³Ð»Ð¸ Ð¹
ĠÐ¼ Ð¾Ð·
Ð°Ð½ Ð½Ð¾Ð¹
Ð°Ñģ Ñģ
ĠÑĤ ÑĢÐ¾
ĠÐ¿Ð¾Ð´ ÑĢÐ¾Ð±
Â Ń
ĠÐ·Ð° ÑħÐ²Ð°
ÑĩÐµ ÑĪÑĮ
ĠÑĢÐµÑĪ ÐµÐ½Ð¸Ñı
ĠÑģÑĢÐµÐ´ ÑģÑĤÐ²
ĠÑĢÐ°Ð·Ð³ Ð¾Ð²Ð¾ÑĢ
ĠÐ¾ÑĤ Ð´Ñĭ
ĠÑĥ ÑĤÑĢÐ°
ĠÐºÐ°Ðº Ð¸Ð¼
Ġm an
ĠÑĢÑĥ ÐºÐ°Ñħ
Ð°Ð½ Ð¾Ð²
ĠÐľ Ð°ÑĢÐ¸
ĠÐ³ Ñĥ
Ð»Ð¸ Ð½Ð°
ĠÐĶ Ð¼Ð¸ÑĤ
ĠÑĥÐ½Ð¸Ñĩ ÑĤÐ¾Ð¶
ĠÑĤ Ð¾Ð±Ð¾Ð¹
ĠÐ½Ð¾Ð² Ð¾Ð³Ð¾
ĠÐ½ Ð¾Ð³
ĠÐ·Ð°Ð¿ ÑĢÐµ
ĠÐ²Ñĭ Ð¿
ĠÐ¾Ð±Ð½Ð° ÑĢÑĥÐ¶
ĠÑĢÐ°Ð· Ð½ÑĭÑħ
ĠÑģÐ¸ÑĤÑĥÐ° ÑĨÐ¸Ð¸
Ñĩ ÐµÑĤÐ°
ĠÐĺ ÑģÐ¿
ĠÐ· Ð¸Ð¼
ĠÐ½ ÐµÑĢ
ĠÐ¿Ð¾ÑģÐ»ÐµÐ´ Ð½Ð¸Ðµ
t t
ĠÐ´Ð¾Ð» Ð³
ĠÐŁ Ð°Ð²
Ġ19 2
ĠÐºÐ¾Ð¼ Ñĥ
ĠÑĦÐ¸Ð· Ð¸ÑĩÐµÑģÐº
ĠÐ¾ ÑĢÐ¸
ĠÐ¶ÐµÐ½ÑīÐ¸ Ð½Ñĭ
ÑĢÐ¾Ð² Ð°Ð»Ð¸
Ð¼ÐµÐ½ Ð°
Ġb ec
ad e
ĠÐ½Ð¾ Ñĩ
ĠÐ¿ÑĢÐ¸ Ð²Ð¾Ð´
ĠÑģÑĤ Ð¾Ð»ÑĮ
ĠÐ½Ðµ Ð¶
ÑĩÐµÑģÐº Ð¸Ð¼
ĠÑĢ Ð¾Ð»ÑĮ
ĠÐ½Ð¾ ÑıÐ±ÑĢÑı
Ð¾ÑĢ ÑĤÐ°
ĠÐ´Ð¾Ð¼ Ðµ
ÑĤÐ¾ ÑĢÐ¾Ðµ
ĠÑĢÐµ ÐºÐ»Ð°
ĠÐº ÑĥÑħ
ĠÐ¿ÑĢÐ¾ÑĨ ÐµÑģÑģ
ĠÐ±Ð»Ð¸ Ð¶Ð°Ð¹
ĠÐ¿ÑĢÐ¸Ð´ ÐµÑĤÑģÑı
Ð¾ÑĢÐ¾ ÑĪÐ¾
Ð´ ÐµÐ¹
Ð½Ð¸Ð¼ Ð°Ð»
ĠÑģÑĤ ÑĢÐµÐ¼
Ð¼ Ð¾Ñģ
ĠÑĢÑĥ ÐºÐ°Ð¼Ð¸
ĠÐ´ÐµÐ½Ðµ Ð³
ĠÐºÐ°Ðº Ð°Ñı
ĠÐĴÐ»Ð°Ð´Ð¸Ð¼Ð¸ ÑĢ
ÑīÐ° ÑĤÑĮ
Ð¾Ð²Ð¾ Ðµ
Ñĩ Ð°Ð»Ð°
Ð· Ðµ
ĠÐ±Ð»Ð° Ð³
Ð¸ Ñİ
ĠÑģ ÐºÑĥ
Ġ201 6
Ġp er
ĠÐ¿ÑĢ Ð¾Ð·
ĠÐ¿Ð¾ÑĢ ÑĤ
ĠÐĺ Ð¼
ĠÐºÐ¾Ð» Ð»ÐµÐº
Ð½Ð¸ÐºÐ° Ð¼
Ġa g
ĠÑģÐ¾Ð² Ð¼Ðµ
ĠÐ²Ð¾ Ð¾ÑĢÑĥÐ¶
ĠÐ¾ÑĤ Ð¿Ñĥ
ÐµÐ´ Ñĥ
ÑģÐºÐ¾ ÑĢÐµ
ĠÐ¼Ð¾Ðµ Ð³Ð¾
ĠÐ²ÐµÑĢ Ð¾
ĠÐ°Ð²Ð³Ñĥ ÑģÑĤÐ°
ĠÐ´Ð¾Ð¿Ð¾Ð» Ð½Ð¸ÑĤÐµÐ»ÑĮ
ĠÑĢÐ°Ð· Ð¼ÐµÑĢ
ÑģÑĤÑı Ñħ
ÑĢÑĥ ÐµÑĤÑģÑı
Ð½Ñı Ð»
o b
ĠÐ¾ÐºÐ°Ð· Ð°Ð»ÑģÑı
Ð³Ð¾ Ðµ
f or
ĠÑĢÑĥ Ðº
ÑĦÐ¾ÑĢ Ð¼
Ð°Ð½ Ðµ
ÑĩÐ¸ ÐºÐ°
ÑĢÐ¾Ð¿ ÐµÐ¹
ĠÐ¼ÐµÑĢ Ð¾Ð¿ÑĢÐ¸Ñı
ĠÑģÐ¿ Ð°Ñģ
ĠÑĩÐ° ÑģÐ°
ÑĢÐ¸ ÑģÑĤ
ĠÐ½Ðµ Ð²
Ġal l
ĠÐ³ ÐµÑĢÐ¾
Ðļ Ð°Ðº
ĠÐ¿ÐµÑĢÐ² Ð¾Ð³Ð¾
Ð¾Ð»ÑĮ ÑĪÐµ
ĠÐ§ ÑĤÐ¾Ð±Ñĭ
ĠÐ½Ð°ÑģÐµÐ» ÐµÐ½Ð¸Ñı
ĠÐ¼Ñı Ð³
ĠÑģÑĤ ÐµÐº
ĠÐ¸Ñİ Ð»Ñı
ĠÑĥÑģÐ»Ð¾Ð²Ð¸Ñı Ñħ
Ñĭ Ð»
ĠÐ¶ ÐµÑĢÑĤ
ĠÐ¿ÐµÑĢÐµ ÑħÐ¾Ð´
Ñį Ðº
ĠÐ½Ð° ÑģÑĤÑĢÐ¾
Ð± ÑĥÑĢ
Ð°ÑĤ ÐµÐ¼
ĠÐ¾ÑĤ Ð»Ð¸Ñĩ
ĠÐ¡Ð¾Ð² ÐµÑĤ
ĠÑĩ ÑĥÐ¶
ÑģÑĤÐ² Ð¸Ð¸
ĠÐ´Ð²Ð¸Ð¶ ÐµÐ½Ð¸Ñı
ĠÐ´ÑĥÑħ Ð¾Ð²
ĠÐļ Ð¸Ðµ
ÐµÐ½Ð¸ Ð½
ĠÐ¿Ð¾Ð² ÐµÐ´
Ð²Ð¸ Ð»Ð¸
ĠÑĥ ÑģÑĤÑĢÐ¾
ĠÐ¸Ñİ Ð½Ñı
ĠÐ¡ÐµÑĢ Ð³ÐµÐ¹
ĠÐ±Ð¸Ð· Ð½ÐµÑģ
ĠÑģÑĤ ÑĢÑĥÐº
ĠÐ¿Ð¾Ð¶ Ð°Ð»ÑĥÐ¹
ÑīÐ° ÑĤÑĮÑģÑı
ĠÐ½Ðµ ÑĦ
ĠÐºÐ¾Ð¼ Ð¼ÐµÐ½ÑĤÐ°
ĠÐ¾ ÑĨÐµÐ½
ĠÐĳ Ð¾Ð³
f er
ÑĪÐ¸ Ð¼Ð¸
ĠÐ¾ÑĤ Ð²
ĠÐ¾ ÑħÑĢÐ°
ĠÐ²Ñĭ ÑĪÐµÐ»
ĠÐ³Ð¾ÑĢ Ñı
Ġt wo
ĠÐ²Ð¼Ðµ ÑģÑĤÐ¾
ĠÑģÐ¾ ÑģÑĤÐ¾
ĠÐ´ÐµÐ²ÑĥÑĪ ÐºÐ°
Ð «
ÑĨÐµ Ð¿
ÑģÑĤÑĮ Ñı
Ġin clud
ĠÐ¾ÑĤÐ¿ ÑĢÐ°Ð²Ð¸
1 3
Ä Ĳ
Ð²Ð° Ð¹ÑĤÐµ
ÑĢÐ¸ Ð¿
ĠÐ°Ð¿ÑĢÐµ Ð»Ñı
ĠÐĴ Ð¸Ðº
Ġbe en
o y
ĠÐµ ÑģÑĤÐµ
ĠÐ¿ÑĢÐ¾Ð¸Ð·Ð¾ ÑĪÐ»Ð¾
ĠÐ¸Ð½Ð¾ ÑģÑĤÑĢÐ°Ð½
ÐµÐ»Ð¸ ÑĤÑĮ
ĠÐ¡ Ð¿
ĠÐ¸Ð¼Ðµ ÑİÑĤ
Ð²Ð¸ Ð·
ĠÐ²Ð° Ð¼Ð¸
ĠÐ² Ð°Ð»
Ð¸ÑĤÐµ ÑģÑĮ
ĠÐºÐ¾ ÑĢÐ¸
ĠÐ¿ÑĢÐµ Ð¿
Ð¸ ÑĩÐ°
ĠÐ¿Ð¾Ñģ ÐµÑĤ
ĠÐ¿ ÑıÑĤÐ¸
ĠÐ°ÑĢÐ¼Ð¸ Ð¸
Ð½ Ð¾Ð¿
ĠÑĥ ÑģÑĤÑĢÐ¾Ð¹
Ñĩ Ð½Ð¾ÑģÑĤÐ¸
ÑĪ ÑĤÐ°
Ð² Ð°Ð»Ð¾
ĠÐ´ Ð°Ð»
ÐµÑĤ ÐµÑĢÐ±ÑĥÑĢ
ĠÑĢÐµ ÐºÐ¾Ð¼ÐµÐ½
ĠÐ³Ð¾Ð²Ð¾ÑĢ ÑıÑĤ
Ñĩ Ð½Ð¾Ð¼
f t
ÑĤÑĭ Ð¼
ĠÐ±ÑĥÐ´ ÑĥÑī
! Â»
ĠÐ´ÐµÑĤ Ð¸
! ..
ĠÐ²Ð· Ð´Ð¾Ñħ
ĠÑģ Ð¸Ð½
ÐµÑĢ Ñĥ
ĠÐ³Ð¾Ñģ Ð¿Ð¾Ð´
ur ing
ĠÐ½Ð° Ð¿Ð¸ÑģÐ°
ĠÐł Ð¾Ð´
ĠÑĤÐ¾ÑĢ Ð³Ð¾Ð²
ĠÑĢÐµÐ±ÐµÐ½ ÐºÐ°
Ñı ÑİÑĤ
ĠÐ¿ÑĢÐ¸ ÑĩÐ¸Ð½
Ð¾Ð¶ Ñĥ
ĠÐºÐ°Ð¶Ð´ Ð¾Ð³Ð¾
ÑĨ Ð°Ð¼
Ñģ ÑĥÑĢ
ĠÑģÐ°Ð¼ ÑĭÐµ
Ð¾Ð¿ Ð°
ĠÐ³ ÑĢÑı
ĠÐ¿ÑĢÐ¸ Ð³Ð»Ð°
ĠÐ´ ÑĥÑĪ
Ġ en
Ð¾Ð» Ñİ
ĠÐ² ÐµÐ»
ĠÑģ ÑĩÐ°
Ð ®
ub l
ĠÐ¼ÐµÐ´ Ð»ÐµÐ½Ð½Ð¾
ĠÑĢÐ°Ð¼ ÐºÐ°Ñħ
ĠÐ½Ð¸ÐºÐ°Ðº Ð¸Ñħ
in t
Ð´Ð° Ð¼
ĠÑģÐ¾Ð¾Ð± ÑīÐ¸
at es
ĠÐ¶Ðµ ÑģÑĤ
ĠÐ¼Ð° ÑģÑĤÐµÑĢ
ÐµÑĢ Ð¾Ð¼
ĠÐ´ÑĢÑĥÐ³ Ð¸Ð¼
Ð½Ð¾Ð² ÑĢÐµÐ¼ÐµÐ½Ð½Ð¾
is s
ĠÐ´Ð°Ð»ÑĮ Ð½ÐµÐ¹
Ð°Ð»ÑĮ Ð½ÑĥÑİ
ĠÑĢÐµ Ð¹
ĠÐ± Ð°ÑĢ
Ġ4 0
ÑĤÐ¸ Ð»Ð°
ĠÑģ Ð¸Ñħ
ĠÐŁ Ð¾ÐºÐ°
il d
ĠÐ¼ÑĥÐ¶ ÑĩÐ¸Ð½Ð°
ÑĦÐµÑĢ ÐµÐ½
ĠÐļ ÑĢÐ°Ñģ
ÑĤ ÐµÐ¹
ĠÐº Ð¸Ð»
Ġre c
ĠÑĦ Ð¾Ð½
ĠÐ¦ ÐµÐ½ÑĤ
ÑģÐ° Ñħ
Ñħ ÑĢÐ°Ð½
ĠÐ¿Ð¾Ð¿Ñĥ Ð»ÑıÑĢ
ĠÐ¿ÑĢÐ¸Ð½ ÑĨÐ¸
ÑĩÐ° Ð¼Ð¸
ĠÐ½ÐµÑģÐºÐ¾Ð»ÑĮ ÐºÐ¸Ñħ
ĠÐ»Ð¸ ÑĪ
ĠÐ´ Ñĭ
ĠÐ¡Ðµ Ð³Ð¾Ð´Ð½Ñı
ĠN ew
Ð´ÑĨÐ° ÑĤÐ¸
ĠA r
ĠÐĶ Ðµ
ÑģÐ¿ÑĥÐ±Ð»Ð¸ ÐºÐ¸
ol d
ĠÐ¸ Ð½Ð°ÑĩÐµ
ĠÐ¼Ð¾ Ð½Ð°
ĠÐ°Ð² ÑĤÐ¾
Ðľ Ñĭ
ĠÑģÐ¾ÑģÑĤÐ¾Ñı Ð½Ð¸Ð¸
v el
ÑĢÐ¸ Ð¼
u ch
e g
Ð·Ð° Ð¿
w n
ĠÐ¿Ð¾Ð»ÑĮÐ· Ñĥ
Ð°Ð»ÑĮ Ð½Ð¾Ð¼
ĠÐ¿ÑĢÐ¸ ÐµÐ¼
ĠÐ±Ñİ Ð´Ð¶
ĠÐ¿Ð¾Ð·Ð²Ð¾Ð» ÑıÐµÑĤ
ĠÑĤÐ¾Ð²Ð° ÑĢÐ¸
ĠÑģÑĤÐ°Ð½Ð¾Ð² Ð¸ÑĤÑģÑı
ĠÐ¿Ð°ÑĢ ÑĤ
ÑĢÑĥ ÑİÑĤ
ĠÑħ Ð¾Ð»
ĠÐ¿Ð¾Ð¼ Ð¾ÑĩÑĮ
ÑĤÐ¾ Ðµ
Ñĩ Ð½ÑĥÑİ
ĠÐ´Ð¾Ð¿ Ñĥ
ĠÐºÐ¾Ð¼ Ð¸Ñģ
ĠÐ¸Ð½ÑĦÐ¾ÑĢÐ¼Ð° ÑĨÐ¸Ñİ
ĠÑĤÐµÑħ Ð½Ð¸
ĠÐ½Ñĭ Ð½Ðµ
ĠÑģÑĤÐ¾ ÑıÐ»
Ñĩ Ð°Ð»Ð¸
it e
ĠÐĳ ÐµÐ»
ĠÐ¿Ñĥ ÑĤÐµ
Ð· ÐµÐ¼
ĠÑĨ ÐµÐ»Ð¸
ÑĥÑİÑī Ð¸Ðµ
ĠÐ·Ð° Ð´ÑĥÐ¼
ĠÐ¿Ð¾ÑģÐ¼Ð¾ÑĤ ÑĢÐµÐ»
Ð¿Ð° ÑģÐ¸Ð±Ð¾
ĠÐ½ÐµÐ²Ð¾Ð· Ð¼Ð¾Ð¶Ð½Ð¾
ĠÐĴ Ñģ
ĠÑģÐ¿ ÑĢÐ¾ÑģÐ¸Ð»Ð°
ĠÐ´Ð¾ ÑħÐ¾Ð´
or s
i o
ĠÐºÐ¾Ð¼Ð°Ð½ Ð´Ð¸
ĠÑģÑĤÑĢÐ° ÑĪ
ĠÑĥ Ð²Ð°
âĢ Ŀ
Ð¡ Ðļ
Ð¸ÑĤ ÐµÑĤ
Ð¾Ð³ÑĢÐ° ÑĦ
ĠÐ¿Ð¾ ÑģÐ»
ĠÐ°Ð½ Ð°Ð»
ĠÐ¿ Ð¸ÑĤÐ°
Ð¾Ñģ Ð¸
ĠÐļ Ð¾Ð»
ÂłÐĿ Ñĥ
Ð¸ Ð³ÑĢÐ°
Ġo ther
ĠÐķ ÑģÑĤÑĮ
ĠÐ´Ðµ Ð¿ÑĥÑĤÐ°
ÐŁ Ð¾
ĠÑĥÐ´ Ð¾Ð²Ð¾Ð»ÑĮ
ĠÐ¿Ñĥ ÑģÑĤÑĮ
ĠÐ¼Ð° ÑĤÑĮ
ĠÐ·ÐµÐ¼ Ð»Ð¸
ĠÐ´ÑĢÑĥÐ³ Ð¾Ð¼
ĠÐĽ Ð°
ÑĤÐ¸ Ðº
ÑģÑĤÐ²Ð¾Ð² Ð°Ð»Ð°
ĠÐ¸Ð¼ ÐµÑĤÑĮ
Ġs c
ĠÑĢÐ° Ð½ÐµÐµ
ĠÑħ Ñĥ
ĠÐ¿ÑĢÐµÐ´ Ð¼ÐµÑĤ
Ð¶ Ð½Ð¾Ð¹
p h
ĠÐ² Ð¿ÐµÑĢÐ²ÑĭÐµ
ĠÐ¿Ð¾Ð´ Ð´ÐµÑĢÐ¶Ð¸
ĠÐ±Ð»Ð°Ð³Ð¾Ð´Ð°ÑĢ Ñı
ĠÐ·Ð° ÑĩÐµÐ¼
ĠÐĿÐ¸Ðº Ð¾Ð»
ĠÐŁ ÑĢÐµ
ĠÐ²Ð¿Ðµ ÑĩÐ°ÑĤ
ĠÐ´ÑĢÑĥÐ· ÑĮÑı
ĠÐ²Ð¸ Ð´Ñĥ
ĠÐłÐ¾ÑģÑģÐ¸Ð¹ ÑģÐºÐ¾Ð¹
ĠÐ¾Ð± Ð²Ð¸Ð½
ÑģÑĤÐ°Ð²Ð¸ Ð»Ð¸
Ð»ÐµÐ½ Ð½ÑĭÑħ
ĠÐ¿Ð¾ ÑıÑģ
ÂłÐ¢ Ñĭ
ĠÑĢÐµ Ð»Ð¸
Ġ201 1
ÐŃ ÑĤÐ¾
ĠÐ²Ñĭ Ð´ÐµÐ»
ĠÑģÑĤ Ð¾Ð»ÑĮÐºÐ¾
ĠÐ¾ÑĤÐ²ÐµÑĤ ÑģÑĤÐ²ÐµÐ½
ĠÐ²Ð· ÑıÐ»
ĠÐ³Ð¾ ÑģÑĤÐ¸
ĠÑĢÐ°Ð·Ð»Ð¸Ñĩ Ð½ÑĭÑħ
Ð½Ñĥ Ð²ÑĪÐ¸ÑģÑĮ
Ð¶ ÐµÐ¼
ĠÐ½ÐµÐ´Ð¾ ÑģÑĤÐ°
ĠÑĢÐ°Ð· ÑĢÑĥ
ĠÑĢÐ°Ð±Ð¾ÑĤÐ° ÐµÑĤ
ĠÑģÐ²Ð¾ ÐµÐ¼Ñĥ
ĠÐ°Ð³ ÐµÐ½ÑĤ
Ð³Ð° Ð¼Ð¸
on e
ĠÐ² ÐµÐº
ĠÐ¿Ð¾Ðº ÑĥÐ¿Ð°
ĠÐ°Ð´ ÑĢÐµÑģ
ĠÐ¿ÑĢÐ¾Ð¸Ð· Ð²ÐµÐ´
ĠÑģÐ¸ÑģÑĤÐµÐ¼ Ð°
ĠÐºÐ°Ð± Ð¸Ð½
ĠÐ·Ð° Ð¿Ñĥ
ÐºÐ° Ð´ÐµÐ¼
ĠÐ²Ðµ ÑīÐ¸
ĠÐ¸Ð³ ÑĢÑĭ
ÑĢÐ°Ð· Ð´Ð¾
ĠÐĶ Ð¶Ðµ
Ð²Ð¾Ð· ÑĮ
ĠÐ²Ñĭ Ð³Ð»Ñı
ĠÐ¿Ð¾Ñģ Ð²
Ð»Ñı Ð½
ĠÑĢÐ°Ñģ ÑĪÐ¸
Ñĥ ÐºÐ°
ÑĢÐ¾ÑģÐ¸ ÑĤÑĮ
Ð¾ ÑģÑĤ
ĠÐ° ÑĤ
ĠÑĥ ÐºÐ°Ð·Ð°
Ġ201 0
ĠÐºÐ¾Ð½ ÑģÑĤÑĢÑĥÐº
ĠÑģÐµÐ¼ ÐµÐ¹
Ð¾Ð» Ð³Ð¾
ĠÐ¾ ÐºÐ°Ð·Ð°
ĠÐ¾Ð± ÑĥÑĩ
Ð¾Ð± Ð¾ÑĢÐ¾
ÐµÐ¼ ÑĭÑħ
ĠÐ¼ Ð°ÐºÑģÐ¸Ð¼
ĠÑģÐ²Ñı Ð·Ð°
ÑĤÐ¸ Ð²Ð°
Ð»ÐµÐ½ Ð½ÑĭÐµ
ĠÑģÐ¿ ÑĢÐ°ÑĪÐ¸
ĠÑĥ Ð¼Ðµ
ĠÐ² ÑģÐº
ent s
Ð»Ð¾ Ð½Ð¸
ÑīÐ¸ Ð¼Ð¸
ĠÐ³ Ðµ
ĠÑĢÐµ ÑĩÑĮ
el y
ĠÑĤÑĭ Ñģ
u g
ĠÑĢÐ°ÑģÑģ Ð¼Ð°ÑĤÑĢÐ¸
ĠÑĤ Ñİ
Ð·Ð° ÑĨÐ¸Ñı
ĠÐ·Ð°Ð² ÑĤÑĢÐ°
ĠÐ²Ð·Ð° Ð¸Ð¼
ĠÐ¿Ð¾Ð´ ÑĥÐ¼Ð°Ð»
ĠÐĲ Ð´
ĠÐ± Ð¾Ð³Ð°
ÐµÐ½ Ð½Ð¾ÑģÑĤÐ¸
ĠÐ²Ñĭ ÑıÑģ
Ð´Ð° Ð²Ð½Ð¾
Ð¶ ÐµÐ½Ð¸Ð¸
ĠÑĢÐµ Ð¼Ð¾Ð½
ĠÐ·Ð½Ð° ÐµÑĪÑĮ
Ðº ÑĢÐµÑĤ
ĠÐ¿Ð»Ð¾ÑīÐ° Ð´
Ġ2 9
ĠÐ°Ð± ÑģÐ¾Ð»ÑİÑĤ
Ð¾ÑĢ Ð¾Ð¼
ĠÐ²Ð¾Ð² ÑģÐµ
ĠÐ²Ð¾Ñģ ÑģÑĤÐ°Ð½Ð¾Ð²
Ð¸ÑĤÐµÐ»ÑĮ Ð½ÑĭÐ¹
ĠÑģ Ð±
ĠÑĤÑĢÑĥÐ´ Ð½Ð¾
it ed
ĠÐ¿Ð¾Ð· Ð½Ð°
ĠÑĤÐ¸ Ð¿Ð°
ÐĶ Ð°
ĠÐľÐµ Ð¶Ð´Ñĥ
ĠÐ¼Ð¸ Ðº
ĠÑĢÐµ Ð°Ð»Ð¸
ĠÑģÑĤÑĢÐ° Ñħ
ĠÐľÐ¾ÑģÐº Ð²Ñĭ
ĠÐ¿ ÐµÐ½
Ġ im
Ħ ĸ
ĠÐ³Ð¾Ð²Ð¾ÑĢ Ñı
ĠÐ´ ÑĥÐ¼Ð°Ð»
ĠÐ½Ð° Ð¼ÐµÑĢ
ĠÐĹ Ð°ÑĤÐµÐ¼
ĠÑħÐ¾Ð´ Ðµ
Ð¾Ð²Ð° Ð½Ð¸Ð¸
ĠÑĥÑģÐ» Ñĥ
on s
ĠÑģÑĤÐ¾ÑĢÐ¾ Ð½
ĠÐ²Ñģ ÐµÐ¼Ñĥ
Ð°Ðº Ñĥ
ĠÐ¿ÑĢÐ¾ÑĤÐ¸ Ð²Ð¾
ÑĨ ÐµÐ»
ĠÐ¤ÐµÐ´ÐµÑĢÐ° ÑĨÐ¸Ð¸
ĠÐ¶ÑĥÑĢ Ð½Ð°Ð»Ð¸
Ð´ÐµÑĢ Ð¶Ð°
ĠÐ¸Ð½ ÑĦ
ĠÐ¿Ð¾Ñģ ÐµÐ»
ĠÐºÐ½Ð¸ Ð³Ð¸
ĠÑĦÐ¾ÑĢ Ð¼Ð¸
ÑĥÐ¼ Ð°Ð»Ð°
Ð¶ ÐµÐ¹
ĠÐ¿Ð¾Ð½Ð¸Ð¼Ð° Ñİ
ÑĩÐ¸ Ð¹
ÑģÑĤÐ²ÐµÐ½ Ð½Ð°Ñı
ĠÐ» ÑĮ
ĠÐº Ð»Ð°
ÑĢÐ¸ ÑĤÐµ
ĠÐ¿ÑĢÐ¸ ÑıÑĤ
Ġw ork
ÑĨÐ¸Ð¾Ð½ Ð½ÑĭÑħ
ĠÐ¿ÑĢÐ¸ Ðº
ĠÑĢÐ° Ð·Ð°
ÑĢÐ° Ð²Ð¾
ĠÐĿ Ð¾Ð²Ð¾
ĠÐ¾Ð±ÑıÐ·Ð° ÑĤÐµÐ»ÑĮÐ½Ð¾
Ð² ÐµÐ½
âĢ Ļ
ĠÐ¾ÑĤ ÑĨÐ°
ĠÐ¿Ð¾Ð» Ðµ
h n
ĠÐĲ Ð»ÑĮ
Ðĺ Ð½
Ð³Ð¾Ð´ Ð½Ð¾
Ð¾Ð´ ÐµÐ¹ÑģÑĤÐ²
Ð¶ Ð°Ð»Ð°
as ed
w e
ĠÐ¿ÑĢÐ¾ ÑĤÐµ
Ñİ ÑīÐµÐµ
ĠÐŀ Ðŀ
ÐµÑĢ ÐºÐ¾Ð²
ĠÐ²Ñĭ Ð´Ð°
ÑĤÐµ Ð³Ð¾
Ðŀ Ð½Ð°
Ð¾Ð² Ð¾Ð³Ð¾
ÑģÐ»ÑĥÐ¶ Ð¸
i ed
Ð² ÐµÐ¹
ĠÑĤÐ¸Ñħ Ð¾
ĠÐ¸Ð· Ð¾Ð±ÑĢÐ°Ð¶
ĠÐ¾ÑĤÐ½Ð¾ÑĪ ÐµÐ½Ð¸Ð¸
ĠÑģÐ°Ð¹ ÑĤÐ°
ĠÑģ ÐµÑĤ
ÑģÑĤÐµ Ð¿
Ð»Ð° ÑĤ
ĠÑĢÐ°Ð· Ð²Ð¸
ĠÐ²ÐµÑĢ Ñħ
ĠÐ² Ð»Ð°Ð´
Ð¾ÑĢ Ñĭ
ĠÐ²Ð¾Ñģ Ð¿ÑĢÐ¸
ĠÐ¾ ÑĨÐµÐ½Ð¸
Ð½Ñĥ Ð¶Ð´
ĠÐ· ÑĢÐµÐ½Ð¸Ñı
ĠÐ²Ð½Ð¸Ð¼Ð° Ð½Ð¸Ñı
Ġcom m
ĠÑĥÑģÐ» ÑĭÑĪ
Ñĭ Ð²Ð°Ð»
Ð¾Ð³ Ð»Ð°Ñģ
ĠÐºÐ¾Ð¼Ð¿ Ð»ÐµÐº
ĠÐ½Ð°ÑģÑĤ Ð¾Ð»ÑĮÐºÐ¾
ĠÐ¸Ð´ ÑĤÐ¸
ĠÐº Ð¾ÑĤ
ĠÐ¼Ð°ÑĪÐ¸ Ð½Ñĭ
Ð±Ð° Ð²
ĠÐ¿Ð°ÑĢ ÑĤÐ¸Ð¸
ĠÑĢÐµÐ´ Ð°Ðº
ĠÑĥÐ»Ð¸ ÑĨÐµ
ĠÐ¾Ð±ÑĢÐ°Ð· Ð¾Ð²Ð°Ð½Ð¸Ñı
Ð´ ÑĢÐ°Ð²
ch ool
ĠÐ¿Ð¾Ð» Ñı
ĠÐ°Ð½ Ð³Ð»Ð¸Ð¹
ĠÐ¾ ÑħÐ¾ÑĤ
s s
ÑĩÐµÐ½ Ñĭ
Ð¾Ð¹ Ð´ÐµÑĤ
ĠÐĺ Ð¼ÐµÐ½Ð½Ð¾
ĠÑģ ÑħÐ²Ð°
Ġa fter
ĠÐ¾ ÑĢÑĥÐ¶Ð¸
ÑĤÑĥ ÑĢÐµ
Ð³ Ð°ÑĢ
ĠÐ²Ð¸Ð´ ÐµÑĤÑĮ
Ð¾ ÑĢÐµ
ĠÐ¾Ð¿ Ð»Ð°
ĠÑĪ Ð°
ĠÐ¿ÑĢÐµÐ´ ÑĥÐ¿
ÑĦÐ¸ ÑĨÐ¸
ÂłÐ Ĺ
ĠÑĩÐ¸ ÑģÑĤ
Ðľ Ðĺ
ĠÐ·Ð° Ð¿Ð°Ð´
Ð»ÐµÐ½ Ð½ÑĭÐ¹
ĠÐ¿ÑĢÐ¸Ð¼ÐµÑĢ Ð½Ð¾
Ð³Ð¸ Ñı
Ð¾Ñģ Ð°
ĠÐ½ Ð¾Ð¶
e x
ĠÑĦÑĢÐ°Ð½ ÑĨÑĥÐ·
Ð¾ÑĤ ÑĢÐµÐ±
ÑĤ ÐµÐ»
ĠÑĢÐ°ÑģÑģ ÑĩÐ¸ÑĤ
ÑĢÐµÐ· Ð¸Ð´
ĠÐ´Ð¾Ð»Ð»Ð° ÑĢÐ¾Ð²
ĠÐĺ Ñħ
ĠÐ±Ð¾ ÐµÐ²
ĠÑĤÐµÐ¼ Ð¿ÐµÑĢÐ°
ĠÐ¿Ð¾ÑĢÑıÐ´ ÐºÐµ
Ð¶ Ð°Ð»Ð¸
Ġ +
ÑĨÐ¸Ð¾Ð½ Ð½Ð¾Ð¹
ÐŁ ÑĢÐ¸
ĠÐĳ ÐµÑĢ
ĠÐ° Ñį
ÑĤ Ð°Ð»Ð¸
ĠÐ¿Ð¾Ð´ Ð°
ĠÐ½Ð°ÑģÑĤÐ¾Ñı ÑīÐµÐµ
ĠÐ½ Ð¾Ð²Ð¾Ð¹
* *
ÑĨÐ¸Ñı Ñħ
ĠÐ´Ð² ÑĥÐ¼
ĠÑģ ÑĩÐ°ÑģÑĤ
Ð¾Ð½ Ñĥ
ĠÐľÐ¸Ñħ Ð°
ĠÑĦ ÑĢÐ¾Ð½
ÑĩÐµÐ½ Ð¾
ĠÐ¿Ð¾Ð´ ÑĩÐµÑĢ
ĠÑģ Ð½Ð°ÑĩÐ°Ð»Ð°
ÑıÑī Ð¸Ñħ
Ð² Ð°Ð»Ð¾ÑģÑĮ
ĠÐ¾Ð¿ ÑĥÐ±Ð»Ð¸
ĠÑģ ÑĥÑħ
2 5
Ñĥ ÐºÐ¸
ĠÐ²Ð· ÑıÑĤÑĮ
Ð³Ð° ÑĤÑĮ
ÐµÐ· Ð´Ðµ
ĠÐ¿ÑĢÐ¾Ð³ÑĢÐ°Ð¼ Ð¼Ñĭ
Ð¾Ð²Ñĭ Ð¼Ð¸
ĠÐ¿ÐµÑĢÐ² ÑĥÑİ
Ð¸ÑĤÐµÐ»ÑĮ Ð½Ð¾Ð¹
ĠÐºÐ°Ðº Ð¸Ñħ
ĠÐ´ Ð½Ð¸
ĠÐ¿Ð»Ð¾ ÑħÐ¾
ĠÐ³Ð¾ ÑĢÐ°Ð·Ð´Ð¾
ĠÐ·Ð° Ð²Ð¾Ð´
ĠÐ´ÐµÑģÑı ÑĤÑĮ
ÑĢÐ° ÑĤÑĮ
ĠÐŀ Ð¿
ÑĥÐ´ Ð¸
ĠÐ¾ÑĢ Ð³Ð°
Ġfor m
Ð¸Ð± Ð»Ð¸
ĠÐ¡ ÑĤÐ¾
ĠÐ·ÐµÐ¼ Ð»Ñİ
Ġ ÑīÐµ
ĠÐ¾ÐºÑĢÑĥ Ð¶Ð°
ÑĥÑĤ ÑģÑı
ĠÐ¶ÐµÐ½Ñī Ð¸Ð½
ĠÑģ ÑĨ
ĠÐ·Ð°Ð¼Ðµ ÑĩÐ°
ÂłÐ§ ÑĤÐ¾
ur n
ĠÐ¿Ð¾ÑģÐ»ÐµÐ´ Ð½Ð¸Ð¹
ĠÐ¾ÑĤ ÐºÑĥÐ´Ð°
Ñī Ñĥ
ĠÐ¾ÑĤÐ¼ÐµÑĤ Ð¸Ð»
ĠÑıÐ² Ð½Ð¾
ĠÐĳ ÑĥÐ´
Ġ up
ĠÐ½ÐµÐºÐ¾ÑĤÐ¾ÑĢÑĭ Ñħ
ĠÐ·Ð°Ð± Ð¾Ð»Ðµ
ĠC om
ĠÐ½Ð°Ñĩ Ð°Ð»Ð¸
ĠÐ²Ñĭ Ð±
ĠÐ¼Ð½ ÐµÐ½Ð¸Ñİ
ĠÑĢÐ°Ñģ ÑħÐ¾Ð´
ĠÐ¿Ð¾Ð¼ Ð¾Ð³Ð°
ĠÐ·Ð° ÑīÐ¸
ÐµÑĤ Ð¸ÑĩÐµÑģÐº
Ġd es
Ðµ Ð²Ð¸Ñĩ
ĠÐ¾ÑĦÐ¸ ÑĨ
ÐĲ ÐĿ
Ðº Ð°Ðº
ĠÐ± ÑĢÐ¾
ĠÑģÐ¿Ð¾ÐºÐ¾Ð¹ Ð½Ð¾
ĠâĢ ľ
ĠÐ¿ÐµÑĢÐµ Ð²Ð¾Ð´
ĠÐ²Ð°Ð¶ Ð½Ð¾
Ð² ÑĪÐ°Ñı
ĠÐ²Ð¸Ð´ Ð½Ð¾
ĠÐ´Ð° ÑĤÑĮ
Ð½Ð° ÑĤ
ĠÐ´ÑĢÑĥ Ð³Ð¾Ðµ
ÑĢÐ° Ð±Ð°ÑĤÑĭ
ĠÑĢÐ°ÑģÑģ Ð¼Ð¾ÑĤ
ĠÐłÐ°Ð½ ÐµÐµ
ĠÑĩ ÐµÑģÑĤ
ĠÐ´ÑĢÑĥÐ³ Ð¾Ð³Ð¾
ĠÐ´ Ð¾ÐºÐ°
ĠÐ´Ð°Ð½ Ð½ÑĭÑħ
ĠM ar
Ñĩ ÐºÐµ
ĠÐľÐ¾ÑģÐº Ð¾Ð²
ÑĩÐ¸ ÐºÐ¾Ð²
ĠÐ²ÑģÑĤÑĢÐµ ÑĩÐ°
Ð¾Ð²Ð° Ð½Ð¸Ð¹
ÑĢÐ¾Ð² ÐºÐ¸
ĠÐ¿ÑĢÐ¸ Ñĩ
ĠÑĦÐ¾ÑĢ Ð¼Ñĥ
ĠÐ¿ÑĢÐµÐ·Ð¸Ð´ ÐµÐ½ÑĤ
ĠÐ± Ð»Ðµ
ĠÐ¸Ð½ÑĤÐµÑĢ Ð½ÐµÑĤ
ĠÐ´Ð¾ ÑģÑĤÐ°Ð²
ĠÐ¿Ð¾ ÑģÐµ
ĠÐµ Ð´Ð¸
ĠÐ¼ÐµÑģÑı ÑĨÐµÐ²
ĠÐŀ ÑĩÐµÐ½ÑĮ
ĠÐ´ÑĢÑĥÐ³ Ð¸Ð¼Ð¸
ĠÑĦ Ð¸ÑĢ
Ð¼ÐµÐ½ ÑĮ
ĠÐ± Ð»Ð¾Ðº
Ð¸Ð¼ Ð°
ĠÑĥ ÑģÐ¸Ð»Ð¸
ĠÐ¾Ð±Ñī ÐµÐ¼
ĠÑĤÐµÐ¼ Ð½Ð¾
ĠÐ³ÑĢÑĥÐ¿ Ð¿Ð°
iv ers
ĠÑģÐ°Ð¹ ÑĤ
ĠÐµÐ² ÑĢÐ¾Ð¿ÐµÐ¹
ÑĢÐ° Ð¹
Ð¸Ð» Ð¾Ñģ
ĠÐ¿ÑĢÐ¾Ð¼ ÑĭÑĪÐ»ÐµÐ½
Ð¸ÑĤÐµÐ»ÑĮ Ð½ÑĭÐµ
ĠÐŃ ÑĤÐ¸
ĠÑĥ ÑĩÐµÐ±
. "
ÑĤÐµÐ»ÑĮ Ð½ÑĭÐ¹
ĠÐĳ ÐµÐ·
Ð¾Ð¿ ÑĭÑĤ
ĠÐĵ Ð¾Ð»
ĠÐĶ Ð¾Ð±
ĠÐ¡ Ð»ÐµÐ´
ĠÐ½Ð¸ Ð¶Ðµ
ĠÐ¿ÑĢÐµÐ´ ÑģÐµÐ´Ð°
ÑĥÑĪ ÐºÐ¸
ĠÑģÐ¿ Ð¸
ÑĢÐ¸ Ñģ
ĠÐ¼ÐµÐ´Ð¸ ÑĨÐ¸Ð½
ĠÐľ Ð°Ð¹
ĠÑĩÐ°ÑģÑĤ Ð½Ð¾ÑģÑĤÐ¸
ÑĢÐ¸ ÐºÐ°
Ġd is
ĠÐ½ÐµÑģ Ð¼Ð¾ÑĤÑĢÑı
Ġp r
ĠÐºÐ¾Ð½ ÐºÑĢÐµÑĤ
ĠÐ¾Ð± ÑıÐ·Ð°Ð½
ĠÑĥ ÑĩÐµÐ½
ĠÐ½Ð°Ð²ÐµÑĢ Ð½Ð¾Ðµ
ĠÑĢÐ°Ð· Ð²ÐµÐ´
ĠÐ° ÑĢÐµ
ĠÐ½ÐµÐ¸Ð· Ð²ÐµÑģÑĤ
ĠÐ³Ð¾Ð»Ð¾Ð² Ðµ
ĠÐ±ÑĢÐ° ÑĤÑĮ
ĠÐŀÐ´ Ð¸Ð½
ÑīÐµ ÑģÑĤÐ²Ð°
ÑģÑĤÐ°Ð²Ð¸ Ð»Ð°
ĠÑĢÐµ Ð°Ðº
p e
ĠÐºÑĢÐ¾Ð² Ð¸
ĠÐ¿ÑĢÐµÐ·Ð¸Ð´ ÐµÐ½ÑĤÐ°
ĠÐ¾ÑĢ Ð³Ð°Ð½
ĠÐĴ Ðµ
ÑİÑī ÑĥÑİ
e b
ĠÑģ Ñħ
ĠÐ³Ð»Ð°Ð² Ð½Ð¾Ðµ
ĠÐ³Ð»Ð°Ð·Ð° Ñħ
Ð¾Ð²Ð° Ð½Ð¸ÐµÐ¼
ĠÐºÐ° ÑĤÐµÐ³Ð¾
Ñī ÐµÐ½Ð¸Ð¸
ĠÐ·ÐµÐ¼ Ð»Ðµ
ĠÑĢÐµ ÑģÑĥÑĢ
Ġ $
Ð² Ð¸Ð½Ñĥ
ĠÐĺÐ²Ð° Ð½Ð¾Ð²
ÑĩÐµÑģÐº ÑĥÑİ
ÑĨÐ¸ Ð°
ĠÑĢÐ°ÑģÑģÐºÐ°Ð· Ð°Ð»
ĠÑģÐ²Ð¸Ð´ÐµÑĤ ÐµÐ»ÑĮ
ĠÐ¾ÑģÑĤ Ð¾ÑĢÐ¾Ð¶
ÐµÐ¼ ÑĭÐµ
ĠÐ§ ÐµÑĢÐµÐ·
ĠÑĢÐ°Ð· Ð²Ðµ
Ð¹ÑĤÐµ ÑģÑĮ
Ġâ Ħĸ
ĠÐ¿Ð¾ ÐµÐ·Ð´
ÑİÑī Ð¸Ð¼Ð¸
ĠÐ» Ð¾Ð²
ĠÐ¼Ð¾Ð» ÑĩÐ°
ĠÑĥ Ð²Ð¸Ð´
ĠÑĢÐµ Ð²Ð¾Ð»Ñİ
ĠÐ£ÐºÑĢÐ° Ð¸Ð½Ðµ
ĠÑĦ Ð¾ÑĤÐ¾
ĠÐ½Ð°Ð¿ Ð¾Ð¼
an ce
ĠÐ¿ ÑĤÐ¸
Ġo ut
Ð´Ð° Ð¼Ð¸
ÐµÐ½Ð¸Ñı Ð¼Ð¸
Ð´ ÐµÐ¹ÑģÑĤÐ²
ĠÐ¿ÑĢÐ¾ÐµÐº ÑĤ
Ð´Ñĥ Ð¼Ð°
Ð² ÐµÐ»
ĠÐŁ Ð°ÑĢ
und er
ÑĤÑĥ ÑĢÑĥ
ÑĢÐ¾ ÑģÐ»
ĠÐ¿ÑĢÐ°Ðº ÑĤÐ¸
Ð´Ð¸ Ñı
ĠÐºÐ¾ÑĢ Ð¿Ñĥ
ĠÐ¾ÑĤ Ð²ÐµÑĢ
Ð»Ðµ Ð±
Ð»Ð¸ Ð¼
ĠÑĤÐ°Ðº Ð¾Ð¼
ĠÐ³ Ð°ÑĢ
l es
ÑģÐ° Ð¼Ð¸
ĠÐ¶Ð¸Ð· Ð½
ĠÐºÐ¸ Ð½Ð¾
Ð´Ð° Ñı
ĠÐ¡ Ð¾Ð»
Ð´Ð¸ ÑĤÑĮ
ĠÑĢÐµÐ· ÐºÐ¾
ĠÐ²Ð° ÑĪ
ĠÑģÐ¾Ð¿ ÑĢÐ¾Ð²
ĠÑģÐ¾ÑģÑĤÐ°Ð²Ð»Ñı ÐµÑĤ
ĠÑĥÐ·Ð½Ð° ÑĤÑĮ
ĠÑĢÐ°Ð· Ð½Ð¾
Ġthe y
ĠÐĵ ÐµÐ½
ĠÐ½ÐµÐ·Ð° Ð²Ð¸Ñģ
ĠÐ± Ð»
ĠÐ¾ÑĩÐµ Ð²Ð¸Ð´
ab le
ĠÑģÐ¾Ð±Ñĭ ÑĤÐ¸Ñı
ĠÐ¾Ð± ÑģÑĤÐ¾ÑıÑĤÐµÐ»ÑĮ
ĠÐ²Ð¾ ÑĢÐ¾
h ip
ĠÑĦ ÐµÐ´ÐµÑĢÐ°
ĠÑĥ ÑģÑĤ
ĠÐ»Ð¾ ÑĪÐ°
ÐµÐ½Ð¸Ñı Ñħ
ĠÑģÐ¼ÐµÑĢ ÑĤÑĮ
ĠÐ· Ð¾Ð»Ð¾ÑĤ
ÑĢÑĭ Ðµ
Ñİ Ð·Ð°
Ġn ew
Ġo ver
at h
Ð°Ð½ ÑĮ
ÑĩÐ¸ ÐºÐ¸
ĠÐŃ ÑĤÐ°
ĠÐ´ ÑĢÑĥÐ¶
Ð¸ÑĤ ÑĥÑĤ
Ðŀ ÑĤ
ĠÐ¡ ÐµÐ¼
ĠÐ¿ÑĢÐ°Ð²Ð¸Ð»ÑĮ Ð½Ð¾
Ð´Ð¸Ð²Ð¸ Ð´Ñĥ
Ð°ÑĢ Ð¾Ð²
ĠÐ¿ÑĢÐ¸ Ð³Ð¾ÑĤÐ¾Ð²
Ð¾Ð± Ðµ
Ðº Ð½Ð¾Ð²
ĠÐ¾Ð´ Ð½Ð¾Ð²ÑĢÐµÐ¼ÐµÐ½Ð½Ð¾
ÐµÐ½ Ð½ÑĥÑİ
ĠÐ¿Ð¾Ð»ÑĮÐ· Ð¾Ð²Ð°
ĠÐ¿Ð¾Ð´ Ð°ÑĢ
ĠÑįÐ»ÐµÐºÑĤ ÑĢÐ¾Ð½
Ð± ÐµÐ»ÑĮ
ĠÐ» Ð¾Ð¶
ĠÐ± Ð¾Ðµ
ĠÐ¾ ÑģÑĤÐ°Ð½
ÐµÑĤÐµ ÑģÑĮ
/ /
ĠÐĲÐ½Ð´ ÑĢÐµÐ¹
ĠÐ± ÐµÑģÑģ
ÑĤÐµÐ»ÑĮ Ð½Ð¾Ð¹
ĠÑĤÐ¾ ÑĩÐºÐ¸
ĠÐ¾ ÑĢÑĥÐ¶
ĠÐº ÑĢÐµÑģ
ĠÐľ Ð¾Ð¶Ð½Ð¾
ĠÑĢÐ°Ð· Ð±
ĠÐĳ Ð¾Ð»ÑĮÑĪ
ĠÐ± ÑĥÑĢ
ĠÑĤ Ð²ÐµÑĢ
ÑĭÑħ Ð°
ĠÐºÐ¾Ð½ Ñģ
ĠÐ´Ð¾Ð³ Ð¾Ð²Ð¾ÑĢ
ĠÐ·Ð°ÐºÐ¾Ð½ Ð¾Ð´Ð°
ĠÐ¾Ð¿ÑĢÐµÐ´ ÐµÐ»Ñı
ĠÐ¸Ð³ ÑĢÐ¾Ðº
ÑīÐ¸ Ðº
or ld
Ð¸ÑĤ ÐµÐ»ÐµÐ¼
ÑģÑĤÐ² Ð¸ÐµÐ¼
ĠÑģ Ð²ÐµÑĢÑħ
ĠÐºÐ¾Ð¼Ð°Ð½ Ð´Ñĭ
ĠÐ¿ÑĥÑĤÐµ ÑĪÐµ
ĠÐ±Ð¾ Ñı
ÑĪÑĮ ÑģÑı
Ð¾ ÑĤÐ°
ĠÑĥÑĩ ÑĢÐµÐ¶Ð´
ĠÑĢÐ°Ð¹ Ð¾Ð½
Ñı ÐµÑĤÑģÑı
ĠÐ¼Ð°ÑĤÐµÑĢÐ¸ Ð°Ð»Ð¾Ð²
ĠÐ¿Ð¾ ÑħÐ¾Ð´
ĠÑĥÐ²Ð¸ Ð´ÐµÑĤÑĮ
o od
Ð¾Ð²Ð¾ÑĢÐ¸ Ð»
on t
ĠÐºÐ¸Ð² Ð½ÑĥÐ»
ĠÐ¿ÑĢÐ¾Ð¸Ð·Ð²Ð¾Ð´ ÑģÑĤÐ²Ð°
ĠÐ¾Ð±ÑĬ ÐµÐ¼
ĠÑģÐ»ÑĥÑĩ Ð¸Ð»Ð¾ÑģÑĮ
Ñī Ð°Ð»
ĠÐ´ÐµÑĢ Ð¶Ð°
ĠÐ¼ Ð°Ð¼
ĠÐ¿Ð¾Ñħ Ð¾Ð¶
ĠÐķ Ðµ
ĠÐ¿ Ð°Ð»Ð°
ÑĥÑİÑī Ð¸Ð¹
Ð¿ ÐµÑĤ
Ġof f
ĠÐ¼Ð¾ ÑĢÐµ
ĠÐºÐ¾Ð¼Ð¿ ÑĮÑİÑĤ
ĠÐ¼ÐµÑĤ ÑĢÐ¾Ð²
ĠÑģÑĤÐµÐ¿ ÐµÐ½Ð¸
r am
ÑĢ ÐµÐ½Ð¸Ðµ
ĠÑĥÑĢÐ¾Ð² Ð½Ñı
ĠÐĵ ÑĢÐ¸
ÐµÑĪÑĮ ÑģÑı
ĠÐĳ Ð°ÑĢ
ĠÐº ÑĢÐµÐ´Ð¸ÑĤ
ĠÐ¼ÐµÑģÑı ÑĨ
ĠÐŁÑĢÐ¾ ÑģÑĤÐ¾
Ð¾Ð³ÑĢÐ°ÑĦÐ¸ Ð¸
ĠÑģÐ°Ð¼Ð¾ ÑģÑĤÐ¾ÑıÑĤÐµÐ»ÑĮ
ĠÑģ ÐµÐ»
ĠÑģ Ð¾ÐºÑĢÐ°
ĠÐ³Ð» ÑĥÐ¿
ou gh
ĠÐ¿Ð¾ ÑĢÑĥ
ĠÐ¿ÑĢÐµÐ´ ÑĥÑģ
ĠÐĴ Ð¸
ĠÐ½Ð° ÑģÐ»ÐµÐ´
ĠÑĦ Ð°
ĠÐ¼ Ð¸Ð½Ñĥ
ĠÐ³ Ð¸Ð±
ĠÐ²Ñĭ Ð´
ĠÐ± ÑĢÐ°ÑĤ
Ġ200 9
ĠÐ²ÑģÐµÐ¼ Ð¸
ĠÐ¼ÑĭÑģÐ» ÑĮ
ĠÐ´Ð°Ð½ Ð½ÑĭÐµ
ct ion
ĠÐ¿ Ñĭ
ĠÐ²Ð¾Ð»Ð¾Ñģ Ñĭ
w ard
ĠÐ¿ÑĢÐµÐ´ Ð¿Ð¾Ñĩ
ÑĮ ÐµÐ²
ĠÑģ Ð¾Ðº
ĠÐ»ÑİÐ± Ð²Ð¸
ĠÑģ ÑĥÑĤ
ĠÑĥÐ³ Ð¾Ð»Ð¾Ð²
ĠÐĶ Ð¾Ð½
ĠÑĤÑĢÑĥ Ð±
ĠÐ³Ð»Ð° Ð²Ð°
ÑģÐµ Ðº
Ð³ ÐµÐ½
ĠÑĥÑĢÐ¾Ð² ÐµÐ½ÑĮ
4 0
ĠÐ²Ñĭ Ð²Ð¾Ð´
ĠÐĴ Ð¿ÑĢÐ¾ÑĩÐµÐ¼
Ñģ Ð¾Ð½Ð°
ĠÐº ÐµÐ¼
Ð¸Ð½ÑĤÐµÑĢÐµ ÑģÐ¾Ð²
Ð¾Ð² Ð»ÐµÑĤ
ĠÐºÐ°ÑĢ ÑĤÐ¸
Ġ200 8
ÑĢÐ¾ ÑģÑĤ
Ġ( "
ĠÐºÐ¾Ð¼Ð½Ð° ÑĤÑĥ
ĠÐ¿ÑĢÐ¸ ÑĪÐµÐ»
ĠÐ¾Ð±ÑīÐµ ÑģÑĤÐ²Ð°
Ð´Ð¸ Ð¹
ÐµÐ½ Ð½ÑĭÐ¼Ð¸
ĠÐĴ Ð¸Ð´
ÑĢÐµ Ð³Ð¸
Ð¼ Ñı
ÑĨ Ð¾
ĠÑį Ð¼Ð¾
an c
ĠÑĥÑĤÐ²ÐµÑĢ Ð¶Ð´
ĠÑĢ Ð¾Ð´Ð°
ĠÑĤÐ°Ðº ÑĥÑİ
ĠÑĥÑĢÐ¾Ð² Ð½Ðµ
ĠÐ»ÑİÐ´ ÑıÐ¼
Ð½Ðµ ÑģÑĤÐ¸
ĠÑģÐ¾Ð²ÐµÑĢ ÑĪÐµÐ½
ĠÐ¿ Ð»Ð¾ÑĤ
ĠÑĤ ÑĢÐµÐ½
ĠÐ´ Ð¾Ñģ
ĠÐ´ÐµÐ»Ð° ÐµÑĤ
ĠÐºÐ¾Ð½ÑĦ Ð»Ð¸Ðº
ĠÑıÐ·Ñĭ Ðº
ĠÐºÐ¾ÑĤÐ¾ÑĢÐ¾Ð¼ Ñĥ
Ð»Ñı Ð»
ĠÑĤÐµÑĢ ÑĢÐ¾
Ġe v
ĠÐ³Ð° ÑĢÐ°Ð½
ĠÐ¾ÑģÑĤ ÑĢÐ¾Ð²
Ġint o
ĠÐ¿Ð¾Ð² Ð¾Ð´Ñĥ
ÑĥÑİ ÑīÐµÐ³Ð¾
ÑĪ Ð¸Ð»
ĠÑģÐ¾Ð¶ Ð°Ð»
ĠÐ¼Ð¾Ð¶ ÐµÐ¼
ĠÐ½ÐµÐ¿ Ð¾Ñģ
Ð²ÐµÐ´ Ð¾Ð¼
Ñĩ Ð½Ð¾ÑģÑĤÑĮ
ĠÐĵ Ð´Ðµ
ĠÑģÑĥÑīÐµ ÑģÑĤÐ²ÑĥÐµÑĤ
ĠÐĿÐ° Ð´Ð¾
ÑģÐº Ð¾ÑĢ
ĠÐ¿Ð¾Ð´ Ñģ
ĠÐ¼Ð» ÑĢÐ´
ÑĤÐ¾ Ð½Ð°
ĠÐ¿Ð¾Ð´ ÑĬ
Ġ Z
Ð¡ Ð¢
ÑĪ Ð¸Ð½
) ;
Ð°Ð½ Ð½Ð°Ñı
ĠÑģÑĭ Ð½
an s
ĠÐ±Ñĭ Ð²Ð°ÐµÑĤ
Ð·Ð° Ñħ
ĠÐ½Ðµ Ð¾Ð±Ñĭ
ing s
oc k
ÐµÑĢÐº Ð²Ð¸
ĠÐ»Ð¸ ÑĩÐ½Ð¾
ĠÐ·Ð° Ñħ
ĠÐ¸Ð· ÑĥÑĩ
ĠÐ¿ÑĢÐ¾ÐµÐº ÑĤÐ°
ĠÐ±ÑĥÐ´ ÑĥÑīÐµ
ĠÑĥÑģÐ» ÑĥÐ³
ĠÑģÐ¾Ð¾ÑĤÐ²ÐµÑĤÑģÑĤÐ² Ð¸Ð¸
ĠÑģÐ»ÑĥÐ¶ Ð±Ñĭ
ĠÑĦÐ¸ Ð³Ñĥ
ĠÐ¾ÐºÐ°Ð· Ð°Ð»Ð¾ÑģÑĮ
Ð½Ð¾ ÑģÑĤÐµÐ¹
Ð°Ð½ Ñĥ
Ðĺ ÐĲ
Ðł Ðŀ
ĠÐ§ Ð°
ĠÐ°Ð²ÑĤÐ¾Ð¼ Ð°
ĠÐ½ Ð¾Ð³Ð°
ĠÑģ ÑĥÐ´Ð°
ĠÐ³Ð¾Ð²Ð¾ÑĢÐ¸ ÑĤÑģÑı
ÑĤ ÐµÑĤ
ÑİÑīÐ¸Ñħ ÑģÑı
ÑģÐ¸ Ñİ
ĠÐ¿ÑĢÐ¸Ð½Ñı ÑĤÑĮ
ĠÐºÐ°Ðº ÑĥÑİ
Ð³ Ð¾Ð½
ĠÐ¾ÑģÐ½Ð¾Ð² Ðµ
ĠÐ¸Ñģ ÑħÐ¾Ð´
ĠÑĩÑĥÐ² ÑģÑĤÐ²
ĠÑģ Ð²Ð°
Ð¾ÑĢ Ð¾Ð´
ĠÐ½Ð° Ð³ÑĢÐ°
ĠÐ·Ð° ÑıÐ²Ð¸
ĠÐ³ ÑĢÑĥÐ´
!! !
ÑĢÑĭ Ð²Ð°
ÐŁ ÐµÑĤÐµÑĢÐ±ÑĥÑĢ
Ñĭ ÑĤÑĭ
ĠÐ¸Ð½ÑģÑĤ ÑĢÑĥ
Ð¶ Ð¸ÑĤÐµ
ĠÐ¡ Ð²ÐµÑĤ
ĠI I
ĠÑħ Ð¸
ĠÐ¢ ÑĥÑĢ
ĠÐº Ð»Ñİ
ĠÐ² Ð¾Ð´Ñĥ
ĠÐ¿Ð¾ ÑĢÐ°Ð¶
Ð°Ð½ Ñģ
Ñİ ÑĢ
Ð°Ð¼ ÐµÑĤ
ĠÐĿÐ° Ð¿ÑĢÐ¸Ð¼ÐµÑĢ
Ð² ÐµÐ»Ð¸
ĠÑģÑĤÐ°Ð½ Ð´Ð°ÑĢ
ĠÐ¼ÑĥÐ¶ ÑĩÐ¸Ð½
ĠÐ¡ Ð»
ĠÐ¼Ð° Ð³Ð¸
ÑĢÐ¸ Ñİ
ĠÐ²Ñĭ ÑģÑĤÐ°Ð²
ĠÑģÐµÐ¼ÑĮ Ð¸
Ð»Ñı ÑĤÑĮÑģÑı
ÑıÑī Ð¸Ð¹
ĠÐ½Ð¾Ð¼ ÐµÑĢ
ĠÑĨÐµÐ»ÑĮ Ñİ
ĠÐ¿Ð¾ ÑģÑĤÐ°
ĠÐ¿Ð¾Ñħ Ð¾Ð¶Ðµ
Ġt ime
ĠÐ±Ð° Ð±
ĠÐºÐ¾ ÑģÑĤ
ĠÐ²Ð¾Ð· Ð»Ðµ
ĠÑģÐ² ÑıÑĤ
ĠÐŁÑĢÐ°Ð² Ð´Ð°
ĠÐ¿Ð¾Ðº ÑĥÐ¿
ĠÐ´ÐµÐ¼ Ð¾Ð½
ĠÐ°Ð² ÑĤÐ¾ÑĢ
ĠÑģÐ¼Ð¾ÑĤ ÑĢÐµÐ»
ĠÐ¾Ð±ÐµÑģÐ¿Ðµ ÑĩÐ¸
ĠÐ¾Ð± ÑĢÐ°ÑĤÐ½Ð¾
ĠÑģÐ¾ÑĤÑĢÑĥÐ´ Ð½Ð¸
ĠÑĦÐ¾ÑĢ Ð¼Ð°
Ġs erv
ĠÐĿ Ð°Ðº
ĠÐ¿ Ð»ÐµÐ½
ĠÐ½ÐµÐ± Ð¾Ð»ÑĮ
ĠÐ·Ð° Ð¿Ð¾Ð»
ĠÐ¸Ð¼ ÐµÐ»
ĠÐ¼ÐµÑģÑı ÑĨÐ°
ĠÑĤÑĢÑĥ Ð´Ð°
ĠÐ¸ Ð±Ð¾
ĠÐ¸Ð³ ÑĢÑĥ
ĠÐ½Ð°ÑĪ ÐµÐ¼
ĠÐ½Ðµ Ð·Ð½Ð°
Ð¾Ð² Ð¸
Ð°ÑĢ ÑĮ
ĠÑĥ ÑģÑĤÑĢÐ°
Ð°ÑģÑģÐ° Ð¶Ð¸
as e
ĠÐ¼Ð¾ Ñİ
ĠÐ´Ñĥ ÑĪÐ¸
ĠÐ¿Ð»Ð° ÑĤ
ĠÐ¿ÑĢÐ° Ð²Ð¸Ð»Ð°
ĠÑģ ÐµÐ²ÐµÑĢ
ĠÑħÐ¾ ÑĩÐµÑĪÑĮ
ĠÑģÐ°Ð¼ Ð¾Ð»
ĠÑĨÐµÐ½ÑĤ ÑĢÐµ
ÂłÐĿ ÐµÑĤ
ĠÐ¿ÐµÑĢÐ²Ñĭ Ð¼
ĠÑĢÐµ ÐºÐ¸
Ð»Ñİ Ð±
ĠÐ¾Ð±ÑĬ ÐµÐ´Ð¸Ð½
ÑģÑĤÐ°Ð½Ð° Ð²Ð»Ð¸
ĠÑģÐ¼Ð¾ÑĤ ÑĢÐµÑĤÑĮ
ĠÐ»Ð¸ Ð´ÐµÑĢ
ĠÐŃ Ðº
ĠÑİ ÑĢÐ¸
Ð°Ð½Ðº ÑĤ
Ġp re
ĠÐ¢ ÑĥÑĤ
ĠÐľ Ð¾ÑĢ
Ð²ÑĪÐ¸Ð¹ ÑģÑı
ĠÑĢÐ°Ð· Ð½ÑĭÐµ
ĠÐ¼ ÐµÑĢÑĤ
Ð¾Ñģ Ð»ÐµÐ´
ĠÐ´Ð¾Ð¼Ð° ÑĪ
Ð¸Ð¼ ÑĥÑīÐµ
ĠÑĪ ÐµÐ»
ĠÐ» Ð°Ð³
ĠÐ¿Ð¾Ð· Ð°
ÂłÐŃ ÑĤÐ¾
ĠÐºÐ¾ Ðµ
ĠÐ¼Ð¾ Ð¸Ñħ
ĠÑĢÐ°ÑģÐ¿ÑĢÐ¾ ÑģÑĤÑĢÐ°Ð½
ic k
ĠÑĤÐµÑĢ Ð¿
ĠÑĨÐ²ÐµÑĤ Ð°
ĠÐ²Ðµ ÑģÑĤÐ¸
ÐĴ ÐĶ
Ð¾Ð¶Ð´ ÐµÐ½Ð¸Ðµ
ĠÐ¸Ð½ Ð´Ð¸Ð²Ð¸Ð´Ñĥ
ĠÐ¸Ð¼ Ð¿ÐµÑĢÐ°
Ð½Ñı ÐºÐ°
ĠÑĦ Ð¸Ð½
Ð½Ñı ÐµÑĤ
g an
Ðº Ð»Ð°Ð´
Ð¾ÑĤ Ñĥ
Ð½Ð° Ð·Ð½Ð°
ĠÐŁÐ¾ÑĤ Ð¾Ð¼Ñĥ
ĠÑĪ ÑĥÐ¼
Ġ6 0
Ġs he
ÑıÑī Ð¸Ðµ
ĠÐº ÑĢÐ¾Ð²Ð°
ĠÑĥÐ³ ÑĢÐ¾Ð·
ĠÐ²ÐµÑĢ Ð½ÑĥÐ»ÑģÑı
ĠÐ·Ð° Ñī
a z
ĠÐ½Ð°Ð· Ð²Ð°Ð½Ð¸Ðµ
ĠÐ»Ðµ ÑģÑĤ
ÐµÐ½ ÐºÐ¾
ĠÑĪÐµ ÑģÑĤÑĮ
ĠÑģÐ¾ÑģÑĤÐ° Ð²Ðµ
ĠÐ² ÑĩÐµÑĢÐ°
ĠÑģÑĩÐ¸ÑĤÐ° ÐµÑĤ
ĠÐĳ Ð»Ð°
ÑģÐ¿ Ð¾ÑģÐ¾Ð±
ĠÑģÑĤÐ° ÑĤÑĥ
ĠÑģÑĤ ÐµÐ½Ñĭ
ĠÐ¾ Ð¿Ð¸ÑģÐ°
Ð´ Ð°Ð»Ð°
ĠÑĥÐ´ Ð°Ð»
Ð¶ Ð½ÑĭÑħ
n e
ĠÐľÐ¸ Ð½Ð¸
ĠÐ½ÐµÐ´ÐµÐ» Ñİ
ĠÐ¸ÑģÐº Ð»Ñİ
Ñģ Ð»Ðµ
ĠÐ´Ð°Ð»Ðµ Ðµ
ĠÐ³Ð»ÑĥÐ± Ð¾Ðº
ĠÐ¼ Ð¸Ð¼Ð¾
ĠÐ¾ÑģÑĤ Ð°Ð»Ð¾ÑģÑĮ
ĠÐ¸Ð· Ð±Ðµ
ĠÐ²Ð¾Ð· Ð±
in al
Ñģ Ð»Ñı
ĠÑģÐ² ÐµÐ´
ĠÑģÐ¾ÑģÑĤÐ¾Ñı Ð½Ð¸Ðµ
w w
ĠÐ¿Ð¾ÑģÐ¼Ð¾ÑĤ ÑĢÐµÑĤÑĮ
t s
Ġat t
ĠÐ¿Ð¸ÑĪ ÐµÑĤ
ĠÐ³ÑĢÐ°Ð¶ Ð´Ð°
ĠÐ¶ Ð¸ÑĤÐµÐ»ÐµÐ¹
ĠÑģÐ¼ Ð¾Ð¶ÐµÑĤ
ĠÐ¿Ð¾Ð» Ð½Ð¾Ð¼
ĠÐĵÐµÑĢÐ¼Ð° Ð½Ð¸Ð¸
ÑĢÐ¸ ÑĤÐ°
ĠÑĪÐºÐ¾Ð» Ñĭ
ĠÐŁ Ð¾Ð·
ĠÑģ Ð°Ð´
Ð¾Ð»Ð¾Ð³ Ð¸Ñı
ĠÐ¿Ð¾Ð· Ð²Ð¾
ĠÐ¸ Ð¼ÐµÐ½
ĠÐ´ Ð¾Ð¶Ð´
Ġ %
ĠÐ½Ð°Ð· Ð²Ð°
Ñĥ ÑİÑĤ
ĠÐ»ÑİÐ±Ð¾Ð² ÑĮ
ĠÐºÑĥÐ»ÑĮ ÑĤÑĥÑĢÑĭ
tt p
Ð½ Ð¾Ð·
Ð¾Ð¿ Ð¸
ÑģÑĤ Ð¸ÑĤÑĥ
ĠÑģ ÐµÑĤÐ¸
Ð°Ð» Ð¾Ð¼
Ð¸ÑĤÐµÐ»Ñı Ð¼Ð¸
ĠÐºÐ°ÑģÐ° ÐµÑĤÑģÑı
os e
ĠÑĨÐµÐ» Ð¾Ð¼
ÑĢÐ¸ ÑĨÐ°
ÑĤÐµÐ»ÑĮ Ð½ÑĭÐµ
ĠÑĩ ÑĤÐ¾Ð±
ĠÐ¢Ð°Ðº Ð¸Ð¼
ĠÑħÐ°ÑĢÐ°Ðº ÑĤÐµÑĢÐ¸
ĠÑĥÐ´Ð° ÑĢ
ĠÑĤÑĢÐµ Ð²
ĠÐ½Ð°Ð» Ð¾Ð³
ĠÑģÐº Ð²Ð¾Ð·ÑĮ
Ðµ ÑħÐ°ÑĤÑĮ
ĠÐºÐ¾Ð½ ÑĤÐ°Ðº
ĠÐ¿ÑĢÐµÐ´Ð¿ÑĢÐ¸ ÑıÑĤÐ¸
ÑĢÐ° Ð»
ĠÐľÐ¾ÑģÐº Ð²Ð°
ĠÐ¾ÑģÐ½Ð¾Ð² Ð½Ð¾Ð¼
ĠÑįÐºÑģÐ¿ ÐµÑĢ
Ñĳ ÑĤÑģÑı
ĠÐĲ ÑĦ
ĠÐ´ÐµÐ¹ÑģÑĤÐ² Ð¸Ð¹
ÐµÐ½ ÑĤÐ¾Ð¼
Ð¼ Ð¾ÑĢ
ĠÐł Ð°Ñģ
ĠÐ¿Ð¾ ÑĢÐ°
Ñį ÑĤ
ĠÑĥÑģÐ¿ ÐµÐ»
ÑĨÐ¸Ð¾Ð½ Ð½Ð¾Ð³Ð¾
: //
ĠÐ± ÑĥÑĤ
ĠÐ²Ñĭ ÑģÑĤÑĥÐ¿Ð°
ro ugh
ĠÐķ Ð¼Ñĥ
ÑĤÐ¸ Ð·
ĠÐ²Ð·Ð³Ð»ÑıÐ´ Ð¾Ð¼
ÑīÐ¸ ÐºÐ¾Ð²
ÑģÑĤÐ° Ð¼Ð¸
w ay
ĠÐºÐ°ÑĩÐµ ÑģÑĤÐ²Ð°
ÐµÐ¼ ÑĭÐ¹
Ñī Ð¸Ð¼
Ġg ro
ĠÐ´ÑĥÐ¼Ð° ÑĤÑĮ
ĠÑģ Ð½Ñı
ĠÑģÐ¸ Ð³
ĠÑĢÑĥ ÐºÐ°
ĠÐ½Ð°Ð· ÑĭÐ²Ð°ÐµÐ¼
Ñī ÐµÐ¼
ĠÐºÐ°Ð½ Ð´Ð¸
ĠÐ¾ ÑģÑĤÐ°Ð²Ð»Ñı
e ver
ĠÐĳ Ðµ
ÐºÐ¾ ÑĤÐ¾ÑĢÑĭ
ÑĢÐ¸ÑģÑĤÐ¸ Ð°Ð½
ĠÐ· Ð½Ð°Ð»Ð°
ĠÐ·Ð°Ð¿ Ð»Ð°
Ð¾ ÑģÑĤÑĮ
ÑĤÐ¸ Ð»Ð¸ÑģÑĮ
Ð¿ Ð»Ð¾Ð¼
ĠÑħÐ¾ÑĤ Ð¸ÑĤÐµ
Ð½ Ð¾Ð´
ĠÐ¿Ð¾ÑģÐ² ÑıÑī
ĠÐ¡ Ð¿Ð°ÑģÐ¸Ð±Ð¾
ĠÐ·Ð°Ðº Ð°
ĠÐ´Ð¸ Ð·Ð°
ÑĢÑı Ñģ
Ð¾Ð½ ÑĤ
ÑĩÐµÑģÐº Ð¾Ð¼
ÂłÐ £
ĠÑĤÐ¾ÑĢ Ð³
ÑĤÐ¾ ÑĢÐ¸Ñı
ĠÐ· Ð»Ð¾
Ð»Ñİ Ð´
ĠÐ¿Ð¾Ð´ ÑĥÐ¼Ð°
ĠÐŁ Ð¸
ĠÐŁÐ¾Ñģ Ð»ÐµÐ´
ĠÑħÐ¾ÑĤ ÐµÐ»Ð°
ou th
ĠÑĩÐµÐ»Ð¾Ð²ÐµÐº Ð¾Ð¼
ĠÐŀ Ðº
ĠÐ¿Ð¾Ð¿ ÑĢÐ¾Ð±
ĠÐĵ Ð°ÑĢ
ĠÑĤ ÐµÐ½
ÑĨ Ð¾Ð¼
ĠÐ¿ÑĢÐ¸ Ð³
ĠÑĥÑĤ ÑĢÐ¾Ð¼
ĠÑĩ ÐµÐ¼Ñĥ
ĠÑĢÐ°ÑģÐ¿ Ð¾ÑĢÑı
ĠÑı ÑģÐ½Ð¾
Ġl oc
ÑĤÐµÐ»ÑĮ Ð½ÑĭÑħ
ĠÐ³ Ð°Ð»
ĠÐ¼Ð¾ÑĢ Ñı
ĠÑģÐ»ÐµÐ´ÑĥÑİÑī Ð¸Ð¹
ÑĤÐ¸ Ð²Ð¸
ĠÐł ÑĥÑģ
ĠÐº Ð¾Ð»Ðµ
ĠÑħÐ¾Ñĩ ÐµÑĤÑģÑı
ĠÐ½Ð¾Ñĩ ÑĮÑİ
i x
ĠÐ·Ð½Ð° ÐµÑĤÐµ
ĠÐ¿ÑĢÐ°Ð² Ð¸Ð»Ð¾
ĠÐ³Ð¾Ð» Ð¾Ð²Ñĭ
Ð¾Ð± Ð¸Ð»ÑĮ
Ð½Ñı ÐµÑĤÑģÑı
? Â»
ÑĤÐµÐ»ÑĮ Ð½Ð¾Ð³Ð¾
ĠÐ·Ð² Ð¾Ð½
Ġ &
Ðķ ÐĿ
ĠÐ¾ÑĤÐ²ÐµÑĤ Ð¸Ð»Ð°
ĠÐ¿ÑĢÐ°Ð²Ð¸ÑĤÐµÐ»ÑĮ ÑģÑĤÐ²Ð°
ĠÐ¶ Ð¸Ð»Ð¸
ĠÐĲ Ð¼ÐµÑĢÐ¸
Ð± Ð¸Ð»
ÑģÑĤÑĮ Ðµ
ĠÐ¼ Ð»Ð°Ð´
ĠÐ²Ð¾Ð¹ ÑģÐºÐ°
mer ic
ĠÐ°Ð²Ð¸ Ð°
Â °
ĠÐĳ Ð¾ÑĢÐ¸
ĠÐ² Ð²ÐµÑĢÑħ
ĠÐ¡ ÐµÐ²ÐµÑĢ
ĠÐ¡ Ð¾Ð±
ĠÐ½ÐµÐ¿ Ð¾Ð´
ĠÐĴÐ¾Ð· Ð¼Ð¾Ð¶Ð½Ð¾
ĠÐļ ÑĢÐ°
ĠÐ¸Ð· Ð³Ð¾ÑĤÐ¾Ð²
ĠÑĥÐ´ Ð¾Ð²Ð»ÐµÑĤ
ĠÐ²Ñĭ Ð½ÑĥÐ¶Ð´
ÑĤÐµ Ð¿
Ð°Ð½ Ð½Ð¾Ðµ
ÑĪÐ¸ Ð½Ð°
ĠÐºÐ¾Ð½ ÑĨÐ¾Ð²
ĠÐ²Ñĭ Ð³Ð»ÑıÐ´
ĠÐ¿ÐµÑĢÐµ Ð¶Ð¸
ĠÐĵÐ¾Ñģ Ð¿Ð¾Ð´
ÑĤÐ° ÑĤÑĮ
ÑĢ Ð¾Ð´Ð°
ÐµÑħ Ð°Ð»Ð¸
ĠÐºÐ¸Ð» Ð¾Ð¼ÐµÑĤ
ĠÐ²Ð°ÑĢÐ¸ Ð°Ð½
ĠÑĥÐ» ÑĥÑĩ
ĠÐ¾ÑĢÑĥÐ¶ Ð¸Ðµ
ÑĤÐ¸ÑĩÐµÑģÐº Ð¸Ñħ
ĠÐ¿Ð¾Ð± Ðµ
ĠÐ²ÐµÑĩÐµÑĢ Ð¾Ð¼
ĠÐ¼Ð°ÑĢ ÑĪ
a h
ĠÐ½Ð°ÑĢ Ð¾Ð´Ð°
ĠÐŀ ÑĤÐµ
ĠÑħÑĥÐ´ Ð¾Ð¶
ÑĩÐ¸ Ð»Ð°
ĠÑĨÐµÐ½ÑĤ ÑĢ
ĠÐ½Ð° ÑģÑĤÑĥÐ¿
ĠÐĴ Ð°Ð»
Ð½Ð° Ð´ÑĨÐ°ÑĤÑĮ
Ð´Ðµ Ð²
ĠÐ¿ÐµÑĢÐ²Ñĭ Ðµ
ĠÐ± Ð¾Ð¼
Ð½ ÐµÐ½Ð¸Ñİ
ĠÑģ ÐµÑĢÐµ
ĠÐ¸ÑģÐ¿ ÑĭÑĤÐ°
ĠÑĦÐ¾ÑĢ Ð¼Ðµ
2 4
ĠÐ²Ð»Ð° ÑģÑĤÑĮ
Ð¼ Ð¾Ð»
Ġh im
ÑĤÐµ Ñħ
Ġk n
Ð» Ð¾Ð¹
ĠÑĨÐµÐ½ÑĤ ÑĢÐ°
ĠÐ¿ÑĢÐµÐ´Ð¿Ð¾Ð» Ð¾Ð¶
ĠÐ¼Ð½Ð¾Ð¶Ðµ ÑģÑĤÐ²Ð¾
ĠÐ»Ð¸ ÑĨÐµ
Ġs ec
ĠÐ¿ÑĢÐ¾Ð¿ Ñĥ
en c
ĠÐ³ ÑĢÐ¸
ĠÑģÐ¾ ÑİÐ·
ot h
ĠÐ¿Ð¾Ð»Ð¾Ð¶ ÐµÐ½Ð¸Ðµ
ĠÑĩÐ° ÑīÐµ
ĠÐ´Ð²ÑĥÐ¼ Ñı
ĠÐ²Ð¾Ð· Ð´ÐµÐ¹ÑģÑĤÐ²
ĠÐ° ÑĤÐ°Ðº
ĠÐ¼Ñĭ ÑĪ
ĠÐ¿ Ð°ÑģÑģÐ°Ð¶Ð¸
ĠÐ¸ÑģÑĤÐ¾ ÑĢÐ¸Ñı
ak e
ÑĤÐ¸ Ð»Ð°ÑģÑĮ
ĠÐ´Ð¾ÑĢ Ð¾Ð³Ð¸
ĠÐ³Ð¾Ð´ Ð¾Ð²
ĠÐ½Ð¸ÐºÐ°Ðº Ð¾Ð³Ð¾
ĠÐ·Ð° Ð½Ð¸Ð¼
ĠÐ¿Ð¾Ð´ Ð¿Ð¸Ñģ
ĠÐ´Ð²Ð° Ð´ÑĨÐ°ÑĤÑĮ
ÑĢÐµÐ´ ÐµÐ»
ĠÐĲ Ð»ÐµÐº
Ð¾Ð²Ð¾ÑĢÐ¸ ÑĤÑĮ
ĠÐºÑĥ Ð¿Ð¸ÑĤÑĮ
ĠÐ¡ÐµÑĢ Ð³Ðµ
ÑģÑĤÐµÐ¿ ÐµÐ½Ð½Ð¾
ĠÑĦ Ð¸Ð»Ð¾Ñģ
ĠÐĺÐ½ ÑĤÐµÑĢ
ÑĤÐ¸Ð² Ð½ÑĭÑħ
Ñĩ ÐµÐ½Ð¸Ð¸
ĠÑģÐµ ÑĢÐµÐ´
Ð¸ÑĤÐµÐ»ÑĮ Ð½ÑĭÑħ
ĠÐķÐ²ÑĢÐ¾Ð¿ Ñĭ
Ð½Ð¸ Ð½Ð°
Ð°Ð½ Ð½Ð¾Ð³Ð¾
e v
ĠÑĥ ÑĤÐ¾Ñĩ
ĠÐºÐ»Ð°Ñģ ÑģÐ¸
ĠÐ´ÐµÑģÑı ÑĤÐ¸
ĠÐ¾Ðº ÑĢÑĥÐ¶
ĠÐ¿ÑĢÐµÐ´ Ð½Ð°Ð·Ð½Ð°
ĠÐ²ÑĢÐµÐ¼ÐµÐ½ ÐµÐ¼
ĠÐ½Ðµ Ð´Ð°Ð²Ð½Ð¾
ĠÑĢÐµÐ³Ð¸ Ð¾Ð½
ĠÐ½ÑĢÐ°Ð² Ð¸ÑĤÑģÑı
Ð¾ÑĢ Ð´
Ð¸ÑĤÐµÐ»ÑĮ Ð½Ð¾Ðµ
c ess
ĠÐ°Ð²ÑĤÐ¾Ð¼Ð¾Ð± Ð¸Ð»ÑĮ
ĠÐºÐ¾Ð¼Ð½Ð° ÑĤÐµ
ĠÑĩÑĥÐ² ÑģÑĤÐ²Ð°
ĠÐ¼ Ð°Ð¼Ð°
ĠÐ¿Ð¾Ð´ Ð½Ð¸Ð¼Ð°
ÑĭÐ²Ð° ÑĤÑĮÑģÑı
ĠÐ²Ð¾Ð· Ð½Ð¸ÐºÐ°
ÑģÑĤÐ²Ð¾Ð² Ð°Ð»Ð¸
Ð· ÑĮ
ĠÐ» Ð¾Ð´
ĠÐ³ ÑĢÐ¾Ð·
Ð¾Ð² ÐµÑĢ
ÑĤÐ¾ÑĢ Ð¾Ð¹
d u
ĠÐ¿ÑĢÐ¸ Ð½ÐµÑģ
ĠÑĥÐ»ÑĭÐ± Ð½ÑĥÐ»ÑģÑı
Ð¿ Ð¾ÑĤ
ĠÐ½Ð° ÑĪÐ°
ĠÐ¿ÐµÑĢÐ² Ð¾Ð¼
ĠÐľ Ð°Ð»
ĠÐ¸Ð· Ð´Ð°
ĠÐ´Ð¾ÑģÑĤÐ¸ Ð³
ĠÐ½ÐµÐ´ ÐµÐ»Ð¸
ĠÐ²Ð½Ðµ Ð·Ð°Ð¿
ĠÐ»ÑİÐ´ ÑĮÐ¼Ð¸
ĠÐ¡ Ð°Ð½ÐºÑĤ
ÑĩÐµ ÑģÑĤÐ²Ðµ
Ð¿Ð° Ð½Ð¸Ñı
ĠÐ¿Ð¾ ÑģÑĤÑĢÐ°
Ð² ÑĪÐ¸Ð¼
6 0
ĠÐĲ Ðº
i ous
ĠÐ½Ðµ Ð²ÐµÑĢ
ter s
ĠÐ´Ð¾Ð± Ð°
ĠÐ¶ ÐµÐ½Ð°
ĠÐ´ Ð¾Ð³Ð°
ĠÐŀÑģ Ð¾Ð±
ÂłÐ ĳ
ĠÐºÐ° ÑĤÐ°
ĠÐ´Ð¾ÑĢ Ð¾Ð³Ðµ
ÑģÑĤÐ° Ñı
Ġ qu
Ġc an
ĠÐ¸ Ð½Ð¸
ĠÑĤÑĭÑģÑı ÑĩÐ¸
Ġwhe n
ĠÐŀÑģ Ð½Ð¾Ð²
ĠÑģÑĤÑĢÐ° ÑĤÐµ
Ð¼Ñĭ ÑĪ
ĠÐ· ÐµÐ»ÐµÐ½
ĠÐ¿ÐµÑĢÐ²Ñĭ Ñħ
ÐĲ Ðŀ
ĠÐºÐ°Ðº Ð¾Ð³Ð¾
ĠÑĢÐ°Ñģ ÑģÑĤÐ¾Ñı
ÑģÐ¸ Ð»Ð¸Ñı
re n
ĠÐ¿Ð¾Ðº Ð¸Ð½Ñĥ
ÑĨÐ¸Ñı Ð¼Ð¸
Ġm ore
ÐµÑĢÐ¸ ÑĤÑĮ
ĠÑĤÑĢÐ°Ð½ÑģÐ¿ Ð¾ÑĢÑĤ
ĠÐ¿ÐµÑĢ ÐµÐ½
Ð¾Ð»ÑĮ Ð½Ð¾
ÑĦ Ñĭ
Ð± Ð¾Ð¼
ĠÐĴÐ° ÑĪ
Ð»Ð¸ Ð·
ĠÑĥ Ñħ
Ð»ÐµÐº ÑĤÑĢÐ¸
ĠÐ»Ð¸ Ð½Ð¸Ð¸
ĠÐ²Ð¸Ð´Ðµ Ð¾
ĠÐ¾Ð³ Ð¾Ð½ÑĮ
ĠÑģÑĤÐ°ÑĤÑĮ Ð¸
ĠÐ²Ð· ÑĢÐ¾ÑģÐ»
ĠÑĩÐ¸Ñģ Ð»Ð¾
Ð´Ð¸ ÑĪÑĮ
ĠÐ¾ Ð¶
ĠÐ½Ð° ÑĪÐµ
Ð¾Ð¿ ÑĢÐ¸
ĠÑĢÐµÐ³Ð¸ ÑģÑĤÑĢÐ°
ĠÐ³ÑĢÑĥ Ð´Ð¸
ĠÐĺ ÑģÑĤÐ¾
ĠÑĢÐ°Ð· ÑĥÐ¼
ĠÑĨ ÐµÑĢÐºÐ¾Ð²
ĠÐ¿ ÑĢÑĭ
ĠÐ¿ÑĢÐµÐºÑĢÐ° ÑģÐ½Ð¾
ĠÐ¼Ð°ÑĪ Ð¸Ð½
ÑĨÐ¸Ð¾Ð½ Ð½ÑĭÐµ
ĠÐ¾Ñī Ñĥ
ĠÐ¿ÐµÑĢ ÑģÐ¾Ð½
ÂłÐļ Ð°Ðº
il m
ĠÐ¿Ð»Ð° ÑĤÑĮ
ĠÐ¢ Ñĥ
Ð¾Ð³Ð»Ð°Ñģ Ð½Ð¾
ĠÐ·Ð½Ð° Ð¼ÐµÐ½Ð¸
ri b
Ġ200 7
ĠÐ·Ð°Ð¼Ðµ ÑģÑĤ
Ġre g
Ð¾Ð² Ð°Ð»Ð°
ĠÐ¿ÑĢÐµÐ´Ð¾ ÑģÑĤÐ°Ð²
ĠÑĢÐµÑĪÐ¸ Ð»Ð¸
u al
Ð»ÑĮ Ñı
ĠÐ§ ÐµÐ¼
ĠÐ´ Ð¾Ð±Ñĭ
Ñĩ Ð¾
ĠÑĢÐ¸ Ñģ
ĠÐ¿ÑĢÐ¾ÑĦ ÐµÑģÑģ
ĠÐ¿Ð¾Ð´ Ð²ÐµÑĢ
ĠÑģÐ¼Ñĭ ÑģÐ»
ĠÐ¾Ð±Ð½Ð° ÑĢÑĥÐ¶Ð¸
r al
ĠÐ¤ÑĢÐ°Ð½ ÑĨÐ¸Ð¸
ĠÐ½ÐµÐ¿Ð¾Ñģ ÑĢÐµÐ´
ĠÐ¸ÑģÐ¿ ÑĭÑĤÑĭ
Ð¢ Ð°Ðº
ĠÐļ Ð°Ð·
ĠÐł Ð¾
Ð¼ÐµÐ½ ÑĤÑĭ
Ð³ ÐºÐ°
ĠÐ¿Ð¾ ÑĪÐµÐ»
Ġb et
Ñģ Ð»Ð°Ð²
Ð½Ð¸ Ð¼Ð¸
? ..
ĠÐ¿ÑĢÐ¾ÑĪ Ð»Ð¾
ĠÐ¿Ð¾Ð»ÑĥÑĩÐ¸ Ð»Ð¸
ĠÐ¿Ð»Ð¾ Ñħ
ĠÐ±Ðµ ÑģÐº
Ð¼Ð° Ð½Ð°
ĠÐ·Ð° Ð´ÐµÑĢÐ¶
ĠÐ´Ð¸ ÑģÐº
ĠÐºÐ°Ð¶Ð´ Ð¾Ð¹
ĠÐŃ Ð½
ĠÐ´Ð¾Ð±Ð°Ð² Ð¸Ð»
ĠÑĤÑĢÐµÐ± Ð¾Ð²Ð°Ð½Ð¸Ñı
ÑģÐº Ð¾Ð¿
ĠÐ´Ð° ÐµÑĤ
ĠÐĿÐ¸Ðº Ð¾Ð»Ð°
ĠÐĿ ÐµÑģ
ĠÑĢÐ°ÑģÐº ÑĢÑĭ
ĠâĢ ¢
Ð»Ð¸ ÑĤ
Ġcon s
ĠÐ¾ÑģÑĤÐ° ÐµÑĤÑģÑı
ĠÑĢ Ð¾Ð»Ð¸
ĠÐ· Ð¾Ð»Ð¾
ĠÑģÑĤ ÑĥÐ¿
Ð´Ð° Ñħ
ic t
Ð¸ÑĤÐµÐ»ÑĮ Ð½Ð¾Ð³Ð¾
ĠÐ·Ð° Ð²ÐµÐ´
is hed
ĠÑĥÑģ Ð¼Ðµ
ÑģÑĤ Ð¾ÑĢ
! "
ĠÐĲ Ð±
ÑĥÐ¼Ðµ ÐµÑĤÑģÑı
ÐºÐ¸ Ð´
ic s
Ð½Ð¸ ÑĨÐ¸Ð¿
Ð´ ÑĢÑĥÐ³
Ð»Ð° Ð±
Ð²Ð¸ Ð³
ĠÐ¿Ð¾Ð»Ð¸ ÑĨÐµÐ¹
ĠÑģÐ»Ðµ Ð³ÐºÐ°
Ġ under
ĠÑĥÑĩ ÐµÐ½Ð¸
ĠÐ½Ð¸Ðº Ð¾Ð³Ð¾
ĠÐ³Ð»Ñı Ð´Ñı
ĠÐ¼Ð¸Ð½ÑĥÑĤ Ñĥ
Ġ ÑĢÐ¾ÑĤ
ÑĥÐ¶ ÐµÐ»Ð¸
ĠS h
ĠÐ²Ð° ÑĪÐµÐ¹
ol og
ĠÐ´Ð°Ð½ Ð½ÑĭÐ¹
Ð¾Ð´ Ð¸
ĠÐ¼Ð¾Ð³ Ð»Ð¾
8 0
ĠÐ·Ð°Ðº Ð¾Ð½Ð°
ĠÑģÐ¸Ð´ ÐµÐ»
ÑģÑĤÐ¸ Ð»Ð¸
Ġ3 1
ĠÐ²ÐµÐ´ ÑĥÑī
ĠÐ¿ÑĢÐ¾Ð²ÐµÐ´ ÐµÐ½Ð¸Ñı
ĠÐ½Ð° Ñħ
Ð± Ð¸Ð½
ĠÐº Ð¾Ð»ÑĮ
ĠÐ¿Ð¾Ð· Ð¶Ðµ
ĠÐ²Ñĭ Ð±Ð¾
ĠÐĿ ÐµÐ¼
ĠÐ½ÑĭÐ½Ðµ ÑĪ
ĠÐ» Ð¾Ð³Ð¸
ĠÐ¼Ð¸Ð»Ð»Ð¸ Ð¾Ð½Ð¾Ð²
en er
ĠÐ¿ÑĢÐµÐ´Ð¿ÑĢÐ¸ ÑıÑĤÐ¸Ñı
ĠÐ³Ð¾Ð²Ð¾ÑĢ Ñİ
r ad
ĠÑģÐ¾ ÐµÐ´Ð¸Ð½
c he
2 2
Ġ19 0
ĠÐ¼Ð°ÑĤÐµÑĢÐ¸ Ð°Ð»Ð°
ĠÐ» ÐµÐ²
an k
ĠÐ» Ð°Ð´
ÑĢÐ°Ñı ÑģÑĮ
for m
ĠÐ° ÑģÑģ
ÐµÐ½ Ð½Ð¾ÑģÑĤÑĮ
ĠÐ½Ðµ Ñĥ
Ð¼ÐµÐ½ ÑĤÐ¸
ĠÐ¿Ð¸ÑģÑĮ Ð¼Ð¾
ÑĤ ÐµÐ»ÐµÐ¼
ĠÐ°Ð±ÑģÐ¾Ð»ÑİÑĤ Ð½Ð¾
Ġ ÑĢÐ¾Ð²
ĠÐ´Ð¾Ð± ÑĢÐ°
ĠÑĢÐµ Ð¿
ĠÐ²Ñĭ ÑĢÐ°Ð·
ĠÐ° ÑĢÐµÐ½
Ð³Ð° ÐµÑĤ
ĠÐ³Ð¾Ð²Ð¾ÑĢÐ¸ Ð»Ð¸
ĠÑĢÐ¾ÑģÑģÐ¸Ð¹ ÑģÐºÐ¸Ñħ
Ð¸ÑĤ Ñĭ
ĠÑĤ ÐºÐ°
l l
ÑģÑĤ Ð½Ð¾Ð¹
ÐĴ Ñĭ
ĠÐ¼ ÑĥÑģ
ĠÐ¿Ð¾Ð» Ð°Ð³Ð°
as on
ĠÐ²ÑģÑĤÑĢÐµ ÑĩÐ¸
ĠÑĢÐµÐ³Ð¸ Ð¾Ð½Ð°
ĠÐ¡ ÐľÐĺ
Ð½Ð¸ÑĨ ÐµÐ¹
ĠÑģÑĭ Ð½Ð°
Ð½Ð¾Ð³ Ð¸Ðµ
ĠÐ¾Ðº Ð½Ð°
ĠÐ¿ÑĢÐµ Ð¼
Ðļ Ð¾Ð³Ð´Ð°
Ð½Ñĥ Ð»Ð¾
ÑİÑīÐ¸Ðµ ÑģÑı
Ð§ ÑĤÐ¾
Ð»Ñı ÑİÑĤ
Ġw ould
ÐºÐ¾ ÑģÑĤÑĮ
ÐµÐ´ Ð»ÐµÐ½Ð½Ð¾
ĠÐ¿Ð°Ð¼ ÑıÑĤÐ¸
ĠÑĥÐ± ÐµÐ´
ÑĭÐ²Ð° ÑİÑĤÑģÑı
ĠÑĦÐ°Ðº ÑĤ
ĠL e
t on
Ñĩ Ð¸Ñħ
ĠÐ¸ Ð¼Ñĥ
ĠÑĢÑĭÐ½ ÐºÐµ
ĠÐºÐ°Ð¿Ð¸ÑĤ Ð°Ð½
ĠÐ² Ð²ÐµÐ´
ĠÐºÐ¾Ð½ ÑĨ
Ð¾Ð±Ð¾ÑĢÐ¾ ÑĤ
ĠÐ¤ ÐµÐ´
Ñı Ð»Ð°ÑģÑĮ
ĠÐĿ ÐĲ
ÑĪ ÑĳÐ»
ĠÐ¾ÐºÐ°Ð· Ð°Ð»Ð¸ÑģÑĮ
ĠÐ¿ÑĢÐ¸ Ð»Ð¾Ð¶
ĠÐ¸Ð½ÑĦÐ¾ÑĢÐ¼Ð° ÑĨÐ¸Ñı
ĠÐ¾Ð± Ð°
ÑĢÐµÐ³Ð¸ ÑģÑĤÑĢÐ¸
ĠÐ¾Ð¿ ÑĢÐ°Ð²
ĠÐ²Ð¸ Ð¶Ñĥ
Ñį Ð¼
ĠÑģÐµÐ³Ð¾Ð´Ð½Ñı ÑĪ
ÑĩÐ° ÑİÑĤ
ĠÐºÑĢÐ°Ð¹ Ð½ÐµÐ¹
ĠÐ¼Ð¾Ð»Ð¾Ð´ Ð¾Ð¹
ĠÐ¥ Ð°
ĠÐ¸Ð·Ð¼ÐµÐ½ ÐµÐ½Ð¸Ñı
ĠÐ¶ Ð´Ð°ÑĤÑĮ
â ľ
ĠÑģÐ²ÐµÑĤ Ð°
ĠÐ²Ñĭ Ð±Ð¸ÑĢÐ°
ĠÐ³ Ð¾Ð½
ĠÐ¸ Ð¼Ð¸
ĠÐ¿ Ð°Ð½
ĠÐ¾ÑĤ Ð´Ð°
ĠÐ± Ð¸Ð±Ð»Ð¸
ĠÐ¾ ÑĩÐ¸
ÐµÐ´ Ð¶
ĠÐ¿ÑĢÐ¾Ð² ÐµÑģÑĤÐ¸
ĠÐ¿ÑĢÐ¾ Ñħ
ĠÐŀ ÑģÑĤ
ĠÐºÐ¾Ð¼Ð¿ Ð»ÐµÐºÑģ
ĠÐ²ÐºÑĥ Ñģ
ÐĲ Ð½
ĠÐ¿ÑĢÐµÐ´ÑģÑĤÐ°Ð² Ð¸ÑĤÐµÐ»ÑĮ
ÑĤÐ¸ÑĩÐµÑģÐº Ð¾Ð¹
ÑĢÐ¾Ð²Ð°Ð½ Ð½ÑĭÑħ
ĠÐŁ Ð¾Ð¿
Ðº Ð¾Ð³
ĠÐ¿ÑĢÐµ Ð²
ĠÐ²Ñĭ ÑģÐºÐ°Ð·
Ġh ttp
ÑĨÐ¸Ð¾Ð½ Ð½ÑĭÐ¹
ĠÐ¿Ð¾Ð» Ð½Ð¾
Ġb u
ĠÐ² Ð¾Ð´Ð°
ĠÑĨÐ¸ ÑĦ
or th
Ð³Ð° Ñħ
ĠÐ¿ÑĢÐ¸ ÑĩÐ¸Ð½Ð°
ĠÐ½Ð° ÑģÐºÐ¾Ð»ÑĮÐºÐ¾
ĠÐļ Ð°Ð¼
ĠÐ¿ Ð°Ðº
ÑĩÐ¸ ÑĤÑĮÑģÑı
ĠÐºÑĥÑĢ Ñģ
ĠÐ Ļ
ĠÐ¼Ð¾ ÑģÐºÐ¾Ð²
ÑģÑĤÑĢÐµ Ðµ
ĠÐ½Ð°Ð¿ Ð¾Ð¼Ð¸Ð½Ð°
re at
ĠÐĺ Ð³Ð¾ÑĢ
ÑĩÐµ Ð²
ĠÐ¾Ñģ Ð²Ðµ
ĠÐ¿ÑĢÐ¾Ð´Ð¾Ð» Ð¶Ð°Ð»
ĠÐ¾ Ð¿Ð°
Ð½Ð¸ ÐµÐ¹
Ñĳ Ð·
ĠÑģÐ¾Ð» Ð´Ð°ÑĤ
Ñį Ð»ÑĮ
ĠÐ¿Ñĥ ÑģÑĤ
ĠÐ£ Ð¶Ðµ
ĠÐ¾ ÑĦÐ¾ÑĢÐ¼
ĠÐ¿Ð¾Ð¶ Ð°Ð»
Ġa ct
ĠÐ¼Ð°ÑĪ Ð¸Ð½Ñĥ
Ġ200 6
ĠÐ¿ÑĢÐµ Ð¸Ð¼ÑĥÑīÐµ
ĠÐ·Ð°Ðº Ð»ÑİÑĩ
Ð¸Ð¼ ÑģÑı
Ð¿ ÑĢÐµÐ¶
ÑģÑĤ Ð°Ð»Ð°
ĠÐ¸ÑģÑĤÐ¾ÑĢÐ¸ Ñİ
ÑĤÐ¸ ÐºÐ°
ĠÐ³Ð¾Ð» Ð¾Ð²Ð°
ĠÑĢÑĭ Ð±
oll ow
ĠÐ±Ð¾Ð»ÑĮÑĪÐ¸Ð½ ÑģÑĤÐ²Ð¾
ĠÐ±Ð¾Ð»ÑĮÑĪ Ð¾Ðµ
ĠÐº Ð»ÐµÑĤ
ĠÐŁÐµÑĤ ÐµÑĢÐ±ÑĥÑĢ
ĠÐ³ÑĢÑĥÐ¿ Ð¿
ĠÑĢÐ°Ð· Ð²ÐµÑĢ
ĠÐ¿ÐµÑĢÐµ Ð³Ð¾Ð²Ð¾ÑĢ
ĠÐºÑĢÐ¾Ð² ÑĮ
ĠÑĥ Ð¼ÐµÐ½ÑĮ
ĠÐ¾ÐºÐ°Ð· Ð°Ð»Ð°ÑģÑĮ
ĠÐ²Ð¾Ñģ ÐµÐ¼
ĠÐ·Ð°Ð²Ð¸Ñģ Ð¸ÑĤ
Ð¾Ñģ Ð½Ð¾Ð²
Ð¸ÑĤ ÐµÐº
ĠÐ½Ð°Ð¹ Ð´
ĠÐ¿ Ð»Ñİ
ĠÐ´Ð²Ð¸Ð¶ ÐµÐ½Ð¸Ðµ
ĠÐ¿ÐµÑĢÐµ Ð´Ð°ÐµÑĤ
ran s
Ð°Ð»ÑĮ Ð½ÑĭÐ¼Ð¸
ĠÐ±ÑĥÐº Ð²
Ð¾Ðº Ñĥ
ĠÑģ Ð»Ð°Ð²
ÐµÐ½ÑĮ Ðµ
ĠÐ¿Ð¾ ÑģÑĤÐ°Ð½Ð¾Ð²
ĠÑĢÐ°Ð±Ð¾ÑĤ Ð°Ð»
Ð´ Ð¸Ð»
Ð¾Ð¼ Ð¾
Ð¿Ð¾ ÑĢÐ°
ĠÐ´Ð¾ÑĢ Ð¾Ð¶
ĠÐ¼Ð¾Ð´ ÐµÐ»Ð¸
Ð¶ Ð½ÑĭÐ¹
ĠÑģÐ¾Ð³Ð»Ð°Ñģ Ð½Ð¾
ĠÑģÑĤÐ¾ÑĢÐ¾ Ð½Ðµ
ĠÐ¿ Ð»ÐµÐ¼
ĠÐ½ÐµÐ¾Ð±ÑħÐ¾Ð´Ð¸Ð¼Ð¾ ÑģÑĤÐ¸
ĠÐ¿ÑĢÐµÐ´Ð¿ÑĢÐ¸ Ð½Ð¸Ð¼Ð°
ĠÐ¿Ð°Ð¼ ÑıÑĤ
ÐµÐ¹ Ð½
Ñģ ÐµÐ½
Ð»ÑĮ Ð½Ð¾Ð³Ð¾
âľ Ĥ
ĠÐ»Ð¸ÑĨ Ð¾Ð¼
Âł Ð²
ĠÐ½Ð° Ð·Ñĭ
ĠÑģÐ¼ Ð¾Ð¶
Ð¸ ÑģÑĤ
Ġ7 0
ÑģÑĤÐ¾ ÑĢÐ¾Ð½
Âł Ñģ
ÐĲ Ð¡Ð¡
ĠÐ² ÑģÐºÐ¾ÑĢÐµ
ĠÑħ Ð»Ð¾Ð¿
ĠA meric
ĠÐ¾Ð± ÑģÐ»ÑĥÐ¶Ð¸
ĠÑĩÑĥÐ² ÑģÑĤÐ²Ð¾
ĠÐ¿ÑĢÐ¸Ð½Ñı Ð»
ĠÐ½Ð¾ ÑĩÐ¸
ĠÐ±ÐµÑĢÐµ Ð³Ñĥ
ÑĢÐ°Ð· Ð´ÐµÐ»
Ð¸ÑĤÐµÐ»ÑĮ Ð½ÑĭÐ¼
ÑģÑĤ ÐµÑĢÐ°
ĠÑģÐ²ÐµÑĤ Ðµ
ĠÑĢÐ°Ð·Ð²Ð¸ÑĤ Ð¸Ðµ
Ð¸ÑĤÐµÐ»Ñı Ð¼
ĠÐĵ Ð°
ÑĤÐ¾ ÑĢÑı
ĠÐ¼Ð° Ð¹
ĠÑģ Ð¾Ð½
ĠÐ¿Ð¾ÑģÐ»ÐµÐ´ Ð½ÐµÐµ
Ñĥ ÑģÐ»Ð¾Ð²
ĠÐ¶ÐµÐ»Ð° Ð½Ð¸Ðµ
ĠÐ¸ ÑģÐºÐ°ÑĤÑĮ
Ñı Ð»Ð¸ÑģÑĮ
ĠÐ½Ð°Ð¿ Ð¾Ð»
ĠÐ¸ÑģÑģÐ»ÐµÐ´ Ð¾Ð²Ð°Ð½Ð¸Ñı
ĠP ro
Ð¼ ÐµÐ¹
ĠÐ²Ð° ÑĪÐµÐ³Ð¾
Ð»Ñı ÑİÑĤÑģÑı
Ġon ly
ĠÐł Ð¾Ð¼
ĠÑģ ÑħÐ¾Ð´
in ce
ĠÐ¢ Ð¾Ð¼
o int
ĠÑħÑĥ Ð¶Ðµ
ĠÑĪÐº Ð¾Ð»ÑĮ
e at
ĠÑĨ ÐµÐ½Ñĭ
ĠÐ¥ Ð¾ÑĢÐ¾ÑĪÐ¾
ĠÐ´ ÑĭÑħÐ°
ĠÐ´ÐµÑıÑĤÐµÐ»ÑĮ Ð½Ð¾ÑģÑĤÑĮ
% .
Ð½Ð¸ Ð»Ð¾ÑģÑĮ
ĠÐļ ÑĥÑĢ
Ð»Ð° Ðº
ĠÑģÐ¼Ñĭ ÑģÐ»Ðµ
ĠÐ¿Ð¾Ð¶Ð°Ð»ÑĥÐ¹ ÑģÑĤÐ°
Ð±Ð¸ ÑĢ
ÂłÐĴ Ñĭ
ĠÐ·Ð½Ð° ÑĩÐµÐ½Ð¸Ðµ
... âľĤ
Ð¸Ð»ÑĮ Ð½Ð¾
ĠÑģÐ¾Ð³Ð»Ð° ÑģÐ¸
ÑĤÐ¸Ð² Ð½Ð¾
ĠÐ¾Ð± ÐµÑĢ
Ġst ud
Ðĺ Ð·
ĠÑģÐ¿ Ð¸Ñģ
ÑĩÐ¸ Ð²
ĠÐ½Ðµ Ð±Ð¾
ĠÐ½ÐµÐ¿ÑĢÐ¸ ÑıÑĤ
ĠÐĿÐ¾Ð²Ð¾ ÑģÑĤÐ¸
ĠÐ·ÐµÐ¼ Ð»Ñı
ĠÐ¿Ð¾Ð½Ñı Ð»Ð°
ĠÑģ ÐµÐ²
ĠÐĿ Ð°Ð¼
Ġyear s
ÑĢÐ¾Ð²Ð° Ð½Ñĭ
ĠÐ¸Ð½ÑĤÐµÑĢÐµ ÑģÐ½Ð¾
-- --
us e
ĠÐ²Ð°ÑĢÐ¸ Ð°Ð½ÑĤ
ÐĴ ÐĲ
ĠÐ¸ÑĤ Ð¾Ð³Ðµ
ĠÐ½Ðµ Ñĳ
Ð¸ÑĤÐµÐ»ÑĮ Ð½Ð¾ÑģÑĤÐ¸
ĠÐ¼Ð°ÑĤÐµÑĢÐ¸ Ð°Ð»Ñĭ
ÑĢÐµ ÑģÑģ
ÐµÐ¼ Ð¾Ð¹
Ð°Ðº Ð¾Ð½
Ðº Ð½ÑĥÐ»Ð°
ÐĴ ÑģÐµ
ĠÐ½ÑĥÐ¶ ÐµÐ½
Ñĥ ÑģÐ°
ĠÐ¿ÑĢÐ¸ Ð²ÐµÐ´
ĠÑĩ Ð¸Ð½Ð¾Ð²
Ġwhe re
ĠÐ²Ð° ÑĪÐ¸
ĠÐ¿Ð¾Ðº Ð¾Ð»
Ð»Ð°Ð½ Ð´
ĠÐ¿ÑĢÐµÐ´ÑģÑĤÐ°Ð²Ð»Ñı ÐµÑĤ
ĠÑĦÐ¸Ð½Ð°Ð½ Ñģ
Ð½ ÐµÑĤÑģÑı
ĠÐ¿Ð° ÑĨÐ¸
ĠÐ¼ÑĥÐ¶ ÑĩÐ¸Ð½Ñĭ
ĠÐ¾Ð¿ÐµÑĢÐ° ÑĨÐ¸Ð¸
ĠÐ½ÐµÐ¾Ð¶Ð¸Ð´Ð°Ð½ Ð½Ð¾
Ñĭ Ð´Ñĥ
Ġm ost
ĠÐ¿Ð°ÑĢ ÐµÐ½ÑĮ
ĠÐ¾ ÐºÐ°
ĠÑģÐ¾Ð±Ñĭ ÑĤÐ¸Ð¹
. :
ĠÐĺ Ð²Ð°Ð½
ĠÐ³Ð¾Ð» ÑĥÐ±
Ð»ÐµÐ½ Ð½Ð¾Ð¹
ÑĩÐ¸ Ñı
ĠÑģÐ¾Ð· Ð´Ð°Ð½
ĠÐ¿ÑĢÐ¸Ð² Ð»ÐµÐºÐ°
ĠÑĢ Ð¾Ð¶Ð´ÐµÐ½Ð¸Ñı
ĠÐĴ Ð¼Ðµ
we en
ĠÐľÐ¸ÑħÐ° Ð¸Ð»
ĠÑĦ Ð¾ÑĢÑĥ
ĠÐĵ Ðµ
Ġag ain
Ð¾Ð´ Ñĭ
ĠÐ¿Ð¾Ð² ÑĤÐ¾ÑĢÐ¸
ul ar
ÑĢÑĭ Ñħ
Ġp ubl
ĠÐ´ Ð¶
ĠÐł ÐĺÐĲ
ĠÐº Ð¸ÑĤÐ°Ð¹
ÑģÐ¿Ðµ ÑĢÐ¸
ĠÐĶ ÑĢÑĥÐ³
ĠÑģ Ð¼Ñĥ
ĠÑģÐ¿ Ð¾ÑĢÑĤ
ÑģÑĤÑı Ð¼
Ð¾Ð¿ ÑĢÐ¾
ĠÐ¾ÑģÑĤ Ð°Ð»ÑģÑı
ĠÐ½Ð° ÑĪÐµÐ»
Ñı ÑīÐµÐ³Ð¾
2 3
ĠÐ» Ñĥ
Ð¿ÑĢÐµÐ¶ Ð½ÐµÐ¼Ñĥ
Ð» ÑĭÐ¹
ĠÑģÐ¾Ð¶Ð°Ð» ÐµÐ½Ð¸Ñİ
ĠÐĲÐ»ÐµÐºÑģ ÐµÐ¹
ĠÐ±Ð¾Ð»ÑĮÑĪ Ð¸Ð¼
i el
ĠÐ·Ð°Ð²Ð¸Ñģ Ð¸Ð¼Ð¾ÑģÑĤÐ¸
ĠÐ¿Ð¾ÑĤ ÐµÐ½
ĠÑĦÐ¾ÑĢ Ð¼Ñĭ
ĠÐ¿ÑĢÐ¸Ñģ Ð¾
Ġin d
ĠÐ¿ÑĢÐ¾ÑĪ Ð»Ð¾Ð¼
ĠÐ°Ð² ÑĤÐ¾Ð±
ĠÐ¼Ð½ ÐµÐ½Ð¸Ðµ
ĠÐ¾ÑģÐ² Ð¾Ð±
as h
in s
ĠÐ¿ÑĢÐ¸ÑħÐ¾Ð´ Ð¸ÑĤÑģÑı
ĠÐŁ Ð°ÑĢÐ¸
Ġre t
ĠÐ¿ÑĢÐµÐ´ Ð²Ð°
ĠÐ²Ð¾Ð¹ ÑģÐº
Ðŀ Ð±
ĠÐ´Ð¸ Ð¿Ð»Ð¾Ð¼
Ð¸Ð½Ð° Ð¼Ð¸
ĠÐ³ÐµÐ½ÐµÑĢÐ° Ð»
id ent
ĠÐºÑĥÐ»ÑĮ ÑĤÑĥÑĢ
Ġc ent
ĠS p
Ñĩ ÐºÐ¾Ð¹
il y
ĠÑģÐ¾Ð· Ð´Ð°ÑĤÑĮ
ĠÐľ ÐµÐ½Ñı
ĠÐ¸ÑĤ Ð¾Ð³
ĠÐ´ÐµÑĢÐµÐ² ÑıÐ½
ĠÐ¿ÑĢÐ¸ Ð²ÐµÑĤ
Ġ 000
ĠÐŀ Ð»ÑĮ
Ð´Ð¸ Ð½Ð¾
ĠÐºÐ¾ÑĤÐ¾ÑĢÑĭ Ð¼Ð¸
ĠÑģÑĤÐ¾ Ð¸Ð¼Ð¾ÑģÑĤÑĮ
ÑĤÐµÐ»ÑĮ ÑģÑĤÐ²Ð¾
ĠÑĩ ÑĢÐµÐ·
ÐµÐ½ ÑĤÑĥ
ĠÑģÐ¸ÑģÑĤ ÐµÐ¼Ñĥ
âĢ ľ
ĠÐł Ð¾Ð±
ĠÐ² ÑĤÐ¾
ÐºÐ° ÑĤÐµÑĢÐ¸
ĠÑģÐ¾Ð·Ð´Ð° Ð½Ð¸Ñı
ĠÐ²ÐµÐ´ Ð¾Ð¼
Ġ '
ĠÐ·Ð° Ð¹
Ð½Ðµ ÑĨ
ÑģÑĤÑĥÐ¿Ð¸ ÑĤÑĮ
ÑĢÐ¾Ð²Ð° ÑĤÑĮÑģÑı
Ñĩ Ð½ÑĭÐ¼Ð¸
ĠÐ´Ñĥ ÑĪÐµ
ĠÐ¾ÑĤÐ½Ð¾Ñģ Ð¸ÑĤÐµÐ»ÑĮÐ½Ð¾
ĠÐ¸Ð½ Ð²ÐµÑģÑĤÐ¸
ĠÐº ÑĢÐ¾
ĠÐ¿ÑĢÐ¾ ÑģÑĮ
ĠÑĨÐµÐ½ÑĤ ÑĢÐ°Ð»ÑĮ
Ð³ ÐµÑĢ
ĠÐ¡ ÑĥÐ´
ĠÑĤÐµÑĢÑĢÐ¸ ÑĤÐ¾ÑĢÐ¸
ĠÑģÐ»ÑĥÑĩÐ° ÑıÑħ
Ðķ ÑģÐ»Ð¸
. -
ÑĢÐ° ÑĩÐ¸
ĠÐ¶ Ð°ÑĢ
Ġs up
Ġ( Â«
Ð´Ðµ ÑģÑıÑĤ
ĠÐ¿Ð¾Ð´Ð½Ñı Ð»
ĠÑĤÐ¾ÑĢ Ð¶Ðµ
ĠÐ´ Ð¸Ñģ
ÑĤ ÐºÐ°
ĠÐ°Ð½ Ð³
ĠÑģÐ»Ð¾Ð²Ð° Ð¼Ð¸
ĠÐ±Ð¾Ð»ÑĮÑĪ Ð°Ñı
ĠÐ¼Ð¾Ð¼ ÐµÐ½ÑĤÐ°
ĠÐĵÐ¾Ñģ ÑĥÐ´Ð°ÑĢ
ĠÐ¿ÑĢÐ¸ ÑĩÐµÐ¼
ÑīÐ° ÑİÑĤ
ĠÐµ Ð·
ÑĤÐ¸ÑĩÐµÑģÐº Ð¸Ðµ
ĠÐ¿Ð¾ÑıÐ² Ð¸Ð»ÑģÑı
ÑĢÑĭ Ð¼
ÑĤÐ¸ ÑģÑĤÐ¸
ĠÐĿÐ° Ð²ÐµÑĢ
. ).
is ion
ĠÐ´Ð¸ÑĢÐµÐº ÑĤÐ¾ÑĢ
= =
ÑĤÐ° Ð¹
ĠÐ¼Ðµ Ð¶
Ð¾Ð² Ð°Ð»Ð¾
ĠÐ¼Ð¾Ð¶ ÐµÑĪÑĮ
ĠÐĶ ÐµÐ²
Ð¾ Ñĥ
ĠÐ¼Ñĥ Ð½Ð¸ÑĨÐ¸Ð¿
ĠÑĥÑģÐ»Ñĥ Ð³Ð¸
ĠÐ½ÐµÐ±Ð¾Ð»ÑĮÑĪ Ð¾Ð¹
ĠÐ·Ð°ÑīÐ¸ÑĤ Ñĭ
Ðķ Ðł
ÑĢÐ¸ ÐºÐ¸
ĠÑįÐºÑģÐ¿ Ð»Ñĥ
ĠĠ ĠĠ
ĠÑģ Ð´Ð°
ĠÐ¿ Ð°Ð»
ÑĤÑĭ Ð¼Ð¸
ĠÐ³Ð¾Ð´Ð° Ñħ
Ðļ Ð°
Ð½ ÐµÐ½Ð¸Ð¹
ĠÐĶ ÑĥÐ¼Ð°
ĠÑĦ Ð°Ð½ÑĤÐ°
ĠÐĵ ÑĢÐµ
ĠÐºÐ¾ÑĢ Ð¾Ð»ÐµÐ²
ĠÐ´Ð¾ÑĢ Ð¾Ð³Ñĥ
ĠÐ° ÐºÐ°Ð´ÐµÐ¼
ĠÑĢÐ¾Ð´ ÑģÑĤÐ²ÐµÐ½
Ð¾Ð²Ð° Ð½Ð¸Ñİ
ĠÐ¡ ÐºÐ°
ĠÐ¿Ð¾Ð½Ñı ÑĤÐ½Ð¾
ĠÑĢÐµ Ð±Ñı
ĠÐ¸Ð½ ÑĤÐµÐ»
ĠÐ²Ð¾Ð´ Ð¾Ð¹
Ð² ÑĥÑĩ
ÐĿ Ðŀ
i er
Ð¾Ð²Ð° Ð½Ñĭ
ĠÐ¸ÑģÐ¿Ð¾Ð»ÑĮÐ· Ð¾Ð²Ð°Ð½Ð¸Ñı
ĠÐ²ÐµÐ»Ð¸ Ðº
ĠÐ±Ð¾Ð»ÑĮ ÑĪÐ¸Ðµ
ĠÐ¼Ð°Ñģ Ñģ
ĠÐ² ÑģÐ»ÐµÐ´
ĠÐºÐ¾Ð½ÑĤ ÑĢÐ°Ðº
ĠÐ¿ÑĢ Ð¾Ð¶Ð¸
ĠÐ¿Ð¾Ð»Ð¸ ÑĨÐ¸Ð¸
ĠÐ¢ Ð¾ÑĤ
ÑĩÐµÐ½ ÐºÐ¾
ĠÐ¾ÑĤ ÑĩÐµÑĤ
ÑĪ ÐºÐµ
ÐµÐ½ Ð½Ð¾Ð¼
Ð°Ð»ÑĮ Ð½Ð¾ÑģÑĤÐ¸
Ð½ ÐµÐ´
ĠÑĩÐµÐ»Ð¾Ð²Ðµ ÐºÑĥ
ĠÑĪ ÑĥÑĤ
ĠÐ°Ðº ÐºÑĥ
ĠÐ¿ÑĢÐ¸Ð² Ð»Ðµ
ĠÐ¿ÑĢÐµ Ð²Ñĭ
ĠÑģÐ¿Ðµ ÑĨ
ĠÐ¾ÑģÑĤ Ð°Ð»ÑĮÐ½ÑĭÐµ
ĠÐ¼Ð° Ð³
ĠÐ¿ÑĢÐµÐ¿ Ð¾Ð´Ð°
ĠÑĤÑĥÑĢ Ð½Ð¸
Ġd uring
Ñı ÑĢ
ĠÐ¾Ðº ÑĢÑĥÐ³
ĠÑĤ Ð°Ð»
ĠÑįÐ½ÐµÑĢ Ð³
Ġe ar
Ġs ub
ĠÐ¡ Ð°Ð½
ĠÐ´Ð¾Ð² ÐµÑĢ
ĠÐĶÐ¶ Ð¾Ð½
ĠÐ¿Ð° Ð´
ĠÑĢÐµ ÑģÑĤÐ¾
y st
ÑĪÐµÐ½ ÐºÐ¾
Ñĩ Ð½Ð¸Ðº
ĠÑĤ ÐµÐ¼Ñĥ
ĠÐ¿ÑĢÐ¸ ÐºÑĢÑĭ
ĠÐ¾Ð±Ñģ ÑĥÐ¶Ð´
ĠÐ» ÐµÐ´
Ġ18 9
ĠÐºÐ¾Ð¼Ð¿Ð° Ð½Ð¸Ð¹
ĠÐ¿ÑĢÐ¾Ð³ÑĢÐ°Ð¼ Ð¼
ĠÐ²ÐµÑĢ Ð½ÑĥÑĤÑĮÑģÑı
ĠÐ¿ÑĭÑĤ Ð°Ð»ÑģÑı
ÑĤÐ° ÐµÑĤ
ĠÐ²Ñĭ ÑĪÐ»Ð°
Ġc o
ĠÐ½Ð°Ñĩ Ð¸Ð½
Ð°Ð½ Ð½ÑĭÐ¼
ĠÑģÑĭ Ð³ÑĢÐ°
ĠÐ¸Ð³ÑĢÐ° ÑĤÑĮ
ÐµÐ· Ð¶Ð°
ĠÐ´ Ñı
Ð³ÑĢÐ° Ð´
ĠÐ±Ð¸Ð· Ð½Ðµ
Ð¾ÑĢ ÑĤÐ¸
ĠÐ½Ð°Ñĩ Ð°Ð»Ð¾
ĠÐĲÐ½Ð´ ÑĢÐµ
ĠÑĢÐµÐ»Ð¸ Ð³Ð¸
ĠÐŁÐµ ÑĢÐµÐ´
ÑĤÑı Ð³Ð¸
ĠÑĩÐµ ÑģÑĤÑĮ
ĠÑģÑĩÐ°ÑģÑĤ Ð»Ð¸
Ðµ ÑģÑĤÑĮ
ĠÑģÐ¸ÑĤÑĥÐ° ÑĨÐ¸Ñı
ĠÐ¿Ð°ÑĢ Ð»Ð°
ivers ity
ÑĤÐ¸ Ñİ
ĠÐºÐ¾Ð¼Ð½Ð° ÑĤÑĭ
ou n
ÑĥÑİ ÑīÐµÐµ
ĠÐº ÑĥÑģ
an y
ĠÐ´Ð¾ ÑĩÑĮ
ÑĤ Ð¾Ð»
ÂłÐ ĵ
ĠÐĹÐ½Ð° ÑĩÐ¸ÑĤ
Ðļ ÐĲ
ĠÐ¾ÑĤ ÐºÐ°Ð·Ð°
Ð¸Ð² Ð°Ð»
ĠÐ¿Ð¾Ð» ÐºÐ¾Ð²
ĠÐ¿ÑĢ Ð¾Ð¶
ĠÐļÐ¾Ð½ ÑģÑĤÐ°Ð½
ĠÑį Ð»ÐµÐºÑĤÑĢÐ¸
ĠÐļ ÑĢÐ¸
ÐµÐ»Ð¾ ÑĢÑĥÑģ
ĠÑĢÐ° Ð´
ÑĢÐµ Ð²Ð°
ĠÐ¡ ÑĤÑĢÐ°
ĠÐ²Ñĭ ÑģÑĤÑĢÐµ
Ð°Ð»ÑĮ Ð½Ð¾ÑģÑĤÑĮ
ĠÐ¼ Ð¼
ĠÐ¿Ð¾ÑĤ Ð¾Ð»
ÑĢÐ¾Ð² Ð¸
ĠÐ´Ð¾ÐºÑĥ Ð¼ÐµÐ½ÑĤÐ°
Ð¼Ñĭ ÑģÐ»
ĠÐ½Ðµ Ð²Ñĭ
Ð¼ÐµÐ½ Ñĭ
Ð± Ð°ÑĢ
ĠÐ¿Ð¾ ÑģÑĤÐµÐ¿ÐµÐ½Ð½Ð¾
ĠÐł Ð¸
ĠÐ½ÑĥÐ¶ Ð½Ð°
ĠÑĤ Ð²Ð¾Ð¹
ĠÑĥ Ð½Ð¸Ðº
ĠÐ±Ð¾Ð»ÑĮÑĪ ÑĥÑİ
ĠÐ¿ÑĢÐµ Ð¼Ð¸
ĠÐĳ Ð¾Ð³Ð°
ĠÑĥÑģÐ¿ Ð¾ÐºÐ¾
ÑĤÐµ Ðº
ĠÐ¿ÑĢÐ¾Ð´ÑĥÐº ÑĨÐ¸Ð¸
ĠÑģ Ð°Ð½Ðº
ĠÐ¿ÑĢÐµÐ´Ð¿Ð¾Ð» Ð°Ð³Ð°
Ð¶ Ð½ÑĭÐµ
ĠÐ¾Ñģ Ð¾Ð·Ð½Ð°
ÑĪÐ° ÐµÑĤÑģÑı
Ġte am
ĠÑĢÐ°Ñģ ÑģÐ»ÐµÐ´
ĠÐ¿ÑĢÐµÐ´ ÑģÑĤÐ°Ð²Ð¸ÑĤÑĮ
ĠÐ· Ð»
e e
ĠÐŁÑĥ ÑģÑĤÑĮ
ĠÑĨ ÐµÐ¿
ĠÐ·Ð½Ð°Ñĩ Ð¸ÑĤÐµÐ»ÑĮÐ½Ð¾
ĠÐ³Ð¾ÑĤ Ð¾Ð²Ñĭ
Ð»Ñı Ð»Ð¸
ĠÐ²Ð¾Ð¿ ÑĢÐ¾ÑģÐ°
ĠÐ¿Ð°ÑĢÑĤ Ð½ÐµÑĢ
d uc
ĠÐ· Ð´Ð°Ð½Ð¸Ñı
ĠÐ¾ Ð³Ð»Ñı
ĠÐ¸ ÑģÑĤÐ¸Ð½
Ñĭ ÑĪÐ°
ĠÐĿÐ¸ÐºÐ¾Ð» Ð°Ð¹
ĠÐ· ÐµÑĢÐº
ĠÑĦÐ¸Ð½Ð°Ð½ ÑģÐ¾Ð²
ĠÑĤÐµÐ»Ðµ ÑĦ
ĠÑĥÑĩÐ°ÑģÑĤ Ð½Ð¸ÐºÐ¾Ð²
ĠÑĢÐ°Ð· Ð»Ð¸
ĠÐ½Ð°ÑĩÐ¸Ð½Ð° ÐµÑĤ
ĠÐĶÐ¼Ð¸ÑĤ ÑĢÐ¸Ð¹
ĠÐ½Ð°ÑĪ Ð»Ð¸
Ð¿Ð° Ð´Ð°
ĠÐŀÐ´ Ð½Ð°
Ġ9 0
ÑģÑĤ Ð¾Ð»
ĠÑĤÐµ ÐºÑĥ
ĠÐ² ÑĢÐµÐ´
ĠÐ²Ð¸Ð´ ÐµÐ»Ð°
Ð²ÑĪÐ¸Ñħ ÑģÑı
ĠÑģÐº Ð»Ð°Ð´
ĠÑģÐ¿ Ð¸Ð½Ð¾Ð¹
ĠÐ¿ÑĢÐ¾ ÑĪÐµÐ»
Ġ200 0
ĠÐ¾Ð± ÑĢÐ°ÑĤ
Ð³ Ð»Ð°Ð²
ÂłÐ ķ
ĠÐ½Ð¸ Ð¶
ĠÑģÐ»ÑĭÑĪ Ð°Ð»
ĠÐľ Ð¾Ð»
ÑĩÐµÑģÐº Ð¸Ð¼Ð¸
ĠÐ¾Ð±Ð»Ð° ÑģÑĤÑĮ
ĠÑĤÑıÐ¶ ÐµÐ»Ð¾
ĠÐ²Ð¾ÑģÐ¿ Ð¾Ð»ÑĮÐ·
ĠÐ¿Ð»Ð¾ÑīÐ° Ð´Ð¸
ĠÐ³ÑĥÐ± Ñĭ
ĠÑģÐ¿Ñĥ ÑģÑĤÑı
Ð² Ð¸ÑĤ
ĠÐºÐ¾Ð½ ÐµÑĨ
ÑĥÑħ Ð°
ĠÐ¿Ð»Ðµ ÑĩÐ°Ð¼Ð¸
ĠÐ¿Ð¾Ð´ ÑĩÐ¸Ð½
ĠÐ½Ð¾Ð² ÑĥÑİ
Ġc ol
ĠÐ¾ ÑĦ
ĠÐ¿ÐµÑĢÐµ Ñģ
ÑĢÐ¾Ð² Ð°Ð»Ð°
in a
Ñį Ð»
ĠÐ¿Ð¾Ð» Ð½Ð¾Ð¹
ÑĤÐ¸ Ð»Ð¾
ĠÐ¾Ð·Ð½Ð° ÑĩÐ°ÐµÑĤ
ĠÑĢÐ°Ð·Ð³ Ð¾Ð²Ð°ÑĢÐ¸
ĠÑģÐ°Ð¼ Ð¾Ð»ÐµÑĤ
ĠÐ¼Ð¾Ð½Ð° ÑģÑĤÑĭ
ĠÐ·Ð° Ð±ÑĢÐ°
ĠÐ²Ñĭ ÑĤÐ°
Ġre l
ĠÐ²Ð¸Ð´ ÐµÐ»Ð¸
ĠÐ´ ÑĢÐ¾Ð¶
ĠÐľ Ñĥ
ĠÑĥÐ³ Ð¾Ð»
ĠÐļ ÑģÑĤÐ°ÑĤÐ¸
ĠÐĿ Ð°ÑĢ
Ð´ÐµÑĢ Ð¶Ð°ÑĤÑĮ
Ð»Ð° Ð¼Ð¸
ĠÑĢÐ¾Ð¼ Ð°Ð½
4 5
ĠÑį Ð¿
ĠÐº Ð¾Ð´
ĠÑĦ Ð°Ð¼Ð¸
ĠÐ¾ÑĢÐ³Ð°Ð½ Ð¾Ð²
ĠÐ¾ Ñĩ
ÐºÐ¾ÑĤÐ¾ÑĢÑĭ Ðµ
ĠÐł Ñĭ
ĠÐ± Ð¸Ð»
ÑĦ Ð¸Ð½
ĠÐĶ Ð¾Ð¼
ĠÐĽ ÐµÐ½Ð¸Ð½
ĠÐ¿ÑĢÐ¾Ð±Ð»ÐµÐ¼ Ð°
ĠÑĩ Ð°Ð¹
ĠÑĢÐµÐ·ÑĥÐ»ÑĮÑĤÐ° ÑĤ
ĠÑģÐ¾Ð¾Ð±ÑīÐ¸ Ð»Ð¸
ĠÐ¿Ð¸Ñģ Ð°Ð»
Ðº Ð¾Ð±
an n
ĠÐ¸Ð½ Ð¶ÐµÐ½
ĠÐ¼Ð¸ Ð»Ð¸
ĠÐ¿ÐµÑĢÐµ Ð¼Ðµ
ĠÐ»ÑİÐ± Ð¾Ð¼
ĠÑĤÑĢ ÐµÐ½Ð¸
Ð»Ñĥ ÑĪÐ°
ĠÐľ Ð°ÑĤ
ĠÐ½ÑĥÐ¶ Ð½Ñĭ
ÑģÐ¸ Ð¹
ĠÐ¿ÑĢÐµÐ´Ð»Ð¾Ð¶ Ð¸Ð»
ĠÐºÑĢÐ° Ñı
ĠÐºÐ¾Ð½ÑĤÑĢ Ð¾Ð»ÑĮ
ÐµÐ»Ð¸ ÑĤÑĮÑģÑı
Ġ8 0
" )
Ġd ec
2 7
ĠÐ½Ð°Ð¿Ð¸Ñģ Ð°Ð»
ÐµÑĤ Ð¾Ð²
oc i
ÑĤÐ¸Ð² Ð½Ð¾Ð¹
Ġbet ween
ÑģÑĤÐ°Ð²Ð¸ Ð²
ĠÐ¿Ð¾ÑĤ Ð¾Ðº
ĠÐĵ Ñĥ
Ġm e
ĠÐ¾Ñģ Ð¾Ð±Ñĭ
Ð´ Ð½Ð¾
ĠÐ½ÐµÐ¿ ÑĢÐ°Ð²
2 6
ĠÐ±Ð»Ð¸ Ð¶Ðµ
ĠÐ²ÑĢÐµÐ¼ÐµÐ½ Ð°
ĠÐ¼ ÑĥÐ´
Ġas s
ĠÑĥÐ¿ Ð¾ÑĤÑĢÐµÐ±
a j
ÐµÑģ ÐµÐ´
em ent
ĠÐ± Ð¾Ð»Ð¸
ĠÐ³Ð¾Ð»Ð¾Ñģ Ð¾Ð¼
Ð° Ð³Ð¸
Ð¾Ð¿Ð¾Ð» Ð¾Ð¶
201 5
ĠÐ¾Ð¿ÑĥÐ±Ð»Ð¸ ÐºÐ¾Ð²
ĠÐĿÐ¸ ÑĩÐµÐ³Ð¾
ĠÑģÑĦ ÐµÑĢÐµ
ĠÑģÐ¸Ð¼ Ð²Ð¾Ð»
ĠÐ± Ð¸ÑĤ
ĠÐ²Ð½Ð¸Ð¼Ð° ÑĤÐµÐ»ÑĮÐ½Ð¾
ĠÐ¿ÑĢÐµÐ´Ð¾ ÑģÑĤÐ°Ð²Ð»Ñı
ÑĨ Ð²ÐµÑĤ
ĠÐ¾Ð¿ÑĢÐµÐ´ ÐµÐ»ÐµÐ½
ĠÐ¿ÑĢÐ¸ ÑĪÐ»Ð¸
ĠÐļ Ð°ÑĤ
Ð»Ð° Ð¼
ĠÐ´ Ð²Ð¾Ðµ
ĠÐ¿ÑĢÐµÐ´ ÑĭÐ´Ñĥ
Ñı Ñı
a ir
ĠÐ½Ðµ ÑĩÑĤÐ¾
ĠÐ¾Ð± Ð¸Ð´
ÑĤÐ¸ÑĩÐµÑģÐº Ð¾Ð³Ð¾
ĠÑİÑĢÐ¸ Ð´Ð¸
ĠÐ¿Ðµ Ñĩ
ĠÐ¼Ð½Ð¾Ð³Ð¾ ÑĩÐ¸ÑģÐ»
ĠÑĢÐµÐ±ÐµÐ½ Ð¾Ðº
f ore
s h
ÑĢÐ° Ð²Ð°
ĠÑĪ ÑĤÑĥ
ĠÑĨ ÐµÑĢÐºÐ²Ð¸
ĠÐ½Ð° Ð¼Ðµ
ĠÑįÐ»ÐµÐºÑĤ ÑĢÐ¾
Ð²ÑĪÐ¸Ðµ ÑģÑı
ÑĤÐ¾ ÑĢÑĥ
Ñĩ ÐµÐ½Ð°
ÑĢÐ¾Ð² Ð¸Ñĩ
ĠÑı Ð¿Ð¾Ð½
ĠÐ²Ñĭ Ð¿Ð»Ð°
ĠÑĤÑĢÑĥÐ´ Ð¾Ð¼
Ð±Ð¾ Ðµ
ĠÐ´ÑĢÑĥÐ³ Ñĥ
ĠÐ²Ð¾Ð¿ÑĢÐ¾Ñģ Ð¾Ð²
ĠÑĤÐµÐº ÑģÑĤ
Ġus ed
ĠÑĤÐµÐ¿ Ð»Ð¾
ĠÑģÑĩÐ¸ÑĤÐ° ÑĤÑĮ
ĠÐĲ Ñħ
ÑĦÐ¸ Ðº
ĠÐ½Ð°ÑħÐ¾Ð´ ÑıÑĤÑģÑı
ĠÐ¸Ð¼ Ð¿Ðµ
Ñģ ÑģÐµ
Ð»Ð° Ð·
ĠÐ¿Ð¾Ð² ÑĤÐ¾ÑĢÑı
ĠÐ»ÑİÐ± Ð»Ñİ
ĠÐ½Ð° ÐºÐ°Ð·Ð°
ĠÐ° Ð¼
ĠÐ¼ ÑĢÐ°
ĠÐ¿Ð¾Ð´Ð¾ ÑĪÐµÐ»
Ð²Ñĭ Ð¼Ð¸
ÑĦ Ñĥ
ĠÑģÐ´ÐµÐ» Ð°Ð»Ð¸
ĠÐ³Ð»Ð°Ð² Ð½ÑĭÐ¹
ĠÐ´Ð¾ÐºÑĥÐ¼ÐµÐ½ ÑĤÑĭ
ĠÑģÑĤ Ñĭ
ĠÐłÐ¾ÑģÑģÐ¸ Ñİ
ĠÐŁ Ð¾Ð½
o ot
ĠÑĢÐµÑĪÐ¸ Ð»Ð°
ĠÐ´ÑĢÑĥÐ³ ÑĥÑİ
ĠÐ´ÐµÐ²ÑĥÑĪ ÐºÐ¸
ĠÐ¾ Ð¿Ð¸Ñģ
ĠÐ·Ð° ÑĢÐµÐ³Ð¸ÑģÑĤÑĢÐ¸
Ġin ter
Ġre m
ĠÐ°Ð¿ Ð¿Ð°ÑĢÐ°
ĠÐ²Ð¾ÑģÐ¿ Ð¾Ð¼Ð¸Ð½Ð°
ÑĪÐ¸ Ð»Ð¸
ĠÐĹÐ° Ð¿Ð°Ð´
ĠÐ¾Ñģ Ð¼Ð¾ÑĤ
ĠÑĩÐµÑĤÑĭÑĢÐµ Ñħ
ĠÐºÐ° Ð´
2 1
ĠÐ¿Ð¾Ð»Ð¸ÑĤÐ¸ ÐºÐ¸
ĠÐ¿ÑĢÐµÐ´ ÐµÐ»Ð°
ĠÐ¼Ð¸ÑĢÐ¾Ð² Ð¾Ð¹
Ġthe re
Ð¿Ð¸ ÑģÑĮ
ĠÐºÐ°Ð½Ð´Ð¸ Ð´Ð°
ĠÑĦÐ¾ÑĢ Ð¼
ĠÑĢÐµÐ³Ñĥ Ð»ÑıÑĢ
ĠÑĢÐ°Ð·Ð½Ð¾ Ð¾Ð±ÑĢÐ°Ð·
Ġth rough
ĠÐ¿Ð¾ÑĢÑıÐ´ Ð¾Ðº
t ed
ĠÐº Ð»Ð°Ð´
ĠÐ´Ð¾Ð¼ Ð¾Ð²
ÐµÐ´Ð¸ Ð½Ð¸
ĠÐ½Ð¾Ð²Ð¾ Ðµ
Ð½Ð¸Ñı Ñħ
ĠÐ¼ÐµÑħÐ° Ð½Ð¸Ð·
Ð¾ÑĤ Ð¾Ð²
ĠÐ¾ÑĤÐ»Ð¸ ÑĩÐ¸Ðµ
ÐºÐ¾Ð² Ð¾Ð¹
ĠÐļ ÑĥÐ±
ĠÑĢÐ¾ ÑģÑĤ
ĠÐ¡ Ð¾Ð³Ð»Ð°ÑģÐ½Ð¾
ÑĢÐ¸ Ð»ÑģÑı
ĠÐ¼ÐµÑģÑĤÐ° Ñħ
ĠÐºÐ°Ðº Ð¾Ð¼
Ðļ Ðŀ
ĠÐ·Ð½Ð° ÑİÑĤ
ĠÑģÐµÐ¼ ÑĮÐµ
Ð°Ð» Ð¸Ð½
ĠÐ¶ ÐµÐ½Ð¸
ĠÐ·Ð° Ð¼ÐµÑĢ
ĠÐ·Ð° ÑģÑĤÐ°Ð²Ð»Ñı
Ġ3 5
ĠÐ¿Ð¾Ð´Ð¾Ð· ÑĢÐµ
ĠÐ¿Ð¾ÑıÐ²Ð¸ Ð»Ð°ÑģÑĮ
ĠÐĳ Ñĥ
Ġ Q
Ñĩ Ð°Ð»ÑģÑı
Ġs o
Ġf l
Ð¶Ð´Ð° Ñı
ĠÑģÐ»Ñĥ ÑĪÐ°
Ð²Ð¸Ð´ Ð¸Ð¼
ĠÐ¼Ð°Ð³Ð° Ð·Ð¸
ĠÐ¼Ð¸Ðº ÑĢÐ¾
Ð² Ð¾Ð»ÑĮ
ĠÐ¾ÑĢÑĥÐ¶Ð¸ Ñı
Ġf ound
ĠÐ´ÐµÐ» Ñĥ
ÑĢÐ¾ ÑģÑĤÐ¸
ĠÑģÐ¾Ð»Ð½ ÑĨÐµ
ĠÐ½Ð° ÑĩÐ°ÑĤÑĮ
ĠÐºÐ°ÑĢ ÑĤÐ¸Ð½
ĠÐŁ ÑĢÐµÐ·Ð¸Ð´
ÑĢÑĥ Ð³Ð°
ĠÐ¿Ð¾Ð·Ð½Ð° ÐºÐ¾Ð¼
Ġp ol
at ive
ÐµÑĤ Ñĥ
ĠÐĴ Ð·
ĠÐ´ Ð°Ð¼
ĠÐº Ð¸Ð½
ĠÐ½Ð°ÑĪ Ñĥ
? ?
ĠÐ´ ÑĢ
ĠÐ°ÑĢÑħ Ð¸ÑĤÐµÐº
Ð· Ñĥ
ow er
Ñģ Ð¾Ðº
ĠÑģÐ¾ÑģÑĤÐ¾ Ð¸ÑĤ
ĠÐ½Ð° Ð¿Ð°Ð´
ĠÐ¿Ð°Ð¼ ÑıÑĤÑĮ
ĠÐ· Ð¾Ð²
ĠÐļÐ° Ð¶Ð´ÑĭÐ¹
ĠÐ¾Ð± Ð»ÐµÐ³
ĠÑĥ ÑĩÐµÑĤ
Ð¾Ð¶ Ð´Ð°
ĠÑĪÐº Ð¾Ð»Ðµ
Ġre le
Ð´ ÐµÐ»Ð¸
ÑĮ Ð¸
ĠÑģÑĥÐ´ ÐµÐ±
ĠÑĢÐ°Ð´Ð¸ Ð¾
3 5
ĠÐ·Ð° ÑģÐµÐ´Ð°
ĠÑģÐ¿Ð¸Ñģ Ð¾Ðº
ĠÑĤÐµÑħ Ð½Ð¸ÐºÐ¸
ĠÑħ Ð²Ð¾
al s
ĠÐ¾ÑĤ Ð´ÐµÐ»Ð°
ĠÐ¾Ð´ Ð½Ð¾Ð¼Ñĥ
ĠÑįÐº ÑģÐ¿ÐµÑĢÐ¸
ĠÑħ Ð¸Ð¼Ð¸
ĠÐłÐµ ÑģÐ¿ÑĥÐ±Ð»Ð¸ÐºÐ¸
ĠÐķÐ² Ð³
ĠÑģÑĤÐ¾ ÑıÐ»Ð°
ÐµÐ´ Ñĭ
Ġthe m
ĠÐ½ÐµÐ½Ð° Ð²Ð¸
ĠÐķ ÐºÐ°ÑĤÐµÑĢÐ¸
Ġth ree
Ġthe n
ĠÐĿÐ° Ð´Ðµ
ĠÑģÑĤ ÑĢÐµÐ»
ĠÐ¡ ÐºÐ¾
ÑĤÐ¸Ð² Ð½ÑĭÐµ
ĠÐ³Ð»Ð° Ð²Ñĭ
ĠÑĥ Ð±Ð¸
Ð°Ð»ÑĮ ÑıÐ½
ĠÐ¿Ð¾Ð¼ Ð½Ñİ
ĠÑĥÐº ÑĢÐµÐ¿
ĠÐĳ Ð¾Ð»ÐµÐµ
ĠÐ½Ð° ÐºÐ°
ĠÐ²Ð¾ ÐµÐ½Ð½ÑĭÑħ
if e
Ð°Ñı ÑģÑĮ
ĠÑĤ ÑīÐ°
ĠÐ¿Ð¾Ð·Ð¸ ÑĨÐ¸Ð¸
Ð¾ Ð°Ð½
it ies
ĠÑģÐ¾Ð¿ ÑĢÐ¾ÑĤÐ¸Ð²
ĠÑģÑĤÐ¾Ð» Ð°
Ġp e
Ð² ÑĮÑİ
7 0
ĠÑħÐ¾ÑĤ ÑıÑĤ
ĠJ o
ĠÐŁ Ð»Ð°
ÐµÐ¼ Ð¾Ð³Ð¾
ĠÐ³ ÐµÐ½
Ð´Ð° Ð³
ĠÐ´Ð¾ÐºÑĥÐ¼ÐµÐ½ ÑĤÐ¾Ð²
Ð»Ð° Ð¹Ð½
ĠâĢ ŀ
ĠÐ¿ÑĢÐ¾ÑĪÐ» Ð¾Ð³Ð¾
ÐĴ Ð¾
ĠÐ± Ð°ÑĤ
ĠÐĿÐ° Ð¿Ð¾Ð¼
ĠÐ²Ð¸Ð´ Ð¸Ð¼Ð¾
ÐµÐ½Ð¸Ñı Ð¼
ĠÐ½ÐµÐºÐ¾ ÑĤÐ¾ÑĢÐ¾Ðµ
ĠÐ¿ÑĢÐ¸ ÑĪÐ»Ð°
ĠÑĩÐ¸ÑĤÐ° ÑĤÑĮ
ĠÐ»ÑİÐ± Ð¾Ð³Ð¾
ĠÐºÐ¾ ÑĦÐµ
ĠÐ»Ð°Ð³ ÐµÑĢ
ĠÑĩ ÐµÑĢÐµ
ĠÑıÐ·Ñĭ ÐºÐµ
at t
ĠÐ¶ Ð¸Ð»ÑĮ
ĠÐ¿Ð¾Ð¼ Ð¾Ð¶ÐµÑĤ
ĠÐ´ÑĢÑĥÐ· ÐµÐ¹
ĠÐ½Ð°ÑĢÑĥ ÑĪ
Ġf ilm
Ġab out
Ñĩ ÐµÐ½Ð¸ÐµÐ¼
ĠÐĶÐ¶ ÐµÐ¹
ÑĢÐ¾Ð²Ð°Ð½ Ð½ÑĭÐµ
ĠÐľ Ð°ÐºÑģÐ¸Ð¼
ĠÑģÐ¸ÑĤÑĥÐ° ÑĨÐ¸Ñİ
ÑģÑĤÐ²ÐµÐ½ Ð½ÑĥÑİ
ĠÐŁÑĥ ÑĤÐ¸Ð½
ĠÐ¢ Ð¸
ĠÐ¿Ð¾Ð²ÐµÑĢÑħ Ð½Ð¾ÑģÑĤÐ¸
ĠÐĽ ÑĥÑĩ
ĠÐ²Ð´ Ð¾Ð»ÑĮ
Ð³ Ð°Ð»Ð¸
ĠB l
Ðº Ð²Ð¸
ĠÐ²ÑĤÐ¾ÑĢ Ð¾Ð³Ð¾
ÑĢÐµ ÑģÑĤÐ¸
ĠÐ½ÐµÐ¿ Ð¾Ð½
us s
ĠÐ¿Ð¾Ð´ ÑĢÐ°Ð·Ð´ÐµÐ»
ĠÐ· Ð½Ð°Ð»Ð¸
ÑĨÐ¸ Ð¾Ð½Ð¸
ĠÐºÐ¾Ð½ ÑĦÐµÑĢÐµÐ½
ĠÐ· Ð°Ð»Ð¸
ĠÐ·Ð° ÑĢ
ĠÐ² ÑģÑĤÑĥÐ¿
ĠÑģÐº Ð¾ÑĢ
ĠÐ·Ð° ÑħÐ¾ÑĤ
ÐµÑĢÐµ Ð¹
ĠÐŁ Ð¾Ð¶
Ñħ Ðµ
Ġm ade
Ð¸ ÑģÐ¿
ÐµÐ½ÑĮ Ñİ
ĠÐ¼Ð°ÑĢÑĪ ÑĢÑĥ
ĠÐ¿Ð»Ð° ÑģÑĤÐ¸
Ð² Ð¾Ð²
Ð¾ÑĤ Ð½Ð¾
ĠÐ¿ÑĢÐ¾ÑĤÐ¸Ð² Ð½Ð¸ÐºÐ°
ĠÐ²Ð¾Ð·ÑĢÐ° ÑģÑĤÐ°
ĠÐ¡ ÑĢÐµÐ´
Ð´Ð¾ÑĢ Ð¾Ð²
Ð°Ð¹ ÑĤÐµ
ĠÐ°Ñį ÑĢÐ¾Ð¿
ĠÐ½Ð°Ð²ÐµÑĢ Ð½ÑıÐºÐ°
ĠÑģÐ¿ ÑĥÑĤ
ĠÐ¼Ð°ÑĤÐµÑĢÐ¸ Ð°Ð»
ÑĢÐµ ÑģÑĤ
ÑĤÐ¸ Ð²Ñĭ
ĠÐ¿Ð¾Ð·Ð´ Ð½Ð¾
ĠTh is
ĠÐ·Ð° Ð¿Ð¸Ñģ
Ġf ollow
Ġ )
ÑĤÐ¸Ð² Ð½ÑĭÐ¹
ĠÑıÐ·Ñĭ ÐºÐ°
Ð¿ ÐµÑĢÐµ
ÐµÐ»Ð¾Ð² ÐµÐº
ĠÑħ ÑĢÐ¸ÑģÑĤÐ¸Ð°Ð½
ÑģÐºÐ° Ñħ
Ġn um
ĠÑģÐµÑĢ Ð´ÑĨÐ°
Ġs uch
Ð»Ðµ Ð¿
ĠÑģÐµÐº ÑĢÐµÑĤÐ°
ĠÐ¾Ð±ÑĢÐ° Ñī
ĠÑģ Ñĩ
Ð»ÑĮ Ð½ÑĭÐ¹
ĠÑĦÐ¸Ð»ÑĮ Ð¼
ĠC ol
ĠÐ¿ÑĢÐµ ÑĤÐµÐ½
over n
ĠÑģ Ð»Ð¾
ĠÐ²Ð¾ ÐµÐ½Ð½Ð¾
p r
Ð¹ ÑģÑı
ĠÐ¿Ð¾Ð½ ÑĢÐ°Ð²
ĠÐ±Ð°Ð½ ÐºÐ¾Ð²
ĠÐº Ð½Ð¾Ð¿
Ðł ÐĲ
ĠÐ½ ÐµÐ»Ðµ
ÐµÐ´ Ð»Ð¸Ð²Ð¾
ĠÑģÐ²ÑıÐ· ÑĮ
Ð°Ð½ Ð³
Ð¿ Ð¾Ð·Ð¸
ĠÑĥÑģÐ¼Ðµ Ñħ
ĠÑĤÐµ Ð¾
ÑĤ Ð°Ð»Ð°
j ect
ĠÑģÐ¾ÑĤÑĢÑĥÐ´ Ð½Ð¸ÐºÐ¾Ð²
ĠÐ¾ÑĤ ÑĢÐ¸ÑĨÐ°
ĠÐĲÐ»ÐµÐºÑģÐ°Ð½Ð´ ÑĢÐ°
he n
ÑĢÐ¸ Ð»Ð°
ĠÐ¼ Ð¾Ð±Ð¸Ð»ÑĮ
ĠÐ½Ð°ÑħÐ¾Ð´ Ð¸Ð»ÑģÑı
Ġm ov
ÑĥÑİÑī Ð¸Ð¼
ĠÑĢÑĥ ÐºÐµ
ĠC l
ĠÐľ ÐµÐ´
ÑĤÑĥ Ð´Ð°
ĠI nd
ĠÐºÑĢÐµ Ð¿Ð¾
ĠÑģÐ¸ÑģÑĤÐµÐ¼ Ðµ
ĠÐ´Ð¾ÐºÐ° Ð·Ð°
ĠÐ¡ ÑĢÐµÐ´Ð¸
ÑĤÐµÐ»ÑĮ Ð½ÑĭÐ¼
Ñı Ð»Ð¾
ÑĪÐµ Ð±
ĠÐĿ ÑĮÑİ
ĠÐ¸ÑģÐºÐ»ÑİÑĩ Ð¸ÑĤÐµÐ»ÑĮÐ½Ð¾
4 9
Ð± Ð°Ð½
ÑĤÐµÐ»ÑĮ Ð½Ð¾Ðµ
ÑģÑĤÐ¾ Ð¸Ð½
ĠÑĢÐ¸ ÑģÐº
ĠÐ¼Ð¸Ð»Ð»Ð¸ Ð°ÑĢ
ĠÐ¾ÑĤÐ½Ð¾ ÑĪÐµÐ½Ð¸Ðµ
ĠÐ¾ÑĤÐºÑĢÑĭ Ð»
Ð· Ð°Ð¼
ĠÑįÐ½ÐµÑĢ Ð³Ð¸Ð¸
ĠÐ±Ñĭ ÑģÑĤÑĢÐµÐµ
ĠÑģÐ¾Ð» Ð´Ð°
ĠÑĥ Ð¼Ð°
Ð¸Ð· Ð²Ð¾Ð´
ĠÑĥÐ· Ð½Ð°Ð»
Ð´Ðµ Ðº
ĠÐ±Ñĭ ÑģÑĤ
ĠÑĢÐ°Ð· Ð¼
ar g
ĠÐºÐ¾ÑĢ Ð¾Ð±
am es
ĠÐ¿Ð¾ ÑĪÐ»Ð¸
ĠÐ·Ð° ÑģÑĤÐ°Ð²
âĢ¦ Â»
ĠÑģÐ°Ð¼ Ð¾Ð¼Ñĥ
2 8
ĠÐ²Ñĭ Ð¹ÑĤÐ¸
Ġl ater
if ic
ĠÐºÐ½Ð¸ Ð³
ĠÑį ÐºÑĢÐ°
Ġa m
ow s
ÑĨÐ° Ñħ
ÑĢÐ¾Ð¼ Ð°
d er
ĠÐĴ Ð¸ÑĤ
ĠÑģÐ¿ÐµÑĨÐ¸Ð°Ð»ÑĮ Ð½Ð¾
Ð¾Ð» Ð¾Ñģ
ÑĤÐ¸Ð² Ð½Ð¾Ð³Ð¾
ĠÑĥÐ±Ðµ Ð¶Ð´
ou se
Ñĩ ÐµÐ½Ð¸Ñİ
ĠÐºÐ¾ÑģÑĤ Ñİ
ĠÑģÑĩÐ¸ÑĤÐ° ÑİÑĤ
p en
ĠÐĸ ÐµÐ½
ĠÑĪ Ð»Ð¸
ĠÐ¼Ð¸ Ð³
ĠÐ¿ÑĢ Ð¾Ð¹ÑĤÐ¸
ÑģÑĤÐ¾Ðº Ðµ
ĠÐ²Ð¾Ð¹ Ð½Ð°
ÐŁ ÑĢÐ¾
Ðľ Ð¾
ĠÐ½Ð° Ð¾Ð±Ð¾ÑĢÐ¾ÑĤ
ĠÐ¼Ð¸Ð½Ð¸ Ð¼Ñĥ
Ð± ÑĢÑĮ
2 9
ĠÐ²ÐºÐ»Ñİ ÑĩÐ°Ñı
Ð± ÑĢÐ°Ð½
ĠÐ¡Ð¾Ð² ÐµÑĤÐ°
ĠÐ¿ÑĢÐ¸ÑħÐ¾Ð´ Ð¸Ð»Ð¾ÑģÑĮ
ĠÑĤÑİ ÑĢÑĮ
ĠÐ· Ð°Ð»Ðµ
Ð¾Ñĩ ÐºÐ¸
ĠÐ¶ Ð¸Ð´
ĠÑģÐ¿ ÑĢÑı
ÐŁ Ð¾Ñģ
ĠÑģÐ¾Ð±ÑģÑĤÐ²ÐµÐ½ Ð½Ð¾Ð¹
ĠÑĩÐ° ÑģÑĤÑĮÑİ
ĠÐĲÐ»ÐµÐº ÑģÐµ
ĠÐ·Ð°Ð½Ð¸Ð¼Ð° ÑĤÑĮÑģÑı
ĠÑĢ Ð¾Ð±
ĠÑģÐ¿Ð° ÑģÐ¸Ð±Ð¾
ĠÑĢÐ°Ð·Ð»Ð¸Ñĩ Ð½ÑĭÐµ
ÑĢÐ° Ð½ÐµÐµ
ĠÐ±ÑĥÐ´ ÐµÑĪÑĮ
Ñı Ð±ÑĢÐµ
ÑģÑĤÐ¸ Ð»Ð°
in n
ĠÑģÐ°Ð¼ Ð°Ñı
ĠÐ²Ð»Ð°Ð´ ÐµÐ»ÑĮ
ĠÑģÐ¸Ð» Ð¾Ð¹
ĠÐºÐ¾Ð¼ ÑĦÐ¾ÑĢ
ĠÐºÐ° Ð¶Ð´Ñĭ
ĠÑĥ Ð³Ð¾Ð´Ð½Ð¾
ĠÐ¼ ÑıÑģ
ĠÐ¿ÑĢÐ¸ Ð¼
ĠÑĢÐ°ÑģÐ¿ÑĢÐ¾ ÑģÑĤÑĢÐ°
ÑģÑĤ ÑĢÑĥ
ĠÐ½Ð°Ð±Ð»Ñİ Ð´
ĠÐĿ Ð°Ñģ
ĠÐ¿ÑĥÑĤ ÐµÐ¼
ĠÑİ Ð½Ð¾
ĠÐºÐ½Ð¸ Ð³Ñĥ
Ð¾Ñģ Ð»Ð°Ð²
ĠÐ¾ÑģÑĤ Ð°Ð»Ð¸ÑģÑĮ
ĠÐ¾ÑĤÑģ ÑİÐ´Ð°
ĠÐ²Ð° ÑĪÐµ
Ð´ Ð¾Ðº
ĠÐ°Ð´Ð¼Ð¸Ð½Ð¸ÑģÑĤÑĢÐ° ÑĨÐ¸Ð¸
ĠÐ½ÐµÐ¼ ÐµÐ´Ð»ÐµÐ½Ð½Ð¾
ĠÐ¥ Ð¾
ĠÐ¾ÑĩÐµÑĢÐµÐ´ Ð½Ð¾Ð¹
ÑĪÐµ Ð¿
ĠÐ½Ð°Ð¿ÑĢÐ°Ð² Ð»ÐµÐ½Ð¸Ð¸
Ġs chool
er m
ÑĤ Ð½ÑĭÐ¹
ÑĢÑĥ Ñı
ĠÑģÑĤÐ° ÑĤÐ¸ÑģÑĤÐ¸
Ñĥ ÑĢÐ¾
ĠÐ³Ð¾Ð²Ð¾ÑĢÐ¸ Ð»Ð°
ĠS c
ÑīÐ¸ ÐºÐ¸
Ð¼Ð¸ ÑĢ
ÑĢÐ¸ ÑĤÐµÐ»ÑĮÐ½Ð¾
Ð½Ð¸ Ð²
ur y
ĠÑģÐµÐ¼ ÑĮÑı
Ġ5 00
ĠÐ» Ð¾Ðº
ĠÐ¿ÑĢÐµ ÑģÐ»ÐµÐ´
Ð·Ð° ÑĢ
ĠÐ²Ð¸Ð´ Ð¾Ð²
ĠÐ¾ÑĢÐ¸ Ð³Ð¸Ð½
ĠÐ» ÐµÐ¹
ÑĢÐ¾Ð² Ð¾Ð¹
ÑĢÐ¾Ð²Ð°Ð½ Ð½ÑĭÐ¹
ĠÑįÐºÑģÐ¿Ð»Ñĥ Ð°ÑĤÐ°
ĠÐ· Ð´Ð°
ĠÐ³ Ð³
ÐĿ Ðł
ĠÐ±Ð¾Ð³ Ð°ÑĤ
Ð² Ð¾Ð»Ð¸
ĠÐ± ÑĢÐ¾Ñģ
ĠÐ¾Ð± Ð½Ð¾Ð²
ĠÐ²Ð¸ Ð´Ð°
ĠÑĢÐ¾Ð´ Ð¸ÑĤÐµÐ»ÐµÐ¹
Ð´Ð¸ Ð»Ð¸
ĠÐ´ÐµÐ»Ð° ÑİÑĤ
ĠÐ²ÐµÑĤ ÐµÑĢ
ĠÐ¾ÑĤÐ´Ñĭ ÑħÐ°
ĠÐ£ÐºÑĢÐ° Ð¸Ð½Ð°
ĠÐ¿ÐµÑĢÐµ Ð²
Ġ200 5
ĠÐ¿ÑĢÐ¾ ÑĩÐ¸ÑĤ
ĠÐ¸Ð¼ ÐµÐ»Ð¸
Ñĭ Ð²Ð°Ð»Ð¸
ĠÐ¾Ð± ÑģÑĤÐ°Ð½Ð¾Ð²
ĠÐ¼Ð°Ð»ÑĮ ÑĩÐ¸
s on
Ġd ist
= "
ĠÐ±ÑĥÐ´ ÐµÑĤÐµ
ÑĢÐ¸ Ð´
ĠÐºÑĢÐ°Ð¹ Ð½Ðµ
ĠÐ² Ð¾Ð½
Ġs ome
ĠÐ·Ð° ÑĤÐ¾
ĠÑģÑĤÑĢÐ¾Ð¸ÑĤÐµÐ»ÑĮ ÑģÑĤÐ²Ð°
ĠÑģÐ» ÑĥÑħ
ĠÐĴ Ð°ÑĢ
ĠÑĢÐ°Ð· Ð¾Ð±ÑĢÐ°
Ð¼Ð¸ Ð½Ð°
Ñĭ ÑĪÐ°ÑĤÑĮ
ĠÐ´Ð¾ ÑģÑĤÐ¾Ð¹
ĠÐ»ÑİÐ± Ð¾Ð¿ÑĭÑĤ
ĠÑĢÐµÐ·ÑĥÐ»ÑĮÑĤÐ° ÑĤÑĭ
ĠÐ² ÑĢÑıÐ´
ĠÐ² ÑģÑĤÐ°Ð»
ĠÑħÐ°ÑĢÐ°ÐºÑĤÐµÑĢÐ¸ ÑģÑĤÐ¸
ĠÐŃ Ð´
ĠÐ³ÑĥÐ± ÐµÑĢÐ½Ð°
Ð¾Ñģ Ð¿
ĠÐ½Ð¸ ÐºÐ¾Ð¼Ñĥ
ĠÐ² ÑģÑĤÐ°
Ð¸Ð» Ñı
ĠÐ¿ÐµÑĢ Ð²Ð¾Ðµ
Ð¾ÑĢ Ð³
Ġ end
ĠÐ¶Ð¸Ð²Ð¾ÑĤ Ð½ÑĭÑħ
ĠÑĢÐ¾ ÑģÑĤÐ°
ĠÑģÑĤÐ°Ð½ ÑĨÐ¸Ð¸
ÑĩÐµÐ½ Ð½ÑĭÐ¹
ĠÐĶ Ð¾Ð»
ĠÐ¼ ÐµÐ»ÑĮ
ĠÐŀÐŀ Ðŀ
Ð½ ÐµÐ½Ð¸Ð¸
ĠÐ¾ÑģÑĤÐ¾ÑĢÐ¾Ð¶ Ð½Ð¾
ÐµÑĢ Ð¿
at ing
ĠÐ³ÑĢÑĥ Ð·
ĠÐ°ÑĤ Ð¼Ð¾Ñģ
ÂłÐ ¥
ĠÑĩÐ»ÐµÐ½ Ð¾Ð²
ÑıÑī ÐµÐ¹
in es
Ð¾Ð¿ ÑĢÐ¾Ñģ
ĠÐ½Ð¾Ð²Ð¾ ÑģÑĤÐ¸
ÑīÐ¸ Ð½Ð°
ĠÑģÑĤÐ¾ ÑıÐ»Ð¸
Ġth an
ĠÐ¿Ð¾ÐºÐ°Ð· Ð°Ð»Ð¾ÑģÑĮ
Ġ ra
ĠÐľ Ð½Ð¾Ð³Ð¸Ðµ
ĠÑĢÑĭÐ½ ÐºÐ°
ĠÐķÐ²ÑĢÐ¾Ð¿ Ðµ
ĠÐ½Ð¸ÐºÐ°Ðº Ð¾Ð¹
ÑĭÐ²Ð° Ð½Ð¸Ñı
ĠÐ»Ðµ ÐºÐ°ÑĢ
ĠÑı Ðº
Ġpro v
ÑĩÐµÐ½ Ð½ÑĭÐµ
ĠÐ¿ÑĢÐµÐ´ÑĥÑģ Ð¼Ð¾ÑĤ
ĠÑĥÐ´Ð¾Ð²Ð»ÐµÑĤ Ð²Ð¾ÑĢ
ĠÐ¾ Ð´Ð¸Ð½Ð¾
Ð½Ñı Ð¼Ð¸
Ð½Ð°Ð´ Ð¾Ð±
Ġsec ond
Ð½ ÐµÐ½Ð½Ð¾
ĠÐ²Ñĭ ÑĢÐ°
ĠÐ¿ÑĢÐµÐ´Ð»Ð¾Ð¶ ÐµÐ½Ð¸Ðµ
ĠN E
ĠÐ¼Ðµ ÑĪ
ĠÐ½ÐµÐ¿ Ð»Ð¾
ĠÐ¼Ð¾Ð´ ÐµÐ»ÑĮ
ĠÐ¿ÑĢÐ°Ð²Ð¸ÑĤÐµÐ»ÑĮ ÑģÑĤÐ²Ð¾
ĠÐ±Ð°Ð½ Ðº
iv ed
ĠÑģÐ¾Ð² ÐµÑĤÐ°
Ġe lect
ÑĩÐµÐ½ Ð½ÑĭÑħ
ĠÐĲ Ð¹
ĠÑĤÐ°Ðº Ð¸Ð¼Ð¸
ĠÑĨ ÐµÐ½Ð°
ĠÐ»Ðµ Ð¶Ð°
Ð¾Ð¶ Ð´Ðµ
ĠÐ¢ ÑĢÐ¸
ĠÐĴÐ°Ñģ Ð¸Ð»ÑĮ
ĠÐ¾ Ð´Ð¸Ð½Ð°
res ent
ÐºÐ¾ ÑģÑĤÐ¸
ĠÐ¾ÑĤÐ½Ð¾ÑĪ ÐµÐ½Ð¸Ð¹
ĠÑģÐ¸Ð»ÑĮ Ð½ÐµÐµ
Ġt ra
ĠÑĥÐ²ÐµÐ»Ð¸ ÑĩÐ¸
ĠÐ¼Ð¸ ÑģÑĤÐµÑĢ
ĠA n
ÑĢÐ¾Ð² Ð¾Ð´
ĠÐ² Ð¾ÑĢ
Ð²Ð° Ð´
ĠÐº ÑģÑĤÐ°ÑĤÐ¸
ĠÑĥ ÑĢÐ¾Ðº
Ġbec ame
Ð¸Ð² Ð°Ð»Ð¸
ĠÐµ Ð¶
ĠÐ±Ð° ÑĪ
ĠÐ½Ð°Ð´Ðµ Ð¶
Ðº Ð»Ð¸
ĠÐ²Ð¾Ð·Ð´Ñĥ ÑħÐ°
Ġkn own
ĠÐ¿ÑĢÐ¸Ð½Ð¸Ð¼Ð° ÑĤÑĮ
ĠÐĿÐ°Ðº Ð¾Ð½ÐµÑĨ
ĠÐ¸ÑģÐº ÑĢÐµÐ½
ÑģÐ¸ Ð»Ð°
Ð½ Ð¾Ð¶
Ġ Â
ĠÐº Ð¾Ð¶Ð¸
ĠÐĿÐ°Ð¿Ð¾Ð¼ Ð½Ð¸Ð¼
ĠÐ²Ð¾Ð· Ð¼Ñĥ
ĠÐ²Ð½ÐµÐ·Ð°Ð¿ Ð½Ð¾
ĠÐ²Ð¾ÑģÐµÐ¼ ÑĮ
ĠÐ´Ð¾Ðº ÑĤÐ¾ÑĢ
ĠÐ¾Ð¶ Ð¸Ð´
ĠÐ¿Ñĥ ÑģÑĤÑĭ
ÑĤ Ð½ÑĭÑħ
ÑĤ Ð²Ð¾
ĠÐĿ ÑĥÐ¶
Ġf am
ĠÐ¾ÑģÐ¾Ð± Ð¾
ĠÐ¶Ð¸ Ð²ÐµÑĤ
ĠUn ited
ĠÐĶ Ñį
Ð²Ðµ Ñģ
ÑįÐº Ð¾Ð½Ð¾Ð¼
ĠÐ¢ Ð¾Ð»
Ð¸ÑĤÐµÐ»ÑĮ Ð½Ð°Ñı
Ñĩ Ð¾Ðº
ÑģÑĤ Ð½ÑĭÑħ
Ð¿ Ð°Ð½
Ðĵ Ð°Ð·
i ew
ĠÐ¼Ð¸Ð½ÑĥÑĤ Ñĭ
ĠÐ° Ð²Ð°
ĠÐĹÐ° ÑĩÐµÐ¼
ÑīÐµ ÑģÑĤÐ²Ð¾
ĠÐ¿Ð¾ÑıÐ²Ð¸ Ð»Ð¸ÑģÑĮ
ĠÑĢÐµ ÑģÐ¿ÑĥÐ±Ð»Ð¸
ĠÑģÐ»Ð° Ð±
ĠÐ·Ð² ÑĥÑĩ
c c
ĠÐ°Ð» ÐºÐ¾Ð³
ĠÑĤÐ¾ ÑĢÐ¾Ð¿
ÂłÐ ł
Ð¸ÑĤÐµÐ»ÑĮ Ð½Ð¾ÑģÑĤÑĮ
ĠÐ±ÑİÐ´Ð¶ ÐµÑĤ
Ð°Ð»Ðµ Ðµ
ÑģÑĤÑĥÐ¿Ð¸ Ð»Ð°
ĠÐ¾ ÑģÑĤÐ°Ð²Ð¸ÑĤÑĮ
ĠÑĤ ÐµÑĤ
ÐŁ Ð¾Ð´
ĠÐ³ÑĢÑı Ð·
ĠÐ±ÑĥÐºÐ² Ð°Ð»ÑĮÐ½Ð¾
ĠÐ·Ð° ÑģÑĤ
ÐµÑĢÐµ Ð¶
ĠÐ² ÑĢÑĥ
ĠÑĥ ÑģÑĤÐ°Ð½Ð°Ð²Ð»Ð¸
ĠÐ¿Ð¾Ð»ÑĥÑĩÐ° ÐµÑĤÑģÑı
a x
Ð· Ð¾ÑĢ
ÑĤ ÐµÐ¼
ĠÐ¿Ð¾ ÑģÐ¿Ðµ
ĠUn iversity
t en
le y
ÑĢÐ°Ð²Ð¸ ÑĤÑĮ
Ġsp ec
Ð°Ðº Ð¾Ð¼
ĠÐ²Ñĭ ÑĢ
ÑĦÐ¸ÐºÐ° ÑĨÐ¸Ð¸
ĠÐ½Ð°ÑĪ Ð¸Ð¼
r on
Ð¾Ð» Ñĥ
ĠÐ¾ÑĤ ÑĩÐ°
____ ____
ĠÐºÐ¾Ð¼Ð¿ÑĮÑİÑĤ ÐµÑĢ
ĠÐ¿Ð¾Ð´ Ð°Ð²
ĠÐ¼Ð¾ Ð¸Ð¼
Ġin v
ĠÐ·Ð° Ð³Ð°
ĠÑĢÐµÐ»Ð¸Ð³Ð¸ Ð¾Ð·
ĠÑĢÐ¾ÑģÑģÐ¸Ð¹ ÑģÐºÐ¾Ð³Ð¾
ĠÑģÐ¾ ÑħÑĢÐ°Ð½
9 0
ĠÑĢÐµÐ´ ÐºÐ¾
ĠÐ¿ÑĥÐ±Ð»Ð¸ ÐºÐ°
ire ct
Ġd o
ĠÐ¿ÑĢÐ¾ Ð½Ð¸Ðº
ĠÑħÐ¾ÑĤ ÐµÐ»Ð¸
ĠÐ¡ Ñĥ
W S
ĠÐ¿ÑĢÐµÐ´ÑģÑĤÐ°Ð² Ð¸ÑĤÐµÐ»Ð¸
ĠÐŃ Ð»
ĠÐ²Ð¾ ÑģÑĮ
ĠÐºÐ¾Ð¼Ð°Ð½ Ð´Ð°
Ð»ÐµÐ½ Ð½Ð¾Ð³Ð¾
Ð°Ð½ ÑĩÐ¸
ĠÐ¶ Ð°
ĠÐ·Ð° Ð±Ð¾ÑĤ
ĠÐ¡Ð² ÑıÑĤ
ĠÑģÐ´ÐµÐ» Ð°Ð»Ð°
ĠÐŁÐµÑĢ Ð²ÑĭÐ¹
Ġp op
Ð°Ð»ÑĮ ÑĪÐµ
ĠÐ¾Ð± ÑīÐµÐ³Ð¾
ĠÐ´Ð°Ð½ Ð½Ð¾Ð¼
ĠX V
ĠÐ¿ÑĭÑĤÐ° ÑıÑģÑĮ
Ð¼ÐµÐ½Ð¸ ÑĤÑĮ
ĠÐ½Ðµ Ðº
Ð´ÑĢÐ°Ð² ÑģÑĤÐ²Ñĥ
Ñ Ĺ
ĠÐ±ÑĢÐ¸ ÑĤÐ°Ð½
ĠÑģÐ²Ð¾ Ñĳ
Ð»Ñĭ Ð¼
ĠÑģÐ¾Ð³Ð»Ð°Ñģ Ð¸Ð»ÑģÑı
ÂłÐĿ Ð°
ÑİÑīÐ¸Ð¹ ÑģÑı
Ð» Ð»Ñİ
ĠÐ²Ð¾Ð·Ð´Ñĥ ÑĪ
Ð¸ÑĤ Ð¾Ð²
ĠÑĤÑĢÐµÐ±Ñĥ ÐµÑĤ
ĠÐ´ Ð°ÑĢ
ĠÐ¾ Ð²
Ñģ Ð°Ð¼
ÐµÐ´ ÐµÐ»ÑĮ
ĠÐ¾Ð±Ð¾ÑĢÐ¾ Ð½Ñĭ
ÂłÐ Ľ
ĠÐ¼ÑĥÐ¶ Ð°
em b
Ðº Ð°Ð»
ĠÐ¿ÑĢÑı Ð¼
ĠÑĩÐ¸ÑĤ Ð°ÑĤ
Ñĳ Ñħ
ĠÐ³Ð¾ÑģÑĥÐ´Ð°ÑĢ ÑģÑĤÐ²ÐµÐ½Ð½Ð¾Ð¹
ĠÑįÐºÐ¾Ð½Ð¾Ð¼ Ð¸ÐºÐ¸
ĠÐ¸Ð· Ð¾Ð±
ĠÐ¾ÑĤ Ð´Ð°Ð»
Ð² Ð¾Ð¼
ĠÑģÐ¿ Ð°ÑĤÑĮ
ĠÐ¿ÑĢÐ¸Ð½Ñı ÑĤÐ¾
ĠÐ¿ Ð»Ð¾Ð´
ĠÑį ÐºÐ¸
ĠÐ½Ðµ ÑĥÐ´Ð°
ĠÑĢÐµ Ð°Ð»Ð¸Ð·
ÑīÐ¸ Ð½Ñĭ
Ð¼ÐµÐ½ ÑĤÐ¾Ð²
vel op
ĠÐ´Ð¾ ÑģÑĤÐ¾Ð¸Ð½
ĠÑĢÐ°Ð· Ð¾
ĠÐĿÐµÑģ Ð¼Ð¾ÑĤÑĢÑı
ĠÐĹ Ð°Ð¼
Ñĩ ÑĥÐ²
ĠÐºÐ°Ð¶Ð´ Ð¾Ð¼
ĠÐ´Ð°Ð½ Ð½Ð¾Ð¹
ĠÐĴÑģ Ñĳ
ĠÐľÐµÐ¶Ð´Ñĥ Ð½Ð°ÑĢÐ¾Ð´
ĠÑģ ÐµÐ¹
ĠÐ¾ÑĢÐ³Ð°Ð½Ð¸Ð·Ð° ÑĨÐ¸Ð¹
ĠÑĩÐ°Ñģ Ñĭ
ĠÐ²ÑĢÐ° Ñĩ
ĠÐ²ÐµÑĢÐ¾ ÑıÑĤÐ½Ð¾
ĠÑĤÐ° Ð±
ĠS he
ĠÐľ Ð¾Ð½
ĠÑģÐµÐºÑĥÐ½ Ð´
ĠÐ³Ð»Ð°Ð² Ð½ÑĭÐ¼
ĠÐ¿ÑĢÐ¾ÑĤÑı Ð¶ÐµÐ½Ð¸Ð¸
ÑĪÐ° ÑİÑĤ
Ġ ent
ĠÑĢÑĥÑģ ÑģÐºÐ¸Ñħ
ĠÐ´Ð¸Ð·Ð° Ð¹
Ñģ Ñİ
ĠÐ¼ ÐµÑĢÑĭ
ĠÑįÐ½ÐµÑĢ Ð³Ð¸
Ð¾Ð² ÐµÐ´
ĠÑĢÐ°Ð· ÑĢÐ°Ð±Ð¾ÑĤÐ°
ĠÐºÐ¾Ð» Ð»Ðµ
yst em
Ġde f
ĠÐ¼ÑĥÐ·Ñĭ Ðº
ĠÑģÐ»ÑĥÑĩÐ°Ð¹ Ð½Ð¾
ĠÐ»ÑİÐ± Ð¸ÑĤ
ÑĢÐ¸ Ð»Ð¸
ĠÐ¾Ðº Ð½Ð¾
ĠÑģ Ð½Ð¸Ð¼Ð°
ĠÐº ÑĥÐ±
ÑĮ ÐµÑĢÐ°
ĠÐľ Ñį
ĠÐ° ÑĥÐ´Ð¸
ĠÐ·Ð½Ð° Ð½Ð¸Ñı
ÐĲ Ðł
ĠÐ½Ð°Ð· ÑĭÐ²Ð°ÐµÑĤÑģÑı
ÑģÑĤÐ²ÐµÐ½ Ð½Ð¾Ð¼
Ð¾Ð» ÐµÐ·
ĠÐ» ÐµÑĤÐ°
ĠÐºÐ¾ÑĢÐ°Ð± Ð»Ñı
ĠÑĥÐ¿ÑĢÐ°Ð² Ð»Ñı
ĠÐ¾Ð±Ð¾ÑĢÑĥÐ´ Ð¾Ð²Ð°Ð½Ð¸Ñı
ÑĤÐ¸ Ñħ
ĠÑģÐºÐ°Ð· Ð°Ð»Ð¸
ĠÐ¼Ð°Ñģ ÑĪÑĤÐ°
ĠÐ²Ð¾Ð·Ð± ÑĥÐ¶Ð´
ĠÐľÐ¸Ð½Ð¸ ÑģÑĤÐµÑĢ
ĠÐ´Ð¸ Ð°Ð³
ĠÐ¾ÑĤ Ð±
ĠÐ¿ Ð¸Ð»
ÐĲ ÑĢ
ĠÐµÐ² ÑĢÐ¾
Ġ( )
ÑģÑĤ Ð°Ð¼
ÑĤ Ð½Ð¾Ð¹
ÑĢÐ¸ ÑģÑĤÐ¾Ð²
ĠÐ¿ÑĢÐ¾ ÑħÐ¾Ð´Ð¸ÑĤ
Ġw ell
Ð² ÑĪÑĥÑİ
ÐµÐ»Ñı Ñħ
ĠÐ² Ð½ÐµÑģ
Ġc all
ĠÐ½Ð° ÑĥÑĩÐ¸
ĠÐ²Ñĭ Ð¹
us ic
ĠÐ±Ð¸Ð·Ð½Ðµ ÑģÐ°
ĠÑģÑĤÑĢÐ°Ð½ Ð½Ð¾
ĠÐĿ ÐµÐ²
al e
ÑģÐµ Ð³Ð´Ð°
iv er
ÑĢÐµÐ² Ð½Ð¾Ð²Ð°
ĠÐ¿Ð¾ÑĩÑĥÐ² ÑģÑĤÐ²Ð¾Ð²Ð°Ð»
Ð¿ÐµÑĢ Ð²ÑĭÑħ
ĠÐłÐ°Ð· Ð²Ðµ
ĠÐ¿ ÑĮÑı
ĠÐ¿ÑĢÐ¸Ð²Ð¾Ð´ Ð¸ÑĤ
it s
ĠÐ¸Ð¼ Ð¿
ĠÑģ ÐµÐ»Ð°
ÑīÐ¸ ÐºÐ°
ĠÐ¸Ð½ÑĤÐµÑĢ Ð²ÑĮÑİ
ĠÑģÑĤÑĢÐ° Ð½Ð°Ñħ
ĠÑģÐ»Ð¾Ð¶ Ð½Ð¾
ĠÐ´ÐµÐ¼ Ð¾ÐºÑĢÐ°
ĠÐºÐ¾ÑĢ Ð¿Ð¾ÑĢÐ°
ĠÑģÐ±Ð¾ÑĢ Ð½Ð¾Ð¹
ĠÐ¾Ð±Ñī ÐµÐ¹
ĠÑģÐ¾Ð» Ð½Ðµ
ĠÑģÐ² Ð¾Ð´
ĠÐºÐ¾Ð½ÑĤÑĢ Ð¾Ð»Ð¸
ĠÐ´Ð¸ Ð²Ð¸
ÑĤ ÑĢ
ÐµÑħ Ð°Ð»Ð°
v e
ĠÐ¿ÐµÑĢÐµ Ð¿
ĠÐ¼Ð°ÑĪÐ¸ Ð½Ð°
ĠÐ²Ð¾Ð·ÑĢÐ° ÑģÑĤÐµ
ĠÐ¾ÑģÐ² Ð¾Ð±Ð¾Ð´
Ð¾ ÑĦÐ¸
ĠÐ¿Ð¾Ð»ÑĥÑĩÐ¸ Ð»Ð°
Ð´ Ð¾Ð½
ĠÐ¿Ð¾Ð»ÑĥÑĩ ÐµÐ½Ð¸Ñı
ĠÑį Ð¿Ð¾
ĠÑģÑĤ Ð¾Ð¹
ro und
ĠÐĲ Ð»Ð¸
Ð» ÑĭÐµ
Ð¾Ñģ ÑħÐ¾Ð´
ĠÑĥÑģÐ¿Ðµ ÑĪ
ĠÐ¼Ð³Ð½Ð¾Ð² ÐµÐ½Ð¸Ðµ
ÑģÑĤÑĥÐ¿Ð¸ Ð»Ð¸
ĠR e
ĠÐ½ÐµÐ·Ð½Ð° ÐºÐ¾Ð¼
os s
ÑĢÑĥ Ð±
Ñī ÐµÐ½Ñĭ
ÐµÐ´ Ð»Ð¸
ĠÑĩ ÐµÑĢÑĤ
ĠÐĺ Ñģ
ÑĤÐ¸ÑĩÐµÑģÐº Ð¸Ð¹
ĠÑĥÐ½Ð¸Ð²ÐµÑĢÑģ Ð¸ÑĤÐµÑĤÐ°
ĠÐ±ÑĥÑĤ ÑĭÐ»
ÑĪ ÐºÐ¾Ð¹
Ð² Ð¾Ð³Ð¾
Ñ £
ĠÑĥÐ²Ð¸ Ð´ÐµÐ»Ð°
ĠÑģÐ²Ñı ÑīÐµÐ½
ĠÐĴ ÐµÐ½
ÑģÑĤ Ð½Ð¾Ð³Ð¾
ĠÑģÐº Ð»Ð¾Ð½
ĠÑĪ Ð»Ð°
ĠÐ²Ð¾ÑģÐº ÑĢÐµÑģ
ĠÐ¼ Ð°Ðº
ĠÐºÐ¾Ñģ Ð¼Ð¸
ĠÐ¿ÑĢÐ¸Ð¾Ð± ÑĢÐµÑĤ
ÑĤ Ð½ÑĭÐµ
ĠÑĢÐ°Ð±Ð¾ÑĤÐ° ÑİÑĤ
ĠE ng
ĠÐ²Ð¾ ÑģÑĤÐ¾
ĠÑįÑĤÐ¸ Ð¼Ð¸
Ð¾Ð»Ðµ Ð¿
ĠÐ²Ð¾ ÑģÑĤÐ¾ÑĢ
ĠÐ¤ Ð¸Ð»Ð¸
ĠÐĴÐµÑĢ ÑħÐ¾Ð²
Ġse ason
ĠÐ¸Ð½ÑģÑĤ Ð¸ÑĤÑĥ
ĠÐ¾ ÐºÐµ
Ñī ÐµÐ¼Ñĥ
ĠÐ¸Ð½ÑĤÐµÑĢÐµ ÑģÐ¾Ð²
ĠÐ¾Ð´Ð½Ð° Ð¶Ð´Ñĭ
ĠÐ²Ð¸Ð½ Ð¾Ð²Ð°
Ð» Ð¾Ð²Ð°
ĠÐĴ ÑĤÐ¾ÑĢÐ¾Ð¹
ĠÐ³Ð»Ð° Ð²Ðµ
ik e
ĠÐĺ ÑĢÐ°
ĠÑģÑĢÐ°Ð² Ð½ÐµÐ½Ð¸Ñİ
Ð¿Ð° ÑĢÐ°ÑĤ
ĠÐ½Ð°Ð¿ ÑĢÐ¾ÑĤÐ¸Ð²
ÐºÐ° ÐµÑĤ
ĠÐ²Ð¾ Ð¸Ð½
% ,
ĠÐ±Ðµ Ð³
ÑĢÑĭ Ð·
Ð¿Ð° Ð½Ð¸Ð¸
ĠÐ² ÑĤÐ¾ÑĢÐ¾Ð¼
ĠÐ²Ð¾Ð¹ Ð½Ðµ
ÑĤ ÐºÐ¾Ð²
ÐºÐ° ÑĤÑĮ
ĠÐ¿Ð¾ÑģÐ»ÐµÐ´ Ð½Ð¸Ñħ
ĠÐº Ð°Ð»
ĠÐºÐ²Ð°ÑĢÑĤÐ¸ ÑĢÑĭ
Ð°Ð»Ð¸ Ð·Ð¸
ĠÐºÐ¸ ÑģÐ»
ĠÐ¿Ð¾ÑĢÑıÐ´ ÐºÐ°
Ð½Ðµ ÑģÐ»Ð¸
ĠÐ¿ÑĢÐ¾ÑĨÐµÑģ ÑģÐµ
ÑĢÐ¾Ð² ÐºÐ°
ĠÑĤÐµÑħÐ½ Ð¾Ð»Ð¾Ð³Ð¸Ð¸
ar s
ĠÑį Ð½
ĠÑĤÐ¾Ð²Ð° ÑĢÐ¾Ð²
b um
ĠÑģ ÑĢÐ°Ð¶
ĠÐ³Ð¾ÑģÑĥÐ´Ð°ÑĢ ÑģÑĤÐ²Ð¾
Ð°Ð¹ Ð»Ð¾Ð²
ĠÐ¾ÑĤ Ðµ
Ð½Ð¸Ð¼ Ð°Ð»Ð¸
ĠÐĳÐ»Ð° Ð³Ð¾Ð´Ð°ÑĢ
ĠÑĢÐµÐ°Ð»Ð¸ Ð·Ð°ÑĨÐ¸Ð¸
Ð¾Ðº Ð¸
ÐĿ Ñĥ
ÂłÐĿ Ð¾
ÑĤ Ð°Ð»ÑĮ
ĠÐ²Ñĭ ÑĪÐ»Ð¸
ĠÐ± ÑĢÐ¾ÑģÐ¸
ĠÑģÐ¾Ñģ ÑĢÐµÐ´
ÑģÑĤÑĢÐµ Ð±
ĠÐ²Ñĭ Ð²
ĠÑģÑĥÐ± ÑĬ
ĠÐ¼Ð½Ð¾Ð³Ð¾ Ðµ
u ro
ĠÑģÑĨ ÐµÐ½Ð°
Ð¾Ð¹ Ð´
ĠÐ¼ÐµÑĢÐ¾Ð¿ÑĢÐ¸Ñı ÑĤÐ¸Ñı
ĠÐ¿ÐµÑĢÐµ Ð²Ð¾Ð·
a i
er t
Ġ ed
ĠÑĤ ÑĥÐ¼
ĠÐ² ÑĬ
Ð»ÑĮ Ð½Ð¾Ð¹
ĠÐ½Ð°Ð¿ÑĢÐ°Ð² Ð»ÐµÐ½Ð¸Ñı
Ð¸Ð³ ÑĢÑĭ
Ð»Ð° Ñı
ĠNE WS
Ñĥ Ñı
Ð±ÑĥÑĢ Ð³
ĠÐ²ÐµÑĢ ÑģÐ¸Ð¸
ĠÐ¾Ð± ÐµÐ·
ĠÐ¾ ÑħÐ²Ð°
Ð½Ð¸ÐºÐ° Ñħ
ĠÐ¿Ð¾Ð´Ð½Ñı Ð»ÑģÑı
ĠÐ¿Ð¾ÑģÐ¼Ð¾ÑĤ ÑĢÐµÐ»Ð°
ĠÐºÐ¾Ð» Ð¾Ð½
ĠÐ¾Ð±ÑģÑĤÐ¾ÑıÑĤÐµÐ»ÑĮ ÑģÑĤÐ²Ð°
Ð½ÐµÐ¹ ÑĪÐ¸Ñħ
Ðĺ ÐĿ
ĠÐŃ Ð¹
ĠÐĺ ÑĤÐ°Ð»Ð¸
ĠÑħÑĥÐ´ Ð¾Ð¶Ðµ
ĠÑģÑĤ Ð°Ðº
Ð¾Ñĩ ÐºÐ°
ĠÐ¾ÑģÑĤÐ°Ð½Ð¾Ð² Ð¸Ð»ÑģÑı
ĠÐ½Ð°Ð±Ð»Ñİ Ð´Ð°
ÐºÐ¾Ð² ÑĭÑħ
ĠÑģ Ð°Ð»
ÐĴ Ð¾ÑĤ
ver y
ĠÑĢÐ°Ð·Ð´ ÑĢÐ°Ð¶
er n
ÐĴ Ðŀ
ĠÐ²Ñĭ Ð¸Ð³ÑĢÐ°
ĠÐŀ Ð½Ð¾
ĠÑģÐ¾Ð¼ Ð½Ðµ
ĠÑĤ ÑĢÐ°Ðº
i am
ĠÑĤÑĢÐµ ÑĤÐ¸Ð¹
Ð³ Ð¾Ð»
ĠNEWS ru
Ð¸Ð» Ðµ
Ġbe ing
Ð»Ð°Ñģ Ñģ
ĠÐ²Ð·Ð´Ð¾Ñħ Ð½ÑĥÐ»
Ð¾Ð± Ð»Ð°
ĠÑģÑĥÐ¼ Ð¼Ñĥ
Ð»Ð¸ Ð¸
ĠÐ²ÐµÑĢÐ¾ ÑıÑĤ
Ðº Ð»
. ]
ĠÐºÐ¾Ð½Ñģ ÑĥÐ»ÑĮÑĤÐ°
ĠÑĪÐµ ÑģÑĤÐ¸
ĠÐ¿Ð¾Ð² ÑĢÐµÐ¶Ð´
Ġ200 4
ÐµÑĢÐµ Ð²
ĠÐľÐ¾ÑģÐº Ð²Ñĥ
ÑĤÐ° Ð¶
Ñĩ Ð¸Ð»ÑģÑı
ÑĩÐ¸ÑĤ Ð°
o ber
Ð¼Ð° Ð·
ĠÐ±ÑĢÐ¸ Ð³Ð°
ÑĤ ÑĥÑİ
Ðļ Ð¾Ð¼
ĠÐ¿Ð¾ Ð½Ð°Ð´Ð¾Ð±
Âł Ð¿
ĠÑı Ñģ
ĠÐ¿ Ð¾Ð»ÑĮ
Ġt rans
3 3
ĠÐĳÑĭ Ð»Ð¾
II I
Ð°Ð½ Ð½ÑĥÑİ
ĠÐ¿ÑĢÐ¾ÑĨ ÐµÐ½ÑĤÐ¾Ð²
ĠÐ¸ÑģÐºÑĥÑģ ÑģÑĤÐ²Ð°
ĠÐ½ÐµÑĢ Ð²
ÑĢÐ¾ Ð½Ð¸
ĠÐ¾Ð± Ð¼ÐµÐ½
ĠÑģÐ¼Ðµ ÑĪ
ĠÐ²Ð¾Ð¿ÑĢÐ¾Ñģ Ð°Ð¼
ĠÐ°Ð² ÑĤ
ĠÐ½ÐµÐ´ Ð²Ð¸Ð¶
ĠÐ¾ÑĤÐº ÑĢÐ¾Ð²
ĠÐĺÐ³Ð¾ÑĢ ÑĮ
ĠÑĥÐ»ÑĭÐ± Ð½ÑĥÐ»Ð°ÑģÑĮ
ĠÑĪ ÐºÐ°
ĠÐ¿ÑĢ Ð¾Ð³Ñĥ
ĠÐºÐ¾ÑĢÐ°Ð± Ð»ÑĮ
ĠÐ¿ÑĢÐ¸Ð¼ÐµÑĢ Ñĥ
ĠÐ°ÐºÑĤÐ¸Ð² Ð½Ð¾
ĠÑģÐ°Ð¼Ð¾ÑģÑĤÐ¾ÑıÑĤÐµÐ»ÑĮ Ð½Ð¾
Ð¾Ð· Ñĭ
ĠÐ²Ð¾ÑģÐ¿ Ð¸ÑĤÐ°
Ð³ Ð´Ðµ
ĠÑĩÐµÐ¼Ð¿Ð¸Ð¾Ð½Ð° ÑĤÐ°
ĠÑĪÐ¸ÑĢÐ¾Ðº Ð¾
ĠÐ± ÑĢÐ¾ÑģÐ¸Ð»
ĠÐ¿ Ð»Ñı
ĠÐľ ÑĥÐ¶
ĠÐ¼Ð°Ñģ ÑģÐ°
iel d
ĠÐ½ÐµÐ²ÐµÑĢ Ð¾
ĠÐ²Ð· ÑĢÑĭÐ²
ĠÐ²Ð¾Ð·Ð´ÑĥÑħ Ðµ
ĠÐ½ÐµÐ´ Ð¾Ð²Ð¾Ð»ÑĮ
ĠÐ²ÑĭÐ¿Ñĥ ÑģÐº
ĠÑģÑĤ ÑĢÐ¾Ð¹
ĠÐ·Ð´Ð¾ÑĢÐ¾Ð² ÑĮÑı
Ð¾Ð»Ð° Ð³Ð°
Ð¾Ð² ÑĥÑİ
im es
ĠW orld
ĠÑģÑĤ ÐµÐ½Ðµ
Ð²Ñĭ ÑĩÐ°Ð¹
ĠÐºÐ°ÑĩÐµ ÑģÑĤÐ²Ð¾
Ð¾Ð·Ñı Ð¹
ĠÑĢÐ¾ÑģÑģÐ¸Ð¹ ÑģÐºÐ¾Ð¹
Ġs et
ÑģÑı ÑĤÑģÑı
ĠÐºÐ»ÑĥÐ± Ð°
ĠÐ´Ð¾Ð³Ð° Ð´
Ð¾ ÑĨÐ¸Ð°
ĠÐ¦ÐµÐ½ÑĤ ÑĢÐ°Ð»ÑĮ
ĠÑĢÐµÐ³Ñĥ Ð»Ð¸
o x
Ð» ÑĥÑĩ
Ġ3 00
ĠÐĽÑİ Ð´Ð¸
ĠÐ²Ð¸Ð´ Ð¾Ð¼
ĠÐĺÐ· ÑĢÐ°
ĠÐķ Ð¡
ĠÐºÐ¾ÑĢÐ¸ Ð´Ð¾
ĠÐĺ ÑĢ
ĠÐ¿ÑĢÐµ Ð´Ð°
ĠÐ·Ð° ÑĢÐ°Ð±Ð¾ÑĤ
ĠÐ¸ Ð´Ð¸
ĠÐĳ Ð¾
ot her
ĠÑĥ Ð¼Ð¸ÑĢÐ°
ĠÐ¿ÑĢÐµ Ð±
ĠÑĥ Ð´Ð¾
Ð¿ Ð¸Ð¹
ĠÐ¿ÑĢÐ¾Ð² ÐµÐ»
ĠÐ± ÑĢÐ¾Ð½
Ġm on
ĠÑģÐ» ÑĥÑĪ
ĠÐ³Ð¾ÑģÐ¿Ð¾Ð´ Ð¸Ð½
ĠÐ¾Ð¶Ð¸ Ð´Ð°
ÑĦ Ð¾Ð²
ĠÐ½Ðµ Ð¾Ð´
is m
ÑģÑĤ Ð°Ð»Ð¸
ĠÑĩÐ¸Ñģ Ð»Ð°
ĠÐ¿ÑĢÐµÐ´ÑģÑĤÐ°Ð² Ð¸ÑĤÐµÐ»ÐµÐ¹
ÑģÑĭ Ð¿
ĠÐ¾Ð´ Ð¾Ð±
ĠÐ½Ð°ÑģÑĤÐ¾Ñı ÑīÐ¸Ð¹
ĠÐ¿ÑĢÐ¾Ð² Ð¸Ð½
ĠÐ¿Ð¾Ð¿ Ð¾Ð»
ĠÑĥÐ»Ð¸ ÑĨÑĭ
Ð¶Ð¸ ÑģÑģ
ĠÐº Ð»Ðµ
Ð²ÐµÑĤ Ð°
ÑĢÐ¾ ÑģÑĤÑĮ
ĠÑĥ Ð¹ÑĤÐ¸
ĠÑĤÐ¾ Ñĩ
ĠÑĢÐ°Ð· Ñĥ
ĠÐ½ÐµÐ¿ ÑĢÐ¾
ĠÐĽÑİ Ð±
ĠÑģ Ð½Ð¸Ð·
er ies
ĠÐ¿ÑĢÐµÐ¼ ÑĮÐµÑĢ
ĠÑĩÑĥÐ² ÑģÑĤÐ²Ð¾Ð²Ð°Ð»
Ġ4 5
Ðľ Ðŀ
ĠÐ²Ð¿ÐµÑĩÐ°ÑĤ Ð»ÐµÐ½Ð¸Ðµ
ĠÑģÐ¾ ÑĩÐµÑĤÐ°
ĠÑħ Ð¸ÑĤ
ĠÑĥÐ¿ Ð¾Ð¼
ĠÐ³Ð¾ ÑģÑĤÐµÐ¹
ÑĤÐ¸Ð» Ð»Ðµ
ĠÐ½ÐµÑģ ÑĩÐ°ÑģÑĤ
ĠÑĢÐ°Ð· Ð±Ð¸ÑĢÐ°
ĠÐ¿ÑĢÐ¸Ð½Ñı Ð»Ð¸
ĠÐ¡ Ð¸Ð¼
Ġman y
ĠÑħÐ¾ÑĢÐ¾ ÑĪÐ¸Ð¹
ĠÑģÐ»Ð° Ð±Ð¾
ĠÐ½Ðµ ÑĥÐ´
Ð¸Ðµ Ð²
Ġb l
ĠÐ±Ð¾Ð»ÑĮ ÑĪÐ¸Ñħ
ĠÐŁ Ð¾Ð»ÑĮ
ow ever
ĠÐ¿ÑĢÐµ Ð¾Ð´
Ñĥ Ð¹
ĠÐºÐ»Ð°Ñģ ÑģÐ°
ĠÐ°Ð½Ð°Ð» Ð¾Ð³Ð¸
ĠÐ· ÐµÐ»
Ġrec ord
ÑĢÐ¾Ð²Ð° Ð½Ð¾
ĠÐ»ÐµÐ³ ÐµÐ½
ĠÐķ Ð´Ð¸Ð½
ĠÐ¿Ð¾Ñģ ÑĢÐµÐ´
Ð½Ðµ ÑĢÐ°
is e
Ð¾ Ñİ
ĠÐ¿ÑĢ Ð¾Ð»
0 2
ĠÐ¢ ÐµÑĢ
ĠÐ¿Ð¾ ÑĤÑı
Ð¸Ð² ÑĪÐ¸ÑģÑĮ
Ð°Ð»Ð¸ Ð·Ð°
ĠÐ±ÑĢÐ° ÑĤÐ°
ÑĢÐ¾ ÑĩÐ½Ð¾
ĠÑĪ ÑĤÑĢÐ°
ĠÐ´ÑĥÑĪ Ñĥ
ĠÐ²Ð·Ð°Ð¸Ð¼ Ð¾Ð´ÐµÐ¹ÑģÑĤÐ²
ĠÐ¾ÑĤ ÑĢÐ°
ĠÐ¿Ð¾Ð» Ð¾Ñģ
ĠF ran
ĠÐ¯ Ð¿Ð¾
Ġf our
ÑĩÐ¸ Ð¸
Ġe m
ĠÑĢÐ°Ð· ÑĬ
ĠÑĦÐ¾ÑĤ Ð¾Ð³ÑĢÐ°ÑĦ
ĠÐ²ÑĭÐ±ÑĢÐ° ÑĤÑĮ
ĠÐ¿Ð¸ÑģÐ° ÑĤÑĮ
ĠÑħÐ²Ð° ÑĤÐ°ÐµÑĤ
in ed
Ð³ Ð½ÑĥÐ»
ĠÐĿÐµ ÐºÐ¾ÑĤÐ¾ÑĢÑĭÐµ
ĠÐĲÐ½ Ð³Ð»Ð¸
ÑĪ Ðº
ÑĤÐ¸ ÐµÐ¼
3 7
ĠÐŁ Ð¾Ð±
ĠÑģÑĤÐ°ÑĤÑĮ Ðµ
Ð¸Ð½Ñĥ Ð»
ÑĳÐ½ Ð½ÑĭÑħ
op le
ĠÑģ ÐºÐ°Ð½
Ð¾Ñĩ Ð¸Ð»
ĠÐºÐ°ÑĢ Ð¼Ð°Ð½
ÑģÐ¿ Ð¾ÑĢÑĤ
ĠÐ·Ð½Ð° ÑĩÐµÐ½Ð¸Ñı
ĠÐ» Ð¸Ð½
ÑĨÐ¸Ñı Ð¼
Ð°Ð³ Ð°Ð½
ĠÐ¼ ÑĥÑĩ
ĠÐ¾ÑĤ ÑĢÑı
ÑģÑĤ ÑĢÐ¾Ð²
ĠÐŁ Ð¾Ðº
ĠÐ» Ð°Ð¼
ĠÐ¼ÐµÑĤÐ°Ð» Ð»Ð¸
Ñı ÑİÑĤÑģÑı
Ð» ÐµÑĤÐ°
ĠÑģÐ¾Ð± ÐµÑģÐµÐ´
Ð¸ Ð²Ð°ÑĤÑĮ
ĠÐļÐ¸Ðµ Ð²
en n
ÑĢÐµ ÑģÐ¿
ĠÐ½Ð° Ð½ÐµÑģ
Ð¾Ð² ÐµÑĤ
ĠÐ¿ÐµÑĢ Ð²Ð°Ñı
ÑĢÐ¾Ð²Ð°Ð½ Ð½Ð¾Ð¹
ÑĪÐ¸Ñħ ÑģÑı
ĠÐ·Ð° ÑĢÐ°Ð½ÐµÐµ
ĠÐ²Ð¿Ðµ ÑĢÐµÐ´Ð¸
ĠÑģÐ¼Ð¾Ð³ Ð»Ð¸
ĠÐ´ ÑĥÐ¼Ð°Ð»Ð°
ĠÑģÐ¾Ð¿ ÐµÑĢ
ÑĢ Ð¾Ð³ÑĢÐ°Ð¼
ĠÐ² ÐµÐ½
Ð¾ ÑħÑĢÐ°
ĠÐĶ ÐµÐ»Ð¾
ĠÐ±ÐµÑģÐ¿ Ð»Ð°ÑĤ
Ð»ÐµÑĤ Ð½Ð¸Ð¹
ĠÐ¼Ð°Ð»ÐµÐ½ÑĮ ÐºÐ¸Ð¹
ĠÐ·Ð°Ð¿Ð° Ñħ
ĠÑģÑĤÑĢÐ° ÑĪÐ½Ð¾
ĠÐĺÐ½ ÑĤÐµÑĢÐµ
ĠÐ¿Ð¾ Ð½Ð¸Ð¼Ð°Ð»
3 4
ion al
ĠÐŁÐµÑĤ ÑĢ
ĠÐ¾ÑģÑĤ ÑĢÐ¾Ð²Ð°
ĠÑģÑģÑĭÐ» ÐºÐ¾Ð¹
ĠÑģÐµ ÑĢÐ¸Ð¸
ĠÐ¿Ð¾Ð¿ Ð°Ð»
ĠÐĴÑģÐµ Ð³Ð¾
ĠÑģÑĤÑĢÐ° Ð½Ð¸ÑĨÐµ
ĠÐ´ Ð½ÐµÐ¼
ĠÑĢÐ¾Ð´ Ð¸ÑĤÐµÐ»Ð¸
ĠÐ¾ÑĤ ÑĤÑĥÐ´Ð°
ĠÐ´Ð¾ÑĢ Ð¾Ð³Ð°
ĠÐ³ÑĢÑĥÐ´ ÑĮ
u res
ĠÐ³Ð»ÑĥÐ± Ð¾ÐºÐ¾
ĠÐ´ ÐµÐ´
ÑĤÐµÐ»Ñı Ð¼
Ð½Ð° Ð½
ĠÐ¸ Ð»Ð»Ñİ
ÑĤÐµÐ»Ñı Ð¼Ð¸
ĠÐ°Ð´ Ð²
ĠÐ²ÑĭÑģÐ¾Ðº Ð¾Ð¹
Ð¾Ð´ Ðµ
ĠÐ¿Ð¾Ð¼Ðµ ÑīÐµÐ½Ð¸Ñı
Ð²Ð¸ Ð¸
ĠÑĥ ÑĪÐµÐ»
ÑģÑĤÑĮ ÑıÐ½
Ñģ Ð¸Ð½
ĠÐĴ Ð¾ÑĢÐ¾
ĠÐ¿Ð¾Ð² Ðµ
ĠÑģ Ð´
u a
Ð´ Ð¾Ð¹
ĠÐºÐ¾Ð¼ Ð¼ÐµÑĢ
ĠÐ¿ÐµÑĢÐµ Ð³
ÑĢÐ°Ð²Ð¸ ÑĤÑĮÑģÑı
ĠÐ½Ð°Ð· ÑĭÐ²Ð°ÑİÑĤ
ĠX I
Ñĥ ÐµÐ¼
ÑĪ Ð°Ð»
ĠÐ¿Ð¸ÑģÑĮ Ð¼Ð°
ĠÐĺÐ½ Ð¾Ð³Ð´Ð°
ĠÑģÐ¾Ð·Ð´Ð° Ð½Ð¸Ðµ
ÑĢÐ°Ð½ ÐµÐ½Ð¸Ñı
ĠÐ¸Ð½Ð¾ÑģÑĤÑĢÐ°Ð½ Ð½ÑĭÑħ
ĠÑĢÑĥ Ð±Ð°
Ðŀ Ð´
ĠÑĥ ÑģÑĤÐ°Ð²
ĠÐ·ÐµÐ¼ ÐµÐ»ÑĮ
ĠÐ¿ÑĢÐ¾ÑĪ Ð»Ð°
ĠÑĤÑĢÐ°Ð½ Ñģ
ÑĭÐ²Ð° Ñİ
ĠA d
Ð¸ ÐºÐµ
er man
ĠÐ· Ð²ÐµÑĢ
ĠÑĥÐ± Ð¸ÑĤ
ÑĦ ÐµÐ¹
ĠÐŀÐ± ÑĬ
ĠÐ±Ð¾ÑĢÑĮ Ð±Ñĭ
ĠÐ²Ð¾Ð¹ Ð½Ñĥ
ĠÐ¸ÑĤ Ð°Ð»ÑĮÑıÐ½
ĠÐ¾ÑĤÑģÑĥÑĤ ÑģÑĤÐ²Ð¸Ðµ
ĠÐ½Ð°Ñģ Ð»Ð°
ĠÐ¿Ð°ÑĤ ÑĢÐ¸
) :
ĠÐ½Ð°Ð· Ð²Ð°ÑĤÑĮ
ÑĢÐ¾Ð² ÐµÑĢ
ĠÐ¿Ð¾Ð»ÑĥÑĩ Ð¸Ð»Ð¾ÑģÑĮ
Ð¼Ð° ÑĤ
Ð¾ÑģÑģÐ¸ Ð¹
ĠÐ±ÑĥÐ´ÑĥÑī ÐµÐ¼
ĠÐĿÐ° ÑĨÐ¸Ð¾Ð½
ĠAmeric an
ĠÐ²ÐµÑĢ Ð½Ð¾
ĠÐ±ÐµÑĢÐµ Ð³
s p
ĠÑĢÐ° ÑģÑĤÐµÑĢ
b all
Ð»Ñı Ð»ÑģÑı
ĠÐ¾ÑĤÐ½Ð¾Ñģ Ð¸ÑĤÑģÑı
ĠÑĤÐ¾Ð½ Ð½
ĠÑģÐ¸Ð³ Ð½Ð°Ð»
ĠÐ¾ÐºÐ¾Ð½ÑĩÐ° ÑĤÐµÐ»ÑĮÐ½Ð¾
ĠÐ·Ð½Ð° ÐµÐ¼
Ñĩ Ð¾Ð½
ĠÐł Ð¸Ð¼
Ð± Ð»
Ð¶ ÐºÐ¸
ĠO n
ĠÐ¾ÑģÑĤ Ð°Ð»ÑĮÐ½ÑĭÑħ
ĠÑĩÑĥÐ² ÑģÑĤÐ²Ñĥ
Ð½ ÐµÑĤÐµ
ĠÐ¿Ð¾ ÑģÑĤÑĥÐ¿Ð°
ĠÐ¿Ð¾ÐºÐ°Ð· Ð°Ð»
Ġ201 7
ĠÐ½Ð°Ð·Ð²Ð° Ð½Ð¸ÐµÐ¼
ĠÐ´ ÑĭÐ¼
ĠÐº Ð²Ð°Ð»Ð¸
ÑĤÐ¸Ð½ Ð³
ĠÐ¿ Ð¾Ð±Ñĭ
ĠÐ² Ð¸Ñģ
Ġm od
ÑģÑĤ ÑĭÐµ
ĠÑģ Ð°Ð½
ĠÐ¨ Ð¸
ĠÐĿÐ¸Ðº ÑĤÐ¾
ĠÐ¾Ð±ÑĬÑıÑģ Ð½Ð¸ÑĤÑĮ
ĠÐ²Ð¾Ñģ Ð¿Ð¸ÑĤ
Ñħ Ð½ÑĥÐ»
ÑĮ ÐµÑĤ
ĠÐ´ Ð°Ð»Ð¸
Ð½Ð¾ Ñİ
ĠÐ¸Ð´Ðµ Ñı
ĠÑģÐ¾ ÑĢÐµÐ²Ð½Ð¾Ð²Ð°
Ġp h
ĠÐ¾Ð±ÑĬÐµÐº ÑĤÐ¾Ð²
ĠÐ¿ÑĢÐ¸ Ð²ÐµÑģÑĤÐ¸
ÑĤÐµÐ»ÑĮ Ð½Ð°Ñı
Ð¾Ð² Ðµ
ĠÑģÐºÐ¾ÑĢÐ¾ ÑģÑĤÑĮ
ĠÐ± ÑĢÑİ
ĠÑĨÐ¸ Ð²Ð¸Ð»Ð¸
ĠÐļ ÐŁ
Ð²Ð¸ ÑĩÐ°
ÑĤÐ¾ÑĢÑĭ Ñħ
ĠÐ»ÑĥÑĩ ÑĪÐ¸Ñħ
ĠÐķ Ð¹
Ð²Ð¸ ÑĤÑĮÑģÑı
ĠÐ²Ð¾Ð· ÑĮ
ĠÐ³Ð¾Ñģ Ð¿
ĠÐ¡Ðº Ð¾Ð»ÑĮÐºÐ¾
ĠÐ½Ð° ÑĥÐº
ĠÑĢÐ° Ð½Ð¾
ĠÐŁ ÑĢÐ¾Ð´
ĠÐ¿ÑĢÐ¾ ÑĪÐµÐ¿
Ġinclud ing
ĠÐ²Ð¾ ÑĢÐ¾ÑĤ
ĠÐ¿ Ð¸ÑĤÑĮ
ĠÐĵ ÑĢÐ°
Ð»Ñı Ñı
ĠÑĨÐµÐ» ÑĭÐ¹
Ð²ÑĪÐµÐ³Ð¾ ÑģÑı
Ð²Ð° Ð¼Ð¸
ĠÐ¿ÐµÑĢÐµ Ðº
ĠÐ¸ÑģÑĤÐ¾Ñĩ Ð½Ð¸Ðº
ĠÑĢÐ°Ð±Ð¾ ÑĩÐ¸Ñħ
Ð·Ð° Ð¼Ð¸
Ð¸ ÑģÐ°
ĠÐ»Ðµ ÑĩÐµÐ½Ð¸Ñı
ĠÑģÑĤ ÐµÐ½Ð°
ĠÐ¿Ð»Ðµ ÑĩÐ¸
ĠÐ³Ð¾ÑģÑĥÐ´Ð°ÑĢ ÑģÑĤÐ²ÐµÐ½Ð½Ð¾Ð³Ð¾
ĠÐĴ Ð»Ð°
ĠÐ³Ð¾ ÑĢÐµ
ĠÐŁ Ð°ÑĤ
ĠÐ½Ðµ ÑĩÐµÐ³Ð¾
ĠÐ¡ Ð½Ð°ÑĩÐ°Ð»Ð°
ĠÐ¸Ð½ÑģÑĤ ÑĢÑĥÐº
Ġ i
ĠÐĶ Ð¾Ð½ÐµÑĨ
ĠÐĴÐ° ÑģÐ¸Ð»Ð¸
ĠÐĴ ÑģÐµÐ¼
ĠÑĥÑģÐ»ÑĭÑĪ Ð°Ð»
ĠÑĥ Ñī
ĠÑįÐºÐ¸ Ð¿Ð°
ĠÐ² Ð´Ð¾Ñħ
ĠÐºÐ¾Ð»Ð¸ ÑĩÐµÑģÑĤÐ²Ð°
ĠÐºÐ¾Ð¼ Ð¸ÑĤÐµÑĤÐ°
Ð¾Ð»Ð¾Ð³ Ð¸Ð¹
el f
ÐµÑĢÐ° Ð¼Ð¸
ĠÐ¿Ð¾Ð´ ÐºÐ»Ñİ
ĠÑģÐ¾ÑģÑĤÐ¾Ñı Ð½Ð¸Ñı
ĠÐ¿Ð¾ ÑĢÐ°Ð·
Ð² ÑĪÐµÐµ
ĠÑģÐ¿Ð¾ÑĢ ÑĤÐ°
Ñİ Ðº
ĠD e
ĠP l
ĠÐ³ÑĢÑĥ Ð·Ð¾Ð²
ĠÐ¿ÑĢÐµÐ´ ÑģÑĤÐ¾Ñı
ĠÐ¾ÑģÐ½Ð¾Ð² Ð½ÑĭÑħ
ÐµÐ· Ð´Ñĭ
ĠÑģÐ¼Ð¾Ð¶ ÐµÑĤÐµ
ĠÐ¡ Ð¿Ðµ
ĠÐ¿ÑĢÐ¾Ð³ÑĢÐ°Ð¼ Ð¼Ð°
ĠÐ¡ Ð¸Ð½
ĠÑĤÐ¸ Ð¿
ĠÑĪ Ð°Ñħ
ÐµÐº Ð¾Ð¼
ay s
Ñį ÑĤÐ¾
ĠÑĢÐ°ÑģÑģÐºÐ° Ð·Ð°ÑĤÑĮ
ĠÐ¿ÑĢÐ¸ ÑıÑĤÐ½Ð¾
ĠÐĴÐ¸Ðº ÑĤÐ¾ÑĢ
ĠÐ¿ÑĢÐµ Ð¿Ð°ÑĢÐ°
ĠÑĥÑĤ ÑĢÐ¾
ĠÐ· Ð²Ð¾
ĠÐ¿ÐµÑĢ ÑģÐ¾Ð½Ð°
ĠÐŁÐ¾ Ñħ
ĠÐ¿ÑĢÐµÐ´Ð²Ð° ÑĢÐ¸ÑĤÐµÐ»ÑĮ
Ð±Ð¸ Ð»Ð°
ĠÑģÑĤÑĢÐ¾Ð¸ÑĤÐµÐ»ÑĮ ÑģÑĤÐ²Ð¾
ĠÐĲÐ½ Ð½Ð°
ĠÐ²Ð»Ð¸Ñı Ð½Ð¸Ðµ
ÑĥÑİÑī ÐµÐ¹
Ġar t
ÑĨ ÐºÐ¸Ð¹
ĠÐ¾ÑĤ ÑĢÐ°Ð¶
Ġal bum
ĠÐ¾ÑĤ Ð·Ñĭ
ÑĢÑĥ ÐµÐ¼
ĠÑģ Ñİ
ÑĥÐ¼ Ñĭ
ĠÐ²Ð¸Ð´ Ð¸Ð¼
ĠÐ±ÐµÑģÐ¿ Ð¾ÐºÐ¾
ĠÐ½ Ð¾Ð²Ð°Ñı
ĠÐ¿Ð¾Ð» Ð½ÑĭÐ¹
ÑĤ ÑĢÐ°Ð½
Ð¼ Ð¸ÑĤÐµ
ĠÐĳ ÐµÐ»Ð°
ĠÐŀ Ð»ÐµÐ³
ĠÑĢÑĥÑģ ÑģÐºÐ¾Ð³Ð¾
Ð»Ðµ Ð·
ĠÐ¼Ð°ÑĤ ÑĩÐ°
ĠÐ¿Ð¾Ñģ Ð»Ð°
Ġin c
Ð´Ðµ ÑģÑı
k s
ĠÐ¾Ð± Ð¸
ul l
Ñģ Ð¾ÑĤ
ĠÑģÑĤ Ð¾Ð»Ðµ
ÂłÐ¢ Ð°Ðº
ĠÑģÐ¿ÐµÑĨÐ¸Ð°Ð»Ð¸ ÑģÑĤÐ¾Ð²
ĠÐĳ Ð°Ð»
Ð¸ Ð½Ð¸
ĠÐ²Ñĭ ÑĢÐ¾Ñģ
ĠÐ» ÐµÐº
ĠÐ²Ð¾Ð» ÑĪÐµÐ±
ĠÐ·Ð°ÑĢ Ð¿Ð»Ð°
ĠÐ°Ð²ÑĤÐ¾Ð¼Ð¾Ð±Ð¸Ð» Ñı
ĠÐ¿Ðµ Ð´Ð°Ð³
ĠÐ½Ð°ÑĩÐ°Ð»ÑĮ Ð½Ð¸Ðº
ĠÐ·Ð°Ð» Ð¾Ð¶
ĠÐ·Ð° Ð³Ð»Ñı
Ñĥ Ð»Ð¸
ĠY ork
ĠÐĿ Ð¾ÑĢ
ĠÐ»Ð° Ð±Ð¾ÑĢÐ°
ĠÐ¿Ð¾ÑģÑĤÐ° ÑĢÐ°
ĠÐ´Ð¾ ÑĩÐµ
ĠÐ± ÐµÑĢ
ĠÐºÐ»Ð¸ ÐµÐ½ÑĤÐ°
ĠÑĩ ÑĤ
ĠÑģÐ¿Ð° ÑģÐ°
ĠÐĳ ÐµÐ½
ĠÐ·Ð°Ð´Ð° ÑĩÐ°
ĠÑĦ Ð¾Ð½Ðµ
ÐµÐº ÑĤÐ°
t il
ÑĤÐ¸ ÐºÐ¾Ð²
ĠÐ¿ÑĢÐ¾ÑĤÐ¸Ð²Ð¾ ÑĢÐµ
Ð± Ð°Ñģ
ric t
ĠÑģÐ¼ ÐµÐ½Ð¸
ĠÐĿÐ°Ð²ÐµÑĢ Ð½Ð¾Ðµ
ĠÐºÑĢÐ¾Ð²Ð° ÑĤÐ¸
ÑģÑĤ ÑĢÑĭ
ĠÐ²Ð¾Ð· Ð³Ð»Ð°Ð²
ĠÑĢÐ°Ð· Ñĭ
Ð¾ÑģÐ»ÐµÐ´ ÑģÑĤÐ²Ð¸Ð¸
ĠÑĢÐ°Ð· Ð¼ÑĭÑĪ
ĠÐ³Ð°ÑĢÐ°Ð½ ÑĤÐ¸
ĠÐŁ Ð¸ÑĤ
ĠÐ½Ð° ÑĢÑĥÐ¶
ÐµÐ» Ñĭ
ĠÐ»ÐµÐ³ ÑĩÐµ
ĠÐ¿Ð¾Ð¿ ÑĢÐ°Ð²
ÑģÐ»Ñĥ ÑĪÐ¸
ĠÐĺ ÑĤÐ°Ðº
ĠÐ² ÑħÐ¾Ð´Ð¸ÑĤ
ĠCom m
ĠÐ²Ð¾Ð´ Ðµ
ĠÐ±Ð¾Ð»ÐµÐ· Ð½Ð¸
ĠÐ¡ Ñĭ
Ġ est
ĠÐ½Ðµ Ð³Ð°
Ð¾Ð²Ð° ÑĤÐµÐ»ÑĮÐ½Ð¾
5 5
Ð¾Ð»Ð¾Ð³Ð¸ ÑĩÐµÑģÐºÐ¸Ñħ
ĠÐ¶ Ð¸ÑĤÐµÐ»Ð¸
ĠÐļ Ð°Ð»Ð¸
ĠÐ¾ÑĤÐ»Ð¸ ÑĩÐ½Ð¾
Ð³Ð¾ ÑĢÐ°
ĠÐł ÐµÐ¹
ĠÐ ©
ĠÐ¾ÑģÑĤÐ° Ð½Ð°
ĠÐ¿Ð¾ÐºÐ° Ð·Ð°ÑĤÑĮ
ĠÐ²ÑĭÑģÐ¾Ðº Ð¾
ÐºÐ¸ Ð½Ð°
ĠÐ¶ÑĥÑĢ Ð½Ð°Ð»
ĠÐ¾ÑĤÐ²ÐµÑĤ Ð¸ÑĤÑĮ
ĠÐ¿ÑĢÐ¾ÑĪ Ð»Ð¸
ĠÑģÐ¿ Ð¸Ð½Ñĥ
ĠÐ¿ÐµÑĢ Ð²Ð¾
ĠÐ¸Ð´Ðµ Ð¸
ĠÑĦÐ¸Ð»Ð¾Ñģ Ð¾ÑĦ
ĠÐ±ÐµÑĢÐµ Ð¼ÐµÐ½
ĠÐ¼Ð°Ð³Ð° Ð·
ĠÐ¾Ð½ Ð»Ð°Ð¹Ð½
ĠÐ¾ÑģÑĤÐ°Ð½Ð° Ð²Ð»Ð¸
ĠÑĤ ÑĢÐ¾Ð¿
3 6
ĠÐ½Ð°Ð¼ Ð½Ð¾Ð³Ð¾
ĠÐºÐ°ÑĢ ÑĤÐ¾
ist s
ĠÑģÐ¼Ð¾Ð³ ÑĥÑĤ
ĠÐĶ Ð²Ð°
ĠÐ´Ñĥ ÑĢÐ°
Ġn o
ĠÐ½Ð° Ð±ÑĢÐ°
Ð³Ð°Ð½ ÑĤ
Ð¾Ð» Ñĭ
ĠÐ²Ð° ÑĪÐ°
ĠÐĶ ÐµÐ½ÑĮ
ĠÐĿÐµ ÑĥÐ¶ÐµÐ»Ð¸
ĠÐ½ÐµÐ¿ ÑĢÐµ
3 8
ÑģÑĤÐ¾ Ð¸ÑĤ
ĠW ar
ĠÐ¾ÑĩÐµÐ²Ð¸Ð´ Ð½Ð¾
Ð»ÐµÐ½ Ð½ÑĭÐ¼
ĠÐ±Ð¸Ð±Ð»Ð¸ Ð¾ÑĤÐµ
ÑĢÐ¾Ð²Ð° Ð½Ð°
ĠÐ¿Ð»Ðµ ÑĩÐ¾
ĠÐ» ÐµÐ·
ĠÐ¸ÑģÐ¿ Ñĥ
t y
ĠÐº Ð¾Ð²
ĠÐ¿Ð¾ ÑĪÐ»Ð°
ĠÐºÐ²Ð°ÑĢÑĤÐ¸ ÑĢÑĥ
ĠÐ¿ÑĢÐ¾ÑĤÐ¸Ð² Ð¾Ð¿Ð¾Ð»Ð¾Ð¶
ÑĩÐ¸ Ð»Ð°ÑģÑĮ
ĠÐ¾ÑĤÐ¼ÐµÑĤ Ð¸ÑĤÑĮ
ĠÐ³Ð¾ ÑĢÐ¸Ð·
ĠÐ¼Ð¸Ð½Ð¸ ÑģÑĤÑĢ
ĠÐ½Ð¾Ð³Ð° Ð¼Ð¸
ĠF or
ĠÐ¼Ð¾Ð» Ð¸ÑĤ
ĠÑĥÑģÐ¿Ðµ ÑĪÐ½Ð¾
Ġad d
ĠÐ·Ð°Ðº Ð°Ð½ÑĩÐ¸
ÑģÐºÐ¾ÑĢ Ð±
ĠÐ¿Ð¾Ð¶ Ð°ÑĢ
Ð¿ ÑĢÐµ
ĠÐ´ÐµÐ²Ð¾ ÑĩÐºÐ°
ĠÐĿÐ° Ñĩ
ĠÑĥÐ¿ Ð¾ÑĢ
Ð°Ð½ ÐºÐ°
ĠÐ³Ð¾Ð»Ð¾Ñģ Ð°
Ð±Ð¸ Ð½Ð°
ĠÐ¸Ð½ÑģÑĤ Ð¸ÑĤÑĥÑĤ
ĠÐ¿Ð¾Ð²ÐµÑĢ Ð½ÑĥÐ»ÑģÑı
ĠÐ¢ Ð¾ÑĢ
un e
ĠÐ¾Ð±ÑĢÐ° Ð±Ð¾ÑĤ
ĠÑģÐµÐº ÑĢÐµÑĤ
ĠÐ°Ð² ÑĤÐ¾ÑĢÐ°
ĠÐ± ÑĥÑħ
ĠÐ¿ÑĢÐµÐ´Ð»Ð°Ð³Ð° ÐµÑĤ
ĠÑģÐ²Ð¾Ð±Ð¾Ð´ Ñĭ
ĠÐ±ÑĥÐ´ÑĥÑīÐµ Ðµ
ÑĢÐ¸ ÑģÑĤÐ°
ĠÑĦ ÑĢÐ°
Ġbe fore
ĠÐĶ ÐµÐ¼
ĠP h
ĠÐ¾Ð± Ð»Ð¸
ĠÐ¾ÑĤ ÑĢÐµ
Ġle ad
ĠÐ½Ð° ÑĩÐ¸
ÑĨ ÐµÑģ
ĠÐŁ Ðŀ
ĠÑĢÐ° Ðº
ĠÐºÐ»Ð¸ ÐµÐ½ÑĤÐ¾Ð²
Ð¿ ÐµÐ»
Ð¾Ð²Ð° Ð½Ð°
Ġex p
Ð¾Ð³ Ð¾Ð´
ĠA s
ĠÐ¡Ð¸ ÑĢÐ¸Ð¸
Ġagain st
ĠÐ¿Ð¾Ð´ ÑĥÐ¼Ð°Ð»Ð°
ÑĩÐ° ÑİÑĤÑģÑı
ĠÐ´ÑĢÑĥÐ³Ð° Ñı
ĠÐ¿ÑĢÐ¾ÑģÑĤÑĢÐ°Ð½ ÑģÑĤÐ²Ð¾
ĠÐ¿ÑĢÐµÑģÑĤÑĥÐ¿ Ð»ÐµÐ½Ð¸Ñı
ĠÑģÐµÑĢÐµÐ´ Ð¸Ð½Ðµ
ĠÑĢÐ°Ð·Ð² Ð¸ÑĤÐ¸
ĠÐ¿ÑĢÐ¾Ð¸Ñģ Ñħ
ĠÐ¾Ð¿ Ñĭ
ÑģÑĤÐ² Ð¸Ð¹
ĠÐ¿Ð¾Ð´Ð´ÐµÑĢÐ¶ ÐºÑĥ
201 4
Ñī ÑĮ
ĠÐ» Ð¾Ð±
ĠÑĩ ÑĳÑĢ
ĠÐ¾ Ð·Ð°
ĠÑħÐ²Ð° ÑĤÐ¸ÑĤ
Ðĵ Ðŀ
ĠÐ´ÐµÐ» Ð°Ð»
ĠÐ¿ÑĢÐ¾ÑĨÐµÑģ ÑģÐ°
ĠÑĤÑĢÐµÐ±Ñĥ ÐµÑĤÑģÑı
er ed
ĠÐ¿ ÐµÑĤ
ĠÑĩÑĢÐµÐ· Ð²ÑĭÑĩÐ°Ð¹
ĠÐ²Ð· ÑıÑĤ
ÑīÐ° ÑİÑĤÑģÑı
19 9
ĠÑģÐ² Ð¾Ð±
0 9
ĠÐ¡ Ð°Ð¹
ĠÑĢÐ¸Ñģ ÑĥÐ½
Ġc ount
ep t
ar l
ĠÑĢÐµ ÑĩÐ¸
ĠÐ¿Ð¾Ð¿ÑĭÑĤ Ð°Ð»ÑģÑı
ĠÐ¼Ð¾Ð»Ð¾Ð´ ÑĭÑħ
ĠÐ´ÐµÐ¹ÑģÑĤÐ² Ð¸Ðµ
Ġs ur
ĠÐ¾ÑĦ Ð¸Ñģ
ĠÐ²Ð° ÑĪÐ¸Ñħ
ĠÑĢÐ° ÐºÐµÑĤ
ĠÑģÐºÐ° Ð¶Ñĥ
ĠÐ¼Ð¸ ÑģÑģÐ¸
ĠÐ¾Ð± Ð¼Ð°Ð½
ÑĪ ÐµÐ½Ð¸Ð¸
ĠÐ¿ÑĢ Ð¾Ð¹Ð´ÐµÑĤ
ĠÑĢÐµ ÑģÐ¿ÑĥÐ±Ð»Ð¸ÐºÐ¸
Ġs ing
ĠÑĩÐ¸ ÑģÑĤÐ¾
ut e
ĠÐ¿ÑĢÐ¾Ð²Ð¾Ð´ Ð¸ÑĤÑĮ
ĠÑĩÐ¸ ÑģÐ»
Ġwh ile
Ð´Ðµ Ð±
ĠÐ ¹
ĠÐ¾Ð±ÑĥÑĩ ÐµÐ½Ð¸Ñı
ĠÐ¿Ð¾Ð¸ ÑģÐº
ĠÐ²Ð°Ð» ÑİÑĤ
ÐºÐ¾Ð² ÑĭÐµ
ĠÐ¾ÑīÑĥÑī ÐµÐ½Ð¸Ðµ
Ñī Ð¸Ð»
ÑģÑĤÐ¾Ð² ÐµÑĢ
oun c
ĠÐ¿ÑĢÐµÐ² Ð¾ÑģÑħÐ¾Ð´
ĠÑĥÐ¿ Ð°Ð»
ĠÐ½Ð°Ð³ ÑĢÑĥÐ·
ĠÐľ Ð¾Ð¹
ĠÐ±Ð¾Ð»ÑĮÑĪ Ð¾Ð³Ð¾
Ðĵ Ð»Ð°Ð²Ð°
Ð± ÐµÐ»
ĠÐ¾ÑĤÐ²ÐµÑĤÑģÑĤÐ²ÐµÐ½ Ð½Ð¾ÑģÑĤÐ¸
Ġo wn
ĠÐ² ÐºÐ»Ð°Ð´
ĠÑĢÐµÐ· ÐµÑĢ
ĠÐļÐ° Ð·Ð°Ñħ
ÐĽ ÐĲ
Ðķ Ð¢
ĠÐ³ Ð½Ðµ
ĠÐ¸ÑģÐ¿Ð¾Ð»ÑĮÐ· Ð¾Ð²Ð°Ð½Ð¸Ðµ
ĠÐ¼Ð°Ð³Ð° Ð·Ð¸Ð½
ÐµÐ¼ Ñĭ
Ð¾Ð± Ð½Ð¾
ÐºÐ¾Ð± ÑĢÐ¸ÑĤÐ°
ĠÐŀ Ð³
ĠÐľ ÐĴÐĶ
ĠÐ¶ Ð´ÐµÑĤ
ĠÐ³ÑĢÐ¾Ð¼ ÐºÐ¾
ĠÑĦÐ¾ÑĤ Ð¾Ð³ÑĢÐ°ÑĦÐ¸Ð¸
ĠÐ°ÑĢ ÑĤÐ¸Ð»Ð»Ðµ
ĠÐ²Ñĭ Ð³Ð¾Ð´
ĠÐ°Ð² ÑĤÐ¾ÑĢÐ¸
ur ch
Ð»Ñı ÑĨÐ¸Ð¸
ĠÐ¾ÑĤ ÑĢÑıÐ´
ĠÑģÐ¾ÑĤ Ð½Ð¸
? "
ĠÐ¼ÐµÑģÑĤ Ð½ÑĭÑħ
Ðŀ Ð½Ð¸
st it
ĠÐ¿Ð¾Ð» Ñİ
ĠÐ²Ð¾ÑģÐº Ð»Ð¸
ĠÑĤÐ²Ð¾ Ñı
ĠÑģÐµÑĢÑĮÐµÐ· Ð½Ð¾
Ġh igh
ĠÐ¾ÑĤ Ð¾Ð·
ĠÐ°Ðº ÑĤÑĥ
Ð· Ð¸Ñı
ĠÐ¼ Ð¸ÑĤ
ĠÐł ÐµÐ·
Ð¾Ð¶Ð´ ÐµÐ½Ð¸Ð¸
ĠÑģÐ²ÐµÑĢÑħ Ñĥ
ĠÑĥÐ± Ð¸ÑĤÑĮ
ĠÐ¿Ð»Ð°ÑĤÑĮ Ðµ
ÑĨÐ¸Ð¾Ð½ Ð½Ð¾
ĠÐ¶ÐµÐ»Ð° Ð½Ð¸Ñı
Ð± Ð°Ð»
qu ot
ĠÐ¾ÑĤÐ²ÐµÑĤ Ð°
ĠÐ·Ð°Ð±Ð¾Ð»Ðµ Ð²Ð°Ð½Ð¸Ñı
ĠÐ·Ð°Ð´Ð° ÑĩÐ¸
ĠÐ¼Ð°ÑĤ ÑĩÐµ
Ġ18 8
ĠÐĶÑĥÐ¼Ð° Ñİ
Ð²Ð¸ Ð°
ĠÐ¾Ð±Ñģ ÑĥÐ¶
ĠÐ¸Ð´ ÑĥÑĤ
Ð½Ð¸ ÑĤÐ°ÑĢ
ĠÐ¾Ð±ÐµÑģÐ¿Ðµ ÑĩÐµÐ½Ð¸Ñı
ĠÑĢÑĭÐ½ Ð¾Ðº
ĠÐŀÑģÐ¾Ð± ÐµÐ½Ð½Ð¾
Ġg o
ĠÐ²ÑĭÐ¿Ð¾Ð» Ð½Ñı
ĠC on
ĠÑĤÐ¾Ð²Ð° ÑĢ
ĠÐŁ Ð¾Ð²
ĠÑģÑĤÐ° ÑĢÑĭÐ¹
Ðĺ ÐĶ
ĠÐ³Ð¾Ð» Ð¾Ð´
ĠÐ±Ð°Ð· Ðµ
ÐµÐ»ÑĮ Ðµ
ĠÐŀ Ð±Ñĭ
Ð± Ð¸Ð»ÑĮ
ĠÐº Ð²Ð°Ð´
ĠÐ¼Ð¸ ÑĢÑĥ
ÑĨ Ð°ÑĢ
ÑĢÐ¾Ð²Ð° Ð½Ð¸Ð¸
Ñĳ Ð²
ĠÑħ Ð»ÐµÐ±
ĠÑģ ÐµÐ´
ĠÐ°Ðº ÑĨÐ¸Ð¸
ĠÐ¿Ð¾Ð´ÑĤÐ²ÐµÑĢ Ð¶Ð´
at her
Ġgro up
ĠÐ³Ð»Ð°Ð² Ð½Ð¾Ð³Ð¾
Ð¾Ð³ Ð¾Ð²
ĠÑģÑĤ ÑĢÐ¾Ð³Ð¾
ĠÐºÐ²Ð°ÑĢÑĤÐ¸ ÑĢÐµ
ĠÐ²Ñĭ Ðº
ĠÐ¿Ð°Ð»ÑĮ ÑĨÑĭ
ĠÐ°Ðº ÑĤÐ¸Ð²Ð¸
ĠÐ³ÐµÑĢ ÑĨ
ĠÐł Ð¾Ñģ
Ð²ÑĪÐ¸ Ð¼Ð¸
ĠÐ± Ð»Ñİ
Ġ200 3
ĠÐ²Ð¾ ÐµÐ½Ð½Ð¾Ð¹
Ð» Ð»
ĠÑĢÐµÐ³Ð¸ÑģÑĤÑĢÐ° ÑĨÐ¸Ð¸
ĠÐ¿Ñĥ Ð»ÑĮ
ĠÐĵ Ð°Ð»
ÑĤÐ¾Ð² Ð¾Ð¹
7 7
ĠÐ¿ÑĢÐ¾ÑĨ ÐµÐ´Ñĥ
ĠÐ¼Ð¾ Ð½Ð¸
ĠÐ¸ Ñī
b y
Ð· Ð¼Ð°
ĠÐŃ ÑĢ
ĠÐ¿Ð¾Ð² ÐµÐ·
Ġm ain
ĠÐ² Ð°ÑĢ
ÐµÑĤ Ð¾Ð¼
ĠÐ¾Ð´ Ð½Ð¸
ul a
ĠÑģÑĥ ÑĤÐ¸
ÑĪÐ¸Ðµ ÑģÑı
ĠÑģÑĤÐ¾Ð» Ð¾Ð¼
ĠÐºÑĢÑĥÐ¿ Ð½ÑĭÑħ
ĠÐ¿ÑĢÐ¾ÑĤÑı Ð½ÑĥÐ»
ĠÑģÐ¾Ð± Ð°Ðº
ĠÐ¾ÑĤ ÑģÑĤÐ°Ð²
ĠÑĢÑĥÑģ ÑģÐºÐ¸Ð¹
ĠÐ¼Ð°Ð»ÑĮ ÑĩÐ¸Ðº
ÑģÑĤ Ð½ÑĭÐµ
ĠÐ¾ÑĤÐ²ÐµÑĤÑģÑĤÐ²ÐµÐ½ Ð½Ð¾ÑģÑĤÑĮ
ĠÐµÐ¶ ÐµÐ´
ĠÐ·Ð° Ð¸Ð½ÑĤÐµÑĢÐµÑģÐ¾Ð²
ĠÐ´ÐµÐ» Ð¾Ð¼
Ġs ign
ĠÐ¿Ð¾Ð³ Ð¾Ð²Ð¾ÑĢÐ¸ÑĤÑĮ
ĠÑģÐ¾ÑĨÐ¸Ð°Ð»ÑĮ Ð½ÑĭÑħ
ĠÐ·Ð°ÑıÐ² Ð»ÐµÐ½Ð¸Ðµ
Ġun til
ĠÐ¿Ð¾Ð·Ð²Ð¾Ð» Ð¸ÑĤ
Ð¾ÑĢ Ð´Ð¸Ð½Ð°
ĠÑĤÐµÐ»ÐµÑĦÐ¾Ð½ Ñĥ
ĠÐŀÑĤ Ð²ÐµÑĤ
Ġre p
ĠÐ¾Ð±ÑĢÐ°Ð· Ð¾Ð²
ĠÐ·Ð° Ð¼ÐµÐ½
ĠÐ¿ÑĢÐ¾Ð¸Ð·Ð²Ð¾Ð´ ÑģÑĤÐ²Ð¾
Ġt r
ĠÐ¾Ð³ Ð½Ñı
ÑĢÐ°Ð²Ð¸ Ð»Ð°ÑģÑĮ
ĠÐ»Ð¸ ÑĩÐ½Ð¾ÑģÑĤÐ¸
ĠÑģÑĤÑĢÐ° Ð½Ñĥ
ĠÐ½Ð° ÑĥÐºÐ¸
ĠÐ¿ÑĢÐ¾Ñģ Ð¼Ð¾ÑĤ
0 5
Ð»Ð¾ ÑĤÐ°
Ð»Ðµ ÑĢÐ°
Ð³Ð° Ñı
ĠÐ¿ÑĢÐµÐ´Ð»Ð¾Ð¶ ÐµÐ½Ð¸Ñı
ĠÐº ÑĢÑĥÐ¶
Ð¸ ÑĪÑĮ
ĠÐºÐ½Ð¸ Ð³Ðµ
Ð¿Ðµ ÑĩÐ°ÑĤ
ĠÐºÐ° ÑĢÐ°
ĠÐ³Ð¾ÑĢ Ñĭ
ĠÐ± Ð°ÑģÑģ
ĠÑĥÐ¿ Ð¾Ð¼Ð¸Ð½Ð°
Ð»Ð¸ Ð²Ð°
ĠÐ±ÑĥÐ¼Ð° Ð³Ð¸
ĠÐ¿ÑĢÐ¸Ð½Ð°Ð´Ð»Ðµ Ð¶Ð°
R u
Ð½Ð¸ Ð»ÑģÑı
ĠÐ¼Ð¸Ð½Ð¸ ÑģÑĤÐµÑĢ
ĠÐ±Ð¾ÑĢÑĮ Ð±Ðµ
ĠÐºÐ½Ð¸ Ð³Ð°
ĠÐ¿ÑĢÐ¸Ñĩ Ð¸Ð½Ðµ
Ġre f
ĠÐ¿Ð¾Ð´ Ð²Ð¾Ð´
ĠÐ´Ð°Ð½ Ð½Ð¾Ð³Ð¾
ĠÐºÐ¾Ð½ÑĤÑĢ Ð¾Ð»Ñı
ĠÐ¶Ð¸Ð² ÑĥÑĤ
ÑĤÐ¸ ÐºÑĥ
ĠÐ¿Ð¸ÑĤÐ° Ð½Ð¸Ñı
ÑĢÑĥ ÑİÑĤÑģÑı
a id
ĠÐ¼Ð¸Ð½Ð¸Ð¼Ñĥ Ð¼
ĠÑģ ÑĥÑī
Ð´ÑĢÐ°Ð²ÑģÑĤÐ²Ñĥ Ð¹ÑĤÐµ
ĠÐ¿ Ð¾Ð²Ð¾
4 4
ĠÑĢÑĥÑģ ÑģÐºÐ¾Ð¹
ĠÐĽ Ð¸ÑĤ
ĠÐ´Ñĥ ÑĪÐ°
ĠÑĢÐµÐ±Ñı ÑĤÐ°
ĠÐ¾ÐºÐ°Ð· ÑĭÐ²Ð°ÐµÑĤÑģÑı
ĠÑĥÐ»Ð¸ ÑĨÑĥ
Ðł Ð°Ð·
ĠÐ·Ð½Ð° Ðº
ĠÐ¿Ð¾Ð¿ ÑĢÐ¾ÑģÐ¸Ð»
ĠÐ¿ÑĢÐ°Ð² Ð¸Ð»
ĠÐ·Ð² ÑĥÐº
Ð¾Ð¿ Ð»Ð°
ĠÐ¤ Ð¸Ð½
i um
ÐĻ Ð¾ÑĢ
Ġc ap
ĠÐ¿Ð»Ð¾ÑīÐ° Ð´ÑĮ
ĠÐ¿ÑĢÐ¸Ð² ÐµÐ·
Ġb oth
f l
ĠÐ²ÑĭÑħÐ¾Ð´ Ð°
ÑĦ Ð°Ðº
ĠÐ²Ð· ÑıÐ»Ð°
ĠÐºÐ¾Ð¼Ð¸Ñģ ÑģÐ¸Ð¸
ĠÐ¸ÑģÐ¿Ð¾Ð»ÑĮÐ·Ñĥ ÐµÑĤÑģÑı
ĠÐ¯ Ð½
ĠÑģÐµÐºÑĥÐ½ Ð´Ñĥ
Ñģ Ð¼
ĠÐ¶Ð¸Ð·Ð½ ÑĮÑİ
c o
ĠÐºÐ° ÑĦ
ĠÐ´ Ð¾Ð½
ĠÑģÐ¾Ð·Ð½Ð° Ð½Ð¸Ðµ
ĠÐ¿Ð¾Ð´Ð´ÐµÑĢÐ¶ ÐºÐ¸
Ð¸Ð» Ð»
ĠÐ¼Ð°ÑĪ Ð¸Ð½Ðµ
y s
Ðº Ð½ÑĥÑĤÑĮ
Ġ200 1
ĠÐ´ ÑĥÐ±
r id
Ġw rit
Ð°Ð»Ðµ ÐºÐ¾
ĠÐļÐ¾Ð¼ Ð¿Ð°Ð½Ð¸Ñı
ĠÐ»Ðµ Ð¶Ð¸ÑĤ
ÐµÐ»Ð¾Ð² Ðµ
ĠÐ¾Ð±ÑĢÐ°Ð· Ð¾Ð²Ð°Ð½Ð¸Ðµ
ĠÐ¾Ð¿ Ð¿Ð¾Ð·Ð¸
ĠÑįÐº ÑģÐº
ĠÐĺ Ð»ÑĮ
Ġde velop
ĠÐ¸Ð· ÑĥÐ¼
ĠÑĢÐµÑģÑĤÐ¾ ÑĢÐ°
ĠÐ¡ Ð¼
Ġ200 2
ĠÐº Ð»ÑİÑĩ
ÑĦ ÑĤ
ĠÐµÐ² ÑĢÐµ
ĠÐ½ Ð¾Ð²ÑĭÐ¼
ĠÐ·Ð² ÐµÐ·Ð´
tern ational
ĠÐºÐ»Ð°Ñģ Ñģ
ĠÐ·ÑĥÐ± Ñĭ
ÑĮ ÐµÐ¼
ĠÑĥÑĩÐ°ÑģÑĤÐ¸ Ñı
ÑĢÑĥ Ð½
ÑĥÑĩÐ¸ ÑĤÑĮ
ĠÑĥÑģÐ»Ð¾Ð² Ð¸Ð¹
ÐµÑĢ Ð¶
Ð²Ð° ÑĢÐ¸
ĠÐ²ÑĭÐ³Ð»ÑıÐ´ Ð¸ÑĤ
Ð¿Ð¸ ÑģÐ¸
ÐĿ Ðĺ
ĠÐ¥ Ð°ÑĢ
Ð½Ð° ÑĤÑĮ
ĠÐ·Ð°Ð¼ÐµÑĤ Ð¸Ð»Ð°
ĠÐ¾ÑģÑĤÐ°Ð² Ð°Ð»Ð¾ÑģÑĮ
ĠÑħÐ¾Ð·Ñı Ð¸Ð½
ut ion
Ġre ce
ĠÐ² Ð½ÐµÐ´
ĠÐºÐ¸Ð»Ð¾Ð¼ÐµÑĤ ÑĢÐ¾Ð²
Ġ <
Ġ =
ĠÑģÑĤÑĢÐ°ÑĤÐµ Ð³Ð¸
ĠÐ½Ð°ÑĩÐ¸Ð½Ð° ÐµÑĤÑģÑı
ĠÑĤ ÑĢÑĥÐ¿
Ð¾Ðº Ð¾Ð»
Ġ |
ĠÐ¿Ð° Ð¿Ð°
ĠÑģÐ¼Ð¾ÑĤ ÑĢÐµÐ»Ð°
0 7
ĠÐ²Ð¸Ð´ Ð¸ÑĤ
ĠÐ¾Ð±ÑĢÐ° ÑĤÐ¸Ð»ÑģÑı
ĠÑģÐ¾Ð¾Ð±Ñī ÐµÐ½Ð¸Ðµ
ĠÐ¸ Ð½Ð¾Ð¹
Ġ199 0
Ð¶ ÐµÐ½Ð¸ÐµÐ¼
ĠÐº Ð¾Ð¶Ð°
ĠÐĽ Ð¾Ð½Ð´
ĠÐ´Ð¾ÐºÑĥ Ð¼ÐµÐ½ÑĤ
ĠÐ²ÑģÑı ÐºÐ¸Ð¹
ĠÑģÑĩÐ¸ÑĤÐ° ÐµÑĤÑģÑı
ĠÐ·Ð° Ð²Ð¸
ĠI s
ĠÐ¡Ð¾ ÑİÐ·Ð°
ĠÐµÑģÑĤÐµ ÑģÑĤÐ²ÐµÐ½Ð½Ð¾
ĠÐ¿Ð¾ÑģÐ»ÐµÐ´ Ð½ÐµÐ³Ð¾
ĠÑĦ ÐµÑģÑĤÐ¸
Ðľ Ð°
ĠÑĢÐµÐºÐ»Ð° Ð¼
ag ue
ÐĽ Ð¬
ĠÑģÐ¿ ÐµÐº
Å ĥ
g ram
ĠÐ¿Ð° Ð¿
Ð»ÐµÐ½ Ð½Ð°Ñı
ĠÐ²Ð¾ ÑĪÐµÐ»
ĠÐ¿ÑĢÐ¾Ð´ÑĥÐº ÑĤÐ¾Ð²
ÑĪÐ¸ Ð²
ĠÑĤÑīÐ° ÑĤÐµÐ»ÑĮÐ½Ð¾
ÑģÑĤ ÑĭÐ¹
ĠÐ¸Ð· Ð±Ð°
ĠÑĢÐµÐºÐ¾Ð¼ÐµÐ½ Ð´Ñĥ
ĠÐ¾Ð± Ð¾Ð·Ð½Ð°
ĠÑĦÐ¸Ð½Ð°Ð½ ÑģÐ¸
ĠÐ¾ ÑĤÐ¾
ar ri
ÂłÐĴ Ð¾ÑĤ
ÑĪÐ¸ Ð»Ð°
ĠÑĪ Ð°Ð½
ĠÐ¿Ð¾Ð´ Ð±Ð¾ÑĢ
ĠÐ¿Ð¾ÑģÐ»ÐµÐ´ ÑģÑĤÐ²Ð¸Ñı
ĠÐ³ÑĢÐ° Ð½Ð¸ÑĨÑĭ
ĠÐĳÐµÐ»Ð° ÑĢÑĥ
ĠÐ¿Ð¾Ðº Ð¾Ð¹
ĠÐ¿Ð¾Ð¹ ÑĤÐ¸
ĠU S
ĠÑĤÐµÐ¼ Ðµ
ĠÑĦ Ð¸Ð³
ĠÑĢÐ¾Ð´ Ð¸Ð»ÑģÑı
ĠÐ¾ÑĤ ÐºÐ»Ñİ
Ð»Ðµ Ð²
ĠÐ¢Ðµ Ð±Ðµ
Ð¾ÑĢ ÑĤÑĥ
ĠÐ¿Ð¾Ð´Ð³Ð¾ÑĤÐ¾Ð² ÐºÐ¸
ĠÐĶ ÐµÐ½Ð¸
ĠÐ´Ð¾Ð± ÑĢÐ¾Ð²
ĠÐºÐ¾ ÑĢÐ¾
Ġo per
ĠÐ²ÐµÑģ ÐµÐ»
ĠÐļ Ð°Ð»
ĠÑĥÐ¿ÑĢÐ°Ð² Ð»ÐµÐ½Ð¸Ðµ
ĠÐ¾ ÑħÑĢÐ°Ð½
ĠÐ³ Ð¸Ð´
Ð¸ÑĤÐµÐ»ÑĮ ÑģÑĤÐ²Ð¾
Ġb ro
ÑĤÐ¸ Ð¼Ð¸
ĠÐ½ÐµÐ´ ÐµÐ»ÑĮ
Ñģ ÑģÐ°
ĠÐºÐ¾Ð¼Ð¿ Ð¾Ð·Ð¸
Ñĩ Ð¸Ð¼
7 5
ĠÐ½Ð°ÑĢ ÐºÐ¾
ĠÐ½Ð°Ð· Ð²Ð°Ð»
ĠÐ¿ÑĢÐµÐ¿Ð¾Ð´Ð° Ð²Ð°
Ð¸ÑĤ Ð°Ñı
ĠÐºÐ°ÑĤÐ° ÑģÑĤÑĢÐ¾
Ð´Ð° ÑĨÐ¸Ð¸
Ð½Ð°Ñĩ Ð°Ð»ÑĮÐ½Ð¾
Ðł Ð°
ĠÑģÐ¸ Ð³Ð°
, -
ĠÐ±ÐµÑģÐ¿ Ð¾ÐºÐ¾Ð¹
ÐµÐ½ Ð¾Ð²
ĠÐ¿ÑĢÐ¸ÑĢÐ¾Ð´ Ñĭ
ĠÑĥÑģÑĤÑĢÐ¾Ð¹ ÑģÑĤÐ²Ð°
ĠÐĴÐµÐ»Ð¸ ÐºÐ¾Ð±ÑĢÐ¸ÑĤÐ°
ĠÐ²ÑģÐ¿Ð¾Ð¼ Ð½Ð¸Ð»
ĠÐ¾ÑĢÐ¸ ÐµÐ½ÑĤÐ¸
Ñı Ð½Ð°
ĠÐĶ Ñĥ
ÐµÐ² Ð½Ð°
ĠÐ½ÐµÐ¼ Ð°Ð»Ð¾
Ð½Ð¾Ñģ Ð¸ÑĤ
ĠÑĪÐºÐ¾Ð» Ñĥ
Ġse ver
ĠÐĿÑĥÐ¶ Ð½Ð¾
ÐµÐ½ ÑģÐ°
ĠÐ¼Ñĥ Ð·
/ ...âľĤ
ĠÐ¾ÑģÑĤÐ° ÑĤÑĮÑģÑı
ĠÐ¿Ð»Ð° ÑĤÐµ
Ð¿ ÐµÐ²
Ð»Ð¸Ð¼ Ð¿Ð¸Ð¹
ĠÐ½ÐµÐ· Ð°ÐºÐ¾Ð½
re nt
ĠÐ½Ð°Ð² ÑģÐµÐ³Ð´Ð°
ĠÐ²Ðµ ÑĩÐµÑĢÐ°
Ġs m
ĠÑĩÐµÑģÑĤ Ð½Ð¾
Ð»Ð° ÑĤÐ½Ð¾
Ð´Ðµ ÑĢÐ°
ĠÐ·Ð°Ð¼ ÑĥÐ¶
ĠX X
ĠÐ°Ð³ ÑĢÐµÑģ
ÑĪ ÐµÐ½Ð¸Ñİ
ĠÑĤ ÑĢÑı
Ñģ Ð¸Ð»
ĠÑĤÐ²Ð¾ ÐµÐ¹
ĠÑģÐ» ÑĥÑĩÐ¸
ĠÐ¡ ÐŁ
Ð² Ð°Ð»ÑĮ
ĠÐĺ Ð³
ĠÐºÐ¾Ð¼Ð°Ð½ Ð´Ñĥ
ĠÐ»ÑİÐ± Ð¸Ð»
ÑĩÐµ Ðµ
ĠÑģÐº Ð¾Ð½
ĠÐ²Ñĭ Ð³
ĠÑĦÐ¸Ð»ÑĮ Ð¼Ð°
ĠÐ¿ÑĢÐ¾ ÑīÐµ
ĠÐ·Ð°Ð¿Ð¸ ÑģÐ¸
ĠÐ¿ÑĢÐµÐ´ÑģÐµÐ´Ð° ÑĤÐµÐ»ÑĮ
ĠÑģÐ» Ð¾Ð¼
ĠÐºÑĢÐ° ÑĤ
ÑĩÐµ ÑģÑĤÐ²ÐµÐ½Ð½Ð¾Ð¹
ĠÑģÐ²Ð° Ð´ÑĮ
ĠJo hn
Ð½Ð¸ ÑĤÐµÐ»ÑĮÐ½Ð¾
ÐµÐ½ÑĮ ÐºÐ¾
Ð¸Ð» Ð»Ð¸
ĠÐ¾ÑģÑĤÐ°Ð½ ÐµÑĤÑģÑı
Ð°Ð½ Ð½Ð¾
ĠÐºÐ¾Ð» Ð¾
ĠÐµ Ð¶Ðµ
ĠÑĤÐ²Ð¾ Ð¸
Ġm et
ĠG o
ĠÑģÐ»ÑĥÑĩÐ° ÐµÐ²
ĠÑıÐº Ð¾Ð±Ñĭ
ÑĢÐµ Ð±Ñĥ
ĠÐ²ÐµÐ´ ÐµÑĤ
iz ed
ĠÑĪ ÑĤÑĥÑĢ
ÑĢ Ð¾Ð»
ĠÑģÐ¾Ð±ÑģÑĤÐ²ÐµÐ½ Ð½Ð¾
ĠÐºÐ¾Ð» ÐµÐ½
ĠÐ¾ÑģÐ½Ð¾Ð² Ð½Ð¾Ð¹
Ð¾Ð¿ Ñĥ
ĠÑģÐ»ÐµÐ´ÑĥÑİÑī Ð¸Ðµ
Ð» ÑĥÑĪ
Ġ3 6
Ð²Ð¾ ÑĢÐ°ÑĩÐ¸
Ġd if
ĠÐ²Ðµ ÑīÐµÐ¹
ĠÐ§ Ðµ
ĠÐ¿Ð¾ ÑģÑĤÐ°Ð²Ð¸ÑĤÑĮ
ĠÐ¾Ð¿ÑĢÐµÐ´ ÐµÐ»Ð¸ÑĤÑĮ
ĠÑģÐº ÑĢÐ¾Ð¼
ĠÐ²ÑģÐ¿ Ð¾Ð¼Ð¸Ð½Ð°
ĠÐ¿Ð¾Ð¿Ð° ÑģÑĤÑĮ
ĠÐŁÐ¾Ð´ ÑĢÐ¾Ð±
ĠÐ²Ñĭ ÑıÐ²
Ð· Ð°Ðº
ÐºÐ¾Ð² Ð¾
ĠÐ³Ð°Ð· ÐµÑĤÑĭ
ĠÐ·Ð² Ñĥ
ĠÐ²ÐµÐ»Ð¸Ðº Ð¾Ð»ÐµÐ¿
ĠÐ¿Ð¾Ð½Ð¸Ð¼Ð° ÑĤÑĮ
ĠÐ½ÐµÐ¿Ð¾ÑģÑĢÐµÐ´ ÑģÑĤÐ²ÐµÐ½Ð½Ð¾
Ġnum ber
overn ment
ĠÐ½Ðµ Ð³
Ġor ig
Ð°Ð½ Ð¾Ð¼
ĠÐºÐ¾Ð½ÑĨÐµ Ð¿
Ð² ÑĤÐ¾ÑĢÑĭÑħ
ĠÐ¾Ð± ÐµÐ´
Ð½Ð¾Ð´ Ð¾ÑĢÐ¾Ð¶
ĠÐĿÐ¸Ðº Ð°Ðº
ÐĽ Ðŀ
ĠÑĢÐ°Ñģ ÑĩÐµÑĤ
ĠÐ²Ð¾Ð» Ð½Ñĥ
ĠÐ± Ð»ÐµÐ´
ĠÐºÐ¾ÑĢ Ð¾Ð»Ñı
i red
ÑģÑĤ Ð¾Ð»ÐµÑĤ
ĠÐ¿Ð¾Ð´Ð¾Ð± Ð½ÑĭÑħ
ĠÐ±Ð»Ð¸Ð· ÐºÐ¾
ĠÐ·Ð°Ð½Ñı ÑĤÐ¸Ñı
ĠÐ¿Ð¾Ð´ ÑĢÑĥÐ³
ĠÐ¾Ð±ÑĬ ÑıÐ²Ð¸
Ð¸Ð² ÑĪÐ¸Ð¹
ĠÐ¿Ð¾Ð´ÑĥÐ¼Ð° ÑĤÑĮ
0 3
ĠÐ³Ð° Ð·Ð°
ĠÐ±Ð¾Ð»ÑĮ ÑĪÐµÐ¹
ĠÐ± Ð°Ðº
ĠÑĢÐµÐ¼Ð¾Ð½ ÑĤ
Ð½Ð¸Ð¼ Ð°Ð»Ð°
ĠÐ¾ ÑĢÑĥ
ÑĢÑı Ð¼
ĠÐ¾Ðº ÑĢÐ°
ĠÑħÐ¾Ð´ Ð¸ÑĤÑĮ
Ðł Ðµ
ĠÐ¿ÑĢÐµÐ´ÑĥÐ¿ ÑĢÐµÐ´
ĠM ay
ĠÐ±Ð°Ð½ ÐºÐ°
Ġ18 6
ĠÑı Ð´ÐµÑĢ
ĠÐ²ÑĭÐ¿Ñĥ ÑģÐºÐ°
in c
ĠÐ´ÐµÐ¹ÑģÑĤÐ² Ð¾Ð²Ð°ÑĤÑĮ
ĠÐº Ð³
ĠÐ¾ ÑĩÐ°
ĠÑģÐ¾ Ð¾ÑĢÑĥÐ¶
ĠÑĦ Ð¾Ð½Ð°
ÐºÑĢÐ° Ñģ
ĠÐ¿Ð¾Ð² Ð¾Ð´
ĠÐ± ÑĢÐ¾ÑģÐ°
ĠÐ¼Ð¾ ÐµÐ¼Ñĥ
ĠÑħÐ²Ð° ÑĤ
ÑĥÑĪ ÐºÑĥ
4 8
ur al
ĠA t
ĠÐ¿Ð¾ ÑģÐ°Ð´
ĠÑģÑĥÑĤ ÐºÐ¸
ĠÐĺÑģÐ¿ Ð°
ĠÐ¾ÑģÑĤÐ°Ð² Ð¸Ð»
ĠÐ¼Ð¾ ÐµÐ¼
ĠÐµ Ñİ
ĠÐĽ Ð°Ð´Ð½Ð¾
ĠÐ¿ÐµÑģ Ð½Ð¸
ĠÐ±Ð¾Ðµ Ð²Ð¸
ĠÐ½ ÐµÐ½
ĠÐ´Ð¾ÑĢÐ¾Ð³ Ð¾Ð¹
ĠÐ½Ð°ÑĢÑĥ ÑĪÐµÐ½Ð¸Ñı
ĠÐ¾ ÑĤÐ¾ÑĢ
ĠÐŁ Ð¾ÑĢÐ¾
ĠJ an
ĠÐ¿ÑĢÐµÐ´Ð¿ÑĢÐ¸ÑıÑĤÐ¸ Ð¹
ĠÐ´ Ð¾Ð¼Ñĥ
ĠÑĥÑģÐ¼ÐµÑħ Ð½ÑĥÐ»ÑģÑı
Ñħ Ð¾Ð·
ĠÐ¾ÐºÑĢÑĥ Ð³Ð°
ĠÐ²Ñĭ Ð¶Ð¸
ĠÑģÑĤÑĢÐ° ÑħÐ°
ĠÑģÐ¼ ÐµÑĢÑĤ
Ñī ÑĥÑİ
ĠÑģÐ¾ÑĨÐ¸Ð°Ð»ÑĮ Ð½Ð¾Ð¹
ĠÑģ Ð¼ÐµÐ½
ĠÑĥÐ³ ÑĢÐ¾Ð¶
ĠÑģÐº Ð¾Ð»ÑĮÐ·
Ð¢ Ðµ
ĠÐ¿ÑĢÐ¸Ð½ ÑĨÐ¸Ð¿
Ñı Ð³
ĠÐ¿ÑĢÐ¾Ð± Ð¾ÑĢ
0 6
ĠÐ²Ñĭ Ð¿Ð¸
ĠÐ±ÐµÑģÐº Ð¾Ð½Ðµ
ain ed
Ð¿ ÑĢÐ¾Ð¼
ĠÐ·Ð° Ð²Ðµ
ĠÑĩ ÑĳÐ¼
l ed
ĠÑģÑĤÑĢÐ° Ð½Ð°
Ð°Ð»Ð¸ Ð½Ð°
ĠÐ¾Ð±ÑīÐµ ÑģÑĤÐ²Ð¾
0 8
ĠÐ´ÐµÑĢÐµÐ² ÑĮÑı
ĠÐļÑĢÑĭ Ð¼
ĠÑģÐ¾Ð¾ÑĤÐ²ÐµÑĤ ÑģÑĤÐ²ÐµÐ½Ð½Ð¾
ĠÐ³Ð¾ÑĢÐ¾Ð´ Ð¾Ð²
ĠÑĥ ÑĤÐµ
ĠÐ¿ÑĢÐ¾ ÑģÑĤÐ¾Ð¹
ĠÐľ Ð¾Ð»Ð¾Ð´
ĠÐ¿Ð¾ ÑĢÐ¾
ĠI II
ĠÐºÐ°Ð¼ ÐµÐ½ÑĮ
ĠÐ¾ÑĤ Ñĭ
ÑĢÐ¾Ñģ Ð¾Ð²
ÑıÐ½ Ð½Ð¾
ĠÐ´ Ð½ÐµÐ²
ĠÑĤÐµÑħÐ½ Ð¾Ð»Ð¾Ð³Ð¸Ð¹
it al
ĠB rit
Ġn ame
ĠÐĴ Ð¸Ð½
k e
Ð¸ÑĤ Ð¾Ð¼
ĠÐ¼ Ð¸Ð»Ð¾
ĠÐ· Ð´Ð°Ð½Ð¸Ðµ
un g
Ð¼ Ð¾Ð·
ĠÐ¿ÑĢÐ¾Ðº ÑĥÑĢÐ°
ĠÐ³ ÑĢÐ¾
3 9
Ġb ack
Ð¶ Ð´Ð°ÐµÑĤ
ĠÐ»ÐµÑĤ Ð¾Ð¼
ÑĤÐ¾ ÑĢÐµ
Ð¢ Ñĭ
ĠÐ¸Ð· Ð²
ĠÐ¢ ÑĢÐ¾
ÑĢÐ°Ð±Ð¾ÑĤÐ° ÑĤÑĮ
ĠÐº Ð¸ÑĢ
Ð¸Ð¼ Ð¾Ð¹
ÑģÑĤ ÑģÑı
ĠÑģÐ¾ÑĤÑĢÑĥÐ´ Ð½Ð¸ÐºÐ¸
Ð¼Ð° Ð¹
ÄĲ Å
ĠÐ¸ÑģÐ¿ Ð°Ð½
ĠÐĳ Ð¾Ð¶
le t
ĠÑģ ÑįÑĢ
ĠÐ¢ ÐĲÐ¡Ð¡
ĠÐ¾ÑģÐ¾Ð± ÐµÐ½Ð½Ð¾ÑģÑĤÐ¸
ĠÐ³ÑĢÐ° Ð¼Ð¾ÑĤ
ĠÐ´Ð² Ð¸Ð½Ñĥ
ĠÐºÐ°ÑĢ ÑĤÑĭ
ĠÐ¾ÑĤÐ½Ð¾ÑĪ ÐµÐ½Ð¸Ñİ
ĠÐ¾ÑģÑĤ Ð°Ð»Ð°ÑģÑĮ
ĠÐ°Ð½ Ð°Ð»Ð¸Ð·
ĠÐ¿Ð¾Ð¼Ð¾Ð³Ð° ÐµÑĤ
Ð´Ñĥ Ð¼Ñĭ
ĠÐ§ Ð¸ÑĤÐ°
ĠÐŃ Ð»Ð¸
ĠÐ¸Ð·Ð¼ÐµÐ½Ð¸ ÑĤÑĮ
ĠÐ´ÐµÑĢ Ð¶Ð°ÑĤÑĮ
ĠÐ¿Ð¾Ð¿ ÑĢÐ¾
ĠÐ¨ ÑĤÐ°
ĠÐ»Ð¸ ÐºÐ²Ð¸
a use
u ally
ĠÐ¸Ð· ÑĥÑĩÐ°
ĠÐ¿Ð¾Ñħ Ð¾ÑĢÐ¾
ĠÑģ Ð¸Ñı
ĠÐ´Ð¸ÑĢÐµÐº ÑĤÐ¾ÑĢÐ°
ÑĩÐµ ÑģÑĤÐ²Ñĥ
ĠÐ¾Ð±ÑıÐ·Ð° ÑĤÐµÐ»ÑĮ
Ġf in
Ð¿ ÑĢÐµÐ´
Ð¾Ð¿ Ð¾
ĠÑģÐ¾Ð¾Ð±Ñī Ð°Ð»Ð¾ÑģÑĮ
ĠÑģÑĩÐ¸ÑĤ Ð°Ð»
Ñī Ð°Ð»Ð¸
ĠÐ¸Ð¼Ðµ ÐµÑĤÑģÑı
ĠÐ½ Ð¾Ð³Ñĥ
ĠÐ±Ñĭ Ð²ÑĪÐ¸Ð¹
Ġw ill
Ð± Ñİ
ĠÑĥÐ½Ð¸Ð²ÐµÑĢÑģ Ð¸ÑĤÐµÑĤ
ÑĤÐ° ÑĨÐ¸Ð¸
ĠÐ² ÐµÐ·Ð´Ðµ
Ñĳ Ñģ
ĠÐĳ Ð¾Ð»ÑĮ
ĠÐŁÑĢÐ¸ ÑĩÐµÐ¼
ĠÐł Ð°Ð¹
Ñı ÑīÐµÐµ
ĠÑģÐ¾Ð¾Ð±Ñī ÐµÐ½Ð¸Ñı
ÑĪ ÐºÐ¾
ĠÐºÐ°Ð¶Ð´Ñĭ Ð¼
ĠÐ´Ð¾Ð³ Ð¾Ð²Ð¾ÑĢÐ¸
ĠÑįÑĦÑĦ ÐµÐºÑĤ
Ñĭ ÑĢ
v ed
ĠÐŁÐ¾Ð¶ Ð°Ð»ÑĥÐ¹
ĠÐ»Ð° Ð´Ð¾
Ðļ Ð¾Ð½
ĠÐ¸ÑĤÐ¾Ð³ Ð°Ð¼
b ook
ĠÐ²Ñĭ ÑħÐ¾Ð´Ð¸ÑĤ
ĠÑģÐ¿Ð¾ÑĢÑĤ Ñģ
ĠÑģÐ¿ÐµÑĨÐ¸Ð°Ð»Ð¸ ÑģÑĤÑĭ
ĠÑģÐ²Ð¾Ð¹ ÑģÑĤÐ²Ð°
ĠÐ´Ð²Ð¾ ÑĢÐµ
ĠÐ·Ð° ÑĢÑĥ
ĠÐ¶ ÐµÐ½Ñĭ
ĠÐ½Ð°Ð»Ð¸ ÑĩÐ¸Ðµ
ĠÐľ Ð°Ð½
Ð´ ÑĢÐ°
ĠÐ·Ð´Ð¾ÑĢÐ¾Ð² ÑĮÐµ
ĠÑĥ ÑģÐ¸Ð»Ð¸Ñı
ĠÐ¿ÑĢÐ¸Ð¼ÐµÐ½ ÐµÐ½Ð¸Ñı
ĠÐ±ÑĥÐ´ ÑĮ
ĠÐ¾ ÑģÐºÐ¾ÑĢÐ±
ĠÑģÐ½Ðµ Ð³
ĠÑģ Ð»Ð°Ð´
ĠÐ¢ Ð¸Ñħ
ĠÐ´Ð¾Ð»Ð¶ Ð½Ð¾ÑģÑĤÑĮ
ĠÐ³ Ð¸Ð¼
ĠÐŁÑĢÐµÐ´ ÑģÑĤÐ°Ð²
ÑĪ ÐµÐ½Ð¸Ð¹
ĠÑĦ Ð°ÑĢ
Ðµ ÑħÐ°
ÑĢÐ° Ð»Ð¸
m ail
ĠÑģÐµÐ· Ð¾Ð½Ð°
ĠÐ¿ÑĢÐ¾ÑĨ ÐµÐ´
Ð·Ð° ÑĨÐ¸Ñİ
Ð¸ ÑģÐº
ÐºÐ¾Ð¼ Ð°
Ð¾Ð³ÑĢÐ° Ð´
i et
ĠÐ¾ÑĢÐ³Ð°Ð½Ð¸ Ð·Ð¾Ð²
ĠÑģÐ¿Ð¾ÑģÐ¾Ð± ÐµÐ½
ĠÐľÐ° ÑĢÐ¸Ñı
Ð´Ðµ ÑĪÑĮ
ĠÐ»Ðµ ÑģÐ°
ĠÐ´Ð¾Ðº Ð°Ð·
ĠSt ates
3 1
ĠÑģÐ²ÐµÐ´ ÐµÐ½Ð¸Ñı
ĠÐºÑĥ Ð»Ð°
ar m
ĠN ational
ĠÐĴ Ð¾Ð¿ÑĢÐ¾Ñģ
ĠÐĶ Ð°ÑĢ
ĠÐ´Ð² Ð¾Ð¹
ĠÐ² Ð²Ð¾Ð´
ĠÐµ Ñħ
am ed
ĠÐ»ÐµÐ¹ ÑĤÐµÐ½
ĠÐ½Ð°ÑħÐ¾Ð´ Ð¸Ð»Ð¸ÑģÑĮ
ĠÑĦ ÐµÑĢ
ĠÑĥÑģ Ð¸Ð»
Ġn e
Ġc re
ÑģÑĤÐ¸ Ð¼
ĠÐ£ Ð¿ÑĢÐ°Ð²
ĠÐ³ÑĢÑĥÐ¿ Ð¿Ðµ
ĠÐ¼Ð°ÑĢ ÐºÐ¸
ĠÐ² Ð¸Ð½Ð°
ÐŁ ÐµÑĢ
ĠÐ¤Ð¸Ð»Ð¸ Ð¿
ÑĤÐµÑĢ Ð½Ð°
ÐºÑĥ ÑĢ
ĠÑĢÐµÑĪÐ¸ ÑĤÑĮ
ĠÐ¿Ð¾Ðº Ð»Ð¾Ð½
ĠÐ¿ÑĢÐ¾ÑĦÐµÑģÑģ Ð¾ÑĢ
ÑĤÐ¾ÑĢÐ° Ð¼Ð¸
ĠÐµÐ² ÑĢÐµÐ¹
ĠÐ¸Ð·Ð±Ðµ Ð¶Ð°ÑĤÑĮ
Ð± ÑĢÐ¸
ĠÐ¿ÑģÐ¸Ñħ Ð¾Ð»Ð¾Ð³Ð¸
Ð¼Ðµ ÑĩÐ°
Ð¾Ñĩ ÐµÐ¼Ñĥ
ĠÐ¾Ð¿ Ðµ
ĠÑĪ Ð°ÑĢ
ĠÐ¼Ð°ÑĤ ÐµÐ¼Ð°
ĠÐ¿Ð¾Ð¹ Ð¼
ĠÑħ Ð¾Ð´Ñĥ
ĠÐ¿Ð¾Ð±ÐµÐ´ Ñĥ
m y
ÑĭÐ²Ð° ÑıÑģÑĮ
a u
ĠÑĢÐ° Ð½ÐµÐ½
ĠÑĥ Ð¹
ĠÐ» Ð¸Ð¼
f ul
iv es
Ð¾ÑĤ Ð¾Ð¹
ĠÐ´ÑĭÑħÐ° Ð½Ð¸Ðµ
ÑģÐ¸ ÑģÑĤ
ĠÐ¾ÑĢÐ³Ð°Ð½Ð¸Ð·Ð° ÑĨÐ¸Ñı
ĠÐ½Ð° Ð²Ñĭ
ĠÑģÐ¾ÑħÑĢÐ° Ð½Ð¸ÑĤÑĮ
ĠÐµÐ´Ð¸Ð½ ÑģÑĤÐ²ÐµÐ½Ð½ÑĭÐ¹
ĠÐ½Ðµ Ð²Ðµ
ĠÐºÐ¾Ð½ÐºÑĥ ÑĢÐµÐ½
ĠÐŁÐ°Ð² ÐµÐ»
ĠÐ°Ð²ÑĤÐ¾Ð¼Ð¾Ð±Ð¸Ð» ÐµÐ¹
ĠÑģÐ¾Ð² Ðµ
3 2
ĠÑģÐ¾Ð¾Ð±ÑīÐ¸ Ð»Ð°
ĠÑĤÑĢÐ¸ Ð´ÑĨÐ°ÑĤÑĮ
0 4
ĠÑĥÐ´Ð¾Ð²Ð¾Ð»ÑĮ ÑģÑĤÐ²Ð¸ÐµÐ¼
Ð½Ðµ Ð¶
ĠÐ¿ÑĢÐµÐ´ ÑĬ
ers on
Ð¸ÑĤÐµÐ»ÑĮ Ð½ÑĥÑİ
ĠÐĿ Ð¾Ð²ÑĭÐ¹
i ent
ĠC an
Ð¾ÑĤ Ð¾Ð¼
Ġm in
ĠÑģÑĤÐ¾ Ð¸Ð¼Ð¾ÑģÑĤÐ¸
Ñī ÐµÐ½Ð°
ĠE x
ĠÐľÐ¸Ñħ Ð°Ð¹Ð»Ð¾Ð²
ÐµÐ½ Ð¾Ð¼
ĠÐ»ÐµÑģ Ñĥ
ĠÐ¼ÐµÐ½ ÐµÐ´Ð¶
ĠÐ²ÑĭÐ¿Ð¾Ð» Ð½
ĠÑĦÐ¸Ð· Ð¸
ĠÐ²Ð¾ÑĢÐ¾ ÑĤÐ°
ĠÑģÐ° Ð¿
ĠÐĴÐ»Ð°Ð´Ð¸Ð¼Ð¸ ÑĢÐ°
ĠÐ¿Ð¾ ÑĢÐ¾Ð´
en g
ĠÐ¿ Ð°Ð»Ðµ
ĠÐ¿Ð¾Ð» Ð°
ĠÐ¿ÑĢÐ¾Ðº Ð»Ñı
ĠÐ¿Ð¾Ð´ Ð¿
ĠÑĩ Ñĥ
ÐµÑĢÐµ Ð¼Ð¾
ĠÑģÐ¼Ð¾ÑĤ ÑĢÑı
Ġs ong
ĠÑģÐ¾Ð¼ Ð½ÐµÐ½Ð¸Ñı
ĠÐ³Ð¾ÑĤ Ð¾Ð²Ð°
ĠÐ´ ÑĥÑĢ
ÑīÐ° Ð½Ð¸Ðµ
ĠÐ´ÐµÐ²ÑĥÑĪ ÐºÑĥ
ĠÐºÐ°Ð¶Ð´ Ð¾Ð¼Ñĥ
ĠÐ¡ Ð¼Ð¾ÑĤ
ĠÑģÑĥÐ¿ ÐµÑĢ
ĠÐľ Ð°Ð³
ĠÑģÐ¿ Ð°Ð»ÑĮ
ĠÐ¿ÑĢÐ¾Ð±Ð¾ÑĢ Ð¼Ð¾ÑĤ
ĠÐ± Ð¾Ð¶Ðµ
ĠÐ½Ð°Ðº Ð¾Ð¿
ĠÑĥÑģÑĤÐ°Ð½Ð¾Ð² Ð¸ÑĤÑĮ
ĠÐ±Ð»Ðµ ÑģÑĤ
ĠÐĲ Ð¼
Ð¶ ÑĥÑĢ
ĠÐ´Ð¸ Ð°Ð»
ĠÐºÐ¾Ð» ÐµÐ½Ð¸
ĠÐ¾ÑĤÐ¿ÑĢÐ°Ð² Ð¸Ð»ÑģÑı
ĠÐ´Ð¾ ÑģÑĤ
ĠÑģ Ð½Ð¸Ð¼
ĠÐº Ð¾Ð¶
ĠÐ»Ð¸ÑĤÐµÑĢÐ° ÑĤÑĥÑĢ
Ð¿Ð°ÑĢ ÑĤÐ°
ÑİÑīÐµÐ¹ ÑģÑı
ĠÐ¿Ð¾Ð»ÑĥÑĩÐ° ÑĤÑĮ
Ġs ystem
ĠÐ¿Ð¾Ð»ÑĥÑĩ Ð¸ÑĤÑģÑı
Ð¼Ñĥ Ð»Ð¸
r and
ĠÐºÐ¾ÑĢ ÑĢÐµÐº
ĠÐºÐ°ÑĤÐµÐ³Ð¾ ÑĢÐ¸Ð¸
ĠÐĴ Ð°Ð»Ðµ
ĠÐĶ ÐµÐ¹ÑģÑĤÐ²
ĠÐ¿Ð¾Ð»Ð¾Ð¶ ÐµÐ½Ð¸Ñı
ĠÑĢÐµ ÑĨÐµÐ¿
ÑģÐ¾Ð² ÐµÑĢ
ÑģÑĤÑĢÐµ ÑĩÑĥ
ĠÐĳÐ»Ð°Ð³Ð¾Ð´Ð°ÑĢ Ñı
Ð¸ ÑĨ
ĠÑį Ð»ÑĮ
Ð· Ð¸Ñģ
Ñģ ÐµÐ»
ÐµÑĢ Ð½Ð¾
ĠÐł Ñı
Ðº ÐµÑĢ
Ġd irect
ĠÐŃ Ð»ÑĮ
Ð½Ð¸Ñı Ð¼Ð¸
Ġg ener
ĠÐ³Ð°Ð· ÐµÑĤÐ°
ĠÑģÐ¼Ð¾ÑĤ ÑĢÐ¸ÑĤ
ĠÐ¥ Ð¾Ð»
ĠÐ»Ðµ Ð¶Ð°Ð»
Ñĩ Ð¸Ð½Ñĥ
ÑĤÐ¸ ÐºÐµ
Ñī ÐµÐ½Ð¾
Ð³Ñĥ Ð»Ð¸
ĠÐĴÐ¾ ÑģÑĤÐ¾
ĠÐ¿ÑĢÐµ ÑĢ
Ġpe ople
ĠÐ³Ð¾ÑĢ Ð´Ð¾
ĠÐ¿ÑĢÐµÐ¿ ÑıÑĤ
ÑģÑĤÑĢÐ¾Ð¹ ÐºÐ¸
ĠÐ¿Ð°ÑĢ ÑĤÐ¸Ð¹
ĠÐ²ÐµÑĢ Ð½ÑĥÑĤÑĮ
ĠÐ´Ð¾ÑĩÐµ ÑĢÐ¸
ĠÐ¿ÑĢÐ¸ ÑĩÐ¸Ð½Ñĭ
ĠA ust
ĠÐ´ ÐµÑģ
ir d
ĠÑģÐ¼Ñĭ ÑģÐ»Ð°
ĠÐŀÐŀ ÐĿ
ĠÑĢÐ°ÑģÑģ Ð¼Ðµ
Ġplay ed
Ðĺ Ð¢
ĠÐ» Ð°Ð´Ð½Ð¾
ĠÐ²Ñĭ ÑĤÑı
Ð½Ð¾ ÑģÐ¸ÑĤÑĮ
ĠÐ±ÐµÑģÐ¿ Ð»Ð°ÑĤÐ½Ð¾
ĠÐ½Ð¾ÑĢÐ¼ Ð°Ð»ÑĮÐ½Ð¾
Ġ #
ĠÐ´Ð° ÑİÑĤ
ĠÐ·Ð°Ð±Ñĭ Ð»
Ð¼ Ð¼
ĠÐ¢Ð°Ðº Ð¸Ðµ
ĠÐ¿Ð¾Ð´Ð¾Ð± Ð½ÑĭÐµ
ĠÐ¿Ð¾Ð³Ð¸ Ð±Ð»Ð¸
ĠÐ½Ð°Ð¿ Ð¸ÑĤ
ĠÐ¿ÑĢÐ¸ Ð±Ð¾ÑĢ
ĠÐ¿ÑĢÐ¸ Ð´ÑĥÐ¼
ÑĢÐ¾Ð²Ð°Ð½ Ð½Ð¾Ð³Ð¾
ĠÐ´Ð¾Ð³ Ð¾Ð²Ð¾ÑĢÐ°
ĠÐ·Ð° ÑħÐ¾Ð´
ĠÐ¼Ð¸ Ð½Ð¸Ð¼
ĠG erman
Ġac c
ĠÐļ ÑĥÐ·
Ġst art
ĠÐ¾ Ð¿Ð¸
ĠÐ¿Ðµ ÑĩÐ°
ĠÐĿÐµ ÑģÐºÐ¾Ð»ÑĮÐºÐ¾
ĠÐ¾Ð± ÑĢÑĥ
Ð¿ Ð»Ð¸
ĠÑģÐ¿ÑĢÐ°Ð² ÐµÐ´Ð»Ð¸Ð²Ð¾
ĠÐ¿Ð»Ð° Ð½Ñĭ
ÑĢÑĥ ÑĢ
a red
ĠÑĢÐ°Ð· ÑĥÐ¼ÐµÐµÑĤÑģÑı
ĠÑģÑĤ Ð²Ð¾Ð»
ĠÐĴ ÐĴ
ĠÐ¾Ð± ÑħÐ¾Ð´
Ñī ÐµÐ½Ð¸ÐµÐ¼
ĠÐļ ÐµÐ¹
ĠÑħ Ð»Ðµ
ĠÐ·Ð°Ð¼ÐµÑģÑĤ Ð¸ÑĤÐµÐ»ÑĮ
Ð¿ Ð¾Ñģ
ĠÐ¿ÑĢÐ¸ Ð·Ñĭ
ĠÐĴ Ð°Ð½
ÑģÑĤ Ð¸Ð»ÑģÑı
ĠÐĳ Ð¾Ð»ÑĮÑĪÐµ
ĠÑģÐ¾Ð·Ð½Ð° Ð½Ð¸Ñı
ĠÐºÐ¾ÑĢ ÑĢÐµÑģÐ¿
ĠÐ·Ð°Ðº ÑĢÐ¸
Ð¸ Ð²Ð°ÐµÑĤ
Ñį Ð½ÐµÑĢ
ĠÐ¿ÑĢÐ¸Ð±Ð»Ð¸ Ð·
ĠÐ·Ð¾Ð² ÑĥÑĤ
ĠÐĳ Ð¾Ð¶Ðµ
] ,
Ġ194 1
Ġex t
Ġare a
ĠÐ¾Ð±Ð¾ Ð¸Ñħ
ĠÑģÐ¾ÑĢ Ð¾Ðº
ĠÐĵ ÐµÐ½ÐµÑĢÐ°
Ġch ar
Ð¼ÐµÑĤ ÑĢÐ¾Ð²
Ð»Ð¸ ÑĩÐ½Ð¾
Ð¼Ñĥ Ð½
Ð¸Ð· Ð¸
ĠÐ´ÐµÑĤ ÑĮÐ¼Ð¸
ĠÐ²ÑģÑĤÑĢÐµ ÑĩÐµ
ĠÑģÐº Ð»Ð°
ĠP r
ĠÐ²Ñĭ Ð·Ð¾Ð²
ĠÐ¿Ð° Ñħ
ĠÐ³Ð» ÑĥÑħ
ĠÐ»Ð¸ ÑĨÑĥ
ĠÑģÐ²Ðµ Ð¶
ĠÑĢÑı Ð´Ð°
ÑģÑĤÐ²ÐµÐ½ Ð½ÑĭÐ¼Ð¸
Ð¾Ð¿ ÐµÑĢÐ°
ĠÐ» Ð¾Ð¼
ÑģÑĭ Ð¿Ð°
ĠÐ¿Ð¾Ð¶ ÐµÐ»Ð°
ĠÐºÑĢÐµÐ¿ ÐºÐ¾
ĠÑģÐ¾Ð±Ð¸ÑĢÐ° Ð»ÑģÑı
ĠÐ´ÑĥÐ¼Ð° ÐµÑĪÑĮ
ĠÑĤÐµÐ»Ðµ Ð²Ð¸Ð·
ÑıÑī Ð¸Ð¼
Ð²Ð° Ð½Ð¸Ð¹
ĠÐºÐ¾ ÑĪ
ĠÐĳ Ð¾Ð»
ĠÑĤ ÐµÐ½Ð¸
el s
ĠÑĢÐ¸ Ð¼
Ð°ÑĢ Ð´
ĠÐ¿Ð¾Ð½Ñı ÑĤÐ¸Ñı
ĠÐ¿ÑĢÐ¸ÐºÐ°Ð· Ð°Ð»
Ġv ar
ĠÐ¸Ð· Ð±Ð¸ÑĢÐ°
ĠÐ¾ÑģÐ½Ð¾Ð²Ð° Ð½Ð¸Ð¸
ĠÐĽ Ð¸Ð½
ĠÐ½Ð° Ð±Ð¾ÑĢ
ÑĩÐµÐ½ Ð½Ð¾Ð¹
ĠÐºÑĢÑĭ Ð»ÑĮ
ĠÐ±ÑĥÐ´ÑĥÑīÐµ Ð³Ð¾
ĠÐ¸Ð¼Ðµ Ñİ
ÐµÐ½ Ñģ
ĠÐ¾Ð±ÐµÑģÐ¿Ðµ ÑĩÐ¸ÑĤÑĮ
ÂłÂłÂłÂł ÂłÂłÂłÂł
ĠÑģÑĥÐ¿ ÑĢÑĥÐ³
ĠÐ¿Ð¾ Ð¾Ð±Ðµ
ÑĩÐ¸ÑĤ ÑģÑı
ĠÑĥÐ»ÑĭÐ± ÐºÐ¾Ð¹
ÑĥÐ»ÑĮ ÑĤ
ĠÑĤÐµÐ¼ Ð°
Ð¾Ð¿ Ð¾Ð»ÑĮ
ĠÐ¾Ð±Ð¾ÑĢÑĥÐ´ Ð¾Ð²Ð°Ð½Ð¸Ðµ
Ð¾Ð¿ Ð¸Ñģ
Ġrele ased
Ð»Ðµ Ð¶Ð°
ĠÐ¿ÑĢÐ¾ÐµÐº ÑĤÐ¾Ð²
ĠÐ³Ð¾ÑĢÐ¾Ð´ ÑģÐºÐ¾Ð¹
ĠÑĤ ÑĢÐ¾Ðµ
ĠÑĥ ÑĪÐ¸
ÑĢÐµ ÑĪ
ĠÐ¿Ð¾Ð´ÑĢÐ¾Ð± Ð½Ð¾
ĠÐ¿ÑĢÐ¾Ð³ÑĢÐ°Ð¼ Ð¼Ðµ
Ð¶Ð° Ð²
Ġcall ed
ĠÐ§ ÐµÐ»Ð¾Ð²ÐµÐº
ĠÑĢÑĥÐºÐ¾Ð²Ð¾Ð´ Ð¸ÑĤÐµÐ»ÑĮ
ĠÐ± ÑĢÐµÐ½
Ñĭ Ð²Ð°Ð»Ð°
ĠÐ¸Ð¼ ÐµÐ»Ð°
ĠÐ¿ÑĢÐ¾ÑĪ ÐµÐ´
y m
r ist
ĠÐ¾Ð±ÑĢÐ°Ð· Ð¾Ð²Ð°ÑĤÐµÐ»ÑĮ
ĠÑģÐµÐº ÑģÑĥ
ĠÐ·Ð°Ð½Ð¸Ð¼Ð° ÐµÑĤ
ĠÐ¢ Ð°Ð½
ĠÑģÐ¿Ð° ÑģÑĤÐ¸
ĠÐ¿Ð¾ Ð¸Ð½ÑĤÐµÑĢÐµÑģÐ¾Ð²
ÐºÑĥ ÑĤ
ĠÐļÐ°Ðº Ð¾Ð¹
ĠÐ¿Ð¾Ñģ Ñĭ
ĠÐĹ Ð²
ĠÐ¾Ð´Ðµ Ð¶Ð´Ñĭ
ĠÐ¿Ð¸ ÑģÑĤÐ¾Ð»ÐµÑĤ
ĠÐ¸ ÑģÑĤ
ĠÑģÐ»Ð¾Ð² Ð¾Ð¼
Ġdes ign
ĠÐ¿Ð¾Ð² ÐµÑĢÐ¸
ĠÐ¿Ð¾Ð´Ð°ÑĢ Ð¾Ðº
ĠÐ´ Ð¸Ð½Ð°Ð¼Ð¸
ĠÐ¸Ð½ÑĤÐµÐ» Ð»ÐµÐº
Ð¾Ð´Ð° Ð¼Ð¸
Ġm ay
ĠÐ½Ð° Ñĥ
ĠÑģÐ²ÑıÐ·Ð° Ð½Ð¾
ĠÐ²Ð½ÑĥÑĤÑĢÐµÐ½ Ð½Ð¸Ñħ
4 7
ĠÐ¡ Ð»Ð¾Ð²
ĠÐ¿ÐµÑĢ ÑģÐ¿ÐµÐº
ĠÐ²ÑĭÑģÐ¾Ðº Ð¸Ð¹
ĠÐ³ÑĢÑĥÐ¿ Ð¿Ð¸
ĠÑĥ ÐºÑĢÑĭ
ĠÑģÐ¼Ð¾Ð³ Ð»Ð°
ĠÐ¾Ð± ÑģÑĤÑĢÐµ
ÑĢÐµ Ð´Ð°
ÐĿ ÐµÑĤ
ĠÐ¾ ÑģÐº
ĠÑĢÐµ ÑĪÐ°
ĠÐ· Ð½Ð°Ñı
u es
ĠÐ¾ÑĤÐ´ÐµÐ»ÑĮ Ð½ÑĭÑħ
Ð´ÐµÑĢ Ð¶Ð°Ð»
ĠÐĶ Ð°Ð»ÐµÐµ
ĠÐ²Ð¸Ð´ Ñĭ
ĠÑİ Ð³Ð¾
ĠÐ¢ Ð°Ð¹
ĠÑĩÑĥÐ´ ÐµÑģ
ĠÐ¿Ð¾ÑģÐ»ÐµÐ´ Ð½ÐµÐ¹
ĠÑģÐ¾Ð±ÑģÑĤÐ²ÐµÐ½ Ð½Ð¾Ð³Ð¾
ÑģÑĤ Ð½ÑĭÐ¹
ĠÐ·Ð°Ð¿ Ð¾Ð¼
ĠÐ¸Ð· Ð±ÑĢÐ°Ð½
Ð¿ ÐµÐ´
ĠN ov
ĠÐ±Ð¾ÐµÐ² ÑĭÑħ
ĠÐ¸Ð½ÑĦ ÑĢÐ°
ÐºÐ¾ ÑĢÐ°
ĠÐ¿ÑĢÐµÐ´ÑĥÑģÐ¼Ð¾ÑĤ ÑĢÐµÐ½
n er
ĠÐ¿ÑĢÐ¾Ð´Ð¾Ð»Ð¶Ð° ÐµÑĤ
ĠÐ¶ Ð´Ð°Ð»
ĠÐŁ Ð¾Ð»Ð¸
ĠÑĢÑĥÑģ ÑģÐºÐ¸Ðµ
ÐĺÐ½ ÑĤÐµÑĢ
ĠÐ²Ðµ ÑīÐµ
ĠÐ¶ÐµÐ½Ñī Ð¸Ð½Ñĥ
ĠÐ¾ÑĤÐºÑĢÑĭ ÑĤÑĮ
ĠÐ¿ÑĢÐ°Ð·Ð´ Ð½Ð¸Ðº
ĠE uro
Ġm ed
ĠÑĥÐ¿ ÑĢÐ°Ð¶
ĠÐ¸Ð½ÑĤÐµÑĢÐµ ÑģÑĥ
ĠÐ¸ ÑģÑĤÐµ
ĠÐ¾Ð± Ð¾Ð·
ĠÐ±Ð°ÑĤ Ð°Ð»ÑĮ
ĠÐ¿Ð¾ ÑĨÐµÐ»
ÐºÑĥ Ð»ÑĮ
ĠÐ¾Ð±Ð»Ð° Ð´Ð°ÐµÑĤ
ĠÐ¿Ð¾Ð´ÑĩÐµÑĢ ÐºÐ½ÑĥÐ»
ĠÐ¤ Ð¾ÑĢ
ĠÐºÐ½Ñı Ð·ÑĮ
ÑĦ Ð¸Ð»ÑĮ
ĠS chool
ĠÐ³Ð» Ð¾Ð±
ÑĤ Ð½Ð¾Ð³Ð¾
Ð»Ñı ÐµÐ¼
ĠÐ²Ð¾Ð·Ð½Ð¸ÐºÐ° ÐµÑĤ
ĠÑħ ÑĢÐ°Ð¼
ĠÐ¿Ð»Ð°Ð½ ÐµÑĤÑĭ
ĠÐ¼ Ð¾Ðº
ĠÐ²Ð¾ ÑĪÐ»Ð¸
Ġm at
ĠÑį ÑĦÐ¸
Ð²ÑĪÐµÐ¹ ÑģÑı
Ġ199 9
et s
Ð° Ð¿
ĠÐ¿ÑĢÐ¾Ð³ÑĢÐ°Ð¼ Ð¼Ñĥ
ĠÐ¸Ð½ ÑĤÐµ
ĠÐķ Ð³Ð¸
ĠÐ·Ð°ÑıÐ²Ð¸ Ð»Ð°
ĠÐ²Ð¾ ÐµÐ½Ð½Ð¾Ð³Ð¾
ĠJ u
ĠÑģÐ»ÑĥÐ¶ Ð±Ñĥ
ĠÐ°Ð²ÑĤÐ¾Ð± ÑĥÑģ
ĠÑĦÑĥÐ½Ðº ÑĨÐ¸Ð¸
ĠÐ¿Ð¾ÑģÑĤÐ°Ð² Ð¸Ð»
ÑĤ ÐºÑĥ
Ð¾ Ñı
p or
Ġf eat
ĠÐ´Ð¾ÑģÑĤÐ¸ Ð¶ÐµÐ½Ð¸Ñı
S t
ĠÐ²Ð½ÑĥÑĤ ÑĢÑĮ
ÑĩÐµ ÑģÑĤÐ²Ð¾Ð¼
ĠÐ²Ð¾Ð· ÑĢÐ°Ð·
ĠÑģÐ¾Ð´ÐµÑĢÐ¶Ð° Ð½Ð¸Ðµ
Ð¸Ð½ ÐºÐ¸
ĠÐ¿ÑĢÐ°Ð² Ð¾ÑģÐ»Ð°Ð²
ÑģÐºÐ° Ð¼Ð¸
in k
ĠÐ¿ÑĢÐ¾Ð· ÑĢÐ°
ĠÐ¾ Ñħ
ĠÐŁÐ¾ÑĢÐ¾ ÑĪÐµÐ½ÐºÐ¾
ĠÐ¿Ð¾Ð´ Ð·ÐµÐ¼
Ġo b
ĠÐ¿Ð»Ð° Ð½Ðµ
4 6
ĠÐ² Ð»ÑİÐ±
ĠÐºÑĢÐ¸ Ð·Ð¸Ñģ
Ð· Ð¼
ĠÐ² Ð»Ð¸
ĠÐ² Ð¸Ð½Ð¾Ð²
ÑīÐ°Ñı ÑģÑĮ
ĠÐ¸Ð¼Ð¿Ðµ ÑĢÐ¸Ð¸
Ð½Ð° Ð´ÑĨÐ°ÑĤÐ¸
ĠÐ¿Ð¾Ð² ÑĤÐ¾ÑĢ
ĠÐ¸ÑģÐ¿ ÑĢÐ°Ð²
ĠÐĺÐ²Ð°Ð½Ð¾Ð² Ð¸Ñĩ
ĠÐ¾ÑģÐ½Ð¾Ð² Ð½ÑĭÐµ
ĠÐ¾Ð±Ð»Ð° Ð´Ð°
ĠÐ¼Ð¸Ð½Ð¸ ÑģÑĤÑĢÐ°
ÑĤ Ð²Ð¾ÑĢ
ÑĩÐ¸ ÐºÐ¾Ð¼
ĠÐļ ÑĢÐµÐ¼
ĠÐĿ Ð°Ð·
ĠÑģÑĤ Ñĥ
Ð¾Ð²Ð° Ð½Ð¾
Ð»Ð¾Ð½Ð¸ Ð»ÑģÑı
ĠÐ¿Ð¾Ð½ ÐµÐ´ÐµÐ»ÑĮ
ĠÐĺÑģÐ¿ Ð¾Ð»ÑĮÐ·
ĠÐ¾Ð·Ð½Ð° ÐºÐ¾Ð¼
ĠÐµ ÑħÐ°ÑĤÑĮ
ĠÐĵÐµÐ½ ÑĢÐ¸
ĠÐ· ÑĢÑı
ĠÐ¿Ð¾Ð» Ð¾ÑĤ
ĠÑĢÐµÐ²Ð¾Ð»Ñİ ÑĨÐ¸Ð¸
ĠÐ¿Ð¾Ð´ ÑħÐ¾Ð´Ð¸ÑĤ
Ġoff ic
ĠÐ¼Ñĥ Ð·Ðµ
ÑĤÑĥ ÑĢÐ¾Ð¹
ĠÑĥ ÑģÑĤÐ¾Ð¹
ÑĨÐ¸Ð¾Ð½ Ð½Ð°Ñı
ĠÐĴ ÑģÑı
c es
Ġsever al
ĠÑģÑĩÐ° ÑģÑĤÑĮÐµ
ĠÑģÑĤÐ° Ð´Ð¸
ĠÐ²Ð· Ð¾ÑĢ
Ġs uc
ÑĢÐ¸ ÐµÐ²
Ġh ist
Ñī ÐµÐ½Ð¸Ð¹
ĠÑĢÐµ Ð²
Ð²Ð¸ Ñı
Ð¸ÑĤÐµÐ»ÑĮ ÑģÑĤÐ²Ð°
ĠÐ´ Ð¸Ðº
ĠÐļÐ°Ðº Ð¸Ðµ
ĠÐºÐ°Ð±Ð¸Ð½ ÐµÑĤ
ÐŁÐµÑĤÐµÑĢÐ±ÑĥÑĢ Ð³
... "
ĠÐ¿ÑĢÐ¸ÑĩÐ¸Ð½ Ð¾Ð¹
ĠÐ¿Ð¾Ñĩ ÑĤ
ĠÐ³ÑĢÑĥÐ¿ Ð¿Ñĥ
ĠÐ¾Ð³ÑĢÐ¾Ð¼ Ð½Ð¾Ðµ
Ð¶ Ð½Ð¾Ð³Ð¾
ÐĲ Ð¡
ĠÐ·Ð° Ð¿Ð°Ñģ
ĠÐŀÐ»ÑĮ Ð³Ð°
ĠÐ¿Ð¾Ð´ ÑĢÑıÐ´
Ð¾ÑĢ Ð¾Ð³
ÑģÑĤÐ° ÑĢ
ÑģÑĤÐ²ÐµÐ½ Ð½Ð¾ÑģÑĤÐ¸
ĠÐ¿ÑĭÑĤÐ° ÐµÑĤÑģÑı
Ġw on
ĠÑĢÐ°Ð·Ð¾ ÑĩÐ°
Ġs eries
ĠÐĴÐ¼Ðµ ÑģÑĤÐµ
Ð²Ð°Ð» Ðµ
ĠÑĢÐ° Ð´Ñĥ
ĠÐĴÐµÐ»Ð¸ ÐºÐ¾Ð¹
ĠÐ´Ð¾Ð± Ð¸ÑĤÑĮÑģÑı
ĠÐ½Ð°Ð»Ð¸ ÑĩÐ¸Ð¸
Ġa ut
ÑĦ ÐµÐ»ÑĮ
v en
ĠÐ½Ð¾ÑĢ Ð¼Ð°
Ð½Ñĥ ÑĤÑĢÐ¸
ÑĢÐ¸ Ð²
ce pt
ĠÐ¿ÑĢÐ°Ð² Ð´Ñĥ
ĠÐłÐ° Ð±Ð¾ÑĤÐ°
ĠÐ¼Ð¸Ð»Ð»Ð¸ Ð¾Ð½Ð°
ĠÐ¿ÑĢÐ¾Ð² ÐµÑĢÐ¸ÑĤÑĮ
ĠÑı Ð¹
Ġl ong
Ð»Ð° Ñħ
ĠÐ¿Ð¾Ð» ÐµÑĤ
ÑĪÐµÐ½ Ð½Ð¾Ð¹
ĠÑĢÐµ Ð¶Ð¸ÑģÑģ
ĠÐľÐµÐ´ Ð²ÐµÐ´
ĠÑģÑĤ ÑĢÐ¾Ðº
ĠÐ¾ÑĤ ÑħÐ¾Ð´
ĠÑĢÑĥÐºÐ¾Ð²Ð¾Ð´ ÑģÑĤÐ²Ð¾Ð¼
Ð½Ð° Ð±
ÐµÐ»Ð¸ ÑģÑĮ
ĠW h
ĠÐ¿ÑĢÐ¾Ð³ Ð¾Ð²Ð¾ÑĢÐ¸Ð»
ĠÐ·Ð°Ðº Ð¾Ð½Ð¾Ð¼
ĠÐ» Ð¸Ñħ
ĠÐłÐ° ÑģÐ¿
ĠÐ·Ð°ÐºÐ»Ñİ ÑĩÐ°ÐµÑĤÑģÑı
ĠÑģ ÐºÐ¸Ð´
Ġr un
Ġbu ild
ĠÑģÐºÐ¾ÑĢÐ¾ ÑģÑĤÐ¸
ĠÑģÑĥÐ´ÑĮ Ð±Ð°
ĠÑģÑĤÐ¾Ð» Ðº
is ter
ĠÐĲÐ½Ð³Ð»Ð¸ Ð¸
ĠÐ¾Ð¿Ð°Ñģ Ð½Ð¾ÑģÑĤÐ¸
ĠÑģÐ¾ÑģÑĢÐµÐ´ Ð¾ÑĤÐ¾
ĠÐĺ Ð¸Ñģ
ĠÐĺÐ½ÑĤÐµÑĢ Ð½ÐµÑĤ
ĠÐ¸Ð· Ð¼ÐµÑĢ
ĠÐ²ÑĭÐ· ÑĭÐ²Ð°ÐµÑĤ
ĠÑģ ÑĦÐ¾ÑĢÐ¼Ð¸
ĠÑģÐ¿ Ð»Ð¾
Ġ15 0
ĠÑĢÐ°Ð· Ð³Ð»Ñı
Ð°Ð½ Ð½ÑĭÐ¼Ð¸
Ð´Ð¸ Ðº
ĠÐ¾ÑĤÐºÐ°Ð· Ð°Ð»ÑģÑı
ĠÐ½Ð° ÑģÑĤÐ°
Ñĥ Ð¼Ð¸
Ð¶ ÐºÑĥ
ĠÐĲ Ð½Ð°ÑĤ
ĠÐ·Ð°Ð¼ÐµÑĤ Ð½Ð¾
ĠÐºÐ¾Ð¼Ð¼Ñĥ Ð½Ð¸ÐºÐ°
Ñĥ ÐµÑĤÑģÑı
ĠÑĢÐµ Ðº
ĠÑĤÐµÑĢÑĢÐ¸ÑĤÐ¾ÑĢÐ¸ Ñİ
Ð¾Ðº Ð¾Ð½
ĠÑĢÐµÐ¶Ð¸Ð¼ Ðµ
w it
ĠÐ²Ð¾ÑģÐ¿ÑĢÐ¸ Ð½Ð¸Ð¼Ð°
ĠÐ¸ÑģÑģÐ»ÐµÐ´ Ð¾Ð²Ð°Ð½Ð¸Ð¹
Ð´Ð° ÑĤÑĮÑģÑı
ÐŁÐ¾Ñģ Ð»Ðµ
ĠÑģÑĤÑĢÐµ Ð»ÑĮ
ĠÐº ÑĥÑĩ
ĠÑĢÐ°Ñģ ÑģÐµ
ĠÑĪ ÐµÑĢ
ĠÐ¿ÑĢÐ¾Ð´ÑĥÐº ÑĤÑĭ
ĠÑģÐ¾Ð»Ð½ ÑĨÐ°
Ð½Ð¸ ÑĤÑģÑı
Ġy ou
ĠÑĩÑĥÐ´ Ð¾Ð²Ð¸
ĠÐ²Ð° ÑĪÑĥ
Ð¶ ÐµÐ»
ĠÐ¿ÐµÐ½ ÑģÐ¸Ð¾Ð½
ĠÑģÐµ ÑģÑĤÑĢÐ°
ÑĳÐ½ Ð½ÑĭÐµ
Ġs ame
ĠÐ¡ ÐµÐ²
ĠÐ¿Ð¸ÑģÑĮ Ð¼ÐµÐ½
Ġo pen
b le
Ð¶Ðµ ÑĪÑĮ
ĠÐºÐ° ÑĦÐµ
Ð³ Ð¾Ð¹
ĠÐ¾ÐºÐ¾Ð½ÑĩÐ° Ð½Ð¸Ñı
ĠÐ² Ð»Ð¾Ð¶
Ġg ame
ĠÐ´Ð¾Ð»Ð¶ Ð½Ð¾ÑģÑĤÐ¸
ĠÐ½Ðµ Ð±Ðµ
i or
ĠÑģÐµÐ· Ð¾Ð½
Â» ?
ĠÐ¾Ð´Ðµ Ð¶Ð´Ñĥ
ĠÑĢÐ¾ ÑģÐºÐ¾
Ð¸Ð¼ ÑĭÑħ
ĠÑģÑĤÐ¾ ÑıÑĤ
ĠÐ¿Ð¾Ð»Ð¾Ð¶ ÐµÐ½Ð¸Ð¸
ĠÐºÐ»Ñİ ÑĩÐµ
ĠÐ½Ð°ÑĨÐ¸Ð¾Ð½ Ð°Ð»ÑĮÐ½Ð¾Ð¹
ÑģÑĤÐ°Ð½ ÑĨÐ¸Ð¸
ÑĩÐ¸ Ð»Ð¸ÑģÑĮ
Ð½Ñı Ð»Ð¸
ĠÐ´ÐµÑĢÐµ Ð²Ð°
ĠA ss
ĠÐ½Ðµ Ð¾ÑĤ
ĠÐ¡ Ð²Ð¾
ÐµÐ½ÑĤÐ° Ð¼Ð¸
ĠÑģÐ¸Ð´ ÐµÑĤÑĮ
ĠÑģÐ¾ÑģÑĤÐ° Ð²Ð°
ĠÐ²Ð· ÑıÐ»Ð¸
ĠÐ¿ÑĢÐµÐ´ÑĥÐ¿ ÑĢÐµÐ¶Ð´
ĠÐ½Ð°ÑĩÐ°Ð»ÑĮ Ð½Ð¸ÐºÐ°
ĠÐ½Ð°Ð·Ð½Ð° ÑĩÐµÐ½
ĠÐ²Ð¸ ÑĨÐµ
ĠÑģÐ¾Ð´ÐµÑĢ Ð¶Ð¸ÑĤ
ĠÐ® ÑĢÐ¸Ð¹
ĠÐ¿ÑĢÐ¾Ð¸Ñģ ÑĪÐµ
p le
ĠÐ¼Ð¾ ÑĢÐ°Ð»ÑĮ
ĠÐ¸Ð³ ÑĢÐµ
Ðº Ð°Ð»Ð°
ÑĥÐ³ Ð¾Ð»ÑĮ
ĠÐ´ ÐµÐº
ÐµÐ»Ñı Ð¼Ð¸
ĠÐ±Ð¾Ð»ÑĮ Ð½Ð¾
ĠÑĥÐ´Ð° ÑģÑĤÑģÑı
Ġcont in
ĠÐ¾ÐºÐ°Ð·Ð° ÑĤÑĮÑģÑı
ĠÐ´Ð¾Ð² ÐµÑĢÐ¸
ĠÐ½ ÑĳÐ¼
ĠÐ¶ÐµÐ»ÐµÐ· Ð½Ð¾Ð´Ð¾ÑĢÐ¾Ð¶
Ñģ ÑģÑĭ
ĠÐ¿Ð¾Ð»Ð¾Ð¶ Ð¸Ð»
ĠÐľ ÐµÑĢ
p ro
ĠÐ´ÐµÑĤ ÑıÐ¼
ĠÑģÐ¾ ÑĩÐ¸Ð½
ĠÐ¿Ð¾Ð´ Ð¿Ð¸ÑģÐ°
ĠO r
ĠÐ» Ð°Ð²
ÑĨÐ¸ Ð´
ĠÐ·Ð° Ð¶Ð¸
ĠÐĹÐ° ÑĤÐ¾
" ).
Ð»Ð¸ Ð»
ĠÐ¸Ð½ ÑģÐ¿ÐµÐº
ov e
Ð´ Ð²Ð°
ĠÐĹÐµÐ¼ Ð»Ð¸
ĠÑĤÐµÐ»Ðµ ÐºÐ°Ð½
ĠÑģÐ¾Ð²ÑĢÐµÐ¼ÐµÐ½ Ð½ÑĭÑħ
ĠÐ¿Ð¾Ð´ Ð°ÑĢÐ¸
ĠÐºÐ° ÑĤ
ĠÑĤÑĢÑĥÐ± ÐºÑĥ
t he
ĠÐĺ Ð¾Ð°Ð½
ĠÐĹÐ°Ðº Ð¾Ð½
os ed
ĠÑĥÑģÑĤ Ð°Ð»Ð¾
ÑĤÐ¸ ÑĢÐ¾Ð²Ð°ÑĤÑĮ
ĠÑĥÑģÑĤÐ°Ð½Ð¾Ð² ÐºÐ¸
Ð» Ð»Ð¸
ĠÐ³ÑĢÐ° ÑĦ
ĠÐľ Ð°Ð»ÑĮ
ĠÐļ Ð°Ð½
ĠÐ¾ÑĢÐ³Ð°Ð½Ð¸Ð· Ð¼Ð°
ÑĪ ÐµÐ½Ð¸ÐµÐ¼
ĠÐ¿ÑĢÐ¸ ÑħÐ¾Ð´Ð¸ÑĤ
Ð»Ð° Ð½Ð°
ĠÐ¾ÑĢÐ³Ð° Ð½Ñĭ
ĠC ent
m in
ĠÑĦÐ°Ðº ÑĤÐ¸ÑĩÐµÑģÐºÐ¸
ĠÐ½Ð°Ñĩ Ð°Ð»Ð°ÑģÑĮ
ĠÑģÑĤÐ° ÑĢÐ°ÑıÑģÑĮ
ĠÐĲ Ð³
Ð¸ÑĤ Ð¸Ð²
ĠÐ²ÐµÑģ ÐµÐ»Ð¾
Ð½Ð¾ ÑĢ
ĠÐ¸ ÑģÑĤÑĢÐµÐ±
ĠÐº Ð²
ĠÐłÐ¾ÑģÑģÐ¸ ÐµÐ¹
Ġear ly
ĠÐ²Ðµ ÑĢÐ¸ÑĤÑĮ
Ì Ī
ĠÐ» Ñĭ
Ð´ Ð¸ÑĤÐµ
ÑĤÑĥ ÑĢÐ°Ð»ÑĮ
ĠÑĤÐµÐ¼ Ñĭ
ĠÐļ ÑĥÐ´Ð°
u ary
olog y
ĠÐŁÑĥ ÑĤÐ¸Ð½Ð°
ĠÐ·Ð° ÑģÐ»ÑĥÐ¶
ĠÐ¿Ð¾Ð» Ð¸ÑĤ
ĠÑĨ ÐµÐ»ÐµÐ¹
Ġthe se
ĠÐ¿Ð¾Ð»ÑĮÐ· Ð¾Ð²Ð°ÑĤÑĮÑģÑı
Ð»ÐµÐ½ Ð½Ð¾Ðµ
ÑĳÐ½ Ð½ÑĭÐ¹
Ġc ur
Ð½ Ð¾Ð´Ñĥ
ĠÐ¶ÑĥÑĢ Ð½Ð°Ð»Ð°
ĠÐ°ÑĢ ÑĤÐ¸
ĠÑģÐµÑĢÐµ Ð±ÑĢÑı
ĠÐ±ÐµÑģ ÐµÐ´
ĠÐ½ÐµÐ²Ð¾Ð· Ð¼Ð¾Ð¶
ĠÐ²Ð¾Ð¿ Ð»Ð¾
ĠÐĵ ÑĢÑĥ
ĠÐ²Ð¾ ÐµÐ½Ð½ÑĭÐµ
v ent
ĠÐ¢Ð°Ðº Ð¾Ð¹
ĠÑģÐ¸Ð»Ð° Ð¼Ð¸
aj or
ÑģÐ¾Ð² Ð¾Ð¹
ĠÑĨ ÐµÐ»ÑıÑħ
Ðł Ñ
ĠÑģÐ»Ðµ Ð·Ñĭ
ÑĢÐ¸ Ð»Ð°ÑģÑĮ
ĠÐŀ Ð´Ðµ
ĠÐ¿Ð¾Ð½Ð¸Ð¼Ð° ÐµÑĪÑĮ
Ð½Ð¸ ÑģÑĤÐ¸
ĠÐ¾ÑĤ Ð¼ÐµÐ½
Ð´ Ñİ
ĠÑĦ Ð¸Ðº
ÐµÐ½ÑĮ ÐºÐ°
ÑĩÐ¸ Ð²Ð°ÑĤÑĮ
ĠÐ¿Ð¾Ð² ÐµÐ»
ÑĮ ÑĳÐ·
ĠÑĢÐ°Ð±Ð¾ÑĤ Ð½Ð¸ÐºÐ¾Ð²
ĠÐ¸ Ð´Ñĥ
ĠÑĥÑĩÐ°ÑģÑĤ Ð¾Ðº
ĠÐ½Ð° Ð²ÐµÑĢÑħ
ĠÐĴ ÑĢÐµÐ¼Ñı
ĠÑĥÑĩ Ñĳ
Ġde p
ĠÐºÑĢÐ° ÑģÐ°
ĠÐ¿ÑĢÐ¸ ÐµÑħÐ°Ð»
ĠÐ² ÑģÑĤÐ°Ð²
ĠÐ¾Ð³ÑĢÐ¾Ð¼ Ð½ÑĭÐ¹
ĠÐĵ Ð»Ð°Ð²Ð°
Ð½Ð¾Ð² ÐµÐ½Ð¸Ñı
ĠÐŀ ÐĲÐŀ
ĠÑģÑĥÐ± Ð±Ð¾ÑĤ
Ð¼ ÐµÐ»ÑĮ
an ge
Ñİ ÑīÐµ
Ġfam ily
Ð¡ ÑĤ
ĠÑģÐ¸Ð´ ÐµÐ»Ð¸
ĠÑĥ ÑĩÐ¸Ð»Ð¸
Ġpro du
ĠÑĤÑĢÐµÐ½ ÐµÑĢ
ĠÐ»Ñİ Ð±Ð¾Ðµ
ib le
Ġret urn
ul ation
ĠÐ½ÐµÐ¿Ð¾Ð½ ÑıÑĤ
k y
ĠÐ³Ð»Ð° Ð´
ĠÐ¿ Ð»Ð¸
ĠÐĳ Ð¾ÑĢ
Ġ3 8
ĠÐ²ÑģÑĤÑĢÐµ Ñĩ
ĠÐ¿Ð°Ð»ÑĮ ÑĨÐ°Ð¼Ð¸
Ðĵ Ð£
ĠÐĵ Ð»Ð°
ĠÐ²Ð¾Ñģ ÑħÐ¸
ak ing
ĠÐ½Ð° ÑģÑĤÑĥÐ¿Ð°
Ð¾Ð²Ð° ÑĢ
ĠÐļ Ñį
ĠÑĪ Ð°Ð½Ñģ
ĠÐ²ÑģÑı ÐºÐ¾Ð¼
Ð²Ð° Ð½Ð¸Ð¸
ĠÐľ ÐµÑĤ
ĠÐ¿Ð¾Ð²ÐµÐ´ ÐµÐ½Ð¸Ðµ
ĠÐ² Ð¿ÑĢÐ¾ÑĩÐµÐ¼
ĠÐ¡ Ð¾Ð·
ĠÐ½Ð°ÑĩÐ¸Ð½Ð° ÑİÑĤ
ĠÐ²ÑĭÑĢÐ°Ð¶ ÐµÐ½Ð¸Ðµ
Ġan n
ĠÐ± ÑĢÐ¾Ð´
ĠÐ£ Ð¶
ĠÐĵ Ð¾
ĠÐ¸Ð·Ð¼ÐµÐ½ ÐµÐ½Ð¸Ð¹
Ðº Ð°Ð»Ð¸
ĠÐĳÐ¾ÑĢÐ¸ Ñģ
ĠÑģÐ¾Ð²ÑĢÐµÐ¼ÐµÐ½ Ð½Ð¾Ð¹
ĠÐ¿Ð¾Ð³ Ð»Ñı
ĠÐ¿Ð¾Ð¿ ÑĭÑĤÐ°
Ġâ Ĩ
ĠÑĥÐ´Ð¾Ð²Ð¾Ð»ÑĮ ÑģÑĤÐ²Ð¸Ðµ
ĠÐ¿ÑĢÐ¸ ÑĪÐ»Ð¾
ĠÐ·Ð°Ð´Ð° Ñĩ
Ġus e
ĠÐ¿Ð¾ÑĤÐµÑĢ ÑıÐ»
ĠÐ½Ð° ÑĩÐ°
ĠÑģÐµÑĢ Ð²Ð¸
ĠÐ¾Ñģ Ð½Ð°
ĠÐ´ÐµÐ¹ÑģÑĤÐ² ÑĥÐµÑĤ
ĠÐ½Ð°Ð² ÑģÑĤÑĢÐµÑĩÑĥ
ÑĤ ÑĢÐ°Ðº
ÐµÐ» ÑģÑı
Ð¶ Ð¸ÑĤÑĮ
ĠÑģÐ¾Ð±Ð¸ÑĢÐ° ÐµÑĤÑģÑı
ĠÑĨ ÐµÑĢÐµÐ¼Ð¾
Ð´Ñĭ Ñħ
ĠÐĺÐ½ ÑĦÐ¾ÑĢÐ¼Ð°
ĠÐ¾ ÐºÑĥ
ĠÐ¸Ð· Ð²Ð¸
ĠÑĨÐµÑĢÐºÐ¾Ð² ÑĮ
ĠÐ²ÑĭÐ³Ð»Ñı Ð´ÐµÐ»
ĠÐºÐ¾ÑĢ Ð¾Ð»ÑĮ
l ish
ĠÐ¼ÐµÑĤ ÑĢÐ¾
ĠÐ¿ÐµÑĢÐµÐ³Ð¾Ð²Ð¾ÑĢ Ñĭ
ĠÐ»ÐµÑģÑĤ Ð½Ð¸ÑĨÐµ
ĠÐľ Ð¸ÑĢ
ĠÐºÐ¾Ð½ ÑĨÑĥ
Ð»Ñı Ð»Ð¸ÑģÑĮ
ro ss
iss ion
ĠC ount
ĠÑĥÑĩÐµÑĤ Ð¾Ð¼
ĠÐĲÐ² ÑĤÐ¾ÑĢ
ĠÐºÑĢÐµ ÑģÑĤÑĮÑıÐ½
ÑĢÐµÐ¶ Ð´Ðµ
ĠÐºÐ°ÑĢÑĤÐ¸ Ð½Ñĭ
Ð½Ð¾Ð² Ð¸Ð´
ĠÐĳÑĭ Ð»
ĠÐ³Ð¾ÑģÑĥÐ´Ð°ÑĢ ÑģÑĤÐ²ÐµÐ½Ð½ÑĭÑħ
ÑģÑģ Ñĥ
. ),
ĠÐ¡ Ð°Ð²
ĠÑģÑĩÐ¸ÑĤÐ° Ñİ
ĠÐ¿Ð¾Ð±ÐµÐ´ Ñĭ
Ġm usic
ĠÑħÐ°ÑĢÐ°Ðº ÑĤÐµÑĢÐ°
oot ball
ĠÐ½Ð°ÑĢÐ¾Ð´ Ð¾Ð²
Ð¾Ñĩ Ñĥ
ĠÑĢÑĥÐºÐ¾Ð²Ð¾Ð´ ÑģÑĤÐ²Ð¾
ĠÑģÐ°Ð¼Ð¸ Ð¼
ĠÐ´Ðµ Ð¿
ĠÐ¾Ð¿ ÑĭÑĤÐ°
ĠÐ¸ÑģÐ¿Ð¾Ð» Ð½Ð¸ÑĤÐµÐ»ÑĮ
ĠÑĪÐµ Ñİ
ĠÑģÐµ ÑĢÐ¸
ĠÐĽ ÑĮ
ĠÐ°Ðº ÑĤÐµÑĢ
ĠÐ¿ÑĢÐ¾Ð¼ÑĭÑĪÐ»ÐµÐ½ Ð½Ð¾ÑģÑĤÐ¸
ĠÐ¾ÑĤÐ²Ðµ ÑĩÐ°ÐµÑĤ
ÑĢÐ¾Ð²Ð° Ð½Ð¸Ñİ
ÑĨÐµÐ½ÑĤ ÑĢÐ°
ĠÐĶ Ð¶Ð°
ĠÑĥÐ²Ð° Ð¶Ð°
ĠÐ¿ÑĢÐ¸ Ð¿Ð¾Ð´
ĠÑģÐ¿ÐµÐº ÑĤÐ°Ðº
ĠÐĲÐ½ Ð³
ĠÐĳ Ð¸
ĠÑģÐ»ÐµÐ´ Ð¾Ð²Ð°Ð»Ð¾
ĠÐ¼Ð¾Ð· Ð³Ð°
il ity
ĠÑĥÑģÐ¿Ðµ ÑħÐ°
Ñģ ÑģÐ¸Ð¸
ĠÑģ Ð³
ĠÐ¾Ð¿ ÑĤÐ¸Ð¼Ð¸
ĠÐ¿Ñĭ Ð»ÑĮ
ug ust
ĠÐ±Ñĭ Ð²ÑĪÐµÐ³Ð¾
ĠÑģÑĤ ÑĢÐ¾Ð³
Ð½Ð¸ ÑĪÑĮ
ial ly
ĠÑĢÐ°Ð·Ð¼ ÐµÑĢÐµ
ĠÑĤÐµÐ¾ ÑĢÐ¸Ð¸
ĠÑĢÐµÐ³Ð¸ Ð¾Ð½Ðµ
ĠÑĢÐ¾ÑģÑģÐ¸Ð¹ ÑģÐºÐ¸Ð¹
ĠÐ¸Ð³ ÑĢ
ĠÐļ Ð¸ÑĤÐ°Ð¹
ĠÐĿÐĲ Ð¢Ðŀ
ĠÑįÐºÑģÐ¿ ÐµÐ´Ð¸
ĠÐłÐ¾Ð¼ Ð°Ð½
ĠÐ¿ÑĢÐ¸Ð±Ñĭ Ð»Ð¸
at or
ĠÐ¾Ð±Ñģ ÑĥÐ´
ĠÑģÐ°Ð¼ ÑĥÑİ
ĠÐ¿ÑĢÐµÐ´ÑģÑĤÐ°Ð² Ð»ÐµÐ½Ð¸Ñı
ÑħÐ²Ð° ÑĤÐ¸Ð»
Ġ3 2
ĠÑĤÐµÑħÐ½ Ð¾Ð»Ð¾Ð³Ð¸
Ð¿Ð¸ ÑģÐºÐ¾Ð¿
ĠÐºÑĢÐ¸ ÐºÐ½ÑĥÐ»
ĠÑĤ ÑĮ
ĠÐ¢ ÐµÑħ
ĠÐ¼Ð°ÐºÑģÐ¸Ð¼ Ð°Ð»ÑĮÐ½Ð¾
ĠÑģÐ¼ Ð¾Ð³Ñĥ
ace book
ĠÐ´Ð² ÐµÐ½Ð°
Ðļ Ð¡
ĠÑĢÐ°ÑģÐ¿ Ð°Ñħ
ĠÐĴÐ°ÑģÐ¸Ð»Ð¸ Ð¹
en e
ÐµÑĢÐµ ÑĤÑĮ
ÐµÑĤÐ° Ð¼Ð¸
ĠÐ¤ Ð°
ĠÑģÑĤÐ° ÑĢÐ¸Ðº
ĠÑĦÐ¸ÑĢ Ð¼Ñĭ
Ð¸ÑĩÐµÑģÐº Ð¸Ñħ
ĠÑģÐµÐ³Ð¾Ð´Ð½ÑıÑĪ Ð½Ð¸Ð¹
ĠÐĲÐ½ ÑĤÐ¾
ĠÑģÐµÐ² ÐµÑĢÐ¾
ĠÐľÐ°ÑĢ Ðº
ĠÐ¿Ð°Ð»ÑĮ ÑĨÐµÐ¼
ĠÐ´ÐµÑĢÐµÐ² ÑĮÐµÐ²
ĠÐ¸ÑģÐ¿Ð¾Ð»ÑĮÐ·Ñĥ ÑİÑĤ
ĠÐ± Ð°Ð½Ð´
a f
ĠÑĥ Ð¶Ð°
ĠÐ¼Ð³Ð½Ð¾Ð² ÐµÐ½Ð½Ð¾
ĠÐ¿Ð¾ÑıÑģ Ð½Ð¸Ð»
ĠÐ¿ÑĢÐ¾Ð¿ Ð°
Ġpubl ic
Ð½ Ð³
ÐµÐ½ÑĮ ÐºÐ¸Ð¹
Ð°Ñħ Ð°ÑĢ
Ð²Ð° ÑİÑģÑĮ
ĠÐºÐ°ÑĦ ÐµÐ´
y n
ĠÐ¢Ð°Ðº Ð¾Ðµ
ĠÐ¾ÑĤÐ»Ð¸ ÑĩÐ°ÐµÑĤÑģÑı
ĠÐ§Ð¸ÑĤÐ° ÑĤÑĮ
ĠD ec
ÑĢÐ° Ð´
ÑĤÐ¸ÑĩÐµÑģÐº Ð°Ñı
ĠA nd
ĠÑıÑĢ ÐºÐ¾
Ðļ Ð¾ÑĢ
ĠÐºÐ° Ð·Ð°
ĠÐĽ ÐµÐ²
ĠÐ¿Ð¾Ð¿ÑĭÑĤ ÐºÐ¸
4 2
ĠÐ¼ÐµÑĢÐ¾Ð¿ÑĢÐ¸Ñı ÑĤÐ¸Ð¹
ĠÐ¿ Ð°Ñģ
ĠÐ½Ð¾Ð¼ ÐµÑĢÐ°
ĠÐŁÐ¾Ð¼ Ð¸Ð¼Ð¾
ĠÐ»ÑİÐ± ÑĭÐµ
om an
r ing
ĠÐ²Ð¾ÑģÐºÐ»Ð¸ ÐºÐ½ÑĥÐ»
ĠÐ½Ð¾Ð² Ð¾Ð¼
ĠÑĪ Ð»Ñı
ĠÐľ Ð¸Ð»
ĠG e
ĠÐºÐ¸Ð² Ð½ÑĥÐ»Ð°
Ðł Ðĺ
ĠÐ¸Ð· ÑĬ
Ð°Ð»ÑĮ Ð½Ð¾Ð¼Ñĥ
ÑĩÑĥ ÑĤÑĮ
ĠÐĳ ÐµÐ»Ð¾ÑĢÑĥÑģ
ĠÐ³Ð¾ ÑģÑĤ
t ing
ĠÐºÐ¾ÑĢÐ¿Ñĥ ÑģÐ°
ĠÐ³ÑĢÐ° Ð´Ñĥ
ĠÐ¿Ð¾Ð²ÐµÑĢÑħ Ð½Ð¾ÑģÑĤÑĮ
ĠÐĺÑĤÐ°Ð»Ð¸ Ð¸
ĠÐ¿Ð¾ÑģÑĤ ÐµÐ»Ð¸
ĠÐ±Ð»Ð° Ð³Ð¾ÑĢÐ¾Ð´
Ñĩ Ð½Ðµ
ĠÐ±Ð° ÑĤÐ°
ĠÐ½ÐµÐ± ÐµÑģ
ÐĲ Ð¢
ÑģÑĤÑĢÐµ Ð¼Ð¸
ĠÑĢÐ°Ð´Ð¾ ÑģÑĤÑĮ
Ð½Ð¸ ÑĤÑĮÑģÑı
ĠÐ¾ÑĤÐ´Ñĭ Ñħ
ĠÐ¿Ð¾ ÑĢÐ¾Ð¹
ĠA ir
Ð°ÑĢ ÑĤÐ°
ĠÑģÐ¾Ð¾Ð±Ñī ÐµÐ½Ð¸Ð¸
ĠP ol
ĠÑģÑĥÑĤ Ð¾Ðº
ĠÐ½Ð°Ñģ Ñĭ
ĠÐ¾ÑĤ ÑĤÐµÐ½
Ñĳ Ð³
ĠÑģÑĤÐ¸ Ñħ
ĠÐ¿ÑĢÐ¸Ð½Ð°Ð´Ð»Ðµ Ð¶Ð¸ÑĤ
ĠÑģÑĤ ÑĢÑĥ
ĠÐ¿Ð¸ÑģÐ° ÑĤÐµÐ»ÑĮ
ĠÐ³ ÑĢÐ°Ð½
Ġan y
ĠÐ·Ð°ÑĢÑĥ Ð±ÐµÐ¶
ĠÐľ Ð½Ð¾Ð³Ð¾
ĠÐ½Ð°Ð¿Ð¸ÑģÐ° Ð½Ð¾
ĠÑģÐ¸Ð´ ÐµÐ»Ð°
ĠÐ´Ð¾Ð±Ð° Ð²Ð¸ÑĤÑĮ
ÑģÐ»Ñĥ ÑĪÐ°
ÑĪÐ¸ ÑĢ
ĠÐºÐ¸ Ð¿
ĠÐ¢ Ð°ÑĤÑĮ
ĠÐŀÑĢ Ð³Ð°Ð½Ð¸
ĠÑħÐ²Ð°ÑĤ Ð°Ð»Ð¾
ÑıÑī Ð°Ñı
ĠÐ¡Ð¾Ð» Ð½
Ð² ÑıÐ·
ÐµÐ»ÑĮ Ð½Ð¾
ĠÑģÐ¾ÑģÑĤÐ¾ Ð¸ÑĤÑģÑı
Ð¾Ð²Ð° Ð²
ĠÐ²Ð¾Ð² ÑĢÐµÐ¼Ñı
ĠÑģÑĢÐµÐ´ Ñĥ
c k
ĠÐ¿ÑĢÐ¾ÑģÑĤÑĢÐ°Ð½ ÑģÑĤÐ²Ð°
ĠÐ¿ÐµÑĢÐµ ÑģÐµ
ĠÑĥÐ³ Ð»Ñĥ
ĠÐ´ÐµÐ» Ð°Ð¼
Ġw e
ÑĤÑĮ Ñı
ĠÑģÐ¿Ð¾ÑģÐ¾Ð± Ð¾Ð¼
ÑİÑīÐ¸Ð¼ ÑģÑı
ĠÐ´ÐµÑĢ Ð¶
ĠÐ³ Ð²Ð°ÑĢ
ĠÐ½Ð°Ñģ ÑĩÐµÑĤ
ĠÐ¿Ð¾Ð´ ÑĢÐ¾ÑģÑĤ
ĠÐłÐµ ÑģÐ¿ÑĥÐ±Ð»Ð¸
ÑģÐ»ÑĥÐ¶ Ð±Ð°
ĠÐ± ÐµÐ½
ĠÐ° ÑĦ
ĠÐ²Ðµ ÑīÑĮ
ĠÑģÑĥÐ´ Ñı
ÑĪÐ¸ Ð½Ñĭ
ĠÐ¿Ð¾ÐºÐ° ÑĩÐ°Ð»
ĠÑĢÐ°Ð·ÑĢÐµ ÑĪÐµÐ½Ð¸Ñı
Ð¾Ðº Ð¾Ð¼
Ð³Ð° ÑİÑĤ
u red
ĠÐ¡ ÑĤÐµ
ĠÐºÐ¾Ð½ÑĦÐµÑĢÐµÐ½ ÑĨÐ¸Ð¸
7 6
ĠÐºÐ¾Ð¼Ð°Ð½Ð´Ð¸ ÑĢ
ĠÐĴ ÑģÐºÐ¾ÑĢÐµ
ĠÑĦ Ð°Ð¹
ĠÐŁÐµÑĤ ÑĢÐ¾Ð²
ĠÐ·Ð° ÑģÑĤÑĭ
ĠÐ»Ð¸ÑĨ ÐµÐ½
ĠÐ½Ð¸ ÑĩÐµÐ¼
ÑĢÐ¾ÑģÐ¸ Ð»Ð¸
Ġsh ow
Âł -
Ð»Ðµ ÑĩÑĮ
Ð° Ð½Ð¸
ĠÐ» Ð°Ð·
Â» )
ĠÐ½ÐµÐ¾Ð±ÑħÐ¾Ð´Ð¸Ð¼ ÑĭÐµ
ĠÐ¾Ð±ÑīÐµ ÑģÑĤÐ²Ðµ
ĠÐ¼ÐµÑĩ ÑĤÐ°
ĠÐ¿Ð¾Ð»ÑĮÐ·Ð¾Ð²Ð° ÑĤÐµÐ»ÐµÐ¹
Ð¾Ñĩ ÐºÑĥ
ĠÐ´Ð¸Ð¿Ð»Ð¾Ð¼ Ð°
ĠÐ²ÑģÐ¿ ÑĭÑħ
duc ed
ĠÐ¸Ð³ÑĢÐ° ÐµÑĤ
201 6
ĠÑģÑĤÐ° ÑĢÑĥ
Ð²Ð° ÑİÑīÐ¸Ñħ
Ġfollow ing
ĠÐĴÐ¾ Ð¾Ð±ÑīÐµ
ĠÐ¶ÐµÑĢÑĤ Ð²
Ð·Ð° Ð´Ð¸
ĠÐ±Ð»Ð¾Ðº Ð¸
ĠÐĿÐ° ÑĤÐ°Ð»ÑĮ
ĠÑģ ÑĥÐ¼Ð°
ĠÐ´Ð° Ð²Ð°Ð¹
ĠÐ¿Ð¾ ÑģÐ°
ĠÑĨÐ²ÐµÑĤ Ð¾Ð²
ĠÐ¿ÑĢÐ¸Ð· Ð½
Ð» Ð¾Ñģ
Ð± ÐµÐ·
id ed
ĠÐ¿ÑĢÐ¸ÑģÐ¾ ÐµÐ´Ð¸Ð½Ð¸
ĠÐ½Ð°ÑĥÑĩ Ð½Ð¾
ĠÐ·Ð°Ð½Ð¸Ð¼Ð° ÐµÑĤÑģÑı
ĠÐ¼Ðµ ÑģÑĤÑĥ
ÑĢÐ¾ ÑĢ
ĠÑģÐ¸Ð¼ Ð¿Ð°
ĠÐ¿Ð¾ÑıÐ² Ð»ÑıÐµÑĤÑģÑı
Ġ199 8
ĠÐ¸Ð½ Ð´Ñĥ
ĠÐ°Ð³ÐµÐ½ÑĤ ÑģÑĤÐ²Ð°
ĠÐ¿ÑĢÐµÐ¾Ð´ Ð¾Ð»
ĠÑģÐµÑĢ Ð´Ðµ
ĠÐºÐ¸ÑĢ Ð¿Ð¸
O n
ĠÐºÑĢÐ° Ñİ
ĠÐ¿ÑĢÐ¾ÑĤÐ¸Ð²Ð¾ ÑģÑĤÐ¾Ñı
Ð¸Ð¼ ÐµÐ½
ĠÐºÐ¾Ð½ ÑģÐµÑĢ
Ġb el
ĠÑģÑĤÑĢÐµ Ð¼Ð¸
ĠÑģÑĢÐµÐ´ Ñĭ
ĠÐ°Ð³ÐµÐ½ÑĤ ÑģÑĤÐ²Ð¾
ĠÐ· ÑĢÐ¸
Ġin st
ĠÐ¾ÑģÑĤÐ° Ð²Ð°ÑĤÑĮÑģÑı
ĠÐ¿ÑĢÐ¾ ÑĦÐ¸
ĠÐ¶ ÑĥÑĤ
Ð¶Ð´Ð° ÑİÑĤ
ĠÑį Ð²
ĠÐ¿Ð¾Ð»Ð¸ÑĤÐ¸ÑĩÐµÑģÐº Ð¾Ð¹
ĠÑħÐ¾Ð·ÑıÐ¹ ÑģÑĤÐ²Ð°
ĠÑĢÐ°Ð´Ð¾ ÑģÑĤÐ¸
Ð²Ð¸ ÑĨÐ°
ĠÐ§ ÐµÐ³Ð¾
ĠÐ²Ðµ ÑĩÐµ
ÑĥÑģÐ»Ð¾Ð² Ð½Ð¾
Ñī Ð°Ð»ÑģÑı
ÐºÐ¾Ð² Ð¾Ð³Ð¾
ĠÑĦÑĥÐ½Ðº ÑĨÐ¸Ð¾Ð½
ÑĬ ÐµÐ¼
ru ct
ĠÐ¿Ð¾Ð»ÑĥÑĩÐ° ÐµÑĤ
ĠÑĥÐ¿Ð¾Ð¼ Ñı
ĠÐ¿Ð¾Ð´Ð¾Ð± Ð½Ð¾Ð³Ð¾
ĠÐ¾ÑĤÐ¼Ðµ ÑĩÐ°ÐµÑĤ
ĠÐļ Ð»Ð¸
ĠÑĢÐ°ÑģÐ¿ Ð¾Ð»Ð°Ð³Ð°
ĠÐĶ Ð¾Ðº
ĠS outh
ept ember
ĠÐļÐ° ÑĢÐ°
Ð±ÐµÑĢ Ð³
ĠÐ±Ð»Ð°Ð³ Ð¾Ð¿Ð¾Ð»
ĠÐ±ÑİÐ´Ð¶ ÐµÑĤÐ°
ĠÑĤÐ°Ð» Ð°Ð½ÑĤ
ĠÐĴ ÐµÑĢÐ¾
Ð»Ð¸ ÑĤÑĮ
ĠÐ´ÐµÐ» Ð°Ð»Ð¸
ĠÐ½ÐµÐ¾Ð±ÑħÐ¾Ð´Ð¸Ð¼Ð¾ ÑģÑĤÑĮ
Ð½Ð¸ Ð»Ð¸ÑģÑĮ
Ñģ ÐµÐ´
ĠÐ§ Ð°ÑĢ
ĠÐ¿Ð¾ ÑĤÐµÑĢÐ¸
ĠÑĦÐ° ÑĪÐ¸
ĠÐ·Ð° ÑĤÑĢÐ°
ĠÐĴ ÐµÑģ
ĠÐ³Ð¾Ñģ Ð¿Ð¸ÑĤ
ĠÐ¿ÑĭÑĤ Ð°Ð»Ð¸ÑģÑĮ
ĠÐ¾ÑģÑĥÑīÐµÑģÑĤÐ² Ð»ÑıÐµÑĤÑģÑı
ÑĤ Ð¾Ð¿
ĠÑĥÐ±Ð¸Ð¹ ÑģÑĤÐ²Ð°
ĠÐ¼Ð¸ÑģÑģÐ¸ Ñģ
ĠÐºÑĢÐ° ÑģÐ½Ð¾
ĠÐ³ ÑĢ
ĠÐ¿Ð°ÑĢ ÑĤÐ¸Ñı
o ard
ĠÐļ Ð»Ð°
ĠÐ¾ Ð²Ð¾
ÑĢÐ¾ Ð½Ð°
ĠÐĽÑĥÑĩ ÑĪÐµ
il t
Ð¼Ð¾ ÐµÐ¼Ñĥ
Ð¸ÑĤ ÐµÑĤÐµ
Ð¿ ÐµÐ½
ĠÐ²Ð¾Ð· Ð²Ñĭ
ÑĤ ÐµÐ»Ñİ
ĠÐ¶ÐµÐ½ Ð¾Ð¹
Ð¸Ð½ ÑģÑĤÐ²Ð¾
ant s
ĠÐ³Ð»Ð°Ð² Ð½Ð¾Ð¹
ĠÑģÐµÐ¼ Ð¸
ÑĥÐ± Ð»Ð¸Ñĩ
Ġa ir
ĠÑĦÑĥÑĤÐ± Ð¾Ð»Ð¸
ĠÐ½Ð°Ð¿Ð¸ÑģÐ° ÑĤÑĮ
r is
ĠÑĢÐ°Ð· Ð¾ÑĢ
ĠÐ¿Ð¾Ð± ÐµÑĢÐµÐ¶
ĠÐ½ÐµÑĤ ÐµÑĢÐ¿
ĠÐĿÐ° Ð´
ĠÐ¾Ð±ÑĢÐ° ÑĤÐ¸ÑĤÑĮÑģÑı
ĠÐ¾ÑħÑĢÐ° Ð½Ñĭ
ĠÐ¿Ð¾Ð²ÐµÐ´ ÐµÐ½Ð¸Ñı
ÑģÐ¾Ð²ÐµÑĢ ÑĪÐµÐ½
ĠÐŁÑĢÐµÐ·Ð¸Ð´ ÐµÐ½ÑĤ
ĠÑģÐ¿Ð¾ÑģÐ¾Ð± Ð½Ð¾ÑģÑĤÐ¸
Ñĩ ÐºÐ°Ð¼Ð¸
ĠÐĿÐ° ÑĪÐ¸
ĠÑģÐ¸Ð´ Ð¸ÑĤ
Ġst ate
ĠÑĪ Ñĥ
ĠÐ¿ÑĢÐ¾Ð´Ð¾Ð»Ð¶ Ð¸Ð»
ĠÐĵÐ»Ð°Ð² Ð½Ð¾Ðµ
Ð½Ð¸ Ñģ
ĠÑĢÐµÑĪ ÐµÐ½Ð¸Ð¹
ĠÐļÐ¾Ð½ÑģÑĤÐ°Ð½ ÑĤÐ¸Ð½
ĠÑģÑĤÐ¸ Ð»ÑĮ
ÑĢÐ¾Ñģ Ð»Ð°Ð²
ÑģÑĤ Ð¾Ð³Ð¾
Ð³ Ð½ÑĥÑĤÑĮ
ĠÐ° ÑĤÐ¾Ð¼
ĠT e
ĠÑģÐºÐ°Ð·Ð° Ð½Ð¾
ĠÐŀÑĤÐµ ÑĨ
ĠÐ´Ð°Ð»ÑĮÐ½ÐµÐ¹ ÑĪÐµÐ¼
ĠÐ¿Ð° Ñĥ
ÑĢÐ¸ ÐºÐµ
ĠÐ¼Ð°ÑĤ Ñĩ
ĠÐ¡Ð¾ ÑİÐ·
ĠÑĪÐµ Ð¿
ĠÑĪ Ð°Ð³Ð°
ĠÑĤÐµÐ°ÑĤ ÑĢÐ°
ĠÐ¼Ð¾Ð· Ð³
ĠÐºÐ¾Ð¼Ð¿Ð»ÐµÐº ÑģÐ°
ĠÑģÑĤÑĥÐ´ ÐµÐ½ÑĤÐ¾Ð²
ar n
ÑĢÐ¾ ÑĪÐµÐ½
ĠÐľÐ¾ÑģÐºÐ¾Ð² ÑģÐºÐ¾Ð¹
ĠÐ²ÑĭÐ±Ð¾ÑĢ Ð¾Ð²
ÑĢÐ¾Ð² ÐºÑĥ
Ð¾Ð² Ð°Ð»ÑģÑı
ĠÐºÐ¾Ð¼Ð¿ Ð¾Ð½
Ð² Ð¾ÑĤ
ment s
ÐĽ Ñİ
ĠÐ´ÑĢÐ° Ð³Ð¾
ĠÑĢÐ°Ð·Ð´ Ð°Ð»ÑģÑı
ĠÐļ Ð¾ÑĢÐ¾
Ð¾Ð¿ÑĢÐ¸ ÑıÑĤ
Ð¾Ð¶Ðµ ÑĪÑĮ
ÐµÐº Ðµ
ĠÐ§ ÐµÑħ
Ñĩ Ð¸Ð»Ð¾ÑģÑĮ
ĠÐ·Ð°Ð¿ ÑĢÐ¾Ñģ
ĠÐĲ Ð½Ð°
Ð½Ðµ Ð¿
ĠÐ¼ÐµÑģÑĤ Ð½Ð¾Ð³Ð¾
u ed
4 3
ĠÐ³Ð°ÑĢ Ð¼Ð¾
Ð¾Ð» ÐµÐ¼
ĠÐĶÐ¶ Ð¾
ĠÐºÐ°Ð¶Ð´ ÑĥÑİ
ĠÐ°ÑĢÐ¼Ð¸ Ñı
ĠÐ¿Ðµ Ñī
ĠÐĳ ÑĢÐ°
ĠÑĩ Ð»ÐµÐ½Ñĭ
ĠÐ¿ÐµÑĢÐµ Ð´Ð°ÑĤÑĮ
le ge
Ð² Ñı
4 1
ĠÑģ ÐµÑĤÑĮ
ÑĪÐµÐ¹ ÑģÑı
ĠÑĥ Ð´ÐµÐ»
ĠÐ¾Ð± Ð²Ð¸
ĠÐ· Ð°Ð»Ð°
ĠÐ¿ÑĢÐ¸ ÐºÐ»Ñİ
ĠO ct
ra ph
ĠÐ·Ð°Ð² Ð¾Ð´Ð°
ĠA ugust
ĠÐ¿ÑĢÐ¾Ð¸Ð·Ð½ÐµÑģ Ð»Ð°
ĠÐ¿Ð¾Ð·Ð´ Ð½ÐµÐµ
ÐµÐ»Ð° ÑģÑĮ
ÑĢÐµ Ð»ÑĮ
ĠÑģÑĤÐ°Ð½Ð¾Ð² ÑıÑĤÑģÑı
ĠÐĴ Ð¾Ð¹
ĠÐ¸Ð·Ð²ÐµÑģÑĤ Ð½ÑĭÐ¹
ÐµÐ½ Ð½Ð¾Ð¼Ñĥ
ĠÐ¸Ð· Ð´Ð°Ð½Ð¸Ñı
ĠÐļ Ð¸ÑĢ
ÑĪ ÐµÐ½Ñĭ
ĠÑģÑĤÐ¸ Ð»Ðµ
Ġs ince
ĠÐ¼Ñĭ ÑģÐ»Ñı
ĠÐ¿Ð¾ÐºÐ°Ð· ÑĭÐ²Ð°ÐµÑĤ
Ðº Ð¾Ð»
ĠÑĤÐµÐ»ÐµÑĦ Ð¾Ð½Ð°
ĠÐ²Ñĭ Ð±Ð¾ÑĢÐ°
ĠÑģ Ð½ÑıÑĤÑĮ
ĠÐ¼ÐµÑħÐ° Ð½Ð¸
5 6
ĠÑģÑĤÐ¾Ð»Ð¸ ÑĨÑĭ
ĠÐ¿ÑĢÐ¸Ð½ÑĨÐ¸ Ð¿Ðµ
i ence
ĠÐ¾ÑĦÐ¸ÑĨÐ¸Ð°Ð»ÑĮ Ð½Ð¾
ĠÐ²Ñĭ Ð»ÐµÑĤ
Ġn ear
ĠÐ²Ð·Ð³Ð»Ñı Ð½ÑĥÐ»
Ġe ff
ĠÑģÐ¿ ÑĢÐ¾Ñģ
Ð¾Ñĩ Ð½Ð¾Ð¹
ĠÐ¾Ð±ÑĬÑıÐ² Ð¸Ð»
ĠÐ¿Ð¾Ð½Ð¸Ð¼Ð° ÐµÑĤ
ĠÐĲ ÐºÐ°Ð´ÐµÐ¼
f ess
ĠÐ¿Ð¾Ð¹ Ð´ÐµÑĤ
ÑĦ ÐµÑĢÐ°
Ð¸Ð½ Ð°Ð»
ĠÑģÑĤÐ¾ Ð¸Ð»Ð¾
ÑģÑĤ ÐºÐ¸
Ð¾Ð²Ð¾ÑĢÐ¸ Ð»Ð°
ĠÑģÐ¼Ð¾ÑĤ ÑĢÐµÐ»Ð¸
ĠÐ²ÑģÐ¿Ð¾Ð¼ Ð½Ð¸ÑĤÑĮ
ĠÐ²Ð¾ÑģÐ¿Ð¾Ð»ÑĮÐ· Ð¾Ð²Ð°ÑĤÑĮÑģÑı
Ð³ ÐµÐ»ÑĮ
ĠÐ¿ÑĢÐ¸ Ð´ÐµÑĤ
ĠÑĥÐ´Ð¸Ð² Ð¸Ð»ÑģÑı
Ñĥ ÑĪÐµÐº
ĠÐ³Ð»Ð°Ð² Ð½ÑĭÑħ
ĠÑģÑĥ ÑĤÑĮ
Ð²Ðµ ÑĨ
at a
og le
ĠÐĵÐ¾ÑĢ Ð¾Ð´
ĠÐ¿ÑĢÐ¾Ð´Ð° Ð¶
ĠÐ½Ð°ÑģÑĤÑĢÐ¾ ÐµÐ½Ð¸Ðµ
ĠÐ½Ð°Ñĩ Ð°Ð»Ð¾ÑģÑĮ
ĠÐ¸ÑģÐºÐ»ÑİÑĩ ÐµÐ½Ð¸ÐµÐ¼
Ð¡ Ð¾
ĠÐ¼Ð½Ð¾Ð³ Ð¾Ð¼
ĠÑĩÐ° ÑģÑĤÐµÐ¹
Ð¸ÑĤÐ° Ð½Ð°
ĠF acebook
ÑİÑīÐµÐ³Ð¾ ÑģÑı
ĠÑĥ ÑģÑĤÐ°
âĢ Ħ
ĠÐ¿ÑĢÐ¸Ð½Ñı Ð»ÑģÑı
ĠÑĤÐ¾Ð²Ð°ÑĢÐ¸ Ñī
ĠÑģÑĤÐµÐ½ Ñĥ
ĠÑĢÐ¾Ð· Ñĭ
9 9
ĠÐ¿ÑĢÐ¾Ð² ÐµÐ»Ð¸
ĠÐ° Ð´Ð°
Ġres p
ĠÐķ Ð»ÐµÐ½Ð°
Ð¶ Ð°Ð»Ð¾
ĠÐ³Ð¾ÑģÑĥÐ´Ð°ÑĢ ÑģÑĤÐ²
ĠÐ±Ð»Ð¸Ð¶Ð°Ð¹ ÑĪÐµÐµ
ĠÐ±ÑĥÐ´ ÑĥÑĩÐ¸
ĠÐ¸Ð½ÑĦÑĢÐ° ÑģÑĤÑĢÑĥÐº
ĠÐ¸Ð· Ð¾
ĠÑĢÐ°Ð·Ð²Ð¸ÑĤÐ¸ Ñİ
Ð¡ Ð°Ð¼
Ð¸ ÐºÑĥ
ĠÑĢÐ°Ñģ ÑģÑĤÑĢÐµ
7 8
ĠÐ´ÐµÐ² ÑĩÐ¾Ð½
ĠMar ch
ĠÑģÐµÐ¼ Ð¸Ð½Ð°
ĠÑģÑĬ ÐµÐ¼
ĠÐ²ÐµÐº Ðµ
ĠÐ¿Ð¾ÑĤ ÑĢÐµÐ±Ñĥ
ĠÑĦÐ¸Ð³ ÑĥÑĢ
ĠAl l
ag es
ĠÐ±ÐµÐ· ÑĥÐ¼
Ð°Ð» ÐµÐ¹
Ð½Ñı Ñħ
ĠÐ²ÑĭÐ¿Ð¾Ð» Ð½ÑıÑĤÑĮ
ĠÑģÑĢÐ¾Ðº Ð¸
ĠÐ¿Ð¾ÑĤÐµÐ½ ÑĨÐ¸Ð°Ð»ÑĮ
ĠÐĹ Ð´ÑĢÐ°Ð²ÑģÑĤÐ²ÑĥÐ¹ÑĤÐµ
ĠÐ·Ð°Ð¼ Ð¾Ðº
ĠÐº Ð¾Ð¶Ñĥ
ĠB e
Ð¾Ð²Ð° ÑĤÐµÐ»Ð¸
ĠÐ¾Ðº ÐºÑĥ
Ð¸ÑĤ ÐµÐ»Ñİ
ĠÐ· Ð´
ĠÐ²ÑĭÐ±Ð¾ ÑĢÐ°Ñħ
ĠÐ¸Ð½ ÑĤÐµÐ½
Ð½Ð¸ÑĨÐ° Ñħ
ĠÐ¿ÑĢÐ°Ð²Ð¾ Ð¾ÑħÑĢÐ°
Ð·Ð¸ Ñİ
ĠÐºÑĥÑĢ ÑģÐ°
ĠÐ¾ÑĤÐ½Ð¾ ÑģÑıÑĤÑģÑı
Ġbe gan
Ð¶ ÑĥÑĤ
ĠÑģÐ¾Ð±ÑģÑĤÐ²ÐµÐ½ Ð½Ð¾ÑģÑĤÐ¸
ĠÐ¼ Ð¾Ð´Ñĥ
Ð²Ð° ÑİÑīÐ¸Ðµ
ĠÐ¿Ð¾Ð·Ð²Ð¾Ð» Ñı
ĠÐ²Ðµ Ð¶
ĠÐ°ÑģÑģ Ð¾ÑĨÐ¸Ð°
ĠÐļ Ð¾Ñģ
ĠÐ¿ÑĢÐ¾ÑĪ Ñĥ
ĠÐ¾Ð´ ÐµÑĢ
ĠÐ¿Ð° ÑĢÐ¾
ĠÐ½Ð° ÑĢÐ°
Ð¾Ð² Ð°Ð»Ð¸ÑģÑĮ
ĠÐ¾ÑģÐ½Ð¾Ð²Ð° Ð½Ð¸Ñı
Ð¾ÑĢÐ¾ ÑĤÑĮÑģÑı
ĠÐ¡ Ð°ÑĢÐ°
Ð· Ð¾
ÑĩÐµÑģÐº Ð¾Ð¼Ñĥ
ĠÐ¿Ð¾ÑĤ ÑĢÐ°
ÑģÐ¿ Ð¾ÑĢ
ĠÐĿÐ° Ð¿
ĠÐ¸Ð¼ÐµÐ½ ÐµÐ¼
ĠÐ²ÑĭÐ¿Ð¾Ð» Ð½ÐµÐ½Ð¸Ñı
ĠÐºÐ»Ð°Ð´ Ð±Ð¸
ÑĤÐ¸ÑĩÐµÑģÐº Ð¾Ðµ
Ð½Ñı ÑĤ
ĠÐĶÐ° Ð²Ð°Ð¹
H e
ĠÐ¿Ð¸ ÑīÐµ
ĠÑģÐ² Ð¸Ð½
ĠÐŁÐ¾ ÑģÐºÐ¾Ð»ÑĮÐºÑĥ
19 8
Ð·Ð° ÑīÐ¸ÑĤ
ĠÑĦÐµÐ´ÐµÑĢÐ° Ð»ÑĮ
Âł Ð¼
ĠÑĢÐµ Ð°Ð³Ð¸
ical ly
Ġd id
ĠÑĢÐµÐ¶Ð¸Ð¼ Ð°
ĠÐºÐ¾Ð½ ÑĤÑĢÐ°
ĠÑģÑĤÐ°ÑĢ ÑĪÐ¸Ð¹
Ġfor mer
ĠÐ¾Ð±ÑĬ ÐµÐºÑĤÐ¸Ð²
Ð²Ð° ÑĤ
ĠÑģÐ¿ÐµÑĨÐ¸Ð°Ð»Ð¸ Ð·Ð¸
ĠÐĶÐ¶Ðµ Ðº
Ð¸ ÐºÐ¾Ð²
ĠÐŁ ÑĢÐ¾Ðº
ÐºÐ¾ Ð½Ð°
ĠÐ²Ð¿ Ð¾ÑģÐ»ÐµÐ´ÑģÑĤÐ²Ð¸Ð¸
ĠS eptember
ĠÑģÐ¾Ð±ÑģÑĤÐ²ÐµÐ½ Ð½ÑĭÑħ
Ñĩ ÐµÑĤÑĭ
ĠÐ¿ÑĢÐ¾ ÑĤÐ¾Ðº
Ð¾Ð»ÑĮ Ð½Ð¾Ð³Ð¾
ĠÐ½Ð°ÑģÐµÐ» ÐµÐ½Ð¸Ðµ
ĠÑĥ ÑİÑĤ
ĠÐ´Ð¾ÑģÑĤÐ° ÑĤÐ¾Ñĩ
ĠJan uary
ĠÐ¼Ðµ Ð±ÐµÐ»ÑĮ
ĠÐ¿ÑĢÐ¾Ð¿ Ð°Ð³Ð°Ð½
Ð¾Ð»ÑĮ Ð½Ð¾Ð¹
ĠÐºÐ¾Ð½ÑĨ ÐµÑĢ
Ġ4 00
ĠÐŁÐ¾Ñģ Ð¼Ð¾ÑĤ
ÑģÐ¿ ÐµÐºÑĤÐ¸Ð²
ÑĦÐ¸Ðº ÑģÐ¸
Ð¾Ð±ÑĢÐ° Ð¶Ð°
ĠÐ½ÐµÐ»Ðµ Ð³
ĠÐ·Ð°Ð¼ Ð¾Ð»
Ð°Ð½ Ð½Ð°
Ð¿Ð° Ñħ
ĠÐ¿ÐµÑĢÐµÐ´Ð° ÑĩÐ¸
Ð¿ ÑĤÐ¾Ð¼
ĠThe y
Ð¸Ð½ Ðº
Ð» ÐµÐ¼Ñĥ
ĠÐ²ÑĢÐ° Ð³Ð°
ĠÐ¾Ð±Ñĭ ÐºÐ½Ð¾Ð²
ĠÐ²Ð¾Ð´ Ð¸ÑĤÐµÐ»ÑĮ
ĠÐ´ÐµÐ² ÑıÑĤÑĮ
Ðµ ÑĩÐ°
ÑģÑĤ Ð½ÑĭÐ¼
ĠÐ½Ð¸ ÐºÑĥÐ´Ð°
ĠÐĴ Ð½Ðµ
Ġdis c
ĠÑįÐ¿ Ð¸Ð·
ĠÑĥ Ð´ÐµÑĢÐ¶Ð¸
ĠÑįÐº Ð¾Ð»Ð¾Ð³Ð¸
ÐĽ Ð¸
ĠÐ½Ð°ÑĩÐ¸ Ð½Ð°Ñı
" ),
ain s
ĠÑģ Ð²Ñĭ
ĠÐ¿Ð¾Ð¼ Ð¸Ð¼Ð¾
ĠÐł ÐµÐ´
ĠÑĤÐµ Ñģ
Ġs im
a e
ĠÐŁÐµÑĤ ÑĢÐ°
ĠÐºÑĢÐµÑģ Ð»Ð¾
ĠÐ¶ÐµÐ» ÑĥÐ´
ĠÑī ÐµÐ»
ĠÐ¶ Ð°Ð½
ĠÐ·Ð°Ð±Ñĭ ÑĤÑĮ
. ].
ÑģÑĤÑĥÐ¿ Ð¸Ð»
ĠÐ¡ Ð¸Ð´
ĠÐ¿ÑĢÐµÐ´ ÑģÑĤÐ¾Ð¸ÑĤ
t le
Ð°Ð»Ð¸ Ð·Ð°ÑĨÐ¸Ð¸
ĠÑĢÐµÐ± ÑĳÐ½
ĠÐ·Ð° ÑĤÑı
ĠÐ¼ ÐµÑĤÐ°
ĠÐĿ ÐµÐ´
ĠÐ¾ÑĤÐºÐ°Ð·Ð° ÑĤÑĮÑģÑı
ÑģÑĤÐ²Ð¾Ð² Ð°Ð»Ð¾
ĠÑįÐ¼Ð¾ ÑĨÐ¸Ð¾Ð½
our n
Ġ198 0
Ġhe ad
Ġor gan
Ġp ass
ĠÐ²ÑĭÑģÐ¾Ðº Ð¾Ð³Ð¾
ÑģÐµ Ð²
ĠÐŀÑĤ ÐºÑĢÑĭ
ÐĿ Ð¸Ðº
ĠÐ¿Ð°ÑĢ Ð½Ñı
ĠÑģÐ¿Ð¾ÑģÐ¾Ð± Ð½Ñĭ
ĠÐ¸Ð½Ð¸ ÑĨÐ¸
ĠÐºÐ¾Ð¼Ð°Ð½ Ð´Ðµ
ĠÑĦÑĢÐ¾Ð½ ÑĤÐ°
Ġpro gram
ÑĩÐµ ÑģÑĤÑĮ
ĠÐ¿ÑĢÐ¾Ð²ÐµÑĢ ÐºÐ¸
Ð½Ñĥ ÑģÑĮ
ĠÐ¯Ð¿Ð¾ Ð½Ð¸Ð¸
ĠÐ»ÑİÐ± ÑıÑĤ
ÑģÑĤ ÑĭÑħ
Ñĥ Ð¹ÑĤÐµ
Ġb and
ĠÑĢÐµÐ·ÑĥÐ»ÑĮÑĤÐ° ÑĤÐ¾Ð²
ec hn
Ġpart ic
ĠÐ·Ð°Ð´ÑĥÐ¼ ÑĩÐ¸Ð²Ð¾
ĠÑģÐ¿ ÑĢÐ¾ÑģÐ¸ÑĤÑĮ
Ġ ÑĢÐ¾Ñģ
ĠÐ¾ÑĤ ÐºÐ°
ĠÑĤÑĢ ÑĳÑħ
ĠÑģÑĤÐ° ÑĢÐ¸
ĠÐºÐ½Ñı Ð·Ñı
ĠÑĤ ÑĥÐ¿
ĠÐ¾ÑĤÐ½Ð¾ ÑģÐ¸
Ð»Ð°Ð³ Ð¾Ð´Ð°
Ð»ÑĥÑĪÐ° Ð¹
ĠÑģÑĤ ÑĢ
Ð»ÐµÐ½ Ð½ÑĥÑİ
ÑĢÐ°Ð²Ð¸ Ð»Ð¸ÑģÑĮ
ĠÐ§ Ð¸
Ð¶Ð´ ÐµÐ½Ð¸Ñı
ĠÑģÐµÑĢ ÑĤÐ¸
ĠÐ´ Ð¾Ð·
ĠÑħ Ð¾Ðº
ĠÐĵÐ°ÑĢ ÑĢÐ¸
ĠÐ¡ ÑĤÐµÐ¿
ĠÑĥÑģÐ¿ ÐµÐ»Ð¸
ĠÐ¡ Ð¸Ð»
ĠÑģÐ¿Ð¾ÑģÐ¾Ð± Ð½Ð¾ÑģÑĤÑĮ
ĠÐ»Ð° ÑģÐº
ĠÑĥÑģÐ¿ ÐµÐ»Ð°
Ð½Ð° ÑĢ
ÑĤÐµ Ñģ
ĠÐľ Ð¸ÑĤ
ĠÐ¡ ÑĥÑīÐµ
Ð¾Ð± Ð°
ÑģÑĤÑĭ Ð¼Ð¸
ĠÐ½ÐµÐ¸Ð·Ð²ÐµÑģÑĤ Ð½Ð¾
ĠÐ¿Ð¾Ð¿ Ð°Ð´
ĠÐĺÐ½ÑĤÐµÑĢÐµ ÑģÐ½Ð¾
ĠÐ³ÑĢÐ° ÑĦÐ¸
Ð¶Ðµ Ðº
ĠÐ¿ÐµÑĢÐ¸ Ð¾Ð´Ð°
ĠÐ¾ÑĤ Ð´Ð¾Ñħ
ĠÐ¿Ð¾Ð·Ð° Ð´Ð¸
ĠÐ½Ð° ÑĤÑĥÑĢÐ°Ð»ÑĮ
Ð¡ Ð
ĠÐ´Ð²Ð° Ð¶Ð´Ñĭ
ĠÐ²ÐµÑĢ Ð½ÑĥÐ»Ð°ÑģÑĮ
ÑģÑĭ Ð»Ð°
ÑĩÐµÐ½ Ð½ÑĭÐ¼
ĠÐ¡ÑĤ Ð°Ð»Ð¸Ð½
Ġg u
Ð´Ð¸ Ð»Ð°
ec h
ĠÐ¿ÑĢÐ¸ Ð±
Ð· Ð²
ĠÐ´ÑĥÐ¼Ð° ÐµÑĤ
Ð½Ñı Ð»Ð°
Ð¸Ð½ ÑģÐºÐ¸Ð¹
ÑģÑĤ Ð¾ÐºÐ°
ĠÐ²Ð¾ÑģÑĮ Ð¼Ð¸
ÑĤ ÐºÐµ
Ð½Ñĥ Ð½Ðµ
Ġ199 1
Âł Ð´
ĠÐ»Ð¸ÑĤÐµÑĢÐ° ÑĤÑĥÑĢÑĭ
res ident
ÑħÐ¾ÑĤ Ð²Ð¾ÑĢ
ĠÐ¡ÑĤÐ° ÑĢ
ĠÐļ ÐµÑĢ
ĠÐ¼Ð¾Ð»Ð¾Ð´ ÐµÐ¶
ĠÐ³Ð¸ Ð³Ð°Ð½ÑĤ
Ð²Ð° Ð½Ð°
Ñħ Ð°Ð½
ĠÐĿÐ¸ Ð¶
ĠÐ¾Ð±Ð½Ð°ÑĢÑĥÐ¶ Ð¸Ð»
Ðł ÑĥÑģ
Ð° ÑĢÐµ
ĠÐ´Ð¸Ñģ ÑĨÐ¸Ð¿
ĠÐĲÐ´ Ð¼Ð¸Ð½Ð¸ÑģÑĤÑĢÐ°
Ð² ÑģÐµ
Ð¾Ð´ Ð½Ð¾
ĠÑĢÐ°Ð·Ð¾Ð±ÑĢÐ° ÑĤÑĮÑģÑı
ĠÐ¤ Ð¸
ĠÐ±Ð°Ð· Ñĭ
ĠÐ¿ÑĢÐ¸ Ð¹ÑĤÐ¸
ĠA m
Ð½Ñı ÑİÑĤ
Ġb ook
ĠÑĥÑĩ Ð¸ÑĤÐµÐ»ÑĮ
ĠÐĽ ÐµÐ½Ð¸
Ñĩ ÐµÐ½Ð¸Ð¹
ĠÐ»ÑİÐ± ÑĥÑİ
or m
ĠÐŁÐ¾Ñħ Ð¾Ð¶Ðµ
ĠÐ³Ð¾ÑĢÐ¾Ð´ ÑģÐºÐ¾Ð³Ð¾
end ed
ĠÐĳ ÑĢÐ¸
ÑĤÐ° Ð½Ð°
Ð¾ÑĤ Ð²ÑĢÐ°
ĠÐ»ÑĥÑĩ ÑĪÐ¸Ðµ
ĠÐ¿ÑĢ Ð¾Ð¹
ĠÐ²ÑĤÐ¾ ÑĢÐ°Ñı
ĠÑĤÑĢÐ°Ð½ÑģÐ¿ Ð¾ÑĢÑĤÐ°
Ð½Ð° ÑģÑĤÐ¾Ñı
Ġsup port
ĠÐ£ ÑĤ
ÑģÑĤÐ¸ Ð²
ĠÐ½Ð°ÐºÐ° Ð½ÑĥÐ½Ðµ
ĠÑĤ Ð¸ÑĤÑĥ
Ġg overnment
Ð¾Ð± Ð½Ð¾Ð²
ĠÑĪÑĤÑĢÐ° ÑĦ
is ed
ĠÑĤÐµÐ½ Ð´ÐµÐ½
Ġdif fer
ĠÐ½Ðµ Ð¾Ð¿
ÐµÐ² ÑĭÑħ
ÑĪ Ð¸ÑĤ
ĠÐŀ Ð»Ðµ
ĠÐ·Ð°ÐºÐ¾Ð½Ð¾Ð´Ð° ÑĤÐµÐ»ÑĮ
ĠÑĢÐµÑĪ Ð¸ÑĤÐµÐ»ÑĮÐ½Ð¾
ĠÐ¿ÑĢÐ¸ Ð³Ð¾Ð²Ð¾ÑĢ
ĠÐ½ÐµÐ¾Ð´ Ð½Ð¾Ðº
ÑĦÐ¾ÑĢ Ð¼Ñĭ
ĠÐ³Ð¸ Ð¿ÐµÑĢ
ĠÐ·Ð° Ð´ÐµÑĢÐ¶Ð°
amp ions
ÑĢÐµ ÑĤÑĭ
ÐµÐ» Ð»Ð¸
Ñī ÐµÐ½Ð½ÑĭÐ¹
ĠÑĦ Ð¾Ð½Ð´
ĠÐ½Ð°Ð¿ÑĢÐ°Ð² Ð¸Ð»ÑģÑı
ĠÐĳ Ð»Ð¸
Ð¿Ð¸ ÑĪ
ĠÑģÑĤÐ°ÑĤÑĥ Ñģ
ĠÐ· Ð¾Ð½Ñĭ
ĠÐ´ÐµÐ¼Ð¾Ð½ ÑģÑĤÑĢÐ¸
ĠÐ¿ÑĢÐ¾Ð´ Ð²Ð¸Ð¶
ĠÑħÐ¾ÑĢÐ¾ ÑĪÐµÐ³Ð¾
Ð½Ðµ Ð²Ð½Ð¾
ĠÐ¿Ð¾Ð´ Ð½Ð¸Ð¼
ÂłÐľ Ñĭ
ĠÑģÑĥÐ¼ ÐµÐ»
Ð»Ð¾Ð¶ Ð¸ÑĤÑĮ
ÐĲ ÐĹ
1 00
Ð²Ðµ ÑĢÐ¸
ĠÐ¿Ð¾ ÑĢÑĭ
Ð¾Ð» Ð¸ÑĤ
ÐĶ Ð¶
Ð¿Ñĥ Ð»ÑĮ
y l
ĠÑĢÑĥÐ± Ð»Ñı
ĠÑģÑĤÐ¸ ÑħÐ¸
ĠÐ¾ÑĤ ÑĩÐ°Ñı
ĠÑģÐ¾ ÑĨÐ¸Ð°Ð»Ð¸
ĠÑģÐ°Ð¼Ð¾Ð» ÐµÑĤÐ°
ĠÐļÐ¸ ÑĢÐ¸Ð»
Ðł Ð£
ĠÑĦÑĥÐ½ Ð´Ð°
ĠÐĳ Ð¾Ð³Ñĥ
Ð¾Ð» ÐµÐ½
ÑĢÑı Ð·
Ġ3 7
ĠÐŁ ÑĢÐ¾Ð±
ĠÑĤÐ²Ð¾ ÐµÐ³Ð¾
ĠÐŁ ÐµÐ½
ĠEuro pe
Ð¾ÑģÐ¸ Ð±Ð¸ÑĢ
ÑģÐ»ÑĥÐ¶ Ð°
ĠÐ¿Ð¾Ð» Ð½Ð¾Ðµ
ÑĢ ÐµÐ½Ð°
Ġch ild
ĠÐķÐ²Ð³ ÐµÐ½Ð¸Ð¹
ĠÐ¿Ð¾Ð»Ð½Ð¾Ð¼ Ð¾
ĠOct ober
ĠÐ´ÐµÑĤ Ð°Ð»Ð¸
as ter
ĠÐ´ÐµÑĤ ÑģÑĤÐ²Ð°
ĠÑĨ Ð¸ÑĤÐ¸
ĠB ro
ĠÐ²Ð½Ð¸Ð· Ñĥ
ÑĤÐ¸ ÑĢ
ĠÐ´Ðµ Ð¿Ð°ÑĢÑĤÐ°
ĠÑĦ ÑĢÑĥÐº
ĠÑģÑĤÐ¾Ð» ÐµÑĤ
ÑĪÐµÐ½ Ð¾
ĠÐ´ÐµÑĢÐµÐ² Ð½Ð¸
Ġe ach
ĠÐ¸ÑģÐ¿Ð¾Ð»ÑĮÐ· Ð¾Ð²Ð°Ð½Ð¸Ð¸
Ð½Ð¾Ð² Ðµ
ĠG u
ÑĢÐµ Ð·Ð°
ĠJ une
ĠÐ½Ð° ÑĢÑı
ĠÐ»Ðµ ÑĩÐµÐ½Ð¸Ðµ
ĠÐ¼Ð°Ð» ÐµÐ¹
ĠÐº ÑĢÐ¾Ð²Ð°ÑĤÑĮ
ĠÐ³ Ð»Ð¾ÑĤ
ĠÐ¿Ð¾Ð´ Ðº
ĠÑĥÑģÐ¿Ðµ Ñħ
ĠÐ³ ÑĥÐ¼Ð°
ĠÐ¿Ð¾Ð´Ð¾Ð± Ð½Ð¾Ðµ
ĠÐ¢ Ð¸Ð¼
ĠÑįÑĤÐ° Ð¿Ðµ
ÑİÑī ÐµÐ¼Ñĥ
ĠÐ²ÑģÑı ÐºÐ¾Ð³Ð¾
ĠÐ¾ÑĤ ÑĬ
Ñĸ Ð²
Ð³ ÑĢÑĭ
ĠÐĲ ÑĤ
ĠÐ´ÑĢÑĥÐ³ Ð¾Ð¼Ñĥ
ĠÐ·Ð°Ðº Ñĥ
ĠÐ»Ð°Ð´ Ð¾Ð½
ĠÐ¿ÐµÑĢÐµÐ½ Ð¾Ñģ
ĠÐ½ÐµÐ¿Ð»Ð¾ ÑħÐ¾
ÑĪÐ° ÑĤ
ĠÑĢÐ°ÑģÑģÐºÐ°Ð· ÑĭÐ²Ð°ÐµÑĤ
ĠÐ¿ÑĢÐµÐ´ÑĥÑģ Ð¼Ð°ÑĤÑĢÐ¸
ĠÑģÑĤÐ° Ð±Ð¸Ð»ÑĮ
ĠÑģÑĩÐ° ÑģÑĤÑĮÑı
ĠÐ¿Ð¾Ð½ÐµÐ´ÐµÐ»ÑĮ Ð½Ð¸Ðº
Ð¾Ð» Ð¾Ð¼
ĠÐ¿Ð¾Ð½Ñı Ð»Ð¸
Ð² Ð¸Ð»
5 8
ĠÐĵ Ð¸
ĠÐ·Ð°Ð¼ÐµÑĤ Ð¸ÑĤÑĮ
ĠÐ³Ð¸Ð¼ Ð½Ð°
ĠÐ¥ Ð¾ÑĢÐ¾
ĠÐ½Ð°ÑĪ Ð»Ð°
ĠÐĴÐµÐ»Ð¸ÐºÐ¾Ð±ÑĢÐ¸ÑĤÐ° Ð½Ð¸Ð¸
ĠÐ¶ Ð°Ð»ÑĮ
ĠÑįÐºÑģÐ¿Ð»ÑĥÐ°ÑĤÐ° ÑĨÐ¸Ð¸
Ð³Ð¾ ÑĢÐµ
ĠÐ·Ð°Ð¿Ð¸ ÑģÑĮ
ĠÑģÐ¾Ð± Ð»Ñİ
ĠÐ·Ð° ÑģÐµ
pr il
ĠÐ¾ÑĩÐµÑĢÐµÐ´ Ð¸
ĠÑģÐ¾Ð²Ð¼Ðµ ÑģÑĤÐ½Ð¾
ÑĢÑı Ð¼Ð¸
ĠÑĥÐ´Ð° ÑĢÐ°
Ġdes c
ĠÐ·Ð² ÐµÐ·Ð´Ñĭ
ĠÐºÐ¾ ÑĢÐ°
ĠÐ¿Ð»Ð° ÑĤÐ¸ÑĤÑĮ
ĠJu ly
k a
ÐĽ Ðĺ
ĠÐ¾Ñģ Ð»Ð°Ð±
ÂłÐŀ Ð½
ÑģÐº Ð¾Ð»ÑĮÐ·
ÑģÐ» Ð¾Ð¶
Ð¾Ñĩ Ð½ÑĭÐµ
ĠÑĢ Ð¾Ðº
ĠÐ¸ÑģÐ¿ ÑĥÐ³
ĠÑĥ Ð³Ð°
ĠÑĢÐ°ÑģÑģÐºÐ°Ð· Ð°Ð»Ð°
ĠÐ±ÐµÑĢÐµ Ð³Ð°
ĠÐ³Ð¾ÑĢÐ¾Ð´Ð° Ñħ
Ð¸Ð½ ÑģÐºÐ¾Ð³Ð¾
Ġ199 6
Ġsm all
ÑĥÐ± Ð¸Ð¹
ĠC o
ĠÐºÐ° Ð¶Ð´Ð°Ñı
ĠÐ¸Ð½ÑģÑĤÐ¸ÑĤÑĥ ÑĤÐ°
ĠÑĤÐ° ÑĢÐµÐ»
ĠÐ½ÐµÐ· Ð°Ð¼ÐµÑĤ
ĠÑĤÐµÑĢ Ð¼Ð¸
ĠÑģ Ð±Ðµ
ĠÐ· Ð¾Ð½Ðµ
ĠÑħÐ¾ÑĢÐ¾ ÑĪÐ¸Ðµ
ĠÑģÐ¸Ð»Ð° Ñħ
ĠÐ·Ð°Ñī Ð¸ÑĤÑĥ
ĠÑį Ð¼
ĠÐ¾Ð±ÑıÐ·Ð°Ð½ Ð½Ð¾ÑģÑĤÐ¸
ÑģÑĤÐ²ÐµÐ½ Ð½Ð¾ÑģÑĤÑĮ
Ġc ity
ĠÑģÑĥÑīÐµ ÑģÑĤÐ²Ð°
ĠÐ¿ÑĢÐµ Ð¾Ð±ÑĢÐ°Ð·
ĠBrit ish
ĠÐ´Ð¾ÑĢ Ð¾Ð³Ð¾
ĠÐ¸Ð½Ð¶ÐµÐ½ ÐµÑĢ
Ġcomm un
ÑģÑĤÐ°Ð½ Ðµ
Ñī Ð°Ð»Ð¸ÑģÑĮ
ĠÐ°ÑĢÐµ ÑģÑĤÐ¾Ð²
ĠÐ± Ð¾Ð´
ĠÐ¶Ðµ ÑģÑĤÐ¾Ðº
re t
ot t
Ð¿ Ð¾Ð¹
ÐµÐ¼ Ðµ
ĠÐ¿ÑĢÐ¸ ÑģÑĤ
h am
ĠÐ¿ Ð¾Ð³Ð¾
ĠÐ±Ñĭ Ð²Ð°ÑİÑĤ
ĠÐ·Ð°ÑıÐ² Ð»ÐµÐ½Ð¸Ñı
ic es
Ð¸Ð½ ÐºÑĥ
ĠÐ² ÐµÐ·
Ġt it
ĠÐ¶Ð¸ Ð²ÑĭÑħ
ĠÐ·Ð° ÑĦÐ¸ÐºÑģÐ¸
ĠÐ²Ðµ ÑīÐµÑģÑĤÐ²Ð°
ÑĢÐµ Ñħ
ĠÑĥ Ð¿Ð°
Ð¾Ð² Ð¸Ñĩ
Ð¾Ð¼ Ð½ÐµÐ½Ð½Ð¾
ĠÐ°Ð»ÑĮ Ð±Ð¾Ð¼
" :
ĠÐ±Ð°ÑģÑģ ÐµÐ¹
ÑĪ Ð¸Ð½Ðµ
ĠÐ´Ð¾ ÑģÑĤÐ°Ð»
ĠÐ¿Ð¾Ð´Ð¾ ÑĪÐ»Ð°
ĠÐ¸Ð½Ð¸ ÑĨÐ¸Ð°
ÑĥÐ¿ ÑĢÐ°Ð²
Ñı Ð·Ñĭ
ĠÐ¿Ð¾ÑĩÑĥÐ² ÑģÑĤÐ²Ð¾Ð²Ð°Ð»Ð°
ĠÐ²ÑħÐ¾Ð´ Ð°
Ðµ ÑģÐ»Ð¸
ÐĿ ÐĲ
Ñģ Ð°ÑĢ
Ð¶Ðµ Ð±
ĠÐ¿ÑĢÐ¸ Ð´ÑĥÐ¼Ð°
ĠÑģÑĢÐµÐ´ ÑģÑĤÐ²Ð¾
ĠÐ²ÑģÑı ÐºÐ¸Ñħ
ĠÑĢÐ°ÑģÐ¿ ÑĢÐµÐ´ÐµÐ»
ĠÐķÐ²ÑĢÐ¾Ð¿ ÐµÐ¹
Ð¸ÑĤÐ° Ð¼Ð¸
ĠÐ¼ÑıÐ³ ÐºÐ¾
ĠÑįÐº Ð·Ð°Ð¼
ĠÑĦÐ°Ð½ÑĤÐ° ÑģÑĤÐ¸
ĠÑĤÐ¾ ÑĩÐºÑĥ
ĠÐ½Ð°Ð·Ð½Ð° ÑĩÐµÐ½Ð¸Ñı
in ess
ÑģÑĤ ÑĢÐ¾Ð¼
ĠÐ¿ÑĢÐ¾Ð± Ð»ÐµÐ¼Ñĥ
ĠÑģÑĥÑīÐµÑģÑĤÐ² Ð¾Ð²Ð°Ð½Ð¸Ñı
ĠÐ¼ÐµÑģÑĤ Ð½ÑĭÐµ
ĠÐ²ÐºÐ»Ñİ ÑĩÐ°ÐµÑĤ
ÑĨ ÐºÐ¾Ð³Ð¾
Ðł Ð¾ÑģÑģÐ¸
ĠÐ±Ðµ Ð¶Ð°ÑĤÑĮ
ĠÐ¸Ð· Ð´ÐµÐ»Ð¸
iv ing
ĠÐ»ÑĥÑĩ ÑĪÐ¸Ð¹
Ð¶Ð´ ÐµÐ½Ð¸Ðµ
ĠÐ¼Ð°Ð» ÑĭÑĪ
Ð¾Ð± ÑħÐ¾Ð´
Ð¾Ñģ ÑģÐµ
Ġ199 7
ĠÑĢÐ°ÑģÑģÐºÐ°Ð· ÑĭÐ²Ð°Ð»
Ð¡ Ðł
ĠÐºÐ¾Ð½ÐºÑĥÑĢ ÑģÐ°
ĠÐ¿ÐµÑĢÐµ Ð¼ÐµÐ½
ĠÑģÐ¿Ðµ ÑĨÐ¸
Ġres ult
Ð½Ð° Ð´ÑĨÐ°
ĠÐľ Ð°ÐºÑģ
l ine
ĠÑģÐ¾Ð±ÑģÑĤÐ²ÐµÐ½ Ð½ÑĭÐµ
ĠÑĤÐµÐ¼Ð½Ð¾ ÑĤÐµ
Ð± ÐµÐº
ĠÑĨ ÐµÐ½Ðµ
Ð¼Ñĥ ÑĢ
ĠÐ´ÐµÑĢÐµÐ² Ð½Ðµ
ĠÑģÑĩÐ° ÑģÑĤÑĮÑİ
ĠF l
Ð¿Ð° Ð¼Ð¸
ĠÑĩÐ¸ÑĤ Ð°Ð»
ĠA fter
on y
Ð¿Ð¸ Ð»Ð¸
5 9
ÐµÐ» ÐµÐ½Ð½Ð¾Ð¹
Ð¸Ð¼ ÑĭÐ¹
ĠÐ¾Ð±ÑĬÑıÑģ Ð½Ð¸Ð»
ĠÑĤÑĢÐ°Ð´Ð¸ ÑĨÐ¸Ð¸
ĠÐ² Ð»Ðµ
ĠÐĴ Ð¸Ð»ÑĮ
ĠÐ³ Ð°Ð´
Ð» Ð¾Ð±
ĠÐ¼ÐµÐ¶Ð´ÑĥÐ½Ð°ÑĢÐ¾Ð´ Ð½ÑĭÑħ
ĠÑĪ Ð°Ð¼
ĠÐ½Ðµ ÑĢÐ°Ð·
ĠÐ¿ÑĢÐ¸ Ð´Ð°
Ġp rom
ĠÐ¾Ñģ Ð²Ð¾
ĠÑĤÐµÐ¼ Ð¸
Ðº Ð½Ñĥ
Ñī Ð°Ð»Ð°
ĠÐ¿Ð¾Ð·Ð¸ ÑĨÐ¸Ñİ
Ġform ula
ĠÑıÐ½Ð²Ð° ÑĢÐµ
ĠÐ¿Ð¾Ð·Ð²Ð¾Ð» ÑıÑİÑĤ
Ġp oint
ĠÐ¸ Ð½ÑĭÑħ
ĠÐºÐ¾Ð¼Ð¿Ð° Ð½Ð¸Ñİ
ĠÐ¿ÑĢÐ¾Ð´Ð¾Ð» Ð¶Ð°ÑĤÑĮ
Ġw orld
ĠÐ´Ð²Ð° Ð´ÑĨÐ°ÑĤÐ¸
ĠÐ¿Ð¾Ð²ÐµÐ· Ð»Ð¾
ĠÐ¿ÑĢÐ¸Ð¾Ð± ÑĢÐµÑģÑĤÐ¸
ĠÐŀ ÐºÐ°Ð·
Ð¡ ÐŁ
ĠÑģÐ¿ Ð¸Ð½Ðµ
ĠÐ³Ð»ÑĥÐ± Ð¸Ð½Ðµ
ĠÐ¸Ð½ÑĤÐµÑĢÐµ ÑģÑĭ
ĠÐ³Ð¾ÑĢ Ð¾Ð´Ñĥ
ÑĥÑī Ð¸Ð¹
ĠÑįÐ»ÐµÐ¼ ÐµÐ½ÑĤÐ¾Ð²
ĠÐ´Ð° ÑģÑĤ
ĠXI X
ÑĢÐµÐ´ ÐºÐ¾
ÑĥÑĪ ÐºÐµ
ĠÐ¿Ð»Ð° Ð½ÐµÑĤ
ĠÐ½Ð° ÑģÑĤÐ¾Ð¹
ĠÐºÑĢÐ¾Ð² ÑĮÑİ
ĠÑģÐ²Ð¾Ð± Ð¾Ð´Ñĥ
ĠÐºÐ¾Ð½ÐºÑĥÑĢ Ñģ
ÑģÑĤ Ð¾Ð½
Ð¡ Ðķ
ĠÐ¼Ð° ÑĤÐµÑĢ
ac ed
ĠÐ¾ÑĤÐ´ÐµÐ» ÐµÐ½Ð¸Ñı
Ð»Ð¸ Ð²ÑĭÐ¹
ĠÐ¾ÑĨÐµÐ½ ÐºÐ¸
ÑĤÐ¾ ÑĢÐ¸Ð¹
ÑĥÐ´ Ð¾Ð²
le x
ĠÑĢÐ°Ð±Ð¾ÑĤ Ð¾Ð¹
ĠÐĿÐ°ÑĢ Ð¾Ð´
Ðľ Ðµ
ĠÐ¿Ð¾Ð» ÐºÐ°
ĠÐ¿ÑıÑĤ Ð½Ð¸ÑĨÑĥ
ĠÐ¿ÑĢÐ¸ Ð³Ð¾Ð´
Ñĥ ÑĢÐµ
ĠÐ¼Ð¸ ÑģÑģ
ĠÐ»Ð¸ ÑģÑĤ
ĠÑĢ Ð²Ð°
Ð½Ð° Ð´Ðµ
Ð´ ÐµÐ½Ð°
ÐºÐ¾Ð² ÑĭÐ¹
ĠÐ³Ð¾Ð»Ð¾Ñģ Ðµ
Ð¶Ð¸Ð¼ Ð°
Ð¸Ð· Ð½ÑĮ
ÑĢ ÑĤÑĥ
ĠÐ½Ð°Ð¿ÑĢÐ°Ð² Ð»ÐµÐ½Ð¸Ðµ
ĠÐ²Ð¾Ð·ÑĢÐ° ÑģÑĤ
ĠÑģÐ¾Ð± Ð»ÑİÐ´
ĠÑĤÑĥ Ð°Ð»
ĠÐ½Ð°Ð´Ðµ ÑİÑģÑĮ
ĠÐ½ÐµÐ²ÐµÑĢÐ¾ ÑıÑĤ
ĠÐ¾Ñģ ÑĥÐ¶Ð´
ĠÐ±Ð°Ð½ ÐºÐ¸
Ð¾Ñĩ Ð½ÑĭÑħ
ĠÐ¼Ñĥ Ð¶Ðµ
Ð¼ Ñģ
ĠÑģÑĤÐ° Ð½ÑĥÑĤ
ÐºÑĥ Ñģ
ĠÐ¿ÑĢÐµÐ´ Ð¾ÑĤÐ²ÑĢÐ°
ÑĩÐ¸ÑĤ Ð°ÑĤÑĮ
ĠÐ¿ ÑĥÐ±Ð»Ð¸Ñĩ
ĠÐºÐ° ÑĤÐ°Ð»
ĠM an
ÑĤÐ¸Ð² Ð½Ð°Ñı
ĠÐºÐ¾ Ð¾ÑĢÐ´Ð¸Ð½Ð°
ĠÐĶÐµÐ² ÑĥÑĪÐºÐ°
ĠÑģÑĤÐ¾ ÑıÑĤÑĮ
ĠH is
he s
ĠÐ´Ð° Ð²Ð°ÑĤÑĮ
er y
ĠÐŁ ÑĢÐ¾Ð²
Ð» Ñĳ
ĠE d
ĠÑģÑĥÑīÐµ ÑģÑĤÐ²ÑĥÑİÑĤ
Ð±Ð° Ñħ
ÐºÐ° Ñģ
ĠÐ²ÑģÑĤÑĢÐµ ÑĩÑĥ
ĠÑģÐµÑĢ Ð²Ð¸Ñģ
ĠÐ¿ÑĢÐ¾Ð´Ð° Ð¶Ð¸
ĠÐºÐ²Ð°Ð´ ÑĢÐ°ÑĤ
ĠÑĢÐµÑģÑĥÑĢ ÑģÐ¾Ð²
ĠÐ±Ð° ÑĢÐ°
ĠÑĢÐ¾ÑģÑģÐ¸Ð¹ ÑģÐºÐ¸Ðµ
ĠÐļ Ð½Ð¸
Ġc ould
ĠÐºÐ¾Ð¼Ð¼ÐµÐ½ÑĤÐ° ÑĢÐ¸Ð¸
ĠÐ·Ð½Ð° Ð½Ð¸Ð¹
ĠÐ¾ ÑģÑĤÑĢÐ¾
ĠÐļ Ð¸ÑĤÐ°
ĠÐ¿ÑĢÐ¾Ð³ Ð½Ð¾Ð·
ĠÐ¿ÑĢÐµÐ´ÑģÑĤÐ°Ð² Ð»ÐµÐ½Ð¸Ðµ
ĠÐŀÐ±Ñĭ ÑĩÐ½Ð¾
ĠÑĥÐ´Ð¾Ð± Ð½Ð¾
ÐµÐº ÑĤÐ¾Ð²
ĠÑĪÐ°Ð³ Ð¾Ð²
Ġst ation
ĠÐ´ Ñİ
ĠÐ¿Ð¾Ð»ÐºÐ¾Ð² Ð½Ð¸Ðº
ĠÐ»ÑİÐ± ÑĭÑħ
ĠÑĦ Ð»Ð¾ÑĤ
ĠÑĨ Ð°ÑĢÐ¸
Ġ7 5
Ġo cc
ĠÐ²Ñĭ Ð½ÐµÑģ
Ð´Ñĭ Ð²Ð°Ð»
ĠÑĥ ÑĪÐ»Ð°
ĠÐĲÑĢ Ñħ
ĠÐ¸Ð· Ð´Ð°Ð½Ð¸Ðµ
ĠÑģÐ»Ñĥ ÑĪÐ°ÑĤÑĮ
ĠÐ½ÐµÑĦ ÑĤÐ¸
le v
Ð·Ð¸ Ð¾Ð½
ĠÐ°ÑĢ ÑħÐ¸
Ð½ ÐµÑĤÐ°
Ð¾ ÑĤÐ¸
ĠC ity
ÑĭÐ²Ð° Ð½Ð¸Ðµ
ĠÐ¶ÐµÐ½ Ñĥ
ĠÐ² Ð¾Ð»Ð¸
ĠÐ¿ÑĢÐ¾Ðº ÑĥÑĢÐ¾
Ġv ill
ÐµÐ¼ Ð¾Ð½
ĠÑģÐ»ÐµÐ´ ÑĥÑİÑīÐµÐµ
ĠÐ¶Ð¸Ð² Ð¾Ð¹
ĠÐ¿Ð¾ÑĤÐµÐ½ ÑĨÐ¸
Ġl and
Ð²Ð° ÑİÑīÐ¸Ð¹
Ġloc ated
ĠÑĩÐµÑĢ Ð½ÑĭÐ¹
ĠÐ²Ð¸Ð· Ð¸ÑĤ
ÑĤÐµ ÑĢÐ¸Ð¸
ĠGo ogle
ĠÐºÐ¾Ð¼Ð¼ÐµÐ½ÑĤÐ° ÑĢÐ¸Ð¹
ĠÐ°Ðº ÑĤ
Ð²Ð° Ð½Ð¸Ñİ
ĠÑĩÐµÑĤ ÐºÐ¾
ÑĥÐ»ÑĮ Ð¼Ð°Ð½
ĠÐĶ ÐµÑĢ
ĠÐ¨ Ð°
ĠÐĵ Ð¾Ð²Ð¾ÑĢ
ĠÐ»Ð°Ð´Ð¾ Ð½Ð¸
Ð¸ÑĩÐµÑģÐº Ð¾Ð¹
ĠÐ´ ÑĢÐµ
ÐµÐº ÑģÐ¸
ĠÐĵ Ð¸ÑĤ
ÑĨÐ¸Ð¾Ð½ Ð½Ð¾Ðµ
Ðµ Ñı
Ð³ Ð¾Ð´Ð°
ĠÐ¸Ð½Ð¸ÑĨÐ¸ Ð°ÑĤÐ¸
ĠR uss
ĠÑĤ Ð°ÑĢÐ¸
ĠN orth
ĠÐº Ð¾Ðº
ÑģÑĤ Ð½Ð¾Ðµ
ĠÐĽÐµ Ð¾Ð½Ð¸
ĠÑĥÐ»Ñĭ Ð±Ð°
ĠÐļÑĢÑĭ Ð¼Ð°
ÐĴ Ð°
ĠÑĥÑĩÐ°ÑģÑĤ Ð½Ð¸ÐºÐ¸
ĠÑĥ ÑģÐ°
ĠÐ¾ÑģÑĤÐ°Ð½Ð¾Ð² Ð¸ÑĤÑĮ
Ġsuc cess
ÑĦÐ¸ ÑĨ
Ðĳ Ð£
ÑĮÑı Ð½
ĠÑĤ Ð¾Ðº
ÑĥÑī Ð¸Ñħ
Ġpol it
ĠÐ¾Ð±Ñī ÐµÐ½Ð¸Ñı
ĠÐ´ÐµÑģÑıÑĤÐ¸ Ð»ÐµÑĤ
Ð³Ð¾ Ñģ
ĠÐ¾ÑĤ Ð´Ð°ÑĤÑĮ
ĠÐ´ÐµÐºÐ° Ð±ÑĢÐµ
ĠÐºÐ¾Ð¼Ð¿Ð° Ð½Ð¸ÐµÐ¹
ĠÐ²Ð·Ð´Ð¾Ñħ Ð½ÑĥÐ»Ð°
ĠÐºÑĥ Ð·
ĠÐ¿Ð¾Ð¼Ðµ ÑīÐµÐ½Ð¸Ðµ
ĠÑģÐ¾Ð±ÑĢÐ° ÑĤÑĮ
ÑīÐ° Ð¼Ð¸
ĠÐºÐ¾Ñģ Ð¼ÐµÑĤ
ĠÐ²ÑĭÐ±Ð¾ÑĢ Ñĭ
Ð¶ ÐºÐ°
ĠÐ¸Ð·Ð±Ð° Ð²Ð¸ÑĤÑĮÑģÑı
Ð¸ÑĩÐµÑģÐº Ð¸
ĠÑģÐ»Ð¾Ð¶ Ð½Ð¾ÑģÑĤÐ¸
Ð»Ð¾ ÑĤÑĮ
Ð¿Ð¸ÑĤ Ð°Ð½
ÑģÐº Ð°Ð»
om en
ĠÐĶ ÐµÑĤ
ĠÐ¾Ð³ Ð½Ðµ
ĠÐ´Ð¸ Ð°
ĠÐ¼ Ñį
ÑĤÐµ ÑģÑĮ
Ġc are
r act
ĠÑģÑĥ ÑĢÐ¾Ð²
ĠÐ¾Ð¿Ð°Ñģ Ð½Ð¾ÑģÑĤÑĮ
ÑĢÐ¾Ð²Ð°Ð½ Ð½Ð°Ñı
ĠÐ¿ÑĢÐµÐ´ÑģÐµÐ´Ð° ÑĤÐµÐ»Ñı
ĠÑģÑĤÐ°ÑĤÑĮ Ñİ
ĠÐ± Ð¸ÑĢ
ĠÐ¿Ð¾Ð»Ð¾Ð² Ð¸Ð½Ðµ
Ð¾Ð´ Ð¾Ð±
ĠÑĢÐµ Ð°Ð»ÑĮÐ½Ð¾
ĠÐ½ÐµÐ´ÐµÐ» Ðµ
ĠA pril
Ġd r
Ġal ong
ĠÐ¿Ð¾Ð´Ð²ÐµÑĢ Ð³
ĠÐ´Ðµ ÐºÐ¾ÑĢÐ°
ĠÐ² ÑĢÐ°Ð¶
ĠÐ±Ð¾Ð»ÑĮÑĪÐ¸Ð½ ÑģÑĤÐ²Ðµ
ĠÐºÐ¾Ñģ Ð¼Ð¾Ñģ
ĠÐ¿Ð¾Ð»Ð¸ÑĤÐ¸ÑĩÐµÑģÐº Ð¸Ñħ
ĠÐĿÐ° ÑĪ
an e
av ing
ĠÐºÑĥÑĢ ÑģÐµ
Ġcl ass
ĠÐ¿Ð°ÑĢÐ° Ð»Ð»
ĠÐ´Ð¸Ð²Ð¸ Ð·Ð¸Ð¸
ĠÐ·Ð°ÑģÐµÐ´Ð° Ð½Ð¸Ð¸
ĠÐ½Ð°Ð· Ð²Ð°Ð½Ð¸Ñı
ĠÐºÐ¾ÑĢÐ¿Ñĥ Ñģ
ĠÐ¤ Ð¾ÑĤÐ¾
ĠÐºÐ°Ð¶Ð´ Ð¾Ðµ
Ġ199 2
ĠÐ¾ÑĤÐ½Ð¾ÑĪÐµÐ½Ð¸Ñı Ñħ
ĠÐ·Ð° Ð²Ð¾
Ñĩ ÐºÐ¾
od e
ĠÐļ Ð°Ð²
ĠÐ²Ð¾ÑģÐºÑĢÐµÑģ ÐµÐ½ÑĮÐµ
emb ers
ÑģÑĤÑĢÐ° Ð¸
ĠÑģÑĤÐ¾Ð» ÐºÐ½Ð¾Ð²
ĠÐ¡ÐµÑĢÐ³Ðµ Ñı
ÑĪ ÐºÐ°Ð¼Ð¸
ĠÐ¢ Ð¸Ð¼Ð¾
ĠÐ¿ÑĢÐ¸Ð² Ð»ÐµÐº
Ñħ Ð¾Ð·ÑıÐ¹
ĠÐ¡ Ð°Ð»
ĠÑģÑĤÐ° ÑĢÐ¸Ð½
ĠÐ´Ð¸Ð°Ð³ Ð½Ð¾ÑģÑĤÐ¸
ÑıÑĤÐ¸ Ðµ
Ġ199 5
Ð°Ð½ ÑĤÑĭ
ĠÑģÑĢÐµÐ´ Ð½ÐµÐ¼
ÑİÑī ÐµÐ¼
ĠÐĺÑģÑĤÐ¾ ÑĩÐ½Ð¸Ðº
Ð± ÐµÐ»Ð¸
ĠÐ¿ÑĢÐµÐ´ÑĬ ÑıÐ²
ĠÐ²Ð° ÑĪÐµÐ¼
Ð¼Ñĭ Ð¼
ĠÐĶÐ° Ð½Ð¸
ÂłÐĹ Ð°
Ðľ Ð°ÑĢ
ÑĢÐ¸ ÑĤÑģÑı
ÑĤÐµÑħ Ð½Ð¸
ĠÐ¾ÑĤ ÑĢÐ°Ð¶Ð°
ĠÑĢÐ¾Ð² Ð½Ð¾
ĠÐºÑĢÑĥÐ¿ Ð½ÐµÐ¹
Ġ3 3
Ð½ Ñĸ
ĠÐ¿Ð¾ÑıÐ² Ð¸Ð»Ð¾ÑģÑĮ
ĠÐ¿Ð¾Ð·Ð´ ÑĢÐ°Ð²
Ð¾Ð² Ñĥ
ĠÐ° Ñģ
Ð¶Ð° ÑĤÑĮÑģÑı
Ġto ok
ĠÐ´ÐµÑĢÐµ Ð²Ð¾
ĠÑĤÐµ Ð¾ÑĢÐµ
ĠÑħÐ¸ ÑĢÑĥÑĢ
ĠÐ¾Ð±ÑĥÑĩ ÐµÐ½Ð¸Ðµ
ĠÑħÐ¾ÑĢÐ¾ ÑĪ
ĠÐ²Ð· Ð´
ĠÑįÐºÑģÐº ÑĥÑĢ
ĠÑĢÐµ Ð°Ð»ÑĮÐ½Ð¾ÑģÑĤÐ¸
ĠÑģÐµÐ½ÑĤ ÑıÐ±ÑĢÐµ
ĠÑĦÐ¾Ð½ Ð´Ð°
ĠÐºÐ°ÑĢÑĤÐ¸ Ð½Ñĥ
Âł Ð½Ðµ
iv al
ĠÐ²Ð¾Ð¿ÑĢÐ¾Ñģ Ñĥ
---- ----
ĠÐ¿ÑĢÐ¸ ÐµÐ·
ĠÐ¼Ð¾Ð»Ð¾Ð´ Ð¾Ð³Ð¾
ĠÐ¿Ñĥ Ð»ÐµÐ¼
ÑĩÐ° ÑģÐ°
ĠÑģÑĢÐµÐ´ Ð½ÐµÐ³Ð¾
Ð± Ð¾Ð»
ĠÐ¼ÑĥÐ·Ñĭ ÐºÐ°Ð½
Ġ199 4
ĠÐĵÐ¾Ñģ Ð¿
ĠÑĦ Ð°Ð±
ĠÑģÑĤÐ¾Ð»Ð¸ ÑĨÐµ
ĠÐºÑĢÐ¸ Ð·Ð¸
ÑĩÐ¸ ÑģÐ»Ð¸
ĠÑĤÐ° Ð±Ð»Ð¸
ĠÐ´ ÑĥÐ¼
ĠÑĥÐ²Ð¸Ð´ ÐµÐ»Ð¸
Ð¼ÐµÐ½ ÑĤÐµ
ĠÐ·Ð°Ñģ Ð¼Ðµ
ĠÐ³ÑĥÐ± ÐµÑĢ
ĠÐ²Ñĭ ÐºÐ»Ñİ
ĠÑĢÐ°Ð±Ð¾ÑĤ Ð°Ð»Ð¸
Ġto wn
ĠÐĶ Ð°Ð»ÑĮ
Ð»Ð¾Ðº Ð¸
ĠÐ² Ð¸ÑĤ
ÐŁ ÑĢÐ°Ð²
ĠÑĥ Ð¿Ñĥ
Ð»Ð¾ Ñħ
ĠÐ¿ÑĢÑı Ð¼Ð¾Ð¹
Ġ3 9
ÑĢ Ñį
Ð´Ð¸ ÑĤÑĮÑģÑı
ÐŃ Ð¡
ĠÐĽ Ð¾
ĠÐ´ÐµÐ¹ÑģÑĤÐ² Ð¸ÑĤÐµÐ»ÑĮÐ½Ð¾ÑģÑĤÐ¸
Ðµ ÑĦ
ĠÐĴÐ°ÑĪ Ð¸Ð½Ð³
Ð³ ÑĥÐ±
ĠÐ³ÐµÑĢ Ð¾Ð¹
ĠÐ¾Ð³ÑĢÐ° Ð½Ð¸Ñĩ
ĠÐ¢ Ð²Ð¾
ÑģÐ° Ð¹
ĠÑĢÐµÐ³ÑĥÐ»ÑıÑĢ Ð½Ð¾
ĠÐºÐ°ÑĢ ÑĮÐµÑĢ
ĠÐ½ÐµÐ´ Ð°Ð»ÐµÐºÐ¾
Ð¾Ð² Ð°Ð»Ð¾ÑģÑĮ
Ð¼Ð° Ð½Ñĭ
ĠÑģÐ¾Ð·Ð´Ð° Ð½Ð¸Ð¸
ĠÐŀ ÑĩÐµ
ÐµÐ½ ÑĤÐµ
ĠÐ·Ð° ÑģÑĤÐ°Ð²Ð¸ÑĤÑĮ
Ñī ÐµÐ½Ð¸Ñİ
ĠÐ²ÑĭÐ½ÑĥÐ¶Ð´ ÐµÐ½
re en
ĠÐĲ Ð³Ð°
Ġm ajor
ĠÐ¼Ð° Ð½Ð¸
ĠÑĤ Ð²Ð¾Ðµ
ĠÑĥ Ð±Ð¾ÑĢ
ĠNov ember
ĠÐ³ ÑĢÐ¾Ð±
ĠÑĤÐ°Ð¼ Ð¾Ð¶
Ðĺ Ðķ
Ġ ÑīÐ¸ÑĤ
Ð¢ ÐŁ
ĠÑĤÑĢÐµÑĤÑĮ ÐµÐ³Ð¾
ĠÐ± Ð¾ÑĢÐ¾ÑĤÑĮÑģÑı
ĠÐ¿ÑĢÐ°ÐºÑĤÐ¸ ÐºÐµ
ĠÐ´Ð¾Ðº Ð»Ð°Ð´
ĠÐ´ÑĢÑĥÐ·ÑĮÑı Ð¼Ð¸
ĠÐľÐ° ÑĤÐµÑĢÐ¸
ÑĦÐµÑĢ Ñĥ
ÑģÑĤÐ° ÑĤÑĮ
ĠÐºÐ¾Ð½ÑģÑĤÑĢÑĥÐº ÑĨÐ¸Ð¸
ĠÐ¿ÑĢÐ¸Ð·Ð½Ð° ÑĤÑĮ
ĠÐ°Ð²ÑĤÐ¾ Ð½Ð¾Ð¼
ĠÐ·Ð°Ðº ÑĥÐ¿
ĠÐ¾ÑĢÑĥÐ¶Ð¸ ÐµÐ¼
ĠÑģ Ð·Ð°Ð´Ð¸
ĠÐ¼Ñı Ñĩ
ĠAust ral
ĠÐ¾ÑĤÐ²Ðµ ÑĩÐ°Ð»
ĠÐĸ Ð¸
ĠÐºÐ¾Ð½ÑĦÐ»Ð¸Ðº ÑĤÐ°
Ġs l
ĠÐ¾ÑĪÐ¸Ð± ÐºÐ¸
ĠÑĪÐº Ð¾Ð»Ð°
ĠÐ¿ÑĢÐ¸Ð¾Ð± ÑĢÐµÑĤÐ°
Ð½Ð¸ Ð»Ð°ÑģÑĮ
ĠÑĪÑĤÐ° Ð±
ÐĶ Ð»Ñı
ÑģÑĤÐ² ÑĥÑİÑīÐ¸Ñħ
ÑĩÐ°ÑģÑĤ ÑĥÑİ
ĠÐ» ÐµÐ´Ð¸
ĠDec ember
ĠÑģÐ»ÐµÐ´ Ñĭ
Ðľ Ð½Ðµ
ÂłÐŀ ÑĤ
Ð¼Ð¸ Ð³
Ġapp ro
ĠÐ¸ÑģÐ¿Ð¾Ð»ÑĮÐ· Ð¾Ð²Ð°Ð½Ð¸ÐµÐ¼
Ġ197 0
ĠÑĤÐºÐ° Ð½Ð¸
ĠÐ¶ Ð¸Ð»Ð°
ĠÐ¸Ð·Ð²ÐµÑģÑĤ Ð½ÑĭÑħ
ĠÐ²ÐµÑīÐµ ÑģÑĤÐ²
Ñĩ ÑĳÑĤ
ĠÐ¸Ð¼Ñĥ ÑīÐµÑģÑĤÐ²Ð°
ĠÐ¼ Ð¾Ð´ÐµÑĢ
ĠÐ²Ð¾Ð¹ ÑĤÐ¸
ÑıÑī ÑĥÑİ
ĠÐ±Ð¾Ð»ÑĮÑĪÐ¸Ð½ ÑģÑĤÐ²Ð°
ĠÐ°ÐºÐºÑĥ ÑĢÐ°ÑĤÐ½Ð¾
Ðµ Ð¶Ð¸
ĠÑĥ ÑħÐ°
ĠÐºÑĢÐ°Ñģ Ð¾ÑĤÑĭ
ĠÑģÑĤÐ° ÑĢÐ¾Ð³Ð¾
ĠÐĺÑģÐ¿Ð° Ð½Ð¸Ð¸
ĠÐ½ Ð°Ð»Ð°
ĠÐºÐ°Ðº Ð¸Ð¼Ð¸
ĠÐ¾Ð±Ð½Ð°ÑĢÑĥÐ¶Ð¸ Ð»Ð¸
ĠÑģÐµÐ· Ð¾Ð½Ðµ
ward s
ĠÑĥÑģÑĤÑĢÐ¾Ð¹ ÑģÑĤÐ²Ð¾
ĠÑĤÐµÐ» Ð¾Ð¼
ĠÐ²Ð¾Ðº Ð·
ĠÑĤÐ²ÐµÑĢ Ð´Ð¾
ĠÐĴ Ð°Ð´
ÑĤÐ¸Ð² Ð½Ð¾Ðµ
a ugh
Ð¾Ð»ÑĮ Ð½ÑĭÐ¹
ĠÐ¿Ð¾Ð»Ð¸ÑĤÐ¸ ÐºÐ°
ĠÐ½Ð° ÑĤÑı
ĠÑĤÐ¾ÑĢÐ³Ð¾Ð² Ð»Ð¸
ĠÑģÐºÐ° Ð¶ÐµÐ¼
ĠÐ¶ Ð´ÑĥÑĤ
ĠÑģÑĤÐ° ÑĢÑĭÐµ
ĠÐ¾ÑĤ ÑĢÐµÐ·
5 2
201 3
ĠÑĤÑĥ ÑĢÐµÑĨ
ĠÐ¾ÑĢÐ³Ð°Ð½Ð¸Ð· Ð¼
ĠÐ¿ÑĢÐ¾ ÑĩÑĮ
ĠÐ½ÐµÐ· Ð°Ð¼
Ġ4 8
ĠÐ² Ð°Ð½
Ð² ÐºÐ¸
Ñĳ Ð´
ĠÐºÐ¾Ð¼ Ð¸ÑĤÐµÑĤ
ĠÐ²Ð¸Ð´ Ð¸ÑĤÐµ
ÑģÑĤ ÐºÐ°
ĠÐĲ Ð·
ĠÑĤÑĢÐµÐ² Ð¾Ð¶
Ð² ÑĪÐµÐ¼
ĠÑĢÐµ ÑĪÐ°ÑĤÑĮ
ĠÐ¸ÑģÐ¿Ð¾Ð»ÑĮÐ·Ñĥ ÑİÑĤÑģÑı
Ð³ Ð°Ð¼
ĠÑĦ Ð¸Ð»Ð¸
qu e
ĠÑĨÐ°ÑĢ Ñı
ĠÐ±ÐµÐ» ÑĭÐ¹
" >
ĠÐ¿ÑĥÐ½Ðº ÑĤ
ĠÑĤÑĢÐ° Ð³
ĠÑģÐµÑĢ ÑĮÑĳÐ·
ÑĤ Ð½ÑĭÐ¼
ĠÐĲÐ½ ÑĤÐ¾Ð½
ĠÐ¾ÑĤÐµ ÑĩÐµ
ĠÑĤÐ°Ðº ÑģÐ¸
ÑģÑĤ Ð½Ð°Ñı
ĠÐ²Ð¾ÑģÐ¿Ð¾Ð¼Ð¸Ð½Ð° Ð½Ð¸Ñı
ĠÑĦ ÑĢÐ°Ð·
ĠÐ´ÐµÐ¿ÑĥÑĤÐ° ÑĤ
ĠÐ¼Ð° ÑģÑĤÐµÑĢÐ°
ĠÐ¿Ð¾ÑģÐ» ÑĭÑĪ
ĠÑĢÐ°Ð² Ð½Ð¾Ð´Ñĥ
Ð§ Ð¡
Ð· Ð¸Ð¹
ĠÐ²ÐµÑĤ ÑĢÐ°
ÑĮ ÑıÐ²
m e
ĠÑĢÐ°ÑģÑģÑĤÐ¾Ñı Ð½Ð¸Ð¸
ÑĤÐ° ÑĢÐ¸
ĠÑĤÐµ ÑĢÐ°
ĠÐ¿ÑĢÐ¸Ð²Ñĭ Ðº
âĢĦ âĢĦ
ar ge
ĠÐĿÐ°Ð´Ðµ ÑİÑģÑĮ
ĠÐ¿Ð¾Ð» Ð½ÑĥÑİ
ĠÐ½Ð° Ð´ÐµÐ»
7 2
Ñī ÐµÐ½Ð½ÑĭÐµ
ĠÐ´Ð¸ ÑģÐ¿
ĠÑĢÐ°Ð·Ð³ Ð¾Ð²Ð¾ÑĢÐ°
Ġ ?
at ely
ĠÐĶÑĢÑĥÐ³ Ð¸Ðµ
ĠÑģÐµÐ¼ ÑĮÑİ
ĠÐ¿Ð¾Ð» Ð½Ð¾Ð³Ð¾
ĠÐ±Ð¾ÑĢ ÑĤÑĥ
ĠÐ³Ð¸Ð± ÐµÐ»Ð¸
ĠÑĪ Ð¾Ñĥ
ĠÐŁ ÑĢÐµÐ¶Ð´Ðµ
ĠÐºÐ¾ÑĢ ÑĢÑĥÐ¿
ĠÐ°Ð¿ Ð¿Ð°ÑĢÐ°ÑĤ
ĠÑĩÑĥÐ² ÑģÑĤÐ²Ð¾Ð²Ð°Ð»Ð°
ÑĤÐµÐ»ÑĮ Ð½ÑĥÑİ
Ð² ÑĤÑĢÐ°
ĠÐŀÑĤÐµ ÑĩÐµÑģÑĤÐ²ÐµÐ½Ð½Ð¾Ð¹
ĠÐ·Ð° Ð¼Ñĭ
ĠÐ¸Ð³ÑĢÐ° Ð»
ĠÐ´ Ð²Ð¸Ð³
ĠÐľÐ¾ Ñı
ĠÑįÐº Ñģ
ĠÐ¿ÑĢÐ¸ ÑĢÐ¾Ð´Ðµ
ĠC ar
ĠÐľ ÐµÐ½
Ġn ow
Ġ194 5
Ð¡Ðļ ÐĲ
ĠÐ²ÑģÐµ Ð¾Ð±
ĠÐ¿Ð¾ÐºÐ¾Ð» ÐµÐ½Ð¸Ñı
Ð¸Ð¼ ÑĭÐµ
ĠÐĹÐµÐ¼ Ð»Ðµ
ĠÐ½Ð°Ñģ Ð¼Ðµ
ĠÐ½ÐµÐ¿Ð¾Ð´ Ð²Ð¸Ð¶
ĠÑįÐ² Ð°ÐºÑĥ
ĠÐ²Ð¾Ð· Ð¾Ð±Ð½Ð¾Ð²
Ð¸Ð½ Ð³Ð°
ĠÐ¼Ð° Ðµ
ĠÑĥÐ± Ð¸Ð»
ĠÑģ Ð½ÑıÐ»
ĠÐ¥ ÑĢÐ¸ÑģÑĤÐ°
== ==
ĠÐ¿ÑĢÐ¾Ð²Ð¾Ð´ Ð¸ÑĤÑģÑı
m ed
Ġhe ld
ĠÐŀÑĤ ÐºÑĥÐ´Ð°
ri pt
Ġre v
Ðł Ðķ
ian s
ĠÐļÐ¸Ðµ Ð²Ðµ
ĠÐ½Ð°Ñħ Ð¼Ñĥ
ĠÑĤÐ¾Ð²Ð° ÑĢÐ°
ĠÐ¿Ð»Ñİ Ñģ
Ð¾Ð³ Ð»Ð°
ĠÐ´Ð° Ð¹
ĠÑģÐ¾ ÑĨÐ¸
ĠÑįÑĤÐ° Ð¶
ĠÐĴ ÐµÑĤ
ÂłÐŁ Ð¾
ĠÐºÐ¾Ð½ÑĤÑĢÐ°Ðº ÑĤ
h or
ĠÐ·Ð°Ð½Ð¸Ð¼ Ð°Ð»ÑģÑı
ĠÐ½Ð°ÑħÐ¾Ð´ Ð¸ÑĤÑĮÑģÑı
Ð¾ÑĤ ÐºÑĢÑĭ
Ð½Ñĥ Ð»Ð¾ÑģÑĮ
ĠÐ³Ð¸ Ð¿
at s
Ð¸ÑĩÐµÑģÐº Ð¸Ðµ
ĠÐº Ð»Ñı
ÐµÑĢÐµ Ð¼
ĠÐ°Ðº ÑĨÐ¸Ð¹
ĠÑĢÐ°Ð· Ð´Ð°
ÑĥÑİÑī Ð°Ñı
Ð¾ÑĢÐ¸ ÑĤÑĮ
ĠÐ¾ÑģÑĤ Ð°Ð»ÑĮÐ½Ð¾Ðµ
th ough
il it
ĠÐ¾Ð±ÑĬÐµÐº ÑĤÐ°
ĠÑģÑĤÐ°ÑĢÐ° Ð»ÑģÑı
âĢ ¢
ĠÑįÐ»ÐµÐºÑĤÑĢÐ¾Ð½ Ð½Ð¾Ð¹
ÐµÐ¼ Ð°Ñı
ĠÐºÐ¾ÑĢÐ°Ð± Ð»ÐµÐ¹
ĠÐ²ÐµÐ´Ð¾Ð¼ ÑģÑĤÐ²Ð°
ear ch
Ð¿ Ð¾ÑĢ
ĠÑģÐ¾Ð¾Ð± ÑĢÐ°Ð·
ĠÐ»Ð¸ Ð±Ðµ
ĠÑģÐ¾Ð³Ð»Ð° ÑĪÐµÐ½Ð¸Ñı
ĠÑģÐ²ÑıÐ· Ð°Ð½Ð½ÑĭÐµ
Ġ âĢ¦
ĠÑģ Ð°ÑħÐ°ÑĢ
ĠÐºÐ°ÑĢ ÑĤÑĥ
ÑĪ Ð»Ð¾ÑģÑĮ
ĠÐ±Ð¾ ÐµÐ²Ð¾Ð¹
Ð»Ðµ Ñģ
ĠÐ½Ðµ Ð²Ð¸Ð½
ĠÑĪ Ð¾ÑģÑģÐµ
ĠÐ¸Ð´ ÐµÐ½ÑĤÐ¸
ĠÐ¿Ð¾Ð´ Ð»Ð¸Ð½
ĠÐļÐ°Ðº Ð°Ñı
Ġpl ace
ĠÐĽ ÐµÐ½
ĠÑįÐ½ÐµÑĢÐ³ ÐµÑĤÐ¸ÑĩÐµÑģÐº
ÑĤÐ° ÑĤÑĮÑģÑı
ĠÐ¾ÑĤÐºÑĢÑĭ ÑĤÐ¾
Ñĩ Ð½Ð¾Ð¼Ñĥ
Ð° Ð´Ð°
ĠR ep
Ġm ember
ĠÐ´Ð°Ð² Ð»ÐµÐ½Ð¸Ðµ
ĠÐ´ÑĢÐ° Ð¼Ð°
ĠÐ¨ Ð°ÑĢ
ĠÐ¿ÑĢÐ¾Ñĩ Ð¸Ñħ
ÐµÐ½ÑĮ Ñı
Ð½Ñĭ Ð½Ðµ
ĠÐ¿Ð°Ðº ÐµÑĤ
ĠÐ¸Ð· Ð±Ð°Ð²
ĠÑĤÐ° Ð¸Ð½
ĠÐ¸Ð½ÑĤÐµÐ»Ð»ÐµÐº ÑĤÑĥ
ĠÑģÐ¾Ð¾ÑĤÐ²ÐµÑĤ ÑģÑĤÐ²ÑĥÐµÑĤ
ĠÐ½ÐµÐ¾Ð´Ð½Ð¾Ðº ÑĢÐ°ÑĤÐ½Ð¾
ÑģÐ¿ Ð¸
ĠÐ²Ñĭ ÑĢÑĥ
ww w
Ð± Ð¸ÑĤÑĮ
Ġ >
ĠÐ² Ð¿ÑĢÐ°Ð²
Ð» Ð¾Ð³Ð¾
ÐĿ Ð¸
ĠÐ½ÐµÑĦ ÑĤÑĮ
ĠÐ¼ÐµÑĤÐ¾Ð´ Ñĭ
ĠÐ¿Ð°ÑģÑģÐ°Ð¶Ð¸ ÑĢÐ¾Ð²
ĠÐ´ÐµÑĢ Ð¶Ð°Ð»
ĠÐ² ÑĤÐ¾ÑĢÐ¾Ðµ
ÑĪÐµÐ½ Ð½ÑĭÐ¹
ĠÐ¿Ð¾Ð´ÑĩÐµÑĢ ÐºÐ¸
ÑģÑĤ Ð¸ÑĤÐµ
ĠÐŁ Ð°ÑĢÐ°
ĠÐ¾ÑĦÐ¸ÑĨ ÐµÑĢ
Ð²Ð° ÐµÑĤÐµ
ĠÑģÐ¿Ð¾ÑĢÑĤÑģ Ð¼ÐµÐ½
ÑĤÐ¾ ÑĢÐ°Ñı
ĠÑģÐ¸Ð»ÑĮ Ð½ÑĭÐ¹
ĠÐ¡ÐºÐ¾ ÑĢÐµÐµ
ĠÐ½Ð° Ð²Ðµ
ĠÑģÐ²Ñĭ ÑĪÐµ
Ð´ Ð¸ÑĤ
Ð¾Ð» Ð¶
Ġh ome
ĠÐ¿ÑĢÐ¾Ð±Ð¾ÑĢÐ¼Ð¾ÑĤ Ð°Ð»
ĠÐĴ ÑģÑĤÑĢÐµ
Ġcomp et
ĠÐ´Ðµ ÑĪÐµ
ĠÐĿÐ° ÑĤÐ°
Ġcl ub
ĠÐ½Ð° ÐºÑĢÑĭ
ĠÐ½ÐµÐ¿ ÑĢÐµÐ¼ÐµÐ½Ð½Ð¾
Ð± ÐµÐ´
ĠÐľÐ¾ Ð¸
Ð² ÑĥÑİ
Ð¾Ð½ ÑĤÐ°Ð½
ĠÐĴÐµ ÑģÑĮ
ĠÐ´Ð¾Ð¿Ñĥ ÑģÐºÐ°
Ð³Ð¾ Ð½Ð°
ĠÑģÐ²Ð¾ ÑĳÐ¼
Ð¾Ñģ Ñģ
ĠÐ¿Ð¾Ðº Ð¾ÑĢ
5 4
Ð´ÐµÑģÑı ÑĤÐ¸
ĠÐ¼Ð°ÑĢ ÑĤÐµ
ra ft
Ð¾Ð³ Ð¾Ð¼
ĠÑĩÑĥÐ²ÑģÑĤÐ² ÑĥÑİ
Ñī ÐµÐ½Ð½ÑĭÑħ
ĠÑģÐ»ÑĥÐ¶ Ð¸ÑĤÑĮ
ĠÐ¿ÑĢÐ¾Ð²ÐµÐ´ ÐµÐ½Ð¸Ðµ
ĠÐ± ÑĥÐ»ÑĮ
ĠÐŁÐ¾Ð´ÑĢÐ¾Ð± Ð½ÐµÐµ
ĠÑģÐ½Ð° Ð±
ĠÐ¿Ð¾Ðº ÑĢÐ¾Ð²
ĠÐ´Ð¾Ð¶Ð´ ÑĮ
Ñĩ Ñĳ
ĠÐ¿ÑĢÐµÐ´Ð¿Ð¾Ñĩ Ð¸ÑĤÐ°
Ð» ÑĳÐ½
ĠÐ²Ð¾ Ð¾Ð±ÑĢÐ°Ð¶
Ñħ Ð°ÑĢ
ĠÐºÐ¾ÑĢÐ° Ð±Ð»Ð¸
Ð°Ð» ÐºÐ¸
er g
ĠÐ·Ð² ÑĥÐºÐ¸
ÐµÐ½Ð¸ ÑĤ
ect ion
Â» ).
ĠÐ·Ð°ÑĤ ÑĢÑĥÐ´
Ġ199 3
ĠÐ½Ðµ Ð´Ð°Ð²
ÐµÑģ Ð¾
Ð¸ Ð´Ð°
ĠÑĢÐµ ÐºÐ¾ÑĢ
at ic
ĠÐ¿ÑĢÐ¸ Ð´ÐµÑĢÐ¶Ð¸
ĠÑĢÐ° ÑģÑĤÑı
ÂłÐĹ Ð½Ð°
ĠÑģÑĥÑīÐµ ÑģÑĤÐ²ÐµÐ½Ð½Ð¾
Ð½Ð¾ ÑĢÐ¸
Ð¾Ð»ÑĮ Ð½ÑĭÑħ
ĠÐĵ Ð¾Ð½
ĠÐ¸Ð¼Ð¿ÐµÑĢÐ° ÑĤÐ¾ÑĢ
B C
ĠÐ¿ÑĢÐ¾Ð¸Ð·Ð¾ ÑĪÐµÐ»
Ġl ast
ĠÐ¼Ð¾ ÑģÑĤ
ĠÐ¿Ð¾Ð¿ÑĢÐ¾Ð± Ð¾Ð²Ð°ÑĤÑĮ
Ð½Ð°Ñĩ Ð°Ð»Ðµ
Ð¡ Ðµ
ĠÐ²ÐµÑĢ ÑĤ
ĠÐ¾Ð· ÐµÑĢÐ°
ĠÐ²Ð¾Ð·Ð¼Ð¾Ð¶Ð½Ð¾ ÑģÑĤÐµÐ¹
ĠÐ¿Ð¾ÑĤ ÑĢÑıÑģ
ĠÐľ Ðŀ
ĠÐ¾ÑĤÐ²ÐµÑĢ ÑģÑĤÐ¸
ĠÐĵ Ð£
ĠÑģÑĤÐ° ÑĢÐ¾Ð¹
ĠÐ½ÐµÐ´Ð²Ð¸Ð¶ Ð¸Ð¼Ð¾ÑģÑĤÐ¸
ĠÐ± Ð¾Ð³Ð¾
ro l
Ð¾Ðº Ð°ÑĤ
ĠÐ¾ÑĤÐ²Ðµ ÑĩÐ°ÑĤÑĮ
6 6
ÑĨÐ¸ Ð½Ð°
ĠÐ¢ ÐµÐ»Ðµ
Ð¿Ð¸ Ð¾Ð½Ð°
ĠÐ¿ÑĢÐµÐ´ ÑĪÐµ
ĠÐ²Ð¼Ðµ ÑĪÐ°
Ð½Ð¸ Ð²ÐµÑĢÑģ
ĠÐļÐ°Ð· Ð°Ð»Ð¾ÑģÑĮ
ĠÐ¿ÑĢÐµÐ´Ð»Ð¾Ð¶ Ð¸ÑĤÑĮ
ĠÐĺ ÑģÐº
Ð±Ð° Ð¼Ð¸
Ð»Ð¸ Ð¹
le g
ÑĢÐ¾ ÑĤÐ°
ĠÑģ Ð´ÐµÑĢÐ¶Ð¸
ĠÐ²Ð½ÑĥÑĤÑĢÐµÐ½ Ð½ÐµÐ¹
ĠÐ¾Ð´ ÐµÑĤ
ĠÑħÐ²Ð° ÑĤÐ¸Ð»Ð¾
ĠÑģÐ½Ð° ÑĢÑı
ĠÐ³Ð¾ÑĢ ÑĮ
ĠÑģÑĤÐ°Ðº Ð°Ð½
ĠÑĢÐ°Ð· Ð²Ð¾Ð´
ÑĩÐµÐ½ Ð½Ð¾Ð³Ð¾
ĠÑģÐº ÑĢÐ¸Ð¿
ĠÐºÑĢÑĥÐ¿ Ð½ÑĭÐµ
ĠÐ¾Ð± Ñĥ
ĠÐ¿Ð¾ÑıÐ² Ð¸ÑĤÑģÑı
Ġest ab
ĠÐ¸Ð´ ÐµÐ¹
ĠÑĤÐ¾Ð²Ð° ÑĢÑĭ
Ġn amed
ĠÐ¼ÑıÑģ Ð¾
ÑĢÑı Ð¼Ð¾
Ð» ÑĭÑħ
Â» :
ÑģÑĤÐ° Ñħ
E R
ĠÐ¿Ð¾Ð¿ Ð°Ð»Ð¸
ĠÐ¿Ð¾Ñģ Ð¾Ð²ÐµÑĤ
ĠÐ²Ñĭ Ð·Ñĭ
Ð´ ÐºÐ°
Ñ Ķ
Ð¶ Ð½Ð°Ñı
Ġloc al
ĠÐļ ÑĢÐµ
ĠÑĦ Ð»Ð¾ÑĤÐ°
ĠÐ¾ÑĤ ÑĨÐ¾Ð¼
ĠÐºÐ°Ð½ Ð°Ð»
Ð¾Ð¿ Ðµ
ĠÑĢÐ°ÑģÑħÐ¾Ð´ Ñĭ
ÐĿ Ð¾Ð²Ð¾
ĠÑı Ð±
s c
ĠÐļ Ð¸ÑĤÐ°Ñı
ĠÐ½Ð°ÑĪ ÐµÐ¼Ñĥ
ĠÐ·Ð°Ð¼ÐµÑĤ Ð¸Ð»Ð¸
ĠÑģÐ²ÐµÑĤ Ð»Ð¾
ĠÐ²Ð¾Ð¿ÑĢÐ¾Ñģ Ð¾Ð¼
ĠÑģÑĥÐ¼ Ð¼Ð°
ĠÑģÑİ Ð¶ÐµÑĤ
Ð¾ÑĢ Ð³Ð°Ð½Ð¸
ĠÐ½Ð° ÑģÑĤÐ°Ð²
ĠÑįÐ»ÐµÐ¼ ÐµÐ½ÑĤÑĭ
201 2
ĠÑĥÐ²ÐµÑĢ ÐµÐ½Ð½Ð¾
Ð¾Ðº Ðµ
ĠÐº ÑĢÐµÐ¼
ĠÐ¢Ð°Ðº Ð°Ñı
Ð¼Ð° ÑĤÑĮ
ĠÐ²Ð¾ ÐµÐ²
5 3
ĠÐ´ÐµÐ¿ÑĥÑĤÐ° ÑĤÐ¾Ð²
ĠÐ· Ð¼Ðµ
am b
Ġp os
ro w
ĠÐł Ð¾Ð·
ÐĲ Ð²
ĠÐ¿ÑĢÐ¾Ð´Ð¾Ð»Ð¶ Ð°Ð»Ð°
ĠÐ¿ÑĭÑĤ Ð°Ð»Ð°ÑģÑĮ
Ġt erm
ĠÑıÐ·Ñĭ ÐºÐ¾Ð¼
ĠÑĢÐ°ÑģÐ¿Ð¾Ð» Ð°Ð³
ĠÐ´ Ð°Ð»Ð°
ĠÐ¿ÑĢÐ°Ð² Ð¾Ð¹
Ġapp ear
ĠÑĢÐ° ÑģÑĤÐ²
Ð¾Ð² Ð°Ð½
m p
ÐŁ Ð¾Ð»
ÑĩÐ° ÑģÑĤÐ¸
ĠÐ¾Ð¿ Ð¾Ð»
ad a
ĠÐº ÑĥÐº
ĠH owever
ĠÐ²Ñģ ÐµÑĢ
ĠÐ´ÑĥÐ¼Ð° ÐµÑĤÐµ
ĠÑĦÑĥÐ½Ðº ÑĨÐ¸Ð¾Ð½Ð¸
us iness
ĠÐĺ ÑĢÐ¸Ð½Ð°
ĠÐŁ Ð¾Ð³
ĠÐ¿ÑĢÐ¸Ð½Ð¸Ð¼Ð° ÐµÑĤ
ĠÐ¿Ð¾Ð´ÑĤÐ²ÐµÑĢ Ð´Ð¸Ð»
ĠÐ¡ Ð¸Ð»ÑĮ
ĠÐ¼ÑĥÐ· ÐµÐ¹
ĠÐºÑĥÑģ Ð¾Ðº
Ġserv ed
ĠÐ¸ ÑģÐºÐ°
ĠÐ´ÐµÐ²Ð¾ ÑĩÐºÐ¸
Ð½Ðµ ÑĪÑĮ
ore d
ĠÑģÐ¾Ð·Ð´Ð° Ð²Ð°ÑĤÑĮ
ĠÑģÐ»ÐµÐ´ÑĥÑİÑī ÐµÐ¼
5 7
ĠÐ°Ð¼ÐµÑĢÐ¸ÐºÐ°Ð½ ÑģÐºÐ¸Ñħ
ĠÐļÑĢÐ° ÑģÐ½Ð¾
ĠÐ°Ð´Ð² Ð¾ÐºÐ°
ĠÐľ Ð°Ð¼Ð°
ĠÐ¡ Ð¾ÑĤ
ĠÐ¿Ð¾Ð»Ð¾Ð² Ð¸Ð½Ñĭ
Ð¼Ð¸ Ð»Ð¸
ĠÑĥÐ²ÐµÑĢ ÐµÐ½Ñĭ
ĠÐºÐ¾Ð´ ÐµÐº
Ð¸ ÑĨÑĭ
ĠÐ¿ÑĢÐµÐ´ÐµÐ»Ð° Ñħ
ĠCount y
ÑĪÐ¸ Ð»Ð°ÑģÑĮ
ĠÐ¼Ð°Ð»ÑĮ ÑĩÐ¸ÐºÐ°
ĠÑģÑĥÐ¼Ð° Ñģ
ĠÐ¿Ð¾Ð¼ Ð¾Ð»
ĠÐ¸Ð· Ð´ÐµÐ»
ĠÐĽÐµÐ½Ð¸Ð½ Ð³ÑĢÐ°Ð´
ÑģÑĮ Ðµ
ÑĪ Ð½Ð¾Ð¹
ĠÐ¿Ð¾Ð»Ð¾Ð² Ð¸Ð½Ñĥ
k i
ÑĥÐ½ Ðº
ĠÐ½Ð°ÑĢÐ¾Ð´ Ñĥ
ĠÐ²Ð¾Ð´ Ð¾
Ð¶Ð° ÐµÑĤÑģÑı
Ð ©
s ide
Ñĩ Ð°Ð½
ĠÐºÐ¾ÑĢÐ¸ Ð´Ð¾ÑĢ
ĠÐ´ ÐµÐ»Ð¾Ð²
Ġa round
ĠÐ¿Ð¾Ð´ ÑģÐºÐ°Ð·
ond on
ĠÐ¼Ð¾Ð»Ð¾Ð´ ÑĭÐµ
ĠÐ¿Ð¾Ð· Ð²Ð¾Ð»Ð¸
ĠÑģÐ¼ ÐµÐ»Ð¾
ĠÐ·Ð°Ðº Ð¾Ð½Ñĭ
ĠÑĤÐµÑĢÑĢÐ¸ ÑĤÐ¾ÑĢÐ¸Ñı
ĠÐķ ÑīÑĳ
Ð¾Ñĩ ÐµÑĤ
Ġen g
ĠÑģÑĤÐ°Ð» ÐºÐ¸
ĠÑģÑĤÐ°ÑĢ ÑĪÐµ
ĠÐĿÐ¾Ð² Ð³Ð¾ÑĢÐ¾Ð´
ĠÑĩÐµÑĤÑĭ ÑĢ
ĠÐĿÐ¸ÐºÐ¾Ð» Ð°Ñı
Ð»Ð¸Ð¼ Ð¿Ð¸
ĠÐ¿Ð¾Ð·Ð²Ð¾Ð» Ð¸ÑĤÑĮ
ÂłÂł Âł
ĠÐ·Ð´Ð¾ÑĢ Ð¾Ð²Ð¾
Ð³ Ð¾Ð»Ð¾Ð²
ĠÐļÐ° Ð¶ÐµÑĤÑģÑı
ĠÐ¿ÑĢÐ¸Ð±Ñĭ Ð»ÑĮ
ĠÑĥÐ²Ð¸ Ð´ÐµÐ²
ÑģÑĤÐµ ÑģÑĤÐ²ÐµÐ½Ð½Ð¾
ĠÑĤÑı Ð¶Ðµ
ĠÐ¿ÑĢÐ¾Ð¸ÑģÑħÐ¾Ð´ Ð¸Ð»Ð¾
ĠC al
ĠÐ¿ÐµÐ´Ð°Ð³ Ð¾Ð³Ð¸
ĠÐ´Ñĥ ÑĪÐµÐ²
ĠÐ¿ÑĢÐ¸ ÑģÐ»
ĠÐ¿Ð¾Ð´ Ð°Ð»ÑĮÑĪÐµ
ĠÐĲ Ð·Ð¸Ð¸
ent ly
ĠÐ¿ÐµÑĢÐµÐ³Ð¾Ð²Ð¾ÑĢ Ð¾Ð²
ĠÐ²Ð° ÑĪÐ¸Ð¼
Ð¾Ð± Ð¸Ð»Ð¸
ĠÐ¿Ð¾ ÑĤÐ°
ĠÑģÐ´ÐµÐ»Ð° Ð½Ð¾
Ġ194 4
ĠÑģ Ð¾Ð»Ð¸
ĠÐ·Ð´ ÑĢÐ°Ð²Ð¾
ÑĮ ÑĪÐµ
ĠÐºÑĥÑħ Ð½Ðµ
ĠÐ¿Ð¾Ð´Ð¾Ð± Ð½Ð¾
Ð¾Ð· Ð´
ĠÑĥ ÑĢÐ¾Ð¶
ĠÐĵÐµ Ð¾ÑĢÐ³
ĠÐ¢ÑĥÑĢ ÑĨÐ¸Ð¸
ĠÑģÐ°Ð¼Ð¸ Ñħ
ĠÐ·Ð°Ð± Ð»
ĠÐ·Ð°ÐºÐ¾Ð½ Ð¾Ð¿ÑĢÐ¾
ĠÐ¡ÑĤ ÑĢÐ°Ð½
ĠÐ·Ð°Ðº ÑĢÐµÐ¿
ĠÐ¾Ð±ÑīÐµ ÑģÑĤÐ²ÐµÐ½Ð½Ð¾Ð³Ð¾
Ñİ Ð½
Ġl a
y p
ĠÑĩÑĢÐµÐ·Ð²ÑĭÑĩÐ°Ð¹ Ð½Ð¾
ĠÐ´Ð¾Ð±ÑĢÐ° ÑĤÑĮÑģÑı
Ð´Ðµ ÐºÑģ
Ð¼Ð°ÑĢ ÑĤ
ĠK ing
ĠÐ²Ñĭ ÑĢÐ°Ð¶Ð°
Ð¸ÑĤÐ°Ð¹ ÑĤÐµ
ĠÐ¿Ð¾ÑıÐ² Ð»ÐµÐ½Ð¸Ñı
Ġl ine
ĠÐ½ÐµÐ´Ð¾ÑģÑĤÐ° ÑĤÐ¾ÑĩÐ½Ð¾
Ð½ ÐµÐ½Ð¸ÐµÐ¼
Ñħ Ð¸ÑĤ
ĠÑģÐµÐ»ÑĮ ÑģÐºÐ¾Ð³Ð¾
ĠÑĥÑĩÐµÐ½ ÑĭÐµ
ĠÑģ ÐµÐ»Ð¾
Ġ1 000
ĠÑģ ÑĨÐµÐ½
Ð· Ð¾ÑĢÐ°
ĠÐĿÐ° ÑĪÐ°
on om
ĠÐ¿Ð¾Ð½Ð¸Ð¼Ð° ÐµÑĤÐµ
or g
ĠÐ½Ðµ Ð³Ð¾Ð´
ĠÐĽ Ð°Ð²
Ġcomp any
ĠÐ²Ð¸ Ð´Ð¸ÑĪÑĮ
ĠÐ´Ð² ÐµÑĢÐµÐ¹
ĠÐ°ÑĢ Ð³Ñĥ
ĠÐ²Ð°Ð¼ Ð¿Ð¸
ĠÑĢÐµÐ¹ ÑĤÐ¸Ð½
ĠÑĥÐ²ÐµÑĢ ÐµÐ½Ð°
Ġ et
ĠÑĤÐ²Ð¾ Ñİ
ÑıÑīÐ¸Ñħ ÑģÑı
ĠÑģ ÐºÐ°Ð¼
ĠÐĴ Ð¾Ð´
ĠÑģÑĤÐ° ÑĢÑĭÑħ
ĠÐŀÐ´Ð½Ð° Ð¶Ð´Ñĭ
Ð¿ Ð¾ÑĢÑĤ
ĠÐ²ÑĭÐ· Ð²Ð°ÑĤÑĮ
ĠÐ¾ÑĤÐºÑĢÑĭ Ð»Ð°
ĠÑĩÐµÑĢ Ð½ÑĭÐµ
ÑĢ Ñħ
Ð¸ÑĩÐµÑģÐº Ð¾Ð³Ð¾
ĠÐ°Ð½ Ð°Ð»Ð¸Ð·Ð°
ĠÑĢÐ°ÑģÑģÐºÐ°Ð· ÑĭÐ²Ð°ÑĤÑĮ
ĠÐ¿Ð°ÑĢÐ° Ð¼ÐµÑĤ
ĠÐ³ÐµÐ½ÐµÑĢÐ° Ð»Ð°
ĠA pp
ĠÐ°Ð»ÑĮ ÑĤÐµÑĢÐ½Ð°
ÐºÐ¾Ð² ÑģÐºÐ¸Ð¹
T h
ĠÑħÐ¾Ð·Ñı Ð¸Ð½Ð°
ĠÐ²ÑĭÑģÑĤÑĥÐ¿ Ð»ÐµÐ½Ð¸Ñı
ĠÑĢÐµ ÐºÐµ
ÑĪÐµÐ³Ð¾ ÑģÑı
ill ion
ĠÐĵ Ð°Ð·
ÑĢÐ¾Ð²Ð° Ñı
ĠÐĴ ÑģÐ¿
ind ows
ĠÐ³Ð¾Ð²Ð¾ÑĢÐ¸ ÑĤÐµ
ĠÐĳÐ¾Ð»ÑĮÑĪ Ð¸Ð½ÑģÑĤÐ²Ð¾
ÐłÐ¾ÑģÑģÐ¸ Ñı
Ġ201 8
Ð½ ÐµÐ»
ĠÐ£ Ðļ
Ġm embers
ĠÐ¶ Ð¸ÑĢ
Ð°Ð»Ð¸ Ð¹
Ð²Ðµ Ð¶
Ñĩ ÐµÐ»
ĠÐ¿ÑĢÐ¸ Ð¼ÐµÑĤ
ÑģÑĤ ÑĭÐ¼
ĠÑĥÐºÐ°Ð· Ð°Ð»
ÂłÐķ ÑģÐ»Ð¸
Ð½Ð° Ð¿ÑĢÐ¸Ð¼ÐµÑĢ
ĠÐ¸Ð· Ð»Ð¸
ĠÐ¿ÐµÑĢ ÑģÐ¿ÐµÐºÑĤÐ¸Ð²
ĠÐ¾Ð±Ðµ ÑīÐ°
7 9
ĠÑħÐ¾ ÑĤÐ¸Ð¼
Ð¡ ÑĤÐ°
ÑģÐº Ð¾ÑĩÐ¸Ð»
ĠÐ¸Ð½ Ð½Ð¾Ð²Ð°
Ġ196 0
ĠÐ¿ÑĢÐ°Ð·Ð´ Ð½Ð¸Ñĩ
ĠÐĴÐ¼Ðµ ÑģÑĤÐ¾
ĠÐº Ð¾Ð·
ĠÐ¾ ÑĩÐµÑĢ
Ñī Ð¸ÑĤÑĮ
ex t
ĠÑĢÐ¾ÑģÑģÐ¸ ÑıÐ½
ĠÑħÐ¾ÑĢÐ¾ ÑĪÐµÐµ
re et
ĠÐ²Ðµ ÑĩÐ½Ð¾
ÑĢÐ¸ ÑĤÑĮÑģÑı
ĠÐ³ Ð½ÐµÐ²
ĠÐ²Ñĭ Ð´ÐµÑĢÐ¶
ĠÐ¸ÑģÑĤÐ¾Ñĩ Ð½Ð¸ÐºÐ¾Ð²
ĠÐĺÐ· Ð²ÐµÑģÑĤ
Ð½Ð°ÑģÑĤÐ¾Ñı ÑīÐµÐ¼Ñĥ
ĠÑģÐ²ÑıÐ·Ð° Ð½Ñĭ
eb ru
ÂłÐľ Ð½Ðµ
Ñĩ ÑĮÑı
ĠÑĥÐ´Ð° ÑĢÐ¸Ð»
ĠÐ½ÐµÐ² Ð¾Ð»ÑĮÐ½Ð¾
ÑĨÐµ Ð¿Ð¸
ĠÐ´ÐµÐ¼Ð¾Ð½ ÑģÑĤÑĢÐ°
ĠÐ°Ð²Ð³Ñĥ ÑģÑĤÐµ
ÑĢÐ¾ ÑģÐ»Ð¸
t o
ĠÐ¸ Ð¼ÐµÐ½Ð°
ĠÐ¡ ÐµÑĢÐµ
ĠÑģÑĥÐ±Ð±Ð¾ÑĤ Ñĥ
Ð¼Ð° Ñı
ĠÐ¿ÑĢÐ¸ Ð¼Ðµ
Ġc our
Ð²Ð°ÐµÐ¼ ÑĭÑħ
Ñĩ Ð°Ð»Ð¾
ĠÐ° ÑĢÐ°Ð±
Ð»ÐµÑĤ Ð½ÐµÐ³Ð¾
ĠÑĦÐ¾ÑĤ Ð¾Ð³ÑĢÐ°ÑĦÐ¸
Ġhe l
ĠÐ¿ÑĢÐ¾Ñĩ Ð¸Ð¼
ĠÐ¿Ð¾Ð» ÑĤÐ¾ÑĢÐ°
Ð´ Ð¾Ð±
ĠÐ½Ð°ÑħÐ¾Ð´ Ð¸Ð»Ð°ÑģÑĮ
ĠÑģÑĤÐ°ÑĤÑĮ Ñı
Âł Ð½Ð°
ĠÐ±ÐµÑģÐ¿ Ð¾Ð»ÐµÐ·
ĠÐ¿Ð¾Ð¸Ð½ÑĤÐµÑĢÐµÑģÐ¾Ð² Ð°Ð»ÑģÑı
ĠÐ²Ð¾ ÑĪÐ»Ð°
ĠÐľ ÐĺÐĶ
ĠÐ¿Ð¾Ð²Ñĭ ÑĪÐµÐ½Ð¸Ñı
ĠÐ¿ÑĢÐµÐ¼Ð¸ Ð¸
ÑĥÐ´ Ñĥ
ĠÐ¤ ÐµÑĢ
ĠÐ¿ÑĢÐ¾Ð· Ð²ÑĥÑĩ
ĠÑģÑĤ Ðµ
ĠÑĢÐ°Ð·ÑĢÐ°Ð±Ð¾ÑĤÐ° Ð½
Ð²Ð°ÑĢ ÑĮ
ÑĢÑı ÑģÐ°
ĠÐ¿Ð¾Ð²ÑĤÐ¾ÑĢÐ¸ Ð»
)) )
ĠÐĲÐ¼ÐµÑĢÐ¸ ÐºÐ¸
ĠÐĿÐ° Ð¹
ĠÑĥÐ±Ð¸Ð¹ ÑģÑĤÐ²Ð¾
Ð±Ð°ÑĢ Ð´Ð¸
ebru ary
ĠÑĢÐµ ÐºÐ¾Ð½
ÑĢÑĥ ÑĤ
ĠÐ¸Ð½ Ð²Ð°Ð»Ð¸
ĠÐ¸Ð· Ð»Ð¾Ð¶
ĠÐ» ÐµÐ²Ð¾Ð¹
ĠÑįÑĤÐ° Ð¿
ĠÐ¿Ð°ÑĢÐ»Ð° Ð¼ÐµÐ½ÑĤÐ°
ÐŁ Ðŀ
ĠÐ²Ð·Ð´ ÑĢÐ¾Ð³
ĠÑģÑĤÐ¾ÑĢÐ¾ Ð½Ð°Ð¼
ĠÐ°ÑĢÐµ ÑģÑĤ
ĠÑģÑĢÐµÐ´ Ð½ÐµÐ¹
ĠÐ¡ Ðļ
ĠÐ²ÑħÐ¾Ð´ ÑıÑĤ
ĠÐ¾Ð± Ð¾Ð¹ÑĤÐ¸
ĠÑģÐ¿ Ð¸ÑĢ
ĠÐ´Ðµ Ð¶ÑĥÑĢ
ĠÐ²ÐµÑĢ Ð½ÑĥÐ»Ð¸ÑģÑĮ
ĠÐ¼Ð°Ð»ÐµÐ½ÑĮ ÐºÐ°Ñı
ĠÐ¿ÑĢÐ¾ Ð¸Ð³ÑĢÐ°
! )
ĠÐ²Ð¾Ð» Ð½Ñĭ
ĠÐ¿Ð¾Ð´Ð±Ð¾ÑĢ Ð¾Ð´
ÑĩÐ¸ Ð²Ð°ÐµÑĤÑģÑı
o ad
ampions hip
Ġrece ived
ĠÑģÐ²ÑıÐ· Ð°Ð½Ð½ÑĭÑħ
ÑĩÐ° Ñİ
Ñģ Ð°Ð»
ĠÐ¼Ð°Ñģ Ð»Ð¾
ĠÐ²Ð»Ð° ÑģÑĤÐµÐ¹
ĠÑģÑĥÑīÐµÑģÑĤÐ² Ð¾Ð²Ð°Ð½Ð¸Ðµ
ĠÑĩÐµÑĤÐ²ÐµÑĢ Ð³
ĠÑĩÐ»ÐµÐ½ Ð¾Ð¼
ÑĭÐ²Ð° Ð¹ÑĤÐµ
ĠÐ¸Ð· Ð±Ð¸
ĠÑĢÐ°Ð· Ð½Ð¸ÑĨÐ°
ĠÑĥÐ± ÐµÐ´Ð¸
ĠÐ» Ð¾Ð¿
Ġev ent
ĠÐ¿Ð¾Ð» ÑĩÐ°ÑģÐ°
ĠW ill
Ð¸ÑĤÐµÐ»ÑĮ Ð½ÑĭÐ¼Ð¸
ĠÐĶÐ° Ð²Ð°Ð¹ÑĤÐµ
ĠÐ¸ ÑģÑĤÐ¸
ĠÐ¾Ð±Ñī Ð¸Ð¹
ĠÐ²ÑĭÐ¿Ð¾Ð» Ð½Ð¸ÑĤÑĮ
ĠÐ±ÐµÐ» ÑĭÐµ
ĠÐ²Ð¾ÐµÐ½Ð½Ð¾ ÑģÐ»ÑĥÐ¶Ð°
ĠÑģÐ¾ÑĨÐ¸Ð°Ð»ÑĮ Ð½Ð¾
ĠâĨ Ĵ
ĠÐ¡Ð¾ ÐµÐ´Ð¸Ð½
ĠÐĴÐ¸Ð´ Ð¸Ð¼Ð¾
ĠÐ²Ð¾Ð·Ð´ÐµÐ¹ÑģÑĤÐ² Ð¸Ñı
Ð¿Ð° ÑĤÑĮ
ĠÑĥÐ³Ð¾Ð»Ð¾Ð² Ð½Ð¾Ðµ
ĠÐ´ÐµÑģÑı ÑĤÐºÐ¸
ro up
ÑĨÐ¸ Ðº
ĠÐŁÐ°Ð² Ð»Ð¾Ð²
ĠÐĳ ÑĥÑĢ
Ð²Ð° Ñħ
ĠÐ¿Ð¾Ð¸ ÑģÐºÐ°Ñħ
ĠÐ¿Ð¾Ð³ Ð»Ð¾
al ity
ĠÑĤÑĢÐµÐ½Ð¸ ÑĢÐ¾Ð²
ĠÐ²Ñĭ ÑĪÐ»Ð¾
ĠÐ²ÑĭÐ¹ Ð´ÐµÑĤ
ĠÐ¡Ð¸ ÑģÑĤ
ĠÑģÑĭ Ð½Ð¾Ð²
Ð¸Ð½ÑĤÐµÑĢÐµ Ñģ
ubl ic
ĠÐĽ Ð°ÑĤ
ÑĢÐ° Ð»Ð°
ĠÐ½Ðµ Ð²Ð¸Ð´Ð¸Ð¼
ĠÑĨÐ²ÐµÑĤ Ñĭ
ÑĥÑī Ð¸Ðµ
ight s
ĠÐ¿ÑĢÐ¸ Ñħ
ĠÑģÐ¾ÑĤÑĢÑĥÐ´Ð½Ð¸ ÑĩÐµÑģÑĤÐ²Ð°
Ġle ft
ĠÐ¼Ð°Ð³Ð°Ð·Ð¸ Ð½Ð°
Ġbec ause
ĠÐĳ Ð°Ð¹
ĠÐ¿ÑĢÐ°Ð²Ð¾Ð¾ÑħÑĢÐ° Ð½Ð¸ÑĤÐµÐ»ÑĮ
ĠÑĩÐµÐ»Ð¾Ð²Ðµ ÑĩÐµÑģÑĤÐ²Ð°
ĠÑħ ÑĢÑĥ
ĠÐŁ Ð¾Ð¹
ĠÐ·Ð°ÑıÐ²Ð¸ Ð»Ð¸
Ðĳ Ð°
om et
ÑĤÐ¾Ñĩ ÐºÑĥ
ĠÐ½Ð°ÑĢÑĥ ÑĪÐµÐ½Ð¸Ðµ
ĠÐłÐ¾ ÑģÑĤÐ¾Ð²
ĠÐ¿ÑıÑĤÑĮ Ð´ÐµÑģÑıÑĤ
ĠÐ²ÑĢÐ° Ð³Ð¾Ð²
ĠÐ·Ð¸Ð¼ Ð¾Ð¹
ĠÐ¿Ð¾Ð´ Ð¾Ð¶
ÐºÐ¾Ð² ÑģÐºÐ¾Ð³Ð¾
ĠÑĩÐµÐ¼Ð¿Ð¸Ð¾Ð½Ð° ÑĤÐµ
Ð¿ÑĢÐ¸ Ð·
Ð¾ Ñī
ĠÐ½Ð°Ð¿Ð¾Ð¼Ð¸Ð½Ð° ÐµÑĤ
ÐµÐ» ÐµÐ²
ÐµÐ½ Ð´Ð°
ĠÐ¸ÑģÐºÑĢÐµÐ½ Ð½Ðµ
ĠÐľ Ð¾Ð³
Ð¸Ð½ ÐºÐ°
ĠÐ¿Ð¾Ð² ÐµÑĢÐ¸ÑĤÑĮ
ĠÐ²ÑĭÑģÐ¾Ðº Ð¸Ðµ
ĠÐ¼ Ð½Ð¾Ñİ
ĠÐ²Ð¸ ÑĢÑĤÑĥ
ĠÐ¿ÑĢÐ¸Ð½Ñı Ð»Ð°
ĠÐľ Ð°Ð»Ð¾
ĠCom p
ĠÐ½Ð°ÑĥÑĩ Ð½ÑĭÑħ
ĠÐºÐ°ÑĢ ÑĤÐ¸Ð½Ð°
ĠÑħÐ¾ÑĢÐ¾ ÑĪÐ°Ñı
ĠÑĢÐµÐ± ÑıÑĤ
ĠÑĢÐµ Ð°
ĠÑĢÐ° ÑĨÐ¸Ð¾Ð½
ĠÐ¾Ð±ÑĬ ÐµÐºÑĤ
ĠÐ¼Ð°Ð»ÐµÐ½ÑĮ ÐºÐ¸Ðµ
ĠÐ¾ÑĤÐºÑĢÑĭ ÑĤÐ¸Ñı
ÑĢÐ¾ Ð½Ð¾Ð²
Ðĵ Ðĺ
Ð¸ ÑģÑĤÐ¾
ĠÑĤÐµÐ»Ðµ Ð²Ð¸Ð´
ÐµÐ´ Ð¸Ð¸
ĠÐ¼Ð° Ñħ
ĠÐ¿ÑĢÐ¸ ÐºÐ°Ð·Ð°
Ġf inal
Ð²Ð¸ Ð½Ð°
Ġsing le
ĠÐ¾Ð± ÑģÐ»ÐµÐ´
Ð¾Ð²Ð¾ ÑĢÐµ
Ð¶Ð¸ Ð²Ð°ÑĤÑĮ
Ð² ÑĳÑĢ
ĠÐºÐ°Ð¼ Ð½Ð¸
ÑĢÐµÑģ ÑģÐ°
ĠÑĢ Ð¾Ð¶
ĠÐķ Ð³Ð¾ÑĢ
ĠÑģ ÑĩÐµÑĤÐ°
ÐµÐ»Ñı Ð¼
Ð¸Ð· Ð¼
A S
Ġ3 4
ĠÐĽÑĥ Ð³Ð°Ð½
ĠÐ¿ÑĢÐ¸ Ð±Ðµ
ĠÐºÐ°Ð¿ Ð¸ÑĤÐ°Ð½Ð°
Ð¼Ð° Ð³Ð°
ĠÑĢÐ¸ ÑĤ
ĠÐµ Ð´Ñĥ
ĠÐĳ Ð¾Ð±
ĠÑģÑĥÐ´ÑĮ Ð±Ñĭ
ĠÑĥÐ¼ Ð¾Ð»
ĠÑĥÑĩÐ°ÑģÑĤÐ¸ ÐµÐ¼
ĠÐ¿ÑĢÐ¾ÑģÑĤÑĢÐ°Ð½ ÑģÑĤÐ²Ðµ
ÑĢÐ° Ð´Ð¸
ĠÐ¾Ð±ÐµÑģÐ¿ÐµÑĩÐ¸ Ð²Ð°ÐµÑĤ
ĠÐ²ÑĢÐ° ÑĩÐ°
ÑģÐ¿ Ð¾ÐºÐ¾
ĠÑģÐ¾ÑģÑĤÐ°Ð² Ð¸Ð»
Ð¾Ð² Ð¾Ð¼
ĠÐ´Ð²ÐµÑĢ ÑĮÑİ
ÑĨÐ¸ Ð¾Ð½Ð°
ĠÑĢÐ°ÑģÑģ Ð»Ð°Ð±
ĠÑģÐ»ÑĭÑĪ Ð°Ð»Ð°
ĠÑĨÐ°ÑĢ ÑĮ
ĠÐ±Ð¾ ÑİÑģÑĮ
Ð½Ð¸Ðº Ð¾Ð²Ð°
ĠÐ»ÐµÐ´ Ñı
5 1
Ġn ational
Ġcent ury
Ñĸ Ð´
Ð½Ðµ Ðº
ÑģÑĤÐ² Ð¾Ð²Ð°Ð½Ð¸Ñı
ĠÐĽÐ¸ ÑĪÑĮ
ĠÑģÐºÐ° Ð¶ÐµÑĤ
ĠÐºÐ°Ð´ ÑĢÐ¾Ð²
ĠÐ³ÑĢÑĥ Ð½
ÑĤÐ¸ÑĩÐµÑģÐº Ð¸Ð¼
ĠÐĲÐ½Ð´ÑĢÐµ Ñı
ĠÐ²Ñĭ Ð´Ð¾Ñħ
ĠÐºÑĥ ÑĢÐ¸
ĠÐ´ÐµÑĤ ÑģÑĤÐ²Ðµ
ÑĪ Ð½Ð¸Ð¹
ĠÐ¼ÑĥÐ·Ñĭ ÐºÐ°
ÑĪ Ð½Ðµ
ro p
ÐĴ Ð¾Ð·
ĠÐµÐ¶ÐµÐ´ Ð½ÐµÐ²Ð½Ð¾
ĠÐ¿Ð¾Ð¼Ð¾Ð³ ÑĥÑĤ
ĠÐ´ Ð¾ÑĤ
ÑĢÐ¾Ð´ ÑĥÐº
ĠÑģÐ¾Ð²ÐµÑĤ ÑģÐºÐ¸Ñħ
ĠÑĥ Ð»Ð¾Ð²
ĠÐ¿ ÑĮ
ĠÐ¸Ð¼Ðµ Ñı
ĠÐ² Ð¾Ð¶Ð´
ĠÐ½Ð¾Ð³Ð° Ñħ
ÑĥÐ»ÑĮ ÑĤÐ¸
ĠÐ¾ÑĦÐ¸ÑĨÐ¸Ð°Ð»ÑĮ Ð½ÑĭÐ¹
ĠÐ±Ð¾ Ñİ
ĠÐ¾ÑģÐ¾Ð± Ð¾Ð³Ð¾
ÑĨ ÐµÐ»Ð¾Ð²
ĠÐ¿ÑĢÐ¾Ð³Ñĥ Ð»
ĠÐ¿Ð¾ÑģÐ» ÑĥÑĪ
ĠÐ´Ð¸ Ð°Ð¼ÐµÑĤ
Ðĳ Ðŀ
ĠM c
ĠÐŁÐ¾Ñĩ ÑĤÐ¸
ĠÐ³ÑĢÐ° Ð½Ð¸ÑĨÑĥ
ĠÐºÐ¾Ð½ ÑģÑĤÐ¸ÑĤÑĥ
ĠÐ¢ Ñİ
ĠÑĢÑĥÐºÐ¾Ð²Ð¾Ð´ Ð¸ÑĤÐµÐ»Ñı
Ð²Ð° ÐµÑĪÑĮ
ĠÐĴÐ° ÑĪÐµ
ĠÐ³Ð¾Ð²Ð¾ÑĢÐ¸ ÑĪÑĮ
Ðĳ Ñĭ
ĠÐºÐ¾ÑĢ Ð¼
Ñį ÑĤÐ°
ĠÐ°Ð² ÑĤÐ¾ÑĢÐ¾Ð²
ĠÐ½Ð°ÑģÑĤÐ¾Ñı ÑīÐµÐ³Ð¾
ĠÑģÑħÐ²Ð° ÑĤÐ¸Ð»
ĠÐĴÑĭ Ñģ
ĠE n
ĠÐºÑĢÐ¸Ð·Ð¸ ÑģÐ°
Ð»Ñı Ð»Ð°
ĠÑĥ ÑħÐ¾Ð´Ð¸ÑĤ
ÐĽ Ðµ
ĠÐ¾ÐºÐ° Ð¶ÐµÑĤÑģÑı
ĠÐĶÐ¶ Ð¾ÑĢ
ĠÐĵ ÑĢÑĥÐ¿
ĠCh rist
ĠÐ¿ÑĢÐ¸ÑĩÐ¸Ð½Ð° Ð¼
Ġ4 6
ĠÑģÐ¾Ð²ÑĢÐµÐ¼ÐµÐ½ Ð½Ð¾Ð³Ð¾
ĠÐ¿ÑĥÐ½Ðº ÑĤÐ¾Ð²
Ġchar ac
Ġs aid
ĠÐ½Ð°Ð´Ðµ Ð¶Ð´Ñĭ
ĠÐ¤ Ðµ
ĠÑģÑĤÐ¾Ð» Ñĥ
ĠÑģÑĤÐ° Ð´Ð¸Ð¸
ur g
ĠÐ·Ð° Ð±Ð¾
ĠÐ·Ð° Ð²Ð¾Ðµ
ÐµÐ½ Ð¾Ñģ
Ġbu ilt
ĠÐ¾ÑĤÐ´ÐµÐ»ÑĮ Ð½ÑĭÐµ
ĠÐ¼Ð°Ñģ Ð»Ð°
ĠÐŁÐ¾ÑģÐ»ÐµÐ´ Ð½Ð¸Ð¹
ĠÐ¼Ð°Ð»ÐµÐ½ÑĮ ÐºÐ¾Ð¹
Ð°Ð» Ñı
ĠÑ ĸ
ÑĪÐµÐ½ Ð½ÑĭÐµ
Ð»ÑĮ Ð¿
ĠÐ½Ð° Ð²Ð¾Ð´
ĠÐĿÐ¾Ð² Ð¾ÑģÐ¸Ð±Ð¸ÑĢ
ĠÐ¿Ð¾ÑģÑĤÑĥÐ¿ Ð¸Ð»
Ġo ld
ĠÐ½Ð°Ð·Ñĭ Ð²Ð°Ð»Ð¸
ĠÑģÐµÑĢ Ð¶
wit ter
Ð³ Ð¸Ð¹
ĠÐµÐ´Ð¸Ð½ ÑģÑĤÐ²ÐµÐ½Ð½ÑĭÐ¼
ĠÑĪÐ° Ð³Ð¸
ĠÑĪÑĤÐ° Ð±Ð°
ĠÑĤÐ¾Ñĩ Ð½ÐµÐµ
ĠÐ½Ð° ÑĤ
ĠÑģÑĤÑĢÐ° Ð½Ð¸ÑĨÑĭ
ĠÑģÐ¸Ð¼ Ð¿ÑĤÐ¾Ð¼
ĠÐ¿ÑĥÐ½Ðº ÑĤÐ°
ĠÑįÐºÑģÐ¿ ÐµÑĢÑĤ
Ð²Ð¾ ÑĢÐ¾ÑĤ
Ġcon st
Ġm ark
ÑĢÐµ Ð³Ð°
ĠM in
Ð± Ð»Ñİ
Ð¿Ð°ÑĢ ÑĤÐ°Ðº
ĠÐ´Ð¾Ðº Ð»Ð°
ĠÐŃ Ð¼
ĠÐĵÐ¾ÑģÐ¿Ð¾Ð´ ÑĮ
Ġ194 3
ĠÑĥÐºÑĢÐ°Ð¸Ð½ ÑģÐºÐ¸Ñħ
ĠÑģÐ¾ ÑĨ
" ?
Ðŀ Ñģ
ĠÐĸ ÐµÐ»
ÑģÐµÐº ÑĢÐµÑĤÐ°
ĠP ar
ĠÐ²Ð¿ Ð»Ð¾ÑĤÑĮ
ÑĢ ÑįÐ½
ĠÐ´Ð²Ð¸Ð³Ð° ÑĤÑĮÑģÑı
ĠÐ¿ÑĢÐ¾Ð¸Ð·Ð²ÐµÐ´ ÐµÐ½Ð¸Ñı
Ð²Ð¾ ÑģÑĤÐ¾
ĠÐ¼Ð½ ÐµÐ½Ð¸Ñı
at ure
ĠÐ¿ÑĢÐ¸ÑģÐ¾ ÐµÐ´Ð¸Ð½
Ġb orn
ÑģÑĤÐ°Ð² ÐºÐ°
Ð½Ð¸Ð¼Ð° Ð½Ð¸Ðµ
ĠÐ¿ÑĢÐ¾ÑħÐ¾Ð´ ÑıÑĤ
ĠÐŁ ÑĢÐ¾Ð³ÑĢÐ°Ð¼
ĠÐŁÐ°ÑĢÐ¸ Ð¶Ðµ
ĠÐºÐ¾Ñģ Ð¼
Ð°Ð½ Ð½Ð¾Ð¼
an a
ÐµÑĢÐ± Ð°Ð¹
ĠÐ´ Ð¾Ð¶
ÑģÑĤÐ° ÐµÑĤ
Ġ: )
ĠÑĦ Ð°Ð»ÑĮ
Ð¼ÐµÐ½ ÑĤÐ¾Ð¼
ÑĨÐ¸Ð¾Ð½ Ð½ÑĭÐ¼
ĠÐ¾Ð³ÑĢÐ¾Ð¼ Ð½ÑĭÐµ
ĠÐ¿ÑĢÐ°Ð² Ð¾Ð¼
ÑĦ Ð¸Ð¼
Â» ),
ĠÐ²ÐµÑĢ Ñİ
ĠÐ´Ð¾Ð» Ñİ
ĠÐ¿Ðµ ÑħÐ¾ÑĤ
Ġ194 2
ÑĤÐ°Ðº ÑĤÐµ
ĠÐ²ÑĤÐ¾ÑĢ Ð½Ð¸Ðº
ĠÑģÑĥÑīÐµ ÑģÑĤÐ²Ð¾
ĠÑĥÐ¶ Ð¸Ð½
ĠÐ¿Ð°Ð»ÑĮ ÑĨÐµÐ²
al es
ĠÐ¿Ð¾ÑģÑĤ ÐµÐ»ÑĮ
Ð²Ð° Ð¶Ð°
ÐºÐ¾Ð² ÑĭÐ¼
Ð²ÐµÑĢ ÑĮ
ĠÐ¢ ÑĢÐµÑĤÑĮ
ĠÑĤÐ¾ Ð½Ð¾Ð¼
Ð°Ð»Ð¸ ÑģÑĤÐ¸
ĠÐ´ÐµÐ»Ðµ Ð³Ð°
ĠÐ·Ð° ÑĢÐ°Ð±Ð°ÑĤÑĭ
Ð¾Ð³ÑĢÐ° Ð½Ð¸Ñĩ
ĠÐ¶Ð¸ Ð²Ð¾
ĠÑģÐ¾Ð± Ð°ÐºÐ¸
ÑģÐ¸ Ñģ
ĠÑĩÑĥÐ² ÑģÑĤÐ²Ð¾Ð²Ð°ÑĤÑĮ
ĠÐ³Ð¾Ð´ Ð¾Ð¼
ÑĦ Ð°ÐºÑģ
ĠÑĤÐµÑħÐ½ Ð¾Ð»Ð¾Ð³Ð¸Ñı
id es
ĠÐ¾ÑĤ ÑĢÑĭ
a im
ĠSt ate
ĠÐ³ÐµÑĢ Ð¼Ð°Ð½
ĠÑģÑĤÐ¾ ÑıÐ²
ĠÐ¿Ð¾Ð´Ð½Ñı ÑĤÑĮ
Ð²Ð° Ð½Ð¸ÐµÐ¼
Ð½Ñı ÑĤÑĮÑģÑı
ĠÑģÑĤÑĢÑĥÐº ÑĤÑĥÑĢÑĭ
ĠÐ¿ÑĢÐ¸ Ð½Ð¾
Ġinclud e
Ðµ ÑģÐ°
Ð²Ñĭ ÑĢ
ĠÐ¼Ð°Ð³Ð°Ð· Ð¸Ð½Ðµ
ĠÐ¿Ð¾Ð´Ð´ÐµÑĢÐ¶ ÐºÐµ
ĠÐ°Ð´ÑĢÐµÑģ Ñĥ
ĠÐ¡ÑĤÐ¾ Ð¸ÑĤ
7 4
ĠÐ¿ÑĢÐµÐ´ Ð»Ð°Ð³
ĠÐ¿Ð¾Ð¶ Ð¸Ð»
ĠÐļÐ¾Ð½ ÑģÑĤÐ¸ÑĤÑĥ
Ð¿ Ð¸Ð½
Ġd own
ĠÐ¾Ð± ÑĥÑĩÐ°
Ġb as
ĠÐ¿ÑĢÐ¾ÑĦÐ¸ Ð»Ð°Ðº
ĠÐºÑĥ ÑĢÐ¾ÑĢ
ĠÐ¼ÑĭÑģÐ» ÐµÐ¹
ÐµÐ¼Ð¾Ð½ ÑģÑĤÑĢÐ¸
C h
ĠÐ¿ÑĢÐ¾Ð´ÑĥÐº ÑĤ
ĠÑĢÐ°ÑģÑģÑĤÐ¾Ñı Ð½Ð¸Ðµ
ĠÐ¿Ð° ÑĢÑĭ
Ġd et
ĠÐ¾Ð¿Ð° ÑģÐ½Ð¾
ĠÐ¿ÑĢÐµÐ´ÑģÑĤÐ°Ð² Ð»ÐµÐ½Ñĭ
ĠÑĤÐ¸ ÑĪÐ¸Ð½Ð°
ĠÐ°ÑĢÐ¼Ð¸ Ñİ
ÑĦ ÐµÑģ
ĠÑģÑĤÐ° ÑĤÐµÐ¹
Ð½Ñĥ ÑĤÑģÑı
ĠF ebruary
ĠÐĶÐ¶ ÐµÐ½
ĠÐ·Ð°Ð½Ñı Ð»
ÐĿ Ð«
ĠÐ²ÐµÐ» Ð¾ÑģÐ¸
ÑĤÐ¸Ð² Ð½ÑĭÐ¼
ÑĢÑĭ Ð¼Ð¸
ĠÐĿÐ¸Ðº Ð¾Ð³Ð´Ð°
ĠÐ·Ð° ÑĤÑĭ
ĠÐ½Ð°Ð» Ð¾Ð¶
ĠÐ»Ðµ Ð¶Ð°Ð»Ð°
l er
ÑģÑĤ ÑĥÑİ
ĠÑįÐºÐ¾Ð½Ð¾Ð¼Ð¸ÑĩÐµÑģÐº Ð¾Ð³Ð¾
ĠÑĦ Ð°Ð½Ð°
ĠÐ°Ð²ÑĤÐ¾ÑĢÐ¸ ÑĤÐµÑĤ
Ð¸Ð² Ð°Ð»Ð°
ĠÐ½Ðµ ÑģÐ¿
ĠÐļ Ðŀ
Ġj o
c ent
ĠW est
ĠÑĥÑģÐ» ÑĭÑĪÐ°ÑĤÑĮ
ĠÐ¿Ð¾Ñģ Ð¾Ð»ÑĮ
ĠÐ¿Ð¾Ð½ÑĢÐ°Ð² Ð¸Ð»Ð¾ÑģÑĮ
ĠÑģÑģÑĭÐ» ÐºÐ¸
Ð±Ð¸ÑĢÐ° ÑĤÑĮ
Ġwith in
ĠÐ¿Ð¾Ð´ ÐµÐ»
ĠÐ¾Ð¿ ÑĤÐ¸Ð¼
ĠÐ°Ð¿ÑĢÐµ Ð»Ðµ
Ġb ased
Ġre st
ĠÐºÐ¾ ÑģÑĤÐ¸
ĠÑĢÐ° ÑģÑĤÐ²Ð¾
ĠÑģÑĤÑĢÐ¾ Ð¸ÑĤÑĮ
ĠÑĥÐ² Ð»Ðµ
Ġle g
ĠÐ¿Ð¾Ð³Ð¸Ð± ÑĪÐ¸Ñħ
ÑĪ ÑĤÐµÐ¹
Ð»Ñı ÑıÑģÑĮ
Ð¶Ð¸ Ð½Ð°
ĠÐ¥ ÑĢÐ¸ÑģÑĤ
ĠÐ¸Ð· Ñĭ
ĠÐķ Ð»Ð¸
ĠÐ¿Ð»Ð°Ð½Ð¸ ÑĢÑĥÐµÑĤÑģÑı
Ġv ers
ĠÐ²Ð»Ð° Ð´Ðµ
ĠÑĢÐ¸ ÑĤÑĥ
ĠÐ¾ÐºÑĤÑı Ð±ÑĢÐµ
ĠÐ¾ÑĤÐ´ÐµÐ»ÑĮ Ð½Ð¾
ĠÐ´Ð¾Ð¿Ð¾Ð»Ð½Ð¸ÑĤÐµÐ»ÑĮ Ð½ÑĭÐµ
ĠÑĥ ÑĪÐ»Ð¸
Ñĩ Ð¸Ð½Ðµ
ÑĪ ÐµÐ»ÑĮ
ĠÐºÐ¾Ð» Ð»ÐµÐ³
Ġc ar
ĠÐ¿Ð¾ÐºÐ°Ð· Ð°Ð»Ð¸
Ð¼ ÑĥÑİ
ĠÐ°Ð´Ð° Ð¿
ĠÐ¾Ð± Ð¸ÑĤ
Ġpop ulation
ĠÑģ Ñģ
ru e
ĠÐ²ÑĭÑıÑģ Ð½Ð¸ÑĤÑĮ
ĠÑĦÑĢÐ¾Ð½ ÑĤ
ĠÐĲÑĢ Ð¼Ð¸
Ñı Ð½Ðµ
ĠÐ´Ð¸ÑģÐº ÑĥÑģ
ĠÐ²ÑĭÑıÑģ Ð½Ð¸Ð»Ð¾ÑģÑĮ
ĠÐ¿Ð»Ð° Ð½Ð°
ĠÐ²ÑĤÐ¾ ÑĢÑĥÑİ
ĠÐ¾Ð¶Ð¸Ð´ Ð°Ð»
ĠÐ¾ÑģÑĤÐ° ÑİÑĤÑģÑı
Ġl aw
ĠÑĢÐµÐ´Ð°Ðº ÑĨÐ¸Ð¸
ĠÐĴÐ°Ð» ÐµÐ½ÑĤÐ¸
st er
ÑīÐ¸Ñħ ÑģÑı
ĠÐ¿Ð¾Ð»Ð¸ÑĤÐ¸ ÐºÐµ
ÐµÐ½Ð½Ð¾ ÑģÑĤÐµÐ¹
Ð½Ð¾Ð² Ð¾
ĠÐ²ÐµÐ»Ð¸ ÐºÐ¸Ð¹
om in
if ied
ĠÐ¡Ð¸ Ð±Ð¸
ĠÐ¿Ð¾Ð´Ð½Ñı Ð»Ð°
ĠÐ³ Ð»Ð¸
ĠÐ¿Ð¾ ÑģÐ»ÑĥÐ¶
d ay
ĠÐºÑĥÑħ Ð½Ñİ
ĠÑĨÐ¸ ÑĢ
Ð¸Ð´ ÐµÑĢ
ĠÐ´Ð° ÑĤ
ÑģÐ¾Ð² ÐµÑĤ
ĠÐ¾Ð±ÐµÑĢ Ð½ÑĥÐ»ÑģÑı
Ġn orth
ĠÑįÐºÐ¾Ð½Ð¾Ð¼Ð¸ÑĩÐµÑģÐº Ð¾Ð¹
ĠÐ·Ð°Ðº Ð»Ð¸Ð½Ð°
ĠÐŁÐµÑĢ Ð²Ð°Ñı
ĠÐ»Ð¾ÑĪÐ° Ð´Ð¸
ĠÑħÐ¾Ð»Ð¾Ð´ Ð¸Ð»ÑĮ
ĠÐ² Ñĥ
ĠÐ¼Ð¸ ÑĢÐ¾Ð¼
ĠÐ¿ÑĢÐ¸ ÑģÐ¿Ð¾ÑģÐ¾Ð±
ĠM ed
ÑĤÑĮ Ñİ
ĠÑĤÐµÐ¼Ð¿ÐµÑĢÐ° ÑĤÑĥÑĢÐ°
Ġcur rent
Ñı ÐµÐ¼
Âł Ðº
ĠÐµ Ð»Ðµ
ĠÐ· Ð¾Ð½
Ð¸Ð¼ ÑĭÐ¼
ĠÐº Ð»Ð¾
ĠÑģÐ¾ ÑĩÑĥÐ²
ÑĢÐµÐ¼ ÑĮÐµÑĢ
Ġa v
ĠÐºÐ°Ð¼ Ð½Ñı
ĠÐ·Ð´Ð° Ð½Ð¸Ð¹
ĠÐ½ÐµÐ¶ ÐµÐ»Ð¸
ĠÐł Ð°Ð´
Ð½Ð° Ð¹
Ð³ÑĢÐ° Ð¼
ÑĩÐ° Ñħ
ĠÑģÐ¾ Ñĩ
ĠÐŁÑĢÐ¸ Ð¼ÐµÑĢ
ĠÑģ Ð¼Ð¸
ĠÐ½Ð¾Ñģ Ð¾Ð¼
ÐµÐ½ÑĮ ÐºÐ°Ñı
ĠÑģÐ°Ð½Ðº ÑĨÐ¸Ð¸
ĠÐ¿ÐµÑĢÐµ Ð²ÐµÑĢ
ÑĤÐ¸ Ð½Ñĥ
ĠA f
ĠÐľ Ð§Ð¡
ĠÐĲ ÑģÑģ
ĠÑģÐ»Ñĥ Ð¶ÐµÐ±
ÑĤ ÑĢÐ¾
ĠÑĦÐ¸Ð»Ð¾Ñģ Ð¾ÑĦÐ¸
ĠÑįÑĤÐ° Ð¶Ðµ
ĠÐºÐ²Ð°ÑĢ ÑĤ
ÑĤÐµÐ»ÑĮ Ð½Ð¾ÑģÑĤÑĮ
ĠÑĥ ÑĩÐ¸ÑĤÑĮÑģÑı
ĠÐ²Ð½ÐµÑĪ Ð½ÐµÐ¹
ĠÐ²Ð·Ð³Ð»Ñı Ð´Ð°
ĠÑĢÐ°ÑģÑĤ ÐµÐ½Ð¸Ð¹
ÑģÑĤÐ¾ Ðµ
Ð²ÑĪÐ°Ñı ÑģÑı
ĠÐ¿ÑĢÐ¾Ñģ Ð¸Ð»
ÑģÐ» ÑĥÑħ
ĠÑĢÑĥ Ð±ÐµÐ¶
ĠÐ¿ÑĢÐ°Ð² Ð»ÐµÐ½Ð¸Ñı
ĠÑĢÑĥÐºÐ¾Ð²Ð¾Ð´ ÑģÑĤÐ²Ð°
ĠÐ¡ ÑĤÐ¸Ð²
ĠÐ¼Ð°Ñģ ÑģÑĭ
ĠÐ¿Ð¾ÑģÑĤÑĢÐ° Ð´Ð°
Ġre qu
ĠÐ¸Ð½ÑĤÐµÑĢ Ð½ÐµÑĤÐµ
ÐµÑĢ Ð´
ĠÑĦÐ¾ÑĢÐ¼Ð¸ ÑĢÐ¾Ð²Ð°Ð½Ð¸Ñı
Ġp ar
ĠÑĢÐµÐ³Ð¸ Ð¾Ð½Ð¾Ð²
ĠÐŀ ÑģÑĤÐ°Ð²
ĠÐ°Ðº ÑĤÑĢÐ¸
Ð·Ð¸ Ð½Ð°
ĠÐ¸ÑģÐ¿Ñĥ Ð³Ð°Ð½
ĠÑĤÐ¾ÑĤ ÑĩÐ°Ñģ
ĠÑģ ÑİÑĢ
ĠE l
ĠÐ¼Ñı ÑģÐ°
ĠÐ¼ÑĥÐ·Ñĭ ÐºÐ¸
ÐµÐ»Ñı Ð±Ð¸Ð½
w ork
ĠÐ¿Ð¾Ñģ Ð¾Ð±
ĠÑģÐ¾Ð±ÑģÑĤÐ²ÐµÐ½ Ð½ÑĭÐ¹
ĠÑĥÑĩÐ°ÑģÑĤ ÐºÐ°
b orn
ĠÐ± ÑĢÐ°Ðº
ĠÑģÑĤÐ¾ÑĢÐ¾ Ð½Ð°
re w
Ð»Ñİ ÑģÑĮ
ĠÐ¿Ð¾Ð»ÑĥÑĩÐ° ÑİÑĤ
ĠÑĥÑħ Ð¼Ñĭ
Ġor der
ĠÐ¿ÑĢÐ¾Ð´Ð° Ð²
ĠÐ½ÐµÐº Ð¾Ð³Ð´Ð°
ĠÐ° ÑĢÐ¾Ð¼
ĠÐºÑĢÐ¸ Ðº
u ff
ĠÑģÐºÐ¾ÑĢÐ¾ ÑģÑĤÑĮÑİ
ÑģÐ»ÑĥÐ¶ Ð±Ðµ
ĠÐ¿Ð¾ ÐµÐ´Ð¸Ð½
ĠÐ¿ÐµÑĢÐµ ÐºÑĢÑĭ
ĠÐ½Ð°Ð· ÑĭÐ²Ð°ÑĤÑĮ
ĠÑĢÐ° Ð´Ð°
ĠÑĦÐµÐ²ÑĢÐ° Ð»Ðµ
ĠÐ³Ð¾ÑģÑĥÐ´Ð°ÑĢ ÑģÑĤÐ²ÐµÐ½Ð½ÑĭÐ¹
ĠÐ³Ð°Ð· ÐµÑĤ
ĠÐ¶ Ð´Ð°Ð»Ð¸
ĠÐ¼Ð¾ÑĢ Ð¾Ð·
Ðĺ Ð¯
ĠÐ·Ð´ÑĢÐ°Ð²Ð¾ Ð¾Ñħ
ĠÐĺ Ð»ÑĮÑı
iv en
ĠÐ¾ ÑģÑĤÐ°Ð²Ð¸Ð²
ĠÐľÐ°ÑĢÐ¸ Ð½Ð°
ĠÐ±Ð»Ð°Ð³ Ð¾Ð´Ð°
ĠÑģÑĥÐ¼ Ð¼Ñĭ
ÑĦ Ð¾
ĠÑģÐ´ÐµÐ»Ð° ÐµÑĤ
ÑĦ Ð°Ð»ÑĮ
Ð½Ñİ Ð´ÑĮ
ĠÐ¾Ð¿ÐµÑĢÐ° ÑĨÐ¸Ð¹
Ð»Ñı Ñİ
ĠÑģÐ¾Ð´ÐµÑĢÐ¶Ð° Ð½Ð¸Ñı
ĠÐ²Ð°ÑĢÐ¸Ð°Ð½ ÑĤÑĭ
ÑĤÐ¸ Ð»Ð¾ÑģÑĮ
ĠÐ¾Ð±ÑĢÐ° ÑīÐµÐ½Ð¸Ñı
ĠÐ¿ÑĢÐ¾Ð´ ÐµÐ¼Ð¾Ð½ÑģÑĤÑĢÐ¸
ĠÑģÑĤÐ¸ ÑħÐ¾ÑĤÐ²Ð¾ÑĢ
ĠÐ¸Ð³ÑĢÐ¾Ðº Ð¾Ð²
ĠÑĢÐ°Ð·ÑĢÐ°Ð±Ð¾ÑĤ ÐºÐ¸
ÑĢÑı Ñħ
ĠÐłÑĥ ÑģÐ¸
ĠÐ²ÐµÑĢ ÑģÐ¸Ñı
ĠÐ¿ÑĭÑĤÐ° ÑİÑĤÑģÑı
ĠÐĴ Ð´ÑĢÑĥÐ³
ĠÐ´Ðµ ÑĪÐµÐ²
ĠÑģ ÑĢÐ¾ÑĩÐ½Ð¾
ĠÑĥÐ¶Ð°Ñģ Ð½Ð¾
ÑĤ Ð½Ð¾Ðµ
Ð°Ð»Ð° Ñħ
ĠÐºÐ²Ð°ÑĢÑĤÐ¸ ÑĢ
Ð± Ð°Ð¹
ÑĢÐ¸ ÑģÑĤÑĭ
ĠÐĳÐ¾Ð»ÑĮÑĪ Ð¾Ð¹
Ġ ;
ĠÐ¾ÑģÑĤÑĢÐ¾Ð² Ðµ
ĠÐ½Ð°Ñĩ Ð°Ð»ÑģÑı
ĠÑĦÑĥÑĤÐ± Ð¾Ð»
Ð¸Ñģ Ñģ
ĠÐ´Ð¾Ðº ÑĤÐ¾ÑĢÐ°
ĠÐ¿ÑĢÐµÐ´ÑģÑĤÐ°Ð²Ð»Ñı ÑİÑĤ
Ð± ÐµÐ½
ĠÐ½Ð°Ð¿ÑĢÑı Ð¶
ĠÐ¾ÑĤÐ¾Ð· Ð²Ð°Ð»ÑģÑı
Ð¼Ñĭ ÑģÐ»Ð¸
ĠLe ague
ÑģÐºÐ° Ð´
ÑģÐ¸ Ð´
9 5
ĠÑį Ð²Ð¾Ð»Ñİ
ĠÑģÐ¾Ð³Ð»Ð°Ñģ ÐµÐ½
Ð»Ñı Ð»Ð°ÑģÑĮ
ĠÑģÐ¾Ð»Ð´Ð° ÑĤÑĭ
Ð»Ð¸Ð½ Ð³
Ñī ÐµÐ½Ð½Ð¾
Ġcons id
ĠÐ¾Ð± ÑĢÐµ
ĠÑģÑĥÐ´ Ðµ
ĠÐ´Ð¾Ð» Ð³Ð¾Ð²
ĠÐ´Ð¸Ð·Ð° Ð¹Ð½
ĠÑĢÐ°Ð· Ð±Ð¸ÑĤ
Ð°Ðº Ð¾Ð²Ð°
ĠÐ´Ñı Ð´Ñı
ĠÑĥÑĩÐ° ÑģÑĤÐ²Ð¾Ð²Ð°ÑĤÑĮ
ĠÐ¿Ð¾Ð± ÐµÐ¶
p ed
ĠÐºÐ°ÑĢ ÑĮ
b r
ĠÐ´Ð° Ð²Ð°Ð¹ÑĤÐµ
Ġ !
ing ton
ĠÑĢÐ°ÑģÐ¿Ð¾Ð»Ð¾Ð¶ ÐµÐ½
ĠÐĵÐ¾ÑģÐ¿Ð¾Ð´ Ð¸
ĠÐŁÐµÑĤ ÑĢÐ¾Ð²Ð¸Ñĩ
ĠÐ´Ð»Ð¸Ð½ Ð½ÑĭÐµ
ĠÐĳ ÑĢÑİ
i od
ĠÑģÐ²Ð¾Ðµ Ð¾Ð±ÑĢÐ°Ð·
ĠÐ¸Ð·Ð´ÐµÐ»Ð¸ Ñı
Ð»Ð° Ð¹
Ġl arge
ĠÑģÑĤÑĢÑĥÐº ÑĤÑĥÑĢ
ĠÑģÐ¿ÐµÑĨÐ¸Ð°Ð»ÑĮ Ð½ÑĭÐµ
Ð¼Ð¸ ÑĤÑĮ
Ġre port
ĠÐ¿ Ð¸Ðº
Ð²Ð¸Ð´Ð¸Ð¼ Ð¾Ð¼Ñĥ
ĠÑģÐ¾Ð¾Ð± ÑĢÐ°Ð¶
ĠÐ¯ ÑĢÐ¾ÑģÐ»Ð°Ð²
ĠÐ²ÐµÐ´ ÑĥÑĤ
ĠÐ·Ð°Ð³Ð° Ð´Ð¾
âĢĶ âĢĶ
ĠÑģÐ¿ ÑĢÐ°Ð²Ð¸ÑĤÑĮÑģÑı
ĠÐ»ÑİÐ±Ð¾Ð² ÑĮÑİ
Ġd ay
ÑĢÐµ Ð¸
ĠÐ¿ÑĢÐµÐ´Ð¿Ð¾Ð» Ð°Ð³
ĠÐ²ÐµÑĢ ÑĤÐ¸Ðº
ĠÐ¿ÑĢÐ¾ ÑıÐ²Ð¸
ĠÐ¿Ð¾Ð´Ð´ÐµÑĢÐ¶Ð¸ Ð²Ð°ÑĤÑĮ
ĠÐ³Ð¾Ð»Ð¾Ñģ Ð¾Ð²
ĠÐ¾ÑĤ Ð²Ð°
ĠÐ±Ð» Ð¾ÐºÐ°
ĠÑģÑĤ Ð¾Ð¿
ĠÐ¼Ð¾Ð´ÐµÑĢ Ð½Ð¸
ĠÐŁÐ¾Ð¶Ð°Ð»ÑĥÐ¹ ÑģÑĤÐ°
ĠL ondon
ĠÐŀÑĤ Ñģ
ĠÐ·Ð°Ð±Ð¾Ð»Ðµ Ð²Ð°Ð½Ð¸Ð¹
ÐĴ Ðµ
ĠÐ·Ð°Ð½Ñı ÑĤÐ¸Ð¹
ĠÐ±Ð»Ð°Ð³Ð¾ ÑģÐ»Ð¾Ð²
ĠÑģÐ¾ ÑİÐ·Ð°
ĠÐ·Ð¾Ð»Ð¾ ÑĤÐ¾
ĠÐ±ÐµÑģÑģ Ð¼ÑĭÑģÐ»
ĠÐłÐ°Ð· ÑĥÐ¼ÐµÐµÑĤÑģÑı
ĠÐºÐ¾Ð½ Ð²ÐµÑĢ
in ing
ĠÐ¸Ð½ÑĤÐµÐ½ ÑģÐ¸Ð²
ĠÐł Ð°ÑģÑģ
ĠÐł Ð¡
Ð¸Ð½Ð° Ð¼Ð¾
ĠÐ²Ð°Ð¶ Ð½Ð¾Ðµ
7 1
ĠÐ¼ÐµÐ½Ñı ÑĤÑĮ
ĠÑĦ Ð»Ð°Ð³
ĠÑĥ ÑģÑĤÐ°Ð»
ĠÑģÐ¿ÐµÑĨÐ¸ ÑĦÐ¸
ÑĪ ÐµÐ½Ð½Ð¾
ĠÐ´ ÑĢÐ°Ðº
al th
ĠÐ¿ÑĢÐ¾ ÑĩÐ¸Ðµ
ĠÐ¿ÑĢÐ¾ Ð½
Ð² ÑĪÐµÐ¼Ñĥ
ĠÐ¼ÐµÐ´ Ð²ÐµÐ´
ĠÑĥÑģÑĤÐ°Ð½Ð¾Ð² Ð»ÐµÐ½
ĠÐ¸Ð³ ÑĢÐ¾Ð²
ĠÑĩÑĥÐ´ Ð¾
Ñĩ Ð½Ð¸ÐºÐ°
Ð° ÑĢÑĭ
ĠÐ²ÑĭÑģÐ¾Ðº Ð¸Ñħ
ĠÑħÑĢÐ° Ð¼Ð°
ĠÐ½Ð°ÑĢÑĥÐ¶ Ñĥ
ĠÐ» ÑĳÐ³
ĠÐ¿Ð¾ÑģÐ»ÐµÐ´ Ð½Ð¸Ð¼
ĠÐ¼Ð°ÑģÑĪÑĤÐ° Ð±
ĠÐĶ Ñİ
ĠÐ¡ÐµÐ²ÐµÑĢ Ð½Ð¾Ð¹
ĠÐ¼ÑĥÑģ ÑĥÐ»ÑĮÐ¼Ð°Ð½
et y
ĠÐŀÐ´ Ð½Ð¾
ĠÐ²Ð·Ð³Ð»Ñı Ð´Ñĭ
ĠÐ¿ Ð¾Ð²Ð¾ÑĢÐ°
ĠÐĺ Ð½Ð°ÑĩÐµ
ÑģÑĤ ÑĢÐ¸Ð¸
Ġ6 5
Ġc amp
ĠÐĵÑĢÐ¸ Ð³Ð¾
ĠÑģÐ¾ÑģÑĤÐ¾Ñı Ð»ÑģÑı
ĠÐ±ÑĥÑħ Ð³Ð°Ð»
ĠÐ¼ÑĥÐ·Ñĭ ÐºÑĥ
ĠÐ½Ð°Ð´ Ð¿Ð¸ÑģÑĮ
ĠÐ±ÑĢÐ¾Ñģ Ð¸Ð»ÑģÑı
ĠÐ·Ð°ÐºÐ¾Ð½Ð¾Ð´Ð° ÑĤÐµÐ»ÑĮÑģÑĤÐ²Ð°
Ð´Ð¸ Ñİ
ĠÐ¼ÐµÐ¶Ð´ÑĥÐ½Ð°ÑĢÐ¾Ð´ Ð½Ð¾Ð³Ð¾
ĠÐºÐ»Ð° Ð²Ð¸Ð°
ĠÐ¿ÐµÑĢÐµÐ½ ÐµÑģ
ĠÑģÐ»Ðµ Ð·
ĠÐ·Ð°Ð½Ñı ÑĤÑĮÑģÑı
ĠÐ²Ð· ÑĢÑĭÐ²Ð°
ĠÐ¼Ðµ Ð±ÐµÐ»Ð¸
ĠÐ²ÑĭÑģÑĤÑĥÐ¿ Ð¸Ð»
Ð°Ð»Ð° ÑĤ
ĠÐ²Ð¾ ÐµÐ½Ð½ÑĭÐ¹
Ð»Ð°Ð½ Ð´Ð¸Ð¸
ĠS ec
ÑģÐ»Ð° Ð¼
ĠÐ²Ð° ÑĪÐµÐ¼Ñĥ
it ions
ĠÐ¼Ð¾ ÑĤÐ¸Ð²Ð°
ĠÑħÐ¾Ð»Ð¾Ð´ Ð½Ð¾
ĠÐ² ÑģÑĤÐ°Ð»Ð°
ĠÐ· Ð»Ð°
ĠÐ¾Ð¿ÑĥÐ±Ð»Ð¸ ÐºÐ¾Ð²Ð°
a us
ĠÐ» Ñı
ĠÑįÐ»ÐµÐ¼ ÐµÐ½ÑĤÐ°
6 5
ÑĥÑħ Ð¾Ð²
ĠÐ¿Ð¾ÑıÐ² Ð»ÐµÐ½Ð¸Ðµ
ĠÑĥÑĤÐ²ÐµÑĢ Ð¶Ð´Ð°ÐµÑĤ
ĠÑģÑĥ Ð¼Ðµ
ĠÐ¿Ð¾Ð½Ð¸Ð¼Ð° Ñı
ĠH ar
ĠÐ²ÐµÐ»Ð¸ ÐºÐ¾Ð³Ð¾
Ð·Ð¸ ÑĢÐ¾Ð²Ð°ÑĤÑĮ
ĠÐ³Ð¾ÑĢ Ð»Ð¾
Ġl ife
ĠÐ´ÐµÐ² ÑĥÑĪÐµÐº
ĠÑģÐ¾Ð¾Ð±Ñī Ð¸ÑĤÑĮ
ÑĤÐ¾ÑĢ Ð¾Ð¿
ÑģÑİ Ð´Ñĥ
ĠB ar
ĠÐº ÑĢÑİ
ĠÐ¶Ð¸Ð»ÑĮ Ñı
ĠÐ¾Ð³ Ð½ÐµÐ¼
ĠÐºÐ½Ñı Ð·
ĠÐ¿ÑĢÐ¾Ð²Ð¾Ð´ Ð¸ÑĤ
Ð¾Ð¿Ð¸ ÑģÐ¸
ĠÐ´Ð¾ ÑģÑĤÑĥÐ¿Ð°
n a
ĠÐºÐ°Ð±Ð¸Ð½ ÐµÑĤÐµ
ÑĪ ÐµÐ½Ð°
ĠÐĶ Ð°Ð¹
Ġad v
ĠÐ½ÑĥÐ¶ Ð´Ð°
ĠÐ²Ð»Ð¸Ñı Ð½Ð¸Ñı
ĠÐ¡ÑĥÐ´ Ñı
ĠÐ¡ÑĤÐ¾ Ð¸Ð¼Ð¾ÑģÑĤÑĮ
ĠÐºÐ¾Ð»Ð»ÐµÐº ÑĤÐ¸Ð²
Ð°Ð»Ðµ ÐºÑĥ
iv ision
ĠÐ¶ÐµÐ½Ñī Ð¸Ð½Ðµ
ĠÐ·Ð°Ð¿Ð»Ð° Ð½Ð¸
ĠÑĥÐ´Ð¸Ð² Ð¸ÑĤÐµÐ»ÑĮÐ½Ð¾
ĠÑĥÐ³ÑĢÐ¾Ð¶ Ð°
ĠÐ½Ðµ Ð±Ð°
ĠÑģÐ¾Ð³Ð»Ð° ÑĪÐµÐ½Ð¸Ðµ
ĠÑģÑĤÐµÐº Ð»Ð°
ĠÑģÐ»ÑĥÐ¶ Ð¸Ð»
ang u
d e
Ġ very
ĠÐ½Ð°Ð±Ð»Ñİ Ð´Ð°ÑĤÑĮ
Ð¼Ð¸ÑĢÐ° Ð»
6 8
Ð½Ñı ÑİÑĤÑģÑı
ĠÐ°Ð²ÑĤÐ¾Ð¼Ð° ÑĤÐ¸ÑĩÐµÑģÐºÐ¸
Ġd ue
ĠS e
ĠÐ³Ð¾ÑĢÐ¸Ð· Ð¾Ð½
ĠÐ½Ð¸ ÑĩÑĤÐ¾
ĠÐºÐ¾Ð½ÑĨ ÐµÑĢÑĤ
ĠÐ± ÑĢÐµÐ´
ĠG l
ĠÐ»Ðµ ÑĤÐ¾
Ð²Ðµ ÑĢÐ°
ĠÐ¿ÑĢÐ¾ÑĨÐµÐ´Ñĥ ÑĢÑĭ
f ord
ĠÐĺ Ð¼Ðµ
ĠÐł ÑĥÐ±
ĠÐĳ ÑĥÐ´ÑĮ
ĠÐ¿Ð°ÑĢÐ»Ð° Ð¼ÐµÐ½ÑĤ
ĠÐ¿ÑĢÐ¸Ð¼ÐµÐ½ ÐµÐ½Ð¸Ðµ
ĠÐ³ÑĢÐ°Ð´Ñĥ ÑģÐ¾Ð²
ÑĪÑĥÑİ ÑģÑı
ÑĥÑİ ÑīÐ¸Ð¼Ð¸
ĠÑģÐ¾Ð²ÐµÑĤ ÑģÐºÐ¾Ð¹
ĠÐ² Ð°Ðº
ÂłÐĴ ÑģÐµ
ĠÐ¿ÑĢÐµÐ´Ð¼ÐµÑĤ Ñĭ
ĠÐ¾ÑģÑĤÐ°Ð² Ð°Ð»ÑģÑı
6 4
Ġs ix
ĠC or
ĠÐ¿Ð°ÑĢ Ðº
ÐµÑģÑĤ Ð½Ð¾
ÐŁ Ð°
ÐµÐ½ Ð´
ÐµÐ¹ Ñģ
ĠÑĨÐµÐ½ Ñĥ
ĠÑĥÐ¿ÑĢÐ°Ð² Ð»ÑıÑĤÑĮ
ĠÐ¿Ð¾ ÑĤÑĥ
Ð»ÐµÐ¼ Ð°
ĠÐ¾Ð± Ð¸ÑĤÐ°
ĠÑģÑĢÐ¾Ðº Ð°
ÐµÐ»Ð¸ Ð»Ð¸
ĠÐŀ Ðĳ
Ġl ike
ÑĢÐ°Ð·Ñĥ Ð¼Ðµ
ÐµÐ´ ÐµÑĤ
ĠÐ¸Ð´ ÑĳÑĤ
Ð» Ð¾ÑĢ
Ñĩ ÐµÐ½Ð½Ð¾
ĠÐ²ÑĭÑģ Ð¾ÑĤÑĭ
ĠÐ½Ð°ÑĩÐ°Ð» Ð¾Ð¼
ĠÑĤÑĢÐµÐ± Ð¾Ð²Ð°Ð½Ð¸Ð¹
Ð² Ð¾Ð±Ð¾Ð´
ĠY ou
ĠÑģ ÐµÐ½Ð°
ĠÑĩÐµÐ»Ð¾Ð²Ðµ ÑĩÐµÑģÐºÐ¾Ð³Ð¾
ĠÐĶÐ¾Ð½ Ð±Ð°Ñģ
ĠÐ´Ð¾ ÑģÑĤÐ°Ð²Ð»Ñı
ĠÐ½Ð° Ð¿Ð°
ĠÐłÑı Ð´Ð¾Ð¼
Ġj ust
Ð´Ð¸ ÑĢ
ĠÐĽÑİ Ð´
ĠÐºÐ¾Ð¼Ð¿ ÐµÐ½ÑģÐ°
ĠÐ¿ÐµÑĢÐµ ÑħÐ²Ð°
ĠÑģÐºÑĥ Ð»ÑĮÐ¿
ĠÑĤ ÐµÐ½ÑĮ
ĠÐ¿ÑĢÐ¾Ð²Ð¸Ð½ ÑĨÐ¸Ð¸
ren ch
Ð¾Ð¿ ÑĢÐ¾Ð²
ĠÑħ Ð¾Ð´Ð°
ĠÐŁ Ð¾ÑĢ
ĠÐ± ÑĥÐ½
ĠÐ¸Ð· Ð½Ð°ÑĩÐ°Ð»ÑĮÐ½Ð¾
ĠÐ¿ÑĢÐµ Ð´Ð°Ð½
Ġp ower
ĠI V
ĠÐ±Ðµ Ð¶ÐµÐ½
ĠÑĢÐµÐ·ÑĥÐ»ÑĮÑĤÐ° ÑĤÐ°Ð¼
ĠÐ¿Ð¾ ÑģÑĤÐ¾ÑĢÐ¾Ð½
ĠÐ¡ ÐĿ
ĠÐŀÐ´ Ð½Ð¸Ð¼
ĠÑģ ÐµÐ»Ðµ
ĠÐ°ÐºÐ°Ð´ÐµÐ¼ Ð¸Ð¸
ÑĪ Ð¸Ð½Ñĥ
Ð¾Ðº ÑĥÐ¿
Ð· Ð´
ĠÐµ Ð´Ñĭ
Ð²Ð¸ ÑģÑĤ
ÑĨÐ¸Ð¾Ð½ Ð½ÑĥÑİ
Ð´ Ð»Ñı
ĠÐ»Ð¾ÑĪÐ° Ð´ÑĮ
ĠÐ¿ÑĢÐ¸ Ð¾ÑĢÐ¸
ĠÐ¢Ð°ÑĤÑĮ ÑıÐ½Ð°
ĠÑĥÐ¿ Ð°Ð»Ð°
ĠÐ½Ð¾ ÑıÐ±ÑĢÐµ
ĠÐ¿ÑĢÐµÐ´Ð¿Ð¾Ñĩ ÑĤ
ÑĢÐµ ÐºÐ¸
Ð° Ð½Ñĭ
ĠÐ·Ð°ÑģÑĤÐ°Ð² Ð¸Ð»
ĠÑĢÑĥÑģ ÑģÐºÐ¾Ð¼
Ð¾Ð¼ Ð¼ÐµÐ½ÑĤÐ¸
ĠÐ¿Ð¾Ð»ÑĥÑĩ Ð¸ÑĤ
ĠÐ¾Ð±ÐµÑģÐ¿Ðµ ÑĩÐµÐ½Ð¸Ðµ
ĠÐ¸ Ð½ÑĭÐµ
ĠÐ¿Ð¾ÐºÐ¸Ð½Ñĥ ÑĤÑĮ
ĠÐĿÐµ Ð¾Ð±ÑħÐ¾Ð´
ĠÑĥÑĤ ÑĢÐµÐ½
ĠÐ·Ð°ÐºÐ»Ñİ ÑĩÐµÐ½Ð¸Ñı
ĠÑĥÐº Ð»Ð°Ð´
ĠÐ¾ÑĪÐ¸Ð± ÐºÑĥ
Ġde ath
ĠÐ¿Ð°Ð»Ðµ ÑĨ
ÐŀÐ´ Ð½Ð°ÐºÐ¾
ĠÐľ ÐµÐ»
ĠS up
ĠÐ¥ Ñĥ
ĠÑĩÐ°ÑģÑĤÐ¸ ÑĩÐ½Ð¾
Ð² Ð¾Ð½
ÑĢÐ¾ ÑģÐµ
ĠÐ¼Ð°ÑĢ ÐºÐµÑĤ
ĠÐ¿ÑĢÐ¸Ñģ Ð²Ð¾
ĠÐ¶ÐµÑģÑĤ Ð¾ÐºÐ¾
ÑİÑīÐ°Ñı ÑģÑı
ÑĢ ÐµÐ½Ð¸Ñİ
Ðľ ÐĲ
ÑĤ Ð½Ð°Ñı
ĠÐĲÐ½Ð°ÑĤ Ð¾Ð»
ĠÐ¿ÑıÑĤ Ð½Ð°Ð´ÑĨÐ°ÑĤÑĮ
c ed
ÑĥÑīÐµ Ð³Ð¾
ĠÐĶ Ð¸Ð¼
ĠÐ¿ÑĢÐ¾ÐµÐº ÑĤÐ¸
ĠÐ¿ÑĢÐ¾ ÑģÑĤÐ¸
ĠIn ternational
Ġp erson
ĠÐ²Ð´Ð¾Ñħ Ð½Ð¾Ð²
ĠÐ²Ð¾Ñģ Ð¿ÑĢÐ¾
ĠÐ²Ð¾ Ð¸Ð½Ð¾Ð²
ĠÐ¿ÑĢÐ¾ÑģÑĤ Ð¸ÑĤÑĥÑĤ
ĠÐŃÐº ÑģÐ¿
ĠÑĦÐ¸Ð»ÑĮ Ð¼Ðµ
ĠÐ² Ð¾Ð»Ðµ
ÐµÐ² ÑĭÐµ
Ñģ ÐµÐ»ÑĮ
Ðº Ð¾Ñģ
ord s
ĠÐ¿ÑĢÐ¾ÐµÐº ÑĤÑĭ
ĠÐ»ÐµÐ¹ÑĤÐµÐ½ Ð°Ð½ÑĤ
ĠÑĥÑĩÑĢÐµÐ¶Ð´ ÐµÐ½Ð¸Ñı
ĠÐ¾ÑĤÑĢÐ° ÑģÐ»Ð¸
ĠÑħÐ»Ðµ Ð±Ð°
ĠÑģÐ»ÑĥÐ¶ Ð±Ðµ
ĠÐ²ÑĭÑģÐ¾Ðº Ð¾Ð¼
ĠÐ± ÐµÐ»Ð¾ÑĢÑĥÑģ
ĠÑĢÐµ Ð¿ÑĥÑĤÐ°
ĠÐ¾Ð±Ðµ Ð¸Ñħ
/ .
ĠÐ·Ð° ÑĢÑı
ĠÐ»Ð¸ ÑĩÐ½Ð¾ÑģÑĤÑĮ
ĠÐĲÐ¼ÐµÑĢÐ¸ ÐºÐµ
Ð¾Ð³ÑĢÐ°ÑĦ Ð¸Ñı
Ð¼Ñĥ Ð»Ñı
Ġ19 20
ĠÐ¿Ð¸ ÑīÐ¸
ĠÐ± Ð¾ÑĢÑĤ
Ġs outh
ÑĨ Ñĸ
Ġ5 5
Ġpubl ished
ÑĪ ÐµÑĤ
ÐµÐ»ÑĮ Ñı
Ð¼Ð° Ð¼Ð¸
ĠÐ»ÑĥÑĩ ÑĪÐ¸Ð¼
ĠÐ¿Ð»Ð° Ð½Ð¾Ð²
ĠÐ¼Ð½Ð¾Ð³ Ð¾Ðº
Ġ if
Ð¿Ð¾Ð» Ð¸ÑĤÐ¸ÑĩÐµÑģÐº
ĠÐ¿ÑĢÐ¸ Ð»Ð¸Ñĩ
ĠÐ»Ð¸Ð½ ÐµÐ¹
ĠÑĥÐ»ÑĭÐ± ÐºÐ°
!! !!
ÑĤÐ¸ Ð²Ðµ
ĠÐ£ ÑĩÐ°ÑģÑĤ
ĠÐ³Ð»ÑĥÐ¿ Ð¾
ĠÐ²Ð·ÑĢÐ¾ÑģÐ» ÑĭÑħ
ĠÐŁÑĢÐ¸ Ð½
ĠÐ¿ÑĢÐ¾ÑĪÐµÐ¿ ÑĤÐ°Ð»
es tern
ĠÑģÑĩÐµÑĤ Ð¾Ð¼
Ġp o
ĠÐ²Ð¸ Ð½Ð¾
ĠÑģÐ¾ÑģÑĤÐ¾Ñı Ð»Ð°ÑģÑĮ
Ðľ Ð¸
ĠÑĢÐ°Ð¹Ð¾Ð½Ð° Ñħ
ĠÐ¸Ñİ Ð½Ðµ
ĠÑģ Ð¾Ð´ÐµÐ¹ÑģÑĤÐ²
ĠÐ¿ Ð»Ñĭ
ĠÐ»ÑİÐ± Ð¸ÑĤÑĮ
ĠÐ¼Ð¸Ð½ ÐµÑĢÐ°
ĠÑĥÐ· Ð½Ð°Ð»Ð°
Ð½Ð¸Ñı Ð¼
ĠÑĢÐ¾Ð´ Ð½Ð¾Ð¹
ĠÐ¾ÑĦÐ¸ÑĨ ÐµÑĢÐ¾Ð²
ĠÐ·Ð°Ð³ Ð¾Ð²Ð¾ÑĢÐ¸Ð»
Ñı Ð½Ð¾
ĠÐļ Ð¾Ð»Ð¸
ĠÑģÑĩÐ°ÑģÑĤ Ð»Ð¸Ð²
iv ely
ĠÐĺÐ²Ð° Ð½Ð°
ĠÐ²ÑģÑĤÑĢÐµ ÑĤÐ¸Ð»
Ð²Ð°ÑĢ Ð´
ĠÐ² Ð¸Ð»
ÑĢÐµ Ð³ÑĥÐ»Ð¸
ĠÑĥÐ¿ Ð°ÐºÐ¾Ð²
ĠÐ¤ Ð¡
ĠÑģÐ¿ ÑĢÐ°Ð²Ð°
ĠÐ½ÐµÐ¿ÑĢÐ¸ ÑıÑĤÐ½Ð¾
ĠÐ¸Ð´Ðµ Ñİ
ĠÐłÐ° Ð±Ð¾ÑĤ
ĠÑĥ Ð»ÑĮ
ĠÐ´ÑĥÑħ Ð°
ĠÐ¼ÐµÑĤÐ°Ð» Ð»
ĠÐ·Ð°Ð´Ð° ÑĩÑĥ
ĠÐľÐ¸Ð½Ð¸ÑģÑĤÐµÑĢ ÑģÑĤÐ²Ð°
ĠÐ±Ð¾Ð¼ Ð±Ð°ÑĢÐ´Ð¸
ĠÐ¶ÐµÐ» Ð°Ñı
ord ing
ĠÐ¾Ð±ÑīÐµ ÑģÑĤÐ²ÐµÐ½Ð½ÑĭÑħ
Ġ198 9
ÑĢÐµÐ·Ð¸Ð´ ÐµÐ½ÑĤ
ĠÐ¿ Ð¾Ð³Ð°
ĠÐĿÐ°ÑĤÐ°Ð»ÑĮ Ñı
ĠÐ¾ÑĢ Ð´ÐµÐ½
Ð¶Ð° ÐµÑĤ
ÐµÐ»Ð¸ Ð»Ð¸ÑģÑĮ
8 8
ĠÐ¾Ð¶Ð¸ Ð´Ð°Ð½Ð¸Ñı
ĠÐ²ÑģÑĤÑĢÐµ ÑĤÐ¸ÑĤÑĮÑģÑı
ĠÑĥ Ð´Ð¸Ð²Ð¸
ĠÑģÐ¾Ð²ÐµÑĢÑĪ Ð¸Ð»
ĠÐ¿ÑĢÐµÐ·Ð¸Ð´ ÐµÐ½ÑĤÐ¾Ð¼
ĠÐ¿ÑĢÐ¸Ð±Ñĭ Ð»
Ġst ill
ĠÑģÐ¿ÐµÑĨÐ¸Ð°Ð»Ð¸ ÑģÑĤ
ĠÐ¾ÑĤ Ð»Ð¾Ð¶
ĠÐ±Ð¾Ð»ÐµÐ· Ð½ÑĮ
Ð¿Ð¸ Ð¸
ĠÑĤÑĥ ÑĢÐ¸ÑģÑĤÐ¾Ð²
ĠÑģÐ»ÐµÐ´ Ð¾Ð¼
ĠÑģÐ²Ð¾Ð±Ð¾Ð´ Ð½Ð¾
ĠÐ¾Ñĩ ÐºÐ¾Ð²
ĠÐļÐ°ÑĢ Ð»
ĠÑĢÐ°Ð·Ð²Ð¸ÑĤ Ð¸Ð¸
ĠÐºÑĢÐµÑģ Ð»Ð°
ĠÐ¿Ð¾ Ð½Ð¸
Ð²Ð¸ Ð´Ñĥ
ĠÑĢÐ°Ð±Ð¾ÑĤ Ð°Ð»Ð°
Ð¶Ð° Ñħ
ÐŁ Ñĥ
ĠÐ²ÑĭÑģÐ¾Ðº Ð¸Ð¼
ĠÐ¿Ð¾Ð»Ð¾Ð² Ð¸Ð½Ð°
ĠÑĥÑĩÐµÐ½ ÑĭÑħ
ĠÐ¿ÑĢ Ð¾ÐºÐ°
ÑĢÐ¸ ÑģÐ¾Ð²
ĠÐºÑĢÐ°ÑģÐ¸ Ð²Ð¾
ĠÐ¿ÑĢÐ¾Ð¸ÑģÑħ Ð¾Ð¶Ð´ÐµÐ½Ð¸Ñı
ĠÐº Ð»Ð¸Ð½
Ð¶ ÐµÑĢ
ĠÐ£ÐºÑĢÐ° Ð¸Ð½Ñĥ
ĠÐºÐ¾Ð½ÑĦÐ»Ð¸Ðº ÑĤ
ect ed
ĠÑĥÐ½Ð¸ÑĩÑĤÐ¾Ð¶ Ð¸ÑĤÑĮ
ĠÐ·Ð°ÐºÐ¾Ð½ ÑĩÐ¸Ð»
ĠÐ¾ÑĤ ÑĩÐµÐ³Ð¾
Ġd em
ĠÐ²Ð¾Ñģ ÑģÑĤÐ°
Ð¾Ð· Ð³Ð»Ð°
ÐµÑĤÐ° Ñħ
ĠÐ¿Ð¾Ð½Ñı ÑĤÐ¸Ðµ
Ð¼Ð¾ ÑģÐºÐ¾Ð²
ĠÐ¼ÐµÑģÑĤ Ð½Ð¾ÑģÑĤÐ¸
ĠÐ¸ÑģÐ¿Ð¾Ð»ÑĮÐ·Ñĥ Ñı
ĠÐ¿ÑĢÐ¸Ð±Ð»Ð¸ Ð¶
Ð± ÑĥÐ´
ĠÐĳ Ð»
ĠÑĥÑħ ÑĥÐ´
ĠÐ´ÐµÐ»Ð° ÐµÑĤÑģÑı
ÑĢÐ° Ð¸Ð»ÑĮ
ĠÐº Ð¸Ð½Ñĥ
ĠÑĢÐ° Ð±
ĠÐ¿ÑĢÐ¸ ÑģÑĤÑĥÐ¿
ed er
ĠÐ·Ð² ÐµÐ·Ð´Ð°
ĠÐ½Ðµ ÑĢÐµÐ´ÐºÐ¾
ĠÑģÑĤ ÑĥÐº
ĠÐŁÐ¾ Ð½Ð¸Ð¼Ð°
7 3
ÑĢÐ¾Ñģ Ð¾
ÑĢÐ¸ ÑĪÑĮ
Ð¸Ð´ ÐµÐ½
ĠÑĥÐ¼Ðµ ÐµÑĤ
ĠÑģÑĤ ÑĥÐ»
ĠÐ² Ð²
ÑĪ Ð°Ð»ÑģÑı
ĠÐ¿Ð¾ÑģÑĢÐµÐ´ ÑģÑĤÐ²Ð¾Ð¼
ÑĢÐ¾Ð² Ð°Ð»ÑģÑı
ĠÑģÐ¸ÑģÑĤÐµÐ¼ Ð¾Ð¹
ĠÐ¿Ð¾Ð· Ð¸ÑĤÐ¸Ð²
ĠÐ¸Ð½ÑģÑĤÑĢÑĥ Ð¼ÐµÐ½ÑĤ
ĠÑģÐµÐºÑĥÐ½ Ð´Ñĭ
ĠÐ·Ð° ÑĩÐ°ÑģÑĤÑĥÑİ
Ġl arg
ĠÐ¾Ð¿Ð° ÑģÐ°
ĠÐĿ ÐµÐ»ÑĮÐ·Ñı
ĠÑģÐ¿ ÐµÑĢ
ÑĢÐ¾Ð²Ð°Ð½ Ð½ÑĭÐ¼
ĠÐ¾Ð³ Ð¾ÑĢ
ĠÑĦÐ°Ðº ÑĤÑĭ
ĠÑĢÐµÐ°Ðº ÑĨÐ¸Ð¸
Ð²Ð¸Ð´ Ð½Ð¾
ĠÐ¿ÑĢÐ¾ÑĨ ÐµÐ½ÑĤ
ÑĨÐµÐ½ÑĤ ÑĢÐ¸
ĠÑĢÐ°ÑģÑĤ ÐµÐ½Ð¸Ñı
ĠÐ»Ð°Ð´ Ð¾Ð½ÑĮ
ĠÐ¦ Ð°ÑĢ
ĠÑģÐ» ÑĭÑĪÐ°ÑĤÑĮ
ĠP art
ĠÐ¾Ð¿Ñĭ ÑĤÐ¾Ð¼
ĠÑĪ Ð»Ñİ
ĠÑĤÐµÑĢÑĢÐ¾ ÑĢÐ¸ÑģÑĤÐ¸
Ġf ive
ĠÐ¿ÑĢÐ¸Ð½ ÑĨÐµÑģ
ĠÐ´Ð¾ÐºÐ° Ð·Ð°ÑĤÑĮ
ÑĢÐ° ÑģÐ¿
ĠÐ³ÑĢÐ° Ð½Ð¸ÑĨÐµ
ĠÑĢÐ°ÑģÑģÐ¼Ð¾ÑĤ ÑĢÐµÑĤÑĮ
che s
ĠÑģÑĤÑĢÐ° Ð´Ð°
Ġ19 17
Ð³Ñĥ Ð½
Ð»Ñĭ Ð¼Ð¸
ĠÑĩÐµÑĢ Ð½Ð¾Ð¹
Ðº ÐµÐ¹
ĠÐ¡Ð¾Ð²ÐµÑĤ ÑģÐºÐ¾Ð³Ð¾
Ð³Ð¾ ÑĤÐ°
Ð»Ð°Ñģ Ð¸Ð»
Ð±ÑĢÐ° Ñģ
Ð°Ð»Ð¸ ÑĤÑĮ
ĠÐ½Ð°ÑĪÐ¸ Ð¼Ð¸
ĠÐ¼Ð¾ ÑĤÐ¾
ĠÐ¾Ð±ÑīÐµ Ðµ
ĠÑĢÐ°Ð´Ð¸ Ðº
Ġf ootball
ÐµÐ½Ðµ ÑĨ
ĠÑĢÐ°Ð·Ð¼Ðµ ÑĢÐ°
ĠÐ²Ð· Ð»ÐµÑĤ
ĠH igh
ĠÑĢÐ°Ð·Ð² Ð»Ðµ
ĠÐ½ÐµÑģ ÐµÑĤ
Ð¾Ð» Ð¾Ð³Ð°
Ð°Ð½ ÑģÐºÐ¾Ð³Ð¾
ĠÐĺÐ½ Ð´Ð¸Ð¸
Ġdiffer ent
ĠÐ¸Ð½ÑĦ ÐµÐº
ÑĩÐ¸ ÐºÐ°Ð¼Ð¸
ĠÐ¾ÑĤ Ð¾Ð¿
ÑĢÑĥÐ´ Ð½Ð¾
ĠÑģÐ»ÐµÐ´ ÑĥÑİÑīÐµÐ³Ð¾
ĠÐ·Ð°ÐºÑĢÑĭ Ð»
ĠÐĺÐ¼ Ð¿ÐµÑĢÐ°
Ð»Ð¾ ÑīÐ°
ĠÐ¸Ð¼Ðµ ÑİÑĤÑģÑı
ĠÐ¡ Ð¿Ñĥ
ĠÑģÑĤ ÐµÑģ
ĠÐ´Ðµ ÑıÑĤ
Ġp ost
ĠÑģÐ¾Ð¾Ð± ÑīÐ°ÐµÑĤÑģÑı
ÑĤÐ¸Ð² ÑĪÐ¸ÑģÑĮ
ĠÑģÑĤÑĢÐµÐ¼ Ð¸ÑĤÐµÐ»ÑĮÐ½Ð¾
ĠÑĨ Ñĭ
ĠÑĤÐµÐº ÑģÑĤÐ°
ĠÐ¸Ð· Ð±ÑĢÐ°
Ð°Ð»Ð¸Ð· Ð¼
ĠÑĢÐ°Ð·Ð¼ÐµÑĢ Ð¾Ð²
ĠÐ¿Ð¾ÑģÐµÑĤ Ð¸ÑĤÐµÐ»ÐµÐ¹
ĠÐºÐ°ÑĤ Ð¾Ð»Ð¸
ĠÐĽÐµÐ½Ð¸ Ð½Ð°
ĠÐºÑĢÐµ ÑģÑĤ
ĠÐ¿ÑĢÐ¾Ð¸Ð·Ð¾ ÑĪÐ»Ð°
ĠÐ»Ð¾ÑĪÐ° Ð´ÐµÐ¹
ĠÐ½Ð°Ñģ ÑĩÐ¸ÑĤ
ĠÐ²Ñĭ ÐºÑĥ
ĠÐĿ Ðķ
Ġt ri
ĠÐĶ Ð¾Ð¼Ð°
ÑģÑĤÐ¸ Ð»Ð°ÑģÑĮ
ĠÐ°Ð´ ÑĢÐµ
ĠÐłÑĥ ÐºÐ¾Ð²Ð¾Ð´
ĠÐ±ÐµÑģÐ¿ Ð¾ÑĢÑı
ĠÐ¿Ð¾Ð»Ð¸ ÑĨÐ¸Ñı
ĠÐ¸ÑģÐ¿Ð¾Ð» Ð½ÐµÐ½Ð¸Ñı
Ñĥ Ð½Ð°
ÑĭÐ²Ð° Ð¹
ĠÐ¸Ð¼Ð¿ÐµÑĢÐ° ÑĤÐ¾ÑĢÐ°
ĠÐ¿Ð¾Ð´Ð³Ð¾ÑĤÐ¾Ð² ÐºÐµ
ĠÑģÑĤÑĥÐ¿ ÐµÐ½ÑĮ
ĠÐ¿ Ñı
ÑĥÐ´ Ñĭ
ĠÑĢÐ°Ð´Ð¾ ÑģÑĤÐ½Ð¾
Ð²Ð¾Ð· Ð¼Ð¾Ð¶
ĠÐ¾ Ð»Ð¸
ĠÑĥ Ð±Ñĭ
ĠÐ¸ÑģÑĤÐ¾Ñĩ Ð½Ð¸ÐºÐ¸
ĠÑĥÑĩÐ°ÑģÑĤ ÐºÐµ
ĠÐ¯ ÐºÐ¾Ð²
Ð¾Ð»Ñİ Ð±
. [
Ñı Ñİ
enc es
al d
Ðľ Ð¡
ĠÐ¿Ð¾ Ñı
ÑĪÐµÐ½ Ð½ÑĭÑħ
ĠÐ¾Ð± ÑĪÐ¸ÑĢ
ĠÐ²ÑĭÐ³Ð»Ñı Ð´ÐµÑĤÑĮ
ĠÐ·Ð°ÐºÐ° Ð·Ð°
Ð½Ð°Ñĩ Ð°Ð»Ñĥ
ÑĥÑħ Ð¸
Ð²ÐµÐ´ ÐµÐ½Ð¸Ñı
ĠÐ¿Ð¾Ð½Ð¸Ð¼Ð° ÑİÑĤ
ĠÐ¿Ð¾ÑģÐ»ÐµÐ´ Ð¾Ð²Ð°ÑĤÐµÐ»ÑĮ
ĠÐŁ ÑĢÐ¾Ñģ
ĠÐºÐ°ÑĢ ÑĤÐµ
ÑĤÐ²Ð¾ ÑĢÐ¸ÑĤÐµÐ»ÑĮ
ĠÐ¾ÑĤ ÑĢÐ°Ð²
ĠÐ²ÑĭÑģ Ð¾ÑĤÐµ
ĠÐ¿Ð¾ÑģÐ»ÐµÐ´ Ð½ÑİÑİ
ĠÐĵ Ðŀ
Ð¿ Ð»Ñı
ĠÑĪ Ð°ÑĢÐ¸
ÑĨÐ¸Ð¾Ð½ ÐµÑĢ
ĠÑĢÐµÐºÐ»Ð° Ð¼Ñĭ
ĠÐ¸Ñİ Ð»Ðµ
ĠÐ¿Ð¾ÑģÑĤÑĢÐ¾ Ð¸ÑĤÑĮ
Ġ194 0
ĠÐ¼Ð¾Ð¼ ÐµÐ½ÑĤÑĭ
ĠÐ¾ÑĤ ÑĢÐ°Ð·
ĠÐŀ Ð±Ðµ
Ñĩ ÐµÐ»Ð¾Ð²Ðµ
Ð¾Ð»Ð¾Ð³Ð¸ ÑĩÐµÑģÐºÐ¸Ðµ
ĠÑģ Ð´ÐµÑĢÐ¶
ĠÐ´Ð¾Ð² Ð¾Ð´
ĠÐ² ÑģÐ»ÑĥÑħ
ĠÐ¾Ð´Ðµ Ð¶Ð´Ð°
ĠÐ°Ð¼ÐµÑĢÐ¸ÐºÐ°Ð½ ÑģÐºÐ¾Ð¹
Ġde b
ĠÐ¾Ð¿ Ð¾Ð·
ĠÑģÐ»Ð¾Ð²Ð° Ñħ
ĠÐ¿ÑĢÐ¾Ðº Ð¾Ð¼Ð¼ÐµÐ½ÑĤÐ¸
ĠEng lish
ĠÐ¾Ð±Ðµ ÑīÐ°Ð»
ĠÐ°Ð¼ÐµÑĢÐ¸ÐºÐ°Ð½ ÑģÐºÐ¸Ð¹
ĠÐ¡Ð° ÑĪÐ°
ĠÐ¿ÐµÑĩÐ° ÑĤÐ¸
ĠÑģ Ð¾Ð»ÑĮ
Ñĭ Ð½
ĠÐ´ÐµÑĢÐµÐ² Ð½Ñı
Ð´Ñĥ Ð¼Ð°Ð½
ĠÐ¶ÐµÐ½Ñī Ð¸Ð½Ð¾Ð¹
ÑĢÐµÑģ ÑģÐ¸
Ð½Ñĥ ÑĤÑĭÐµ
Ġp resent
ĠÐ³ÑĢÐ° Ð½Ð¸
ĠÐ²ÐµÐ» ÐµÐ»
ie f
Ð¸ Ð°ÑĤ
ĠÑĥÑģÐ¸Ð»Ð¸ Ð¹
ĠÐĳÐµÐ»Ð°ÑĢÑĥ ÑģÐ¸
ĠÑħÐ¸ Ñī
ĠÐ´Ð°Ð² Ð»ÐµÐ½Ð¸Ñı
ĠÐļ Ð°Ð¹
ĠÐ½ÐµÐ¼ Ð°Ð»
Ð· ÐµÐ½
in o
ĠÑģÐ»ÑĥÑĩÐ° Ð¸
ĠÑĦÐ°Ðº ÑĤÑĥ
ÐµÐ² Ð¾Ð³Ð¾
ĠÑģÑĥÐ¼Ð°Ñģ ÑĪÐµÐ´
ĠÐ²ÑĭÐ± ÑĢÐ°Ð½
ÑĤÐ¾ ÑĩÐºÐ¸
ÑĩÐ° ÑĤÑĮÑģÑı
ĠÐ¿Ð¾Ð» Ð¾
ĠÐº Ð°Ð»Ð¸
od y
ĠÐļ Ð¾ÑĤ
arri ed
ĠÑĥ ÑħÐ¾
ĠÐ¿Ðµ ÑĩÐ°ÑĤ
Ð»ÐµÐ½Ð¸Ñı Ð¼Ð¸
ÑĪ Ð°Ð»Ð¸
ĠÐ¾ÑĤ ÑĨÑĥ
Ġst and
ĠÐ° ÑģÑĤÑĢÐ¾
ÑĢÐ° ÑĤÑĮÑģÑı
ĠÐ¿ ÐµÐ¹
ĠÐ½ ÐµÐ»Ð¾Ð²
Ð¸Ð½ Ñı
ĠÑĩÐµÐ»Ð¾Ð²Ðµ ÑĩÐµÑģÐºÐ¾Ð¹
ĠÐ²ÐµÐº Ð¾Ð²
Ð±Ð¾Ð² ÑĮ
ĠÑģÐ»ÐµÐ´ Ð¸ÑĤÑĮ
Ð¤ ÐĲ
ĠÑĨÐµÐ»Ð¸ ÐºÐ¾Ð¼
ĠÐ¿ÑĢÐ¾Ð¸Ð·Ð²Ð¾Ð´ Ð¸ÑĤÐµÐ»ÐµÐ¹
ĠÐ¾ÐºÑĢÑĥÐ¶Ð° ÑİÑīÐµÐ¹
Ġinclud ed
ĠÐºÐ½Ð¾Ð¿ ÐºÑĥ
ÐĿÐ¾Ð²Ð¾ ÑģÑĤÐ¸
** **
Ð³ Ð°Ð»Ð°
ĠÑĤÐ²Ð¾ Ð¸Ñħ
ĠÑĤÐ°Ðº Ð¾Ð¼Ñĥ
ard s
ĠÐ½Ð¾Ð²Ð¾ ÑģÑĤÐµÐ¹
ĠÐ¡ ÑĢÐ°Ð·Ñĥ
ĠÐµÐ²ÑĢÐ¾Ð¿ÐµÐ¹ ÑģÐºÐ¸Ñħ
ĠÐ¿Ð¾ÑĢÐ°Ð¶ ÐµÐ½Ð¸Ðµ
Ð¶Ð´ Ð¾Ð¹
Ġd ied
ĠÑģÑĤÐµÐ¿ ÐµÐ½ÑĮ
ĠÐ·Ð° Ð¿ÐµÑĢ
ĠÑģÐ¾Ð²Ðµ ÑīÐ°
ÐĶ ÐĲ
ĠÐ¿Ð¾Ð¹ Ð´Ñĥ
ÑĥÐ½ Ð´
ĠÐ°Ð¼ÐµÑĢÐ¸ÐºÐ°Ð½ ÑģÐºÐ¾Ð³Ð¾
ĠÐ¼Ð°ÑĤÐµÑĢÐ¸Ð°Ð»Ð° Ð¼Ð¸
ĠÐ¼ÑĭÑģÐ» ÐµÐ½Ð½Ð¾
ĠÐ¿ÑĢÐ¾Ð² ÐµÐ»Ð°
ĠÑĥÑģÐ¿ Ð¾ÐºÐ°
ĠÐ¾ÑĤ Ð½ÑİÐ´ÑĮ
ĠÑģÐ¿ Ð°Ð»
ĠÐ¾Ð±ÑģÐ»ÑĥÐ¶Ð¸ Ð²Ð°Ð½Ð¸Ñı
Ð¶ ÐµÐ½Ð¸Ñİ
ÑģÑĤÐ° ÑĤÐ¾ÑĩÐ½Ð¾
ĠÐ´ÐµÑģÑı ÑĤÐºÐ¾Ð²
ĠÐ±ÐµÐ·Ð¾Ð¿Ð°Ñģ Ð½Ð¾ÑģÑĤÑĮ
iz ation
ĠÐķÐºÐ°ÑĤÐµÑĢÐ¸ Ð½
ÑĢÐ°Ð²Ð¸ Ð»Ð°
ĠÐºÐ¾Ð½ ÑĤÐµÐº
ÑĢ Ð¾Ð»Ð¸
ĠÐ¾ÑĤÐ¿ÑĢÐ°Ð²Ð¸ ÑĤÑĮ
ĠÑģÑĨ ÐµÐ½Ðµ
ĠĠĠĠ ĠĠĠĠ
p s
l ing
al k
ĠÐ½ÐµÑģ Ð¾Ð¼Ð½ÐµÐ½Ð½Ð¾
ĠÐ¾ÑĤ ÑģÑĤÐ°
ĠÐ¾Ð±ÑĢÐ° ÑīÐ°ÑĤÑĮÑģÑı
ĠÐĶ Ð¢ÐŁ
ÑĢÐ¸Ð· Ð¼Ð°
Ġl it
ĠÐ¿Ð»Ðµ Ñĩ
ĠÐ²ÑĭÑģÑĤÑĥÐ¿Ð° ÐµÑĤ
Ð¿ Ð°Ð»
ĠÐ¾Ð¿Ð»Ð° ÑĤÑĭ
ĠÑĥÑī ÐµÑĢÐ±
ĠÐ²Ð½ÐµÑĪ Ð½Ðµ
ĠÐ¿Ð¾ ÑģÑĤÑĥ
ĠÐķÐ³Ð¸ Ð¿
ĠÐ¿ÑĢÐ¸ Ð±Ð°Ð²
ĠÐ¿Ð¾Ð¿ Ð°Ð»Ð°
ĠÑĩ ÐµÐ»
ĠÐ¾Ð±ÑĢÐ° Ð´Ð¾Ð²
ĠÐ¿ÑĢÐ¾ÑĪÐ»Ð¾ Ðµ
ĠÑģÐµ ÑģÑĤÑĢÑĭ
ĠP ark
Ġ4 2
ĠÐŁÐµÑĤÐµÑĢÐ±ÑĥÑĢ Ð³Ðµ
ĠÐ¸ÑģÐºÑĥÑģ ÑģÑĤÐ²Ð¾
ĠÐ£ Ð·
ĠÐºÐ¾ÑĢÐ¾ÑĤ ÐºÐ¾
ĠÑĪ Ð²ÐµÐ´
ĠÑģÑĤÐµÐº Ð»Ð¾
ĠÐ³ÐµÑĢÑĨ Ð¾Ð³
ĠÐ¾ÑĤÐ´ÐµÐ» ÐµÐ½Ð¸Ðµ
Ġ25 0
ĠÐ»Ð°Ð³ÐµÑĢ ÑĮ
ĠÐ½Ð°Ð· Ð²Ð°Ð½
ĠÐ±Ð¾Ð»ÑĮ Ð½Ð¸ÑĨÑĥ
ĠÐ¿Ð¾ ÑĨÐµÐ»Ð¾Ð²
ĠÐ¿ÑĢÐ¸Ð½ÑĨÐ¸ Ð¿Ð¸
ĠÑį ÑģÑĤ
ĠÑĪÑĤÑĥ ÐºÐ°
ĠÐ® Ð¶Ð½Ð¾Ð¹
ĠÑĤÐµÐ°ÑĤ ÑĢ
ĠÑĥÐ²ÐµÐ»Ð¸ ÑĩÐ¸ÑĤÑĮ
ĠÑĨ Ðµ
ĠÐ³ÑĢÑĥ Ð±
ÐµÐ» ÐµÐ½Ð¸Ðµ
ĠÐł Ð¸ÑĩÐ°
ĠÐ¿Ð°ÑģÑģÐ°Ð¶Ð¸ ÑĢ
ĠV I
ĠÑĥ Ð²ÐµÐ´Ð¾Ð¼
ĠÐļÐ¾Ð¼ Ð°Ð½
Ð¾Ð» Ð¾Ñĩ
ĠÐ° ÑĢÐ¸
ĠÐĿÐ° Ð¸Ð±Ð¾Ð»ÐµÐµ
ĠÐ¿Ð¾Ð»Ð¸ÑĤÐ¸ ÐºÑĥ
Ġinc re
ĠÐļ ÑĥÐ¿
ĠÑģÐ»ÐµÐ´ÑĥÑİÑī Ð¸Ð¼
enc y
Ð» ÑĥÐ¿
Ñī ÐµÐ½Ð½Ð¾Ð¹
ÑĢÐµÐº ÑĤÐ¾ÑĢ
ĠÐ¼Ð°Ñģ ÑģÑĥ
ĠÐ¾ÑĨÐµÐ½Ð¸ ÑĤÑĮ
ĠÐ± ÑĢÐ¾Ð²Ð¸
ĠÐ¾Ð± ÑĥÑģÐ»Ð¾Ð²
Ġvill age
ĠÐ¿Ð¾Ð²Ñĭ ÑĪÐµÐ½Ð¸Ðµ
ĠÐ¿ÐµÑģ ÐµÐ½
ĠÐĵ ÑĥÐ±
ĠÐ·Ð° Ð¶
ĠÐ° Ð²Ð°Ð½
ĠÐºÑĥÑħ Ð½Ð¸
ĠÐ½ÐµÐ·Ð½Ð° Ñĩ
ĠÐ¼Ð¾ÑĢ ÑģÐºÐ¾Ð¹
ĠÐ±Ð¾ÑĢÑĮ Ð±Ñĥ
ĠÐ¿Ð¾Ð½Ð¸Ð¼Ð° Ð½Ð¸Ðµ
ÑĥÐ¶Ð´ ÐµÐ½Ð¸Ðµ
ĠÐ¾Ð¿Ð¸ÑģÐ° Ð½Ð¸Ðµ
ĠÑģ ÐµÐ´ÑĮ
ĠÑĥÑĩÐ¸ÑĤ ÐµÐ»Ñı
ÑĢÐ°Ð¶ Ð´Ð°Ð½
ĠÑĥÑĩÐ° ÑģÑĤÐ²Ð¾Ð²Ð°Ð»
ĠÐ¾ÑģÑĤÐ° ÑĤÐºÐ¸
ĠÑģÐºÐ° Ð¶Ð¸
oc ial
ĠÑģÐ¾Ð²ÑĢÐµÐ¼ÐµÐ½ Ð½ÑĭÐµ
ĠÐĵ Ð¾Ð´
ĠÑĤÐµÐ°ÑĤ ÑĢÐ°Ð»ÑĮ
ÑĢÐ°Ð½ ÑĤ
ĠÐ£ Ñĩ
ĠÑģÐ»ÐµÐ´ ÑģÑĤÐ²Ð¸Ðµ
ĠÑĢÐ° Ð´Ñĭ
et er
ĠÐ¿Ð¾Ð´Ð½Ñı Ð»Ð°ÑģÑĮ
Ġth ird
ĠÑĩÐµÑĢ ÑĤÑĭ
ĠÐ°ÑĢ Ð¼ÐµÐ¹
ĠÑĥ Ð±Ð¸Ð»Ð¸
ĠÐºÐ¾Ð»Ð¸ ÑĩÐµÑģÑĤÐ²Ðµ
ĠÑģ Ð¼Ð°ÑĢÑĤ
ÑģÑĤÐ¸ ÐºÐ¸
Ð¶ Ð½ÑĭÐ¼
ĠÐ½Ð° Ð¿Ð°Ð´Ð°
ĠÐ² ÐµÑĢÐµÐ²
Ð¾Ð»Ð¾Ð³ Ð¾Ð²
ĠÐ¿Ñĥ Ð·Ñĭ
ĠÐ¡ ÐµÐ½
ĠÐł Ð°Ð¼
ĠÑģÑĢÐµÐ´ÑģÑĤÐ²Ð° Ð¼Ð¸
ĠÑĥ Ð³Ð¾Ð´
Ð°Ð»Ð¸Ð· Ð¼Ð°
ĠÐ²ÑģÐ»ÐµÐ´ ÑģÑĤÐ²Ð¸Ðµ
ic ro
ĠÐĽ Ð°ÑĢÐ¸
ĠÐºÐ°Ð½ ÑĨ
ĠÐ»Ð¸ ÑĩÐ½Ð¾Ð³Ð¾
ĠÐ´Ð²Ð¾ ÑĢÐµÑĨ
ĠÐ´Ð¾Ð½ ÐµÑģ
Ð°ÑĢ Ðº
ĠÑģÐ»ÐµÐ´ÑĥÑİÑī ÐµÐ¹
ĠÐ¸Ð·Ð¾Ð±ÑĢÐ°Ð¶ ÐµÐ½Ð¸Ðµ
ĠÑĤÐµÑħ Ð½Ð¸ÐºÑĥ
ĠÐ²Ð¸Ð· Ñĥ
ĠÐ¿Ð¾ Ð½Ð¸Ð¼Ð°Ð»Ð°
ĠÐ· Ð´ÑĢÐ°Ð²
Ð¾Ð»ÑĮ ÑĦ
Ð¾Ñģ Ð¾Ð±Ñĭ
ĠÐ´Ð° Ð±Ñĭ
ĠÑĤÐ¾Ð¿ Ð»Ð¸Ð²Ð°
Ð¾Ð»Ðµ Ð²Ð°
" ;
ÐµÐ² ÑĭÐ¼
ĠÐ¾ÑĤÐ²ÐµÑĤ Ñĭ
Ð¾ ÑģÑĤÐ°Ð½Ð¾Ð²
Ġ12 0
ĠÑĢÐ°Ðº ÐµÑĤÑĭ
ĠÐ¾ ÑĩÐºÐ¸
ÑĩÐµÐ½ Ð½Ð°Ñı
ak es
Ð² ÐºÑĥ
ĠÐ·Ð°Ñī Ð¸ÑĤÐµ
Ð¾Ð½Ð´ ÐµÐ½ÑĤ
ĠÐ¿Ð¾Ñģ ÑĢÐµÐ´Ð¸
n et
Ð±Ð»Ð¸ Ð·Ð¸
ĠÐ¾Ð¶Ð¸ Ð´Ð°ÑĤÑĮ
Ġrep resent
ÑĪ Ð¾Ðº
ĠÑģÑĤÐ° Ð²Ð¸ÑĤÑĮ
ĠÑģÐ¸ ÑĢÐ¸Ð¹
ÑĦÐ¸ ÑĨÐ¸Ð°Ð»ÑĮ
Ð½ÐµÐ² ÐµÐº
ĠÐ¿ÑĥÐ±Ð»Ð¸ÐºÐ° ÑĨÐ¸Ð¸
Ġto p
ĠÑįÐº Ð·ÐµÐ¼
Ð¢Ðµ Ð¿ÐµÑĢÑĮ
ĠÑĥÐ¶Ð° ÑģÐ°
ĠÑĢÐ°Ð· ÑĢÐ°Ð±Ð°ÑĤÑĭ
ĠÐļÐ° Ð½Ð°
ĠÐ½ÐµÐºÐ¾ÑĤÐ¾ÑĢÑĭ Ð¼
ĠÐĽ ÐµÐ¹
ĠÐ¾ÑĤÐ¼Ðµ ÑĩÐ°ÐµÑĤÑģÑı
ĠÐĴ Ð¾Ð»Ð¾Ð´
ĠÑģ Ð½Ð¾
ĠÐŁ Ð°Ð½
ĠÐĳ Ð°Ð½
Ð¡ Ð¿Ð°ÑĢÑĤÐ°Ðº
ÑĪÐ° Ñħ
z e
ĠÐ¿Ð¾Ð» Ð½ÑĭÐ¼
Ð¶ ÑĥÑĤÑģÑı
ĠÑĢÐµÐ±ÐµÐ½ ÐºÐ¾Ð¼
ĠÐ¿ÑĢÐ¸ ÐµÑħÐ°Ð»Ð¸
ĠÐ¤Ð¸Ð½ Ð»ÑıÐ½
ĠÐ¸Ð· Ð²Ð¸Ð½
ĠR eg
ĠÐ½Ð¸ Ð³Ð´Ðµ
.... ....
ĠÑĩ ÑĮÐ¸
ĠÐ¼Ð°Ñģ ÑģÐ¸Ð²
ĠÐ¼Ð¾Ð³ Ð¸Ð»
Ġo pp
ÑĦÑĦ ÐµÐºÑĤÐ¸Ð²
ĠÐ¿ÑĢÐ¾ÑĨÐµÑģ ÑģÐ¾Ð²
Ð¸ÑĩÐµÑģÐº Ð¸Ð¹
ĠÐ¿ÑĢÐ¾Ð´Ð° Ð¶Ðµ
ĠÐ½Ð°Ñĩ Ð°Ð»Ð¸ÑģÑĮ
ĠR es
ÑĭÑĪÐ° Ð²
ĠÐ¦ Ðļ
Ð¸Ð± Ð¾Ð»ÑĮ
ĠH er
ĠÐ¼ÑĥÐ¶ ÑĩÐ¸Ð½Ñĥ
ĠÐ½Ð¾Ñģ Ð¸ÑĤ
ĠÐ°Ð²ÑĤÐ¾Ð¼Ð¾Ð± Ð¸Ð»Ð¸
Ð°Ð½ ÑģÐºÐ¾Ð¹
ĠÐ»Ð¸ ÑĦ
Ġsh ort
Ð¾Ð²Ð° ÑĤÐµÐ»ÐµÐ¹
ĠÐ²Ð°ÑĢÐ¸Ð°Ð½ ÑĤÐ¾Ð²
ĠÐ¿Ð¾ÐºÑĥÐ¿Ð° ÑĤÑĮ
ĠÐ¸Ð½ÑģÑĤ Ð¸Ð½Ðº
ĠÑĪÐµ Ðµ
ĠÑģÐ¾Ð· Ð´Ð°Ð»
ĠÐ¼Ð½Ð¾Ð³ Ð¸Ð¼
ĠÐ±Ð¾Ð»ÑĮ ÑĪÐ¸Ð¼Ð¸
Ġ19 30
t ain
ĠÑģÑĥÐ´ Ð¾Ð²
ĠÐ¾Ð¶Ð¸ Ð²
ĠÐ·Ð° Ð·
ĠÐĲÑĢ ÐºÐ°
ĠÐ¶ÑĥÑĢ Ð½
ĠÐ½Ð¸ Ñĩ
n ess
ĠÐ·Ð°ÑģÐµ Ð´Ð°Ð½Ð¸Ñı
ĠÑĥÐ· Ð½Ð°Ð»Ð¸
ĠÑģÐ»ÑĥÐ¶ Ð±Ð°
ĠÐ¿ÑĢÐ¾ÑĪÐ» Ð¾Ð¹
Ñĳ ÑĤÐµ
ĠÐ±Ð¾ÑĢÑĮ Ð±Ð°
Ð¼Ð¸Ð½Ð¸ ÑģÑĤÑĢ
ĠÐµÐ´Ð¸Ð½ Ð¾Ð³Ð¾
ĠÐ² ÑģÑĤÑĥÐ¿Ð°
ĠÐ¾ÑĤÐº ÑĢÐ¾
ĠÐ³ÑĥÐ±ÐµÑĢÐ½Ð° ÑĤÐ¾ÑĢÐ°
ÂłÐŁ ÑĢÐ¸
ĠÐ¡Ð¾ Ð¾Ð±
ĠÐ´Ð¾Ð± ÑĢÐ¾
Ġ 01
Ġ4 9
Ð³ÑĢÐ° ÑĨÐ¸Ð¸
ĠÑı Ð³Ð¾Ð´
ĠÑįÐ¼Ð¾ ÑĨÐ¸Ð¸
ĠÑĤÐµÐ¼Ð¿ÐµÑĢÐ° ÑĤÑĥÑĢÑĭ
ĠÐľÐ¸ÑħÐ° Ð¸Ð»Ð°
Âł Ð±Ñĭ
ĠCol lege
6 2
ÑĤ ÐµÐ´
ĠÐ¿ÐµÑĢÐµ Ð¹ÑĤÐ¸
ĠÐ¼Ð¾Ð´ ÐµÐ»ÐµÐ¹
ew s
o f
Ð¶ ÐµÑĤÐµ
ĠÐ²ÐµÑĤ ÐµÑĢÐ°
ĠÐ·Ð°Ð¿ ÑĢÐµÑĤ
Ġman ag
ĠÑĤÐµÑĢ Ð¼Ð¸Ð½
ĠÐ½ÐµÐ¹ ÑĤÑĢÐ°
ĠÑħÐ°ÑĢÐ°ÐºÑĤÐµÑĢÐ¸ÑģÑĤÐ¸ ÐºÐ¸
ĠÐ±ÐµÐ» Ð¾Ð¹
ĠÑģ Ð±Ð¾
ĠÐ¾ÑīÑĥÑī ÐµÐ½Ð¸Ñı
Ðļ ÑĢÐ°Ñģ
ĠÐ¿ÑĢÐ¾Ð± Ðµ
ĠÐ²ÐµÑģ Ð½Ð¾Ð¹
ĠÑħÐ¾Ð´ Ð¸Ð»
Ð°Ð¼ ÐµÑĢÐ¸
Ð¼ ÐµÐ»
ĠÐ´ÑĢÑĥ Ð¶Ðµ
Ñĥ Ð³Ð°
ur s
ĠÐĶ ÑĥÐ±
ĠÐ¿Ð¾ÐµÐ·Ð´ ÐºÐ¸
Ð»Ð¸ Ð¿
ĠÐĲÐ² ÑģÑĤÑĢÐ°
ÑĥÐ¶Ð´ ÐµÐ½Ð¸Ñı
ĠÐ´Ð²Ð¾ Ð¸Ñħ
ourn al
ÐĶ Ð¾
um an
ĠÐ²ÐµÐ´ÑĥÑī Ð¸Ñħ
ĠÑģÐ»ÑĭÑĪ Ð½Ð¾
ĠÐ» Ð°Ðº
og raph
Ð¶ Ð°Ñı
ĠÑħ ÑĢÐ°Ð½ÐµÐ½Ð¸Ñı
ĠÐĲÑĢ Ð¼
ĠÐ´Ð¾Ð±ÑĢÐ¾Ð² Ð¾Ð»ÑĮ
ĠÐ¿Ð¾Ð¼Ð¾Ð³Ð° ÑĤÑĮ
ĠÐºÑĢÐµÐ¿Ð¾ ÑģÑĤÐ¸
ĠÐ»ÑİÐ± ÐµÐ·
ÑĩÐ¸ Ð²Ð°Ñı
ĠÑģÑĩÐ¸ÑĤ Ð°Ð»Ð¸
ĠÐĶ ÐĿÐł
ĠÐ¼Ð¸Ð»Ð¸ ÑĨÐ¸Ð¸
ĠÐ¸Ð½ Ð²ÐµÑģÑĤ
ÑĢ ÐµÐ½Ð¸ÐµÐ¼
ĠÐ¢ ÑĢÐµ
ĠÐ¿Ð¾Ð» Ð³Ð¾Ð´Ð°
ĠÐ° Ð½Ð¾
ĠÐ¢ ÑĢÑĥ
ĠÐºÑĥÐ¿ Ð¸Ð»
ĠÐ¿ÑĢÐ¸Ð½Ñı ÑĤÐ¸Ñı
ĠÐł Ð¾Ð¶Ð´Ðµ
ĠÑĥÑĩÑĢÐµÐ¶Ð´ ÐµÐ½Ð¸Ð¹
ĠÐ¿ÐµÑĢÐµÐ´ Ð°Ð»
Ġan other
ĠÑģÐ¾Ð± Ð»Ð°Ð·
il le
ĠÐ²Ð¾Ð» Ñİ
Ð±Ð¸ ÑĤÑĮÑģÑı
ĠÑĢÐµÑĪ ÐµÑĤ
ĠÑĪÐ¸ÑĢÐ¾Ðº Ð¸Ð¹
ĠÐ´ÐµÑĤ ÑģÐºÐ¸Ñħ
ĠÐ¼Ð½Ð¾Ð³Ð¾ÑĩÐ¸ÑģÐ» ÐµÐ½Ð½ÑĭÐµ
ĠÐ¿ÑĢÐ¸ÑģÑĥÑĤ ÑģÑĤÐ²Ð¸Ðµ
ĠÐ»ÑĥÑĩÑĪÐµ Ðµ
ÐŃ Ðº
ĠÑĢÐ°Ð±Ð¾ ÑĩÐµÐ³Ð¾
ĠÐ¿Ð»Ð°Ð½ ÐµÑĤÐµ
ĠÐĵÑĢÐµ ÑĨÐ¸Ð¸
ĠÐĵÐ»Ð° Ð·Ð°
ĠÐĴ Ð¾Ñģ
ĠÐļ Ð½Ñı
ÑģÑĤ Ð¸ÑĤ
ap an
ĠÐ½Ð° ÐºÐ°Ð·
u k
Ġc or
ĠÐ±Ð¾Ð»ÑĮ Ð½ÑĭÑħ
ĠÐ³ÑĢÐ° Ð½Ð°
ĠÐ²Ð°Ð¶ Ð½ÑĭÑħ
ĠÑĥ Ð³Ð¾
ĠÑİ Ð±
Ð¿Ð¸ÑģÐ° ÑĤÑĮ
ÐĿ Ðļ
ĠÑĢÐµÐ¼Ð¾Ð½ ÑĤÐ°
ĠÐŀ Ð±Ð°
ĠÐ¿ÑĢÐ¾Ð¸ÑģÑĪÐµ ÑģÑĤÐ²Ð¸Ñı
Ñĳ Ðº
ĠÐ±Ð¾ ÑıÐ»ÑģÑı
ĠÐ¿Ð¾Ð´ Ð»Ðµ
ĠÐºÐ¾Ð½ ÑĨÐµÐ½ÑĤÑĢÐ°
ĠÑģÐµÑĤ ÑıÑħ
Ð¡ Ð°
ĠÐ¾ÑĤÐ¿Ñĥ ÑģÐº
ĠÑĦÐ¸Ðº ÑģÐ¸
ĠÐľ Ð¸Ðº
ĠÑĢÐµ Ð°Ð»ÑĮÐ½Ð¾ÑģÑĤÑĮ
Ġper iod
ÂłÐĿ Ð¸
ĠA b
Ġv is
ĠÐ¡Ð² Ñı
ĠÐ¾Ð´ Ð½
ĠÐ¿Ð¾Ð»Ñĥ Ð¾ÑģÑĤ
ĠÐ±ÐµÐ· ÑĥÑģÐ»Ð¾Ð²Ð½Ð¾
Ð³ Ð¾Ð»ÑĮ
ĠÑĢÐ°Ð·Ð´ÐµÐ» Ðµ
ĠÑģÐ¿ÐµÑĨÐ¸Ð°Ð»ÑĮ Ð½ÑĭÑħ
ĠÑģÐ»Ðµ Ð²Ð°
ÐµÐ»Ð° ÑĤÑĮ
ĠÐ·Ð° Ð±Ð°
ÑĢÐ¾Ð² Ð°Ð»Ð¸ÑģÑĮ
ĠÐºÐ¾Ð½ Ñı
Ð¿Ð¾ÑĤ Ð¾Ð¼
ĠÑģÑĤÑĢÐ° ÑħÐ¾Ð²
ĠÐ·Ð° ÑĢÑıÐ´
ÑģÐ» Ð¾Ð¼
ĠÑģÐ»Ð¾Ð¶ Ð¸Ð²
ĠÐ¿Ð¾Ð´ Ð´ÐµÑĢÐ¶Ð°
ĠÐ² ÑĤÐ¾ÑĢÑĭ
Ġpro fess
Ġpre v
ĠÐ½Ð° ÑĨÐ¸
ĠÐ¿ÑĢ Ð¾Ð»ÐµÑĤ
ĠÑģÐ¾Ð± Ð°ÐºÐ°
ĠÐ´Ð¶ Ð¸Ð½
Ġ6 00
ĠÐ¿Ð¾ÑıÐ² Ð»ÑıÑİÑĤÑģÑı
ĠÐ±Ð»Ð¸Ð¶Ð°Ð¹ ÑĪÐ¸Ðµ
Ð½Ð° ÑĨÐ¸Ð¾Ð½
ĠÑģÐµÑĢÑĤÐ¸ ÑĦÐ¸ÐºÐ°
ĠÐ¾ÑĤÐ¿ÑĢÐ°Ð²Ð¸ ÑĤÑĮÑģÑı
Ġe p
ĠÐ¨ Ð²Ðµ
ri end
ĠÐ¿Ð¾Ð³ ÑĢÑĥÐ·
ĠÐĽÑĥ ÐºÐ°
ÐłÑ ķ
ĠÐ¡ Ð²ÐµÑĢ
ĠÐ¾Ð±Ð¾ÑĢÐ¾ ÑĤ
ĠÐ´ ÑĮÑıÐ²
ĠÐ¦ ÐµÑĢÐºÐ²Ð¸
ĠÑħ ÑĢÐ¸Ð¿
ĠÐ²Ð¾ÑģÐº Ð»Ð¸Ðº
Ð½Ñĥ ÑĤÑĭ
ĠÐ¸ÑģÐ¿ Ð¾ÑĢ
id d
ÂłÐŁ Ð¾ÑĩÐµÐ¼Ñĥ
Ġ 00
ĠÐ¿ÑĢÐ¸ Ð½Ð¸Ð¼Ð°Ð»
ĠÑįÐºÑģÐ¿ÐµÑĢÐ¸ Ð¼ÐµÐ½ÑĤ
ĠÐ»Ð¸ Ð½Ð¸Ñİ
ĠÐĿÐµ Ð±
Ð»ÐµÐ½ Ð½ÑĭÐ¼Ð¸
ĠÐĲ Ð¼ÐµÑĢÐ¸ÐºÐ°Ð½
ĠÐ¾ ÑģÐ°
ĠÑģÐ¼Ðµ Ñħ
Ġw ww
ĠÐ¼Ð°Ð»ÐµÐ½ÑĮ ÐºÐ¸Ñħ
ĠÐ¿ Ð»
ĠÐľÐ°ÑĢ Ð³Ð°
re ad
ĠÐ¾ÑĢ Ð´ÐµÐ½Ð°
ĠÐĶ Ð¾ÑĢ
ĠÐ´Ð²Ð¸Ð¶ ÐµÐ½Ð¸ÐµÐ¼
ĠÐ½ÐµÐ·Ð°Ð¼ÐµÑĤ Ð½Ð¾
Ð¾Ñģ Ð½Ð¾Ð²Ð°
ĠÑģÐ¾Ð±ÑĢÐ° Ð»Ð¸ÑģÑĮ
Ð¸Ð¼ Ð°Ñı
ĠThe re
Ð¿Ð¾ ÑģÑĤ
ÑĢÐ°Ð½ Ð´Ð°
ĠÑģÐ»ÑĥÐ¶ Ð¸ÑĤ
ĠÐ²Ð¸Ð½ ÑĤÐ¾Ð²
r ation
Ð½Ð¾Ð´ Ð°ÑĢ
ĠÐ¾ ÑĦÐ¾ÑĢÐ¼Ð¸
Ð»Ñı Ð¼Ð¸
ĠÐº ÑĢÐµÐ¹
ĠD ist
Ð¾Ñĩ Ð½ÑĭÐ¹
ĠÑģÐ²Ðµ Ð¶Ðµ
ÑĢÐ¾ ÑĦ
ÑĤÐ¸ Ð·Ð°
ĠÐ½ÐµÐ¿Ð»Ð¾ Ñħ
ĠÐ¡ Ð¼Ð¾Ð»
ĠÑĤÑĢÐµÐ±Ñĥ ÑİÑĤ
ĠÐ·Ð° ÑĤÐ°
201 1
ĠÐŁÐ°ÑĢÐ¸ Ð¶
ĠÐºÑĢÐµÑģ Ð»Ðµ
ĠÐ¿Ð¾Ð³ Ð¾Ð²Ð¾ÑĢÐ¸
ĠÑĢÐ°ÑģÑģÐºÐ°Ð· Ð°Ð»Ð¸
ĠÐ´Ð¾Ð± ÑĢÐ¾Ð´
ĠÐ¿ÑĢÐ¾Ð´Ð° ÑĤÑĮ
ĠW indows
ÐľÐ¾ ÑģÐº
ĠÐ½Ð°ÐºÐ°Ð·Ð° Ð½Ð¸Ðµ
ĠÐ¾Ð± Ð¾ÑĢ
ĠÐ½Ð°Ð¿Ð¾Ð¼ Ð½Ð¸Ð»
ĠÐ±Ð° Ð³Ð°
ĠÑĪÐ°Ð³ Ð¾Ð¼
ĠÐ¾ ÑģÑĤÐ°Ð²Ð¸Ð»Ð¸
ĠÐ¿ÑĢÐ¸Ð² ÐµÐ»Ð¾
ĠÐ¿ÑĢÐ¸Ð· Ð½Ð°Ð»
ĠÑģÑĤÐ¾ Ñı
ĠÑģÑĤÐµÐº Ð»ÑıÐ½
Ð°Ð½ ÑĤÐ¾Ð²
ÑħÐ¾ ÑĤÐ°
ĠÑĥ ÑĢÐ¾Ð´
ÐµÑĤÐ¸ ÐºÐ¸
ĠÐ¾Ð³ÑĢÐ°Ð½Ð¸ ÑĩÐµÐ½Ð¸Ñı
ĠÐ±Ð»Ð¸ Ð¶
ĠÐĺÑģÑĤÐ¾ ÑĢÐ¸Ñı
ĠÐ¼Ð°Ð½ ÐµÐ²
ÑĤÐ¸ ÑĢÐ°
ĠÐ²ÑĭÑħÐ¾Ð´ Ð¸ÑĤÑĮ
Ðķ Ð²
Ð½ÑĮ Ðµ
ĠÐ»Ð¸Ð´ÐµÑĢ Ð¾Ð²
ĠÐ¿ÑĥÐ±Ð»Ð¸ ÐºÑĥ
ÐµÐ» Ð»Ð°
ĠÑĤÑĥ ÑĢÐ°
ĠÐ½ÐµÐ±Ð¾Ð»ÑĮ ÑĪÐ¸Ðµ
ĠÐ¿ÑĢÐ¾ÑģÑĤ Ð¾ÑĢ
ÑĢÐ¾Ð² ÐºÐµ
ĠÐ¼Ð¾ ÑĪÐµÐ½
ĠÐ½ÐµÐ·Ð°Ð²Ð¸Ñģ Ð¸Ð¼Ð¾
ÑĤÐ¾ ÑģÑĤÐ¸
ĠÐ´Ð¸ ÑģÑĤÐ°Ð½
Ñģ Ð²Ð¾
ÑĢÐ¾ÑģÑģÐ¸ Ð¹
Ð½ ÐµÐ½Ð½ÑĭÐ¹
ĠÐ³Ð¾Ð» Ð¾Ð´Ð°
ĠÐ°Ð²ÑĤÐ¾Ð¼ Ð°ÑĤÐ¸
ĠÑĤÐµ Ð¿Ð»Ð°
ÐĶ Ð¸Ð½Ð°Ð¼Ð¾
ĠÐŀÐ¿ ÑıÑĤÑĮ
Ġh and
ĠÐ° ÑĤÐ°ÐºÐ¸
ĠÑĥÐ½Ð¸Ð²ÐµÑĢÑģ Ð¸ÑĤÐµÑĤÐµ
Ð²Ð°Ð» Ñı
Ġ19 50
ĠÐ·Ð° ÑĤÐµ
Ð¾Ð» ÐµÐ¹
ĠÐ¾ÑģÑĤÐ°Ð½Ð¾Ð² Ð¸Ð»Ð°ÑģÑĮ
ĠÑģ Ð¾Ð´
ĠÐ» ÐµÐ½Ð¸
ĠÐ¸ Ð½Ð¾Ð³Ð¾
Ġw ar
ĠÐ¾ÑģÐ²Ð¾Ð± Ð¾Ð¶Ð´
ĠÐ¿Ð»ÐµÐ¼ ÑıÐ½
ĠÐ¡Ð¾Ð² ÑĢÐµÐ¼ÐµÐ½
ĠÐ¾Ñģ ÐµÐ½ÑĮÑİ
ĠÐºÐ¾Ð¼Ð°Ð½Ð´Ð¸ ÑĢÐ°
ic a
ĠÐ±Ð°Ð± ÑĥÑĪÐºÐ°
Ðļ Ð°ÑĢ
ĠÑĪÐ¸ ÑĢÐ¸
ĠÐ¼Ð¸ ÑĦ
Ð¼ ÑĥÑĤ
es e
ĠÐ±ÐµÐ» ÑĭÑħ
ÑĢÐ°Ð±Ð¾ÑĤÐ° Ð½
ĠF rench
Ġev en
ĠÐ¿ÑĢÐµÐ± ÑĭÐ²Ð°Ð½Ð¸Ñı
ĠÑĨ ÐµÐ½Ð¸
ĠÐ±Ð»Ð¸Ð· ÐºÐ¸Ñħ
ĠÐ¼Ð¸Ð»Ð»Ð¸Ð°ÑĢ Ð´Ð¾Ð²
Ð·Ð° ÐµÑĤ
ÑĤÐµÐ»ÑĮ ÑģÑĤÐ²
ÑħÐ¾ÑĤ Ñı
ÑĩÐµÐ½ Ð½Ð¾Ðµ
ĠÐ¿ÑĢÐ¾Ð¼ Ð¾Ð»
Ġbuild ing
ot e
ĠÐ¡Ð¾ ÑĩÐ¸
Ð¾Ð½ Ñģ
ĠÐ¡ Ðŀ
ÐŁÐµÑĤÐµÑĢÐ±ÑĥÑĢ Ð³Ðµ
ĠÐ¾ÑĤ ÑģÑĤÑĥÐ¿
is on
Ð³Ð° ÐµÑĤÑģÑı
ĠÐ¸Ð·Ð²ÐµÑģÑĤ ÐµÐ½
ĠÐ¾Ð± Ð»Ð¾Ð¼
ÐµÐ´ Ð¸Ñı
Ġb est
Ð¾Ð½ÑĮ ÐºÐ¾
Ġpro t
ĠÐ° ÑģÐ¿ÐµÐº
ĠÐ¾ÑģÐ¾Ð± Ð¾Ð¹
ĠÐ¡Ð» ÑĥÐ¶
Ñĳ ÑĪÑĮ
ĠÑģÐ¾Ð±ÑģÑĤÐ²ÐµÐ½ Ð½ÑĥÑİ
ĠÐ´Ð¾Ð¿Ð¾Ð»Ð½Ð¸ÑĤÐµÐ»ÑĮ Ð½ÑĭÑħ
ĠÐ¿ÑĢÐ¾Ð´ Ð¾Ð²Ð¾Ð»ÑĮ
ĠÐ²Ð°Ð¶ Ð½ÑĭÐ¼
Ð´Ð¾ Ð½Ð°
ĠÐĹÐµÐ¼ Ð»Ñı
ĠÐļÑĢÐ°Ñģ Ð½Ð¾Ð¹
Ð¿ ÐºÐ¸
ĠÐ¼ÑĥÐ¶ ÐµÐ¼
ĠÐ¾ÑĢÐ³Ð°Ð½Ð¸Ð· Ð¾Ð²Ð°ÑĤÑĮ
ĠÑĢ Ð¾Ð¶Ð´
ÑĢÐ¾Ð²Ð° Ð²
ĠÐ» ÑĥÐ½
ĠÑģÑĥÐ´ÑĮ Ð±Ñĥ
ÑĥÐ¶ Ð´Ð°
ĠÐ¿Ð¾ÑģÐµÐ» ÐµÐ½Ð¸Ñı
ar a
ĠÐ¿ Ð¸ÑĤ
ÐµÐ» ÐµÑĤ
ĠÐ¼ÐµÐ¶Ð´ÑĥÐ½Ð°ÑĢÐ¾Ð´ Ð½Ð¾Ð¹
ĠÑģÐ°Ð¹ ÑĤÐ¾Ð²
ĠÐ½ÐµÐ¿Ð¾Ð½ ÑıÑĤÐ½Ð¾
Ġs on
ĠÐ´ Ð¾Ð»ÑĮÑĪÐµ
ĠÐ¿Ð°Ð´ ÐµÐ½Ð¸Ñı
ĠÐ·Ð°ÑīÐ¸ÑĤ Ð¸ÑĤÑĮ
ĠÑģÐ¾Ð±Ñĭ ÑĤÐ¸Ðµ
ĠÐ´Ð² Ñĥ
ĠÐ¿ÑĢÐ¸Ð³Ð¾ÑĤÐ¾Ð² Ð»ÐµÐ½Ð¸Ñı
ĠÑħÐ¾Ð»Ð¾Ð´ Ð½Ð¾Ð¹
Ġf act
Ð´Ð° Ð½Ð°
ĠÑĢÐµ Ð»ÑĮ
ĠÐ¼Ð¾Ð³ ÑĥÑīÐµ
ĠÐ·Ð½Ð°ÐºÐ¾Ð¼ ÑĭÑħ
ĠÑĦÐ¾ÑĤÐ¾Ð³ÑĢÐ°ÑĦ Ð¸Ñı
ĠÐ¿Ð¾Ð´ Ð°Ð»
ĠÐłÐ° Ð´Ð¸
ĠÐ·Ð½Ð°ÐºÐ¾Ð¼ ÑĭÐ¹
Ð¾ ÑĩÐ½Ð¾
ĠÐ¿Ð° ÑĢÐ¸
ĠÑĢÐ°ÑģÑģÐ¼Ð°ÑĤÑĢÐ¸ Ð²Ð°ÑĤÑĮ
ĠÐ°ÑģÑģ Ð¾ÑĢÑĤÐ¸
Ð¸ÑĤÐµÐ»ÑĮ Ð½Ð¾Ð¼
Ġis s
inn ing
Ð³Ð¾ÑĤÐ° Ð²Ð»Ð¸
Ð¼Ð° ÑĤÑĭ
ÑĢÐ¸ ÐºÐ°Ð½
ĠÑĢÐµÐºÐ¾Ð½ ÑģÑĤÑĢÑĥÐº
Ġth ough
Ġst r
ĠÑģÐ²ÐµÑĤ Ð¾Ð¼
ĠÐ²Ð¾Ð· ÑĮÐ¼Ð¸
ĠÐ¼Ð¾Ð» ÑĩÐ°Ð»Ð¸
ĠÐ¿Ð¾ ÑģÑĤÐ¸
ĠÐ¸ Ð½Ð¾Ðµ
8 5
ÑīÐ° Ñħ
ĠÐ·Ð°Ð½Ñı ÑĤÑĮ
ĠÑįÐ¿Ð¾ ÑħÐ¸
ÑĪ Ð½ÐµÐ³Ð¾
Ġadd ition
ĠÐ·Ð¾Ð»Ð¾ ÑĤÐ°
ĠÐ¿ÐµÑĢÐµ ÑģÑĤÐ°Ð»
ĠÑĥÐ² Ð»ÐµÐºÐ°
ĠÐ½ÐµÐ¼ ÑĨÑĭ
ĠÐĶ Ð°Ð½
Ġt rad
Ġ4 4
ĠÐ² ÐµÐ½ÑĤÐ¸
Ð½Ñı Ð»ÑģÑı
Ġdesc rib
ĠÐ»Ð¸ ÑģÑĤÑĮ
ĠÐ¿Ð¾ÐºÑĥÐ¿ ÐºÐ¸
ÑģÑĤÐ¸ ÐºÐ°
ĠÐ· ÑĢÐµÐ»Ð¸
ĠÐĴ Ñı
ĠÐ¿Ð°ÑĤ ÑĢÑĥ
ĠÐº Ð¾Ð³
ÐºÐ¾Ð² Ð½Ð¸Ðº
ĠÐ¿ÑĢÐµÐ· ÐµÐ½ÑĤÐ°
ĠS w
Ñĥ Ñį
ĠÐ²Ð½ÑĥÑĤÑĢÐµÐ½ Ð½ÐµÐ³Ð¾
Ð· Ð¾Ð½
ĠÐŁÐ¾Ð· Ð¶Ðµ
ĠÐ½Ð° ÑģÐµ
ĠÐľ Ð°Ð´
Ð¸Ð¼ Ð¾Ð³Ð¾
Ðł Ð¤
ĠÐ¿ÑĢÐ¾ÑĨ ÐµÐ½ÑĤÐ°
ÐŁ ÐµÑĢÐµ
Ð½ ÑĳÐ¼
ĠÐµ Ð¿Ð¸ÑģÐºÐ¾Ð¿
ĠÐ»Ðµ Ð¶Ð°Ð»Ð¸
al f
Ð¾Ð´ Ð¾ÑĢ
Ð¸Ð· Ð²ÐµÑģÑĤ
Ġof ten
ĠÐ´Ð¾Ð¼Ð°ÑĪ Ð½Ð¸Ñħ
Ġed uc
ĠÐ»Ðµ ÑĩÐµÐ±
ĠÐ¿Ð¾Ð¼Ðµ ÑīÐµÐ½Ð¸Ð¸
ĠÐ²ÑĭÐ±Ð¸ÑĢÐ° ÑĤÑĮ
8 6
ÐĲ Ð»ÑĮ
Ġ193 9
r ont
ĠÐºÐ»Ð°Ð´Ð±Ð¸ ÑīÐµ
ĠG roup
ĠÐ¾Ð³ÑĢÐ¾Ð¼ Ð½Ð¾Ð¹
ĠÑģÐ°Ð½Ðº ÑĨÐ¸Ð¹
ĠÐ¿ÑĢÐµÐ´ÐµÐ»Ð° Ð¼Ð¸
ÑĢÑĥ Ð¶Ðµ
ÑĤÐµÑĢ Ð¾Ð²
ĠÐ°Ñį ÑĢÐ¾Ð´
ĠÐĲÐ»ÐµÐºÑģÐ°Ð½Ð´ ÑĢÐ¾Ð²
ĠÐ¿ÑĢÐ¾Ð²ÐµÐ´ ÐµÐ½Ð¸Ð¸
ÑĪ Ð½Ð¸
Ġ19 18
ĠÐºÐ¾Ð¼Ð¼Ñĥ Ð½Ð¸
ĠÐ¾Ð±ÑĬÐµÐº ÑĤÑĭ
ĠÑģÑĢÐ°Ð² Ð½Ð¸
ĠÐ¼Ð¾Ð»Ð¾Ð´ ÐµÐ¶Ð¸
ĠÐķÐ² ÑĢÐ¾ÑģÐ¾
ĠÑģÐ½Ð¸ Ð¶ÐµÐ½Ð¸Ðµ
Ð³ ÑĢÐµ
ĠÑĥÐ¼ ÐµÑĢÐµÑĤÑĮ
ĠÐ¿ÑĤÐ¸ ÑĨÑĭ
Ġ ec
Ð»Ð¸ Ð¶Ðµ
Ð¸Ð¼ Ð¾Ðµ
Ġre pl
ĠÐ¾ÑĤÐ»Ð¸ ÑĩÐ°ÑİÑĤÑģÑı
ĠÑħ Ð¼Ñĭ
ad io
ĠÑģÐ¾ÑģÑĤÐ¾Ñı Ð½Ð¸Ñİ
ĠÐ£ Ð¸Ð»ÑĮ
ĠÑĩÑĥÐ² ÑģÑĤÐ²ÑĥÐµÑĤ
ĠÑĤÑĢÐµÐ±Ð¾Ð²Ð°Ð½Ð¸Ñı Ð¼
ĠÐ¥ Ð°ÑĢÑĮ
ĠÑĢÐ°ÑģÑĤ ÐµÑĤ
Ð±ÐµÐ¶ Ð°Ð»Ð°
Ð¶ Ð½Ð¾Ð¼
ĠÐłÐµÐ· ÑĥÐ»ÑĮÑĤÐ°
ĠÐºÐ¾Ð¼ Ð¼ÐµÐ½ÑĤÐ¸
ĠÐ·Ð°Ð¼ ÐºÐ°
Ð¾Ðº ÑĢÑĥÐ³
ĠÐ¸Ð½ÑĦÐ¾ÑĢÐ¼Ð° ÑĨÐ¸ÐµÐ¹
ĠÑĥÑģÐ»ÑĭÑĪ Ð°Ð»Ð°
ĠÑģÑĭ ÑĢ
ĠÐĺ Ð´Ðµ
iz e
ĠÐ±Ñĭ ÑĤ
ĠÐ»Ñİ Ð±Ð¸Ð»Ð°
ĠÐ´Ðµ Ð²Ð¸
ĠÑĢÐ° ÑģÐºÐ°
ĠÐĸ Ð°Ð½
ĠÐ¿ÑĤÐ¸ ÑĨ
ĠÐ·Ð²Ð¾Ð½ Ð¾Ðº
p ar
ĠÑĥÐ´Ð¾Ð²Ð»ÐµÑĤ Ð²Ð¾
ĠÐ²Ðµ Ð±
ĠÐ»Ð°Ð³ÐµÑĢ Ñı
ĠÐ¡Ðµ Ð²Ð°
Ð»Ñı Ñħ
ĠÑĦÐ°Ðº ÑĤÐ¾ÑĢÐ¾Ð²
ĠÑĩÐµÐ¼Ð¿Ð¸ Ð¾Ð½
ĠÐĶÐ¶ Ð¾Ð½Ð°
Ð± ÐµÑĤ
ĠÐ³ ÐµÐ¹
ĠÐ¦ ÐµÐ»ÑĮ
en se
ĠÐĲÑĢ ÑĤÐµÐ¼
ĠÐ» ÑĥÐ¶
ĠÐ· Ð²Ð°Ð½Ð¸Ðµ
ĠÐºÐ°Ð¼ Ð¿Ð°Ð½Ð¸Ð¸
Ġper form
ÑĪ ÐµÑĢ
ĠÑĦ ÑĢÐ°Ðº
Ñİ ÑĢÐ¸
Ġe qu
ĠÐ¿Ð¾Ð´ ÑĢÐ°Ð·ÑĥÐ¼Ðµ
a ul
ĠÐ¾ÑĤÐ´Ð¾Ñħ Ð½ÑĥÑĤÑĮ
ĠÑģÑĢÐµÐ´ Ðµ
ĠÐĸ Ð¸Ð²
ĠÐ¾Ð¿ ÑĢÐ¾Ð²ÐµÑĢ
ĠÐ¿Ñĭ Ð»Ð¸
Ð½ÑĥÑĤ Ð¾Ð¹
Ð´Ð° Ð¹
ĠÐ¿Ð¾Ð¼Ðµ ÑīÐµÐ½Ð¸Ð¹
ĠÐ²ÑģÑĤÐ° ÑĤÑĮ
ĠÐ¿ÑĢÐ¸Ð²Ð»Ðµ ÑĩÑĮ
ĠÐ¼Ð¸Ð»Ð»Ð¸ Ð¾Ð½
ĠÑĢ ÑĤÐ°
ÑĤÐ¾ÑĢÐ¸ Ñİ
Ġex per
ĠAss oci
ĠÐĶÐ¾Ð½Ð±Ð°Ñģ ÑģÐµ
Ð¾Ð»Ð¾Ð³Ð¸ ÑĩÐµÑģÐºÐ¾Ð¹
ĠÑģÐ¸Ð´ Ñı
ĠÐ¿Ð»Ð° Ð²
ĠÐ¾ Ð³Ð»ÑıÐ´
ĠÑģÑĥÐ´ Ð¸ÑĤÑĮ
ĠÐ¿ÑĢÐ¾ÑĨÐµÑģ ÑģÑĭ
ĠÐ¿ÑĢÐµ Ð¿Ð¾Ð´
ĠÐľÑį ÑĢÐ¸
y le
ĠÑģÑĭ Ð½Ð¾Ð¼
ĠÐºÐ°Ð±Ð¸Ð½ ÐµÑĤÐ°
ĠÑįÐ½ÐµÑĢÐ³Ð¸ Ñİ
ĠÑħÐ²Ð¾ ÑģÑĤ
ĠÑĪÑĤÐ° ÑĤ
Ð²Ð¸ Ð¹
ĠÐ»Ð¸ ÑĩÐ½Ð¾Ð¹
Ñĩ Ð°Ð»Ð¸ÑģÑĮ
ĠÐ¼ÐµÑħÐ°Ð½Ð¸Ð· Ð¼
ĠÑĢÑĥ ÐºÐ¾
Ġmov ed
ÑĮÑı Ð¼Ð¸
ÑģÐ¿ Ð°
ĠÐ´Ð¾ÑģÑĤÐ¸ ÑĩÑĮ
ad em
Ð¸Ð· Ð¼Ð°
ĠÐ´Ðµ ÑĦ
Ð± ÑĢÐ¾
ÑģÑĤ ÐµÐ½
ĠÐ£ ÑĩÐ¸ÑĤ
ĠÐŁÐ¾Ð» ÑĥÑĩ
ĠÐ¿Ð¾ÑģÐ» Ð°Ð»
ÑģÑĤÐ°Ð½ ÐµÑĤ
ĠÐļÐ¾Ð¼ Ð¼ÐµÐ½ÑĤÐ°
ÑģÑĤÐ²ÐµÐ½ Ð½Ð¾Ð¼Ñĥ
ÑĩÐ¸ Ð²Ð°ÐµÑĤ
ĠÑĥÐ³ÑĢÐ¾Ð· Ñĭ
Ðµ ÑģÑı
ĠÐºÐ»Ð¸ Ð¼Ð°
ĠÐ¡Ð°Ð¼ Ð°
ÑĥÑģ Ñĭ
ÑĦÐµÑģ ÑģÐ¸Ð¾Ð½
Ð¿Ð¸ Ð»Ð°
Ðł Ð
ĠÐ¿Ð¸ÑĪ ÑĥÑĤ
ĠÐ¿Ð¾ÐºÐ¸Ð½Ñĥ Ð»
ÂłÐ¥ Ð¾ÑĢÐ¾ÑĪÐ¾
ĠÐ¸Ð· Ð³
ĠÐ¡ Ð¾Ðº
ĠÑģÐ°Ð¼ ÑĭÐ¼Ð¸
ĠÐŁÐ¾Ð´ Ð¾Ð±
ĠÐ¿ÑĢÐµÐ´Ð¾ ÑģÑĤÐ°Ð²Ð¸ÑĤÑĮ
ĠÑģÐ¿ÑĢÐ°ÑĪÐ¸ Ð²Ð°ÐµÑĤ
ĠÐ¡ Ð´ÐµÐ»Ð°
ĠÐļÐ¾ÑĢ Ð¾Ð»ÐµÐ²
Ġl ed
ĠÐ¿Ð¾Ð³ ÑĢÑĥÐ¶
ĠÐ¿ÑĢÐ¾Ñħ Ð»Ð°Ð´
ĠÐĺ Ð³ÑĢÐ°
ÑĪÐ°Ñı ÑģÑı
Ð·Ð° Ð¿Ð°Ð´
ÑĢÐ°Ð½ ÑĤÐ¾Ð²
Ð°Ð» Ð¾Ð³
ÐŁ ÑĢÐµÐ´
ĠÐ´ Ð¾Ð¶Ð¸
ĠÐ¨ Ðº
ĠÑģÐ¾Ð±Ð¸ÑĢÐ° ÑİÑģÑĮ
ĠÐ´Ð¾Ð»Ð³Ð¾ Ðµ
ĠÐºÐ¾ÑģÑĤÑİ Ð¼
ĠÐ¾ÑĤÐºÑĢÑĭ ÑĤÐ¸Ðµ
ĠÐĽÐ¾Ð½Ð´ Ð¾Ð½Ðµ
ĠÐ¼ÑĥÐ·Ðµ Ñı
Ð»Ð¾ Ðµ
ÐĶ Ðŀ
ĠÐ²ÑĭÑģÐ¾Ðº Ð°Ñı
ĠÐ¿Ð°ÑĢ ÐºÐ¾Ð²
ÑĳÐ½ Ð½Ð¾Ð¹
et her
ĠÐ¼ÐµÑĢ Ð·
ĠÐ¦ Ð¡ÐļÐĲ
ĠÑĥ ÐµÑħÐ°Ð»
ĠÐ³ÑĢÑĥÐ¿Ð¿ Ð¾Ð¹
Ð½Ð¾Ð² Ð¸Ñĩ
ĠÐĴÑĭ ÑģÐ¾Ðº
ĠÐ´Ð¾ ÑģÑĤÐ¾Ð²ÐµÑĢ
ĠR ec
ĠÐ¿ÑĢÐµÐ¸Ð¼ÑĥÑīÐµ ÑģÑĤÐ²Ð°
ĠÑģÐ° Ð´Ñĥ
ĠÐ½Ð°Ð¿ÑĢÐ°Ð² Ð»ÐµÐ½
ĠÑįÑĦÑĦÐµÐºÑĤÐ¸Ð² Ð½Ð¾ÑģÑĤÐ¸
ĠÐĵÐ¾Ð» Ð¾Ñģ
ÑģÐ»ÑĥÐ¶ Ð±Ñĭ
Ð²ÐµÐ´ ÐµÐ½Ð¸Ðµ
ĠÑĥÐ³Ð¾Ð»Ð¾Ð² Ð½Ð¾Ð³Ð¾
ÑĢÐ°Ð· ÑĥÐ¼
ĠÐĽ ÐµÑĤ
ĠÐ´ÑĢÐµÐ² Ð½Ð¸Ñħ
v es
Ð¶ Ð½ÑĥÑİ
on es
ĠÐ¿Ð¾Ñģ ÑĳÐ»
ĠÐ¿Ð¾Ð¿ÑĭÑĤ Ð°Ð»Ð°ÑģÑĮ
ĠÐ¿Ð¾Ð¸ ÑģÐºÐ°
ĠÐ¿ÑĢÐ¸ ÐµÐ¼Ð°
Ð¼ÐµÑĢ ÑĤÑĮ
ĠÐ·Ð° Ð±Ð¾ÑĢ
ĠÐ½Ð°Ñĩ Ð½ÐµÑĤ
ĠÐ²Ð¾ ÑģÑĤÐ¾Ðº
ĠÑĪ Ð°ÑĤ
ĠÑģÐ¸Ð¼Ð¿Ð° ÑĤÐ¸
Ð¢ ÐĲÐ¡Ð¡
ee k
ĠÐ³ÑĥÐ¼Ð° Ð½Ð¸ÑĤÐ°ÑĢ
ĠÐŀ Ð±Ñı
ĠÐĴÐ°Ð´ Ð¸Ð¼
ĠÐ±Ð¾Ð»ÑĮ Ð½Ð¸ÑĨÐµ
ĠÐĴ Ð¿ÐµÑĢÐ²ÑĭÐµ
ĠÑģÐ¼Ð¾Ð¶ ÐµÐ¼
ĠÑħÐ¾ÑĢÐ¾ ÑĪÐµÐ¹
ĠÑħÐ¾ÑĢÐ¾ ÑĪÐ¸Ð¼
Ð¾Ð´ ÐµÐ»ÑĮ
ĠÑģÐ»ÐµÐ´ ÑģÑĤÐ²Ð¸Ñı
ĠÐ¿Ð¾Ð» Ðº
um ent
Ð¾Ð²Ð¾ ÑĢÑĥ
ÐĽ Ðķ
ĠÑģÐº Ð»Ð¾
Ġh ouse
ĠÑĥÑĩ ÐµÑĤÐ°
rid ge
ĠÐ½ÐµÐ¿Ð¾Ð´ Ð°Ð»ÐµÐºÑĥ
ĠÐ¿ÑĢÐ¾Ð¸Ð·Ð¾ ÑĪÐµÐ´
ĠÑģÐ¿Ñĥ ÑģÐºÐ°
ĠÐ²ÐµÐ¶ Ð»Ð¸Ð²Ð¾
ÑĥÑĪ ÐºÐ¸Ð½
Ðĺ Ðļ
ĠÐ¿Ð¾Ñį ÑĤ
ĠÑĢÐ°Ð· Ð¾Ð¼
Ð¶ Ð´Ð°ÑĤÑĮ
ÑĢÐ°Ð±Ð¾ÑĤ ÐºÐ¸
ĠÐĶÐµÐ½Ð¸ Ñģ
Ðļ ÑĤÐ¾
ĠÐ½ Ð¸ÑĤ
ĠÐ¾Ñģ Ð²ÐµÐ´Ð¾Ð¼
ĠÑģÐ»ÐµÐ´ÑĥÑİÑī Ð¸Ñħ
6 9
ĠÑģÐ²Ð¾ Ñı
ĠÐĳÐ¾Ð³ Ð¾Ð¼
ĠÐĴ ÐµÐ´
ĠÐ¿ÑĢÐ¾ ÑģÐ¿ÐµÐº
ÐµÐ»Ð¸ ÐºÐ°
ĠÐ·Ð´ÑĢÐ°Ð²Ð¾Ð¾Ñħ ÑĢÐ°Ð½ÐµÐ½Ð¸Ñı
Ð±Ð¸ ÑĢÐ°Ñı
ÑĢÐ¾Ð¼ Ñĥ
ĠÐ¿Ð°ÑĢ Ð½Ð¸
Ġim port
ĠÐ¸Ð·Ð¾Ð±ÑĢÐ°Ð¶ ÐµÐ½Ð¸Ñı
ĠÑĤÐ°Ðº Ð¸
ĠÐ¿ÑĢÐµÐºÑĢÐ°Ñģ Ð½ÑĭÐ¹
ounc il
Ġ el
ĠÐ±ÑĢÐ°ÑĤÑĮ ÐµÐ²
ĠÐĴÐ° ÑĪÐ¸
ĠÐ²Ð¾ÑģÑģÑĤÐ°Ð½Ð¾Ð² Ð¸ÑĤÑĮ
ĠÐºÐ¾Ð» Ð´Ñĥ
ĠÐ¿ÑĢÐ¾Ð² ÐµÑĢÐ¸
ĠÐ¿Ð¾ÑĢ ÑĤÐ°Ð»
ĠÐ²Ð»Ð° Ð´ÐµÐ»
ĠL a
ĠÐ§ ÐµÐ»ÑıÐ±Ð¸Ð½
ÑħÐ° Ð¼Ð¸
Ð°Ð¼ÐµÑĢÐ¸ ÐºÐ°Ð½
ĠÑĤ Ð°Ð»Ð¸
ĠÐ¾ÑĤÐ¿ÑĢÐ°Ð² Ð¸Ð»
ĠÐļ Ð¾Ð·
ĠÐ¸Ð½ ÑĨÐ¸Ð´
ĠÐ´ ÑĭÑĪ
Ġle vel
ĠÑĥÐ¿ ÑĢÐ¾
ĠÑģÐ¾Ð¿ÑĢÐ¾Ð² Ð¾Ð¶Ð´Ð°
ĠÐ²ÐµÑĢ Ñĭ
Ñİ ÑĢÐµ
Ð¾Ð¹ Ð´Ñı
Ð²Ð¸ Ð²
ĠÐ¸Ð·Ð´ÐµÐ» Ð¸Ð¹
ĠÑĢÐ°Ð´Ð¾ ÑģÑĤÑĮÑİ
ĠÑĢÐ°ÑģÑĪÐ¸ ÑĢÑı
ĠÐºÐ¾Ð» Ð¾Ð´
ĠÐºÐ°ÑĢ Ð¼Ð°Ð½Ð°
ĠÐ¼ ÐµÐ¼
Ð³ÑĢÐ° Ð½Ð¸Ñĩ
ÑĩÐ¸Ð²Ð¾ ÑģÑĤÑĮ
ĠÑģÐ¾ ÑģÑĤÐ°Ð²Ð¸Ð»Ð°
ĠÑĤÐµ ÑĢÐ°Ðº
Ġm uch
un ic
ĠA ng
ĠÐ¾ÑĤÑģÑĥÑĤ ÑģÑĤÐ²Ð¸Ñı
Ð¡ Ð¸
ĠÐ¿Ð¾Ð²ÐµÑĢ Ð½ÑĥÐ»Ð°ÑģÑĮ
ĠÐŁÑĢÐ¸ Ð²ÐµÑĤ
ÐµÐ² Ð°Ð»
ĠÐ¿Ð¾Ñį ÑĤÐ°
Ð²Ð° Ð²
ĠÐºÐ°Ð½ Ð°Ð»Ð°
ĠÐ±Ð¾Ð»ÑĮÑĪ Ð¾Ð¼
Ð´ Ð°Ðº
ÑģÐºÐ° Ð·Ð°
ĠÐļÐ¾Ð¼ Ð¿
ĠÐ¿Ð¾ÑĢÐ°Ð¶ ÐµÐ½Ð¸Ñı
ĠÐłÐ¾Ð± ÐµÑĢÑĤ
ĠÐ¿ Ð¾Ð³ÑĢÐ°Ð½Ð¸Ñĩ
ĠÐ¼ÐµÑģÑĤ Ð¾Ð¼
Ð¾Ð²Ð° ÑĤÐ¾
ĠÐ´Ð¾Ð» Ð¾Ð¶
ĠÐ±Ð»Ð°Ð³ Ð¾Ð¿ÑĢÐ¸ÑıÑĤ
ĠÐ¾Ð±ÑĢÐ° ÑīÐµÐ½Ð¸Ðµ
ĠÐĸ ÐµÐ»Ð°
ĠÐ´ÐµÐ»Ð° Ñİ
ĠÐ£ Ð½Ð¸Ð²ÐµÑĢÑģ
Ð½Ñĥ ÑĤÑĭÐ¹
Ð½Ð¾Ð¼ Ð¾Ñĩ
ĠÐºÐ°ÑĢÑĮÐµÑĢ Ñĥ
ÑģÑĤÐ¾Ñı Ð½Ð¸Ðµ
ĠÐµÐ²ÑĢÐµ ÐµÐ²
ĠÐºÐ¾Ð¼ Ð±Ð¸Ð½Ð°
ĠÐ²ÑĢÐ° ÑĩÐ¸
ep end
ĠÐ¾Ð±Ð²Ð¸Ð½ ÐµÐ½Ð¸Ñı
ĠÐ¿ÑĢÐ¸Ð² ÐµÐ»
ÑģÑĤÐ¸ Ð»Ð¸ÑģÑĮ
ĠÐ¶ Ð´Ð°Ð»Ð°
Ð¶ Ð½Ð¾ÑģÑĤÐ¸
ĠÐ¡ Ð»Ð°Ð²
ĠÐ»Ð¸Ñħ Ð¾ÑĢÐ°
ĠÐºÐ¾Ð»ÑĮ ÑĨÐ¾
Ð¿Ð° Ð´Ðµ
es p
ĠÐºÐ¾Ð¼Ð¿ Ð»ÐµÐºÑĤ
ĠÑĢÐ¾Ð¼ Ð°Ð½Ð°
ĠÐŁÑĢÐµÐ´ ÑģÐµÐ´Ð°
ÑĢÑĥ ÑİÑīÐ¸Ñħ
ĠÐ¿ÑĢÐ¾ÑĪÐµÐ¿ ÑĤÐ°Ð»Ð°
ĠÐĴ Ð°Ð¼Ð¸
ĠÑĥÐ¿ Ð»Ð°
ĠÐ¶ÐµÐ»ÐµÐ· Ð½Ð¾Ð¹
ĠÑī ÐµÐ´
ÑģÐºÐ¾ ÑħÐ¾Ð·ÑıÐ¹
ĠÐ¿ÑĥÑĤÐµÑĪÐµ ÑģÑĤÐ²Ð¸Ðµ
Ġorig inal
ĠÑģÐ¼ÐµÑĢÑĤÑĮ Ñİ
ĠÐ¿ÑĢÐµ Ð»Ðµ
ĠÐ´Ð¾Ð±Ð° Ð²Ð¸Ð»Ð°
ĠÑĥÐ¼ ÐµÐ»
ÑĪ Ð½ÑĭÐ¹
ĠÐľ ÑĥÑĢ
ĠB r
ĠÐ¾Ð¿ÑĢÐµÐ´ÐµÐ» ÐµÐ½Ð¸Ñı
ĠÑĢÐ°Ð¹ Ð¾Ð½Ð¾Ð²
ĠÑĦÐ¸Ð³Ñĥ ÑĢÑĭ
ĠÑģÑĩ ÑĳÑĤ
ÑĥÑģ Ð°Ð»
ĠÐ¿Ð¸ÑģÑĮ Ð¼Ðµ
Ð¡ ÐĲ
ĠÐ²Ð·Ð° Ð¸Ð¼Ð¾
ĠÐ¾Ð±ÑĢÐ°Ð±Ð¾ÑĤ ÐºÐ¸
ĠÐºÑĢÐ° Ðµ
ĠÐ²ÑĭÐ· Ð²Ð°Ð»
âĢĿ .
ĠÐ¸Ð· ÑıÑī
ĠÐºÐ¾Ð¼Ð¿ ÑĮÑİ
ĠÐ¿Ð¾Ð´Ð½Ñı ÑĤÑĮÑģÑı
ĠÐ½ Ð¾Ð²ÑĭÐ¼Ð¸
ĠÐ¿Ð¾Ð¼ Ð½Ð¸ÑĤÑĮ
Ð»Ð°Ð´ ÐµÐ»ÑĮ
ĠÑĢÑĥÐºÐ¾Ð²Ð¾Ð´ Ð¸ÑĤÐµÐ»ÐµÐ¹
Ġn on
ĠÐ½Ð¾Ñģ Ð¸ÑĤÑĮ
ĠÐŀ Ñħ
ĠÐ¨ Ð²ÐµÐ¹
ĠÐºÑĢÐµ ÑģÑĤÑĮÑı
us h
ĠÐ½Ð°Ð´Ðµ Ð¶Ð´Ð°
ĠÐ²ÑĭÐ½ÑĥÐ¶Ð´ ÐµÐ½Ñĭ
v ers
i ber
ÑģÐ¸ ÐµÐ¹
ĠÐ¿Ð¾Ð´ÑĢÐ¾Ð± Ð½Ð¾ÑģÑĤÐ¸
ĠÐ¿ ÐµÑĤÐµÑĢÐ±ÑĥÑĢ
Ð¾Ð»Ð¾Ð³Ð¸ ÑĩÐµÑģÐºÐ¾Ð³Ð¾
ĠÑĤÐµÐ» Ñĥ
ĠÑħ Ð¼Ñĥ
ĠÑģÐ¾ÑĤÑĢÑĥÐ´ Ð½Ð¸Ðº
Ð²Ð¸ Ð´ÐµÑĤ
Ġcare er
ĠÐ¿ÑĥÑĤÐµÑĪÐµ ÑģÑĤÐ²Ð¸Ñı
ĠÐ¾ÑĤ Ð²Ð¾Ð´
ĠÐĲ Ð»Ðµ
ÐµÐ² ÑģÐºÐ¸Ð¹
al t
ĠÐ±Ð¾Ð¹ ÑĨÐ¾Ð²
ĠÐ¾ÑģÐ½Ð¾Ð² Ð½ÑĭÐ¼
ĠA g
ĠÐ´Ð¸Ð·Ð°Ð¹ Ð½ÐµÑĢ
ĠÐ¿Ð¾Ð´ Ð²Ð¸Ð¶
ĠÐ²Ð¾ÑģÐ¿ Ð°Ð»
ener al
ĠÐ¾Ð´Ð¸Ð½ Ð¾Ðº
ÑĥÐ´ Ðµ
Ð°ÑĢ Ñħ
ÑĥÑĩ Ð½Ð¾
ĠÐ¿Ð¾Ð± Ð»Ð°Ð³Ð¾Ð´Ð°
ÑĪ Ð½ÑĭÐµ
ĠÐ¾ ÑĢÐµ
ÐµÐº ÑĤÑĭ
Ð²ÑĪÐ¸Ð¼ ÑģÑı
ĠÐºÐ¾Ð½ÑģÐµÑĢ Ð²Ð°
ĠÐ² ÑģÐ°Ð´
ĠÑĥÐ¼ÐµÑĢ Ð»Ð°
ĠÑĢÐ°Ð· Ð½ÑĭÐ¼Ð¸
Ġcount ry
Ñĥ ÑģÑĮ
ĠÐ²Ð· ÑıÐ²
ĠÑĩ ÐµÐ»Ñİ
ĠÐ¾ÑĤÑĢÑı Ð´Ð°
Ð´ Ð¶Ð°
ĠÐ²Ð¾Ð·ÑĢÐ°Ð· Ð¸Ð»
ĠÐ¿ÑĢÐ¾ÑħÐ¾Ð´ Ð¸Ð»
ĠÐ¼ÐµÐ½ Ñİ
ĠÐ·Ð²ÑĥÑĩ Ð¸ÑĤ
ĠÐ´Ð¾ ÑĩÐµÑĢ
ĠÑĢÐ°Ñģ ÑģÑĤÑĢÐ¾
ĠÐ·Ð°ÐºÐ¾Ð½ Ñĥ
ĠÐ¿ÐµÑĢÐ²Ð¾ Ð½Ð°Ñĩ
ĠÐŁÐµÑĢ Ð²Ð¾Ðµ
ĠÐºÐ°Ð¼ ÐµÑĢÑĭ
Ð¼ Ð°Ð»
ÐĶ ÐĶ
ĠÐ°Ð³ÑĢÐµÑģ ÑģÐ¸Ð²
ĠÐļÑĥÐ± ÐºÐ°
ĠÑģÐ¾Ð± ÑĢÐ°Ð²
ĠÐ²ÑĭÐ· Ð²Ð°Ð½
ĠÐ½ÐµÐ¾Ð±ÑħÐ¾Ð´Ð¸Ð¼ ÑĭÑħ
ĠÐĴ ÐµÑĢÐ°
ĠÐ¸Ð·Ð²ÐµÑģÑĤ Ð½Ñĭ
ĠÐ½Ð¾Ð³ Ð¾Ð¹
Ġth ose
ĠÐ¿Ð¾ ÑħÐ¸
ĠÐļ Ð¾ÑĢÐ°
ĠÐ² ÐµÐ»Ð°
ĠÐºÐ¾Ð»Ðµ Ð±Ð°
Ġin f
Ġbe g
ĠÐ°Ð¿Ð¿Ð°ÑĢÐ° ÑĤÐ°
ĠÐ²Ñĭ Ð¸Ð³ÑĢÑĭ
ĠÐ²ÐµÑĢÐ¾ÑıÑĤ Ð½Ð¾ÑģÑĤÑĮ
ÑħÐ° ÑĢÐ°
ĠÐ±Ð° Ð·Ð°
ĠÐ¥ Ð°Ð¹
ĠÐĳ Ð°Ð±
ĠÑĨÐµÐ½ Ð½Ð¾ÑģÑĤÐ¸
ĠÑį ÑģÐºÐ°Ð´
ĠÐĺÐ½ ÑģÑĤÐ¸ÑĤÑĥ
ĠÐ½Ð°Ð±Ð»Ñİ Ð´Ð°Ð»
ĠÐ¿ÑĢÐ¸Ð·Ð½ Ð°Ð»ÑģÑı
ÑģÐ»Ñĥ Ð³Ð¸
ĠÐĵÐ»Ð°Ð² Ð½Ð°Ñı
ĠÐ·Ð°ÑħÐ¾ÑĤ ÐµÐ»Ð¾ÑģÑĮ
ĠÐ²ÑģÑı ÐºÐ¸Ðµ
ĠÐ±Ñĭ Ð²Ð°Ð»Ð¾
ĠÑĩ ÑĮ
Ġchild ren
ĠÐ´ÐµÐ²ÑĥÑĪ ÐºÐµ
ĠÑĦÐ¸Ð½Ð°Ð½Ñģ Ð¾Ð²ÑĭÑħ
ĠÑħÑĥÐ´Ð¾Ð¶ Ð½Ð¸Ðº
ÑĢÑĥ ÑİÑīÐ¸Ðµ
ĠÐ³Ð°Ð· ÐµÑĤÐµ
ĠÐ¾ÑĤÐ¿ÑĢÐ°Ð²Ð¸ Ð»Ð¸ÑģÑĮ
ĠÐ¾Ð±Ð»Ð° Ð´Ð°ÑİÑĤ
ĠÐ³ÑĢÐ¾Ð¼ Ð°Ð´
ĠÐ¢Ð¾ ÑĩÐ½Ð¾
ĠÐ±ÑĥÑĤÑĭÐ» ÐºÑĥ
ĠÐ¿ÑĢÐ¾Ð³ÑĢÐ°Ð¼ Ð¼Ð¸
Ġw ater
ĠÐ²Ð¾Ð»Ð¾Ñģ Ð°Ð¼Ð¸
Ġl ist
ĠÐĴ Ðŀ
ĠÐ½Ð°Ð¿ÑĢÑı Ð¼ÑĥÑİ
ĠÐĵÐ»Ð°Ð² Ð½ÑĭÐ¹
ĠÐ²ÑģÑĤÑĢÐµ ÑĤÐ¸ÑĤÑĮ
ĠÐ³ÑĢÐ°Ð¶Ð´Ð° Ð½Ðµ
Ð½Ð¾ ÑģÐ¸
Ðº Ð½ÑĥÐ»ÑģÑı
ĠÐ²Ñĭ Ð¿Ð¸ÑĤÑĮ
ĠM e
ĠÑģÐ»ÑĥÑĩÐ° Ñı
Ġc rit
Ġwh at
Ð¢ ÐĲ
ĠÐ¡Ð°Ð¼ Ð¾Ðµ
ĠÐ³ÐµÑĢÐ¾ Ñı
ĠÑģÐµÑĢÑĮÐµÐ· Ð½ÑĭÐµ
ĠÐºÐ°ÑĤÐµÐ³Ð¾ ÑĢÐ¸
Ñĥ ÑģÑĤÑĢÐ¾Ð¹
ĠÑĤÐ²Ð¾ÑĢ ÑĩÐµÑģÑĤÐ²Ð°
ÑĢÑı Ð½
ĠÐĴ ÑĩÐµÑĢÐ°
ĠÐ¾Ð±ÑĢÐ° ÑĤÐ¸ÑĤÑĮ
ĠÑģÐ¾Ð³Ð»Ð°ÑģÐ¸ Ð»Ð°ÑģÑĮ
Ð³Ð° Ð¹
ĠÐ¿ÑĢÐ¸Ð·Ð½Ð° Ð½
ĠÑģÐ»ÑĥÑħ Ð¸
ĠÑĢÐ°Ð±Ð¾ ÑĩÐ¸Ðµ
ĠÑĤÑĥÑĢÐ½Ð¸ ÑĢÐ°
Ð¾Ð¼ Ñĭ
ĠÐ²ÑģÐ¿ ÑĭÑĪ
ĠÐľÐ° ÑĤÑĮ
Ð½ÐµÐ¹ ÑĪÐ¸Ð¹
ÐµÐ² Ñĥ
ĠÐŀ Ð»
ĠÑĥÐ³ Ð»ÑĥÐ±
Ð¾ÑĤ ÐµÑĢÐ°
ĠÐ¸Ð¼Ñĥ ÑīÐµÑģÑĤÐ²Ð¾
ÐµÑĢÑĤ Ð²
ĠÐºÐ»Ð¸ ÐµÐ½ÑĤ
ĠÐ¿ÑĢÐµÐ´Ð¼ÐµÑĤ Ð¾Ð²
Ð¶ Ð¼Ð¸ÑĤÐµ
Ġf e
ĠÐĶ ÑĢÐ°
ÂłÐ¢ Ðµ
ĠÐ´ÐµÐ»Ð° Ñħ
is c
ĠÐ½Ð¾ÑĢ Ð¼Ñĭ
ĠÑĥÐ²ÐµÑĢÐµÐ½ Ð½Ð¾ÑģÑĤÑĮ
ĠÐ¾ÑĤ Ð¾Ð´
ĠÐķ Ñĳ
Ð´ Ð¶Ð¸
ĠÐ·Ð° Ð¼ÐµÐ½Ð¸ÑĤÑĮ
Ð´Ð¸ ÐºÐ°
ĠWill iam
Ð³Ð¸ Ð½Ð°
R A
ĠÑģÐ¾ÑģÑĤÐ°Ð² Ð¸ÑĤ
ĠÐ¾ ÑģÐ»Ð¾Ð¶
he m
ĠÐ¸Ð· Ð²ÐµÑģÑĤÐ¸
Ð»Ð¸ Ð²ÑĭÐµ
er ing
ĠÐ¿Ð¾Ð» Ð°Ð³
ĠÐ½Ð°Ð³ÑĢÐ° Ð¶Ð´
ĠÐ±ÐµÐ» Ð¾Ð³Ð¾
ĠÑģÐ¾Ð± ÑĢÐ°Ð½
ĠÐ¿Ð¾Ð» Ð½Ð°Ñı
ĠÐ¾Ð¿ÐµÑĢÐ° ÑĨÐ¸Ñİ
ĠÐ±ÐµÑĢÐµ ÑĤ
Ð¸Ð½ ÑģÐºÐ¾Ð¹
ĠÐ¿Ð¾ÑĤÑĢÐµÐ±Ñĥ ÐµÑĤÑģÑı
ĠÑĤÑĥ ÑĢÐ¸ÑģÑĤÐ¸
ĠÐ±Ð¾Ð» ÐµÐ»ÑĮ
ĠÑĦÑĢÐ° Ð³
Ñĩ Ð°Ð»Ð°ÑģÑĮ
Ð´ Ð¾Ð²Ð°ÑĤÑĮ
ĠÐĶÐµÐ¹ÑģÑĤÐ² Ð¸ÑĤÐµÐ»ÑĮÐ½Ð¾
ĠÐ¡ ÑįÐ¼
ĠÐ¿ÑĢÐ¾ÑģÑĮ Ð±Ð¾Ð¹
ĠÐ°Ð½Ð³Ð»Ð¸Ð¹ ÑģÐºÐ¾Ð³Ð¾
ĠÐ¿ÐµÑĢÐµ ÐºÐ»Ñİ
ĠÐĳ Ð¾Ð³Ð¾
ĠJ apan
Ð°Ð½ ÑģÐºÐ¸Ð¹
Ð²Ð¸ Ð»Ð°ÑģÑĮ
ĠÐ³ÑĢÐ° Ð½Ð¸ÑĨ
ĠÑĩÑĥÐ¶ Ð¾Ð¹
ĠÐļÐ¸Ðµ Ð²Ð°
ĠÐ¿ÑĢÐµÐ´Ð¿Ð¾Ð»Ð¾Ð¶ Ð¸ÑĤÑĮ
ÐµÐ»Ð¸ Ð²Ð¾
ĠÑĤÑĢÐµÑĤÑĮ ÐµÐ¹
ĠÐ°ÑĢÐ¾Ð¼ Ð°ÑĤ
ĠÑĥÑĩÐ¸ÑĤ ÑĭÐ²Ð°Ñı
ĠÐĸ Ð¸Ð·Ð½ÑĮ
ĠÐ¿ ÑĢÑĥ
ĠÑģÑĤÐµÐ½Ð° Ñħ
Ð¶Ðµ Ð²
ĠÐ´Ð° Ð²Ð°Ð»
ĠÐ» ÑĥÐºÐ°
ĠÐ¡ÑĤÐ° Ð²
ĠÑģÐ»ÑĭÑĪ Ð°Ð»Ð¸
ĠÑģÐ¿Ð¸ ÑģÐºÐµ
ĠÐ£ Ð¼
ĠÐŀ ÑģÑĤÐ°
ÑĤÐµÐ»ÑĮ Ð½Ð¾ÑģÑĤÐ¸
Ġm en
ĠÐŀÐ± ÑĢÐ°
ĠÑģÐ»ÑĥÐ¶ Ð°
ĠÐ¼ÐµÐ» ÐºÐ¸Ðµ
ĠÐ²ÑĭÑĤÐ° ÑīÐ¸Ð»
ĠÐ½Ð¾Ð²Ð¾ ÑģÑĤÑĮ
ĠÐ¿ÑĢÐµÐ´ ÐµÐ»Ñĭ
ĠÐĽ Ð¸Ð»Ð¸
Ð¾Ð±Ð¾ÑĢÐ¾ Ð½Ñĭ
ur b
ĠÑģÑĩÐµÑĤ Ñĥ
ĠÐŀ ÑĦÐ¸ÑĨÐ¸Ð°Ð»ÑĮ
ÑĳÐ½ Ð½Ð¾Ð³Ð¾
ĠÐľ Ð°Ð¼
ĠÐĶÐ¾Ð½ Ð±
ĠÑĤÑĢ Ð¾Ð³Ð°
Ġtit le
am s
ĠÐ¾ÑģÐ½Ð¾Ð² Ñĥ
Ġp at
8 9
Ð³ ÑĢÐ¸
ĠÐ´Ð¸ÑģÑĨÐ¸Ð¿ Ð»Ð¸
ĠD r
ĠH ouse
ĠÐ²ÑĭÑħÐ¾Ð´ Ñĥ
ĠÐłÐ°Ð½ ÑĮÑĪÐµ
ĠÐŀ Ð»Ð¸Ð¼Ð¿Ð¸Ð¹
Ð¸Ð¼Ð¾ ÑģÑĤÑĮÑİ
os p
ĠÑģÐ¸Ð¼ Ð²Ð¾Ð»Ð¸
ĠÐ³ÑĢÐ°Ð¶Ð´Ð°Ð½ ÑģÐºÐ¾Ð¹
Ð²Ð¾Ð» Ð½Ð¾Ð²
Ð¶ Ð¸Ð»
ĠÐĿÐ¸Ðº Ð¸ÑĤÐ°
ĠÐ²Ð¾Ð· Ð¼Ðµ
ĠÐºÐ°Ð¿ Ð»Ð¸
ĠÑħ ÑĢÐ°Ð±
ĠÐ±ÐµÑĢÐµÐ¼ÐµÐ½ Ð½Ð¾ÑģÑĤÐ¸
ĠÐ·Ð° Ð±Ð°Ð²
ÑĢÐ¾Ð²Ð°Ð½ Ð½Ð¾Ðµ
ĠÐ¼Ð¾ ÑģÐº
ÑĪ Ð¸Ð»ÑģÑı
Ð¸ Ð½Ð¾
ĠÐ²Ð¾Ð·Ð²ÑĢÐ° ÑīÐµÐ½Ð¸Ñı
ĠÐ²Ð¾Ð·Ð½Ð¸Ðº Ð»Ð°
ĠÐ°Ð²Ð° ÑĢÐ¸Ð¹
ĠÑĢÐµÑģÑĤÐ¾ ÑĢÐ°Ð½
ĠÑįÐº ÑĢÐ°Ð½
ĠÑĥÐ´Ð¾Ð²Ð¾Ð»ÑĮ ÑģÑĤÐ²Ð¸Ñı
Ð»Ð¾Ð¶ ÐµÐ½Ð¸Ñı
ĠÐ¢ Ð°ÑĢÐ°
ĠÐ³ÐµÑĢÐ¾ ÐµÐ²
ĠÑĢÐ° ÑģÑĤÐ¸
ĠÐºÐ¾Ð» Ð»ÐµÐ´
l ished
ĠÐĳÑĭ Ð»Ð¸
ĠÐŁÐµÑĢ Ð²ÑĭÐµ
ilit ary
ĠÐ²ÑģÑı ÐºÐ¾Ð¹
Ð¾ÑĤ Ð²Ð¾ÑĢ
ĠÐ¿ÑĢÐµÐ´Ð¿ÑĢÐ¸ÑıÑĤÐ¸ Ðµ
C A
Ġcomp le
ĠÑĤ ÑĳÐ¼
Ġ198 8
ĠÑĩÐµÑĤÐ²ÐµÑĢ ÑĤÑĮ
ĠÐ¿Ð»Ð¾ÑīÐ°Ð´ ÐºÐµ
re g
ol ution
ĠÑĢÐ°ÑģÑħÐ¾Ð´ Ð¾Ð²
ĠÐ¶Ð¸Ð»Ð¸ Ñī
Ð¸ ÑĪÑĮÑģÑı
Ñĩ ÐºÐ¾Ð¼
Ð¸Ð»Ð° Ð½
Ð²Ð° Ð½Ðµ
ĠÑĦÑĥÐ½Ð´Ð° Ð¼ÐµÐ½ÑĤ
om b
Ð»Ð¸ ÑĪÐºÐ¾Ð¼
Ġc ame
ĠÐ¼Ð»Ð°Ð´ ÐµÐ½
ĠÑĥ ÑĩÐµÐ½Ð¸Ñı
ĠÐ¿ÑĢÐµÐ¸Ð¼ÑĥÑīÐµ ÑģÑĤÐ²ÐµÐ½Ð½Ð¾
ĠÐļÑĢÑĭ Ð¼Ñĥ
Ġam ong
ĠÐ·Ð° ÑģÐ»ÑĥÐ¶Ð¸
Ð³Ð¸ Ð¾Ð½
ĠÑįÐº ÑģÑĤÑĢÐ°
ber g
ĠÐ¼Ð°Ð¹ Ð¾ÑĢ
ĠÑĢÐµÑĪ ÐµÐ½Ð¸ÐµÐ¼
ĠÑģÑĤÑĢÐ¾ Ñı
Ð¾Ð¼Ð¾ Ñī
ĠS an
Ðº Ð¾Ð¿
ri es
ĠÑĢÐµ ÐºÐ°
ĠÐ¼Ð°Ð³Ð¸ ÑģÑĤÑĢÐ°
ĠÐºÐ¾Ð» Ð¾Ðº
ĠÐ²Ð¾Ð·Ð²ÑĢÐ° ÑīÐ°ÑĤÑĮÑģÑı
ĠÐľÐ¾ÑģÐºÐ¾Ð² ÑģÐºÐ¾Ð³Ð¾
ĠÑĥÑħÐ¾Ð´ Ð°
ĠÐ·Ð°ÐºÑĢÐ¸ ÑĩÐ°Ð»
ÑĢÐ¾Ð² ÑĮ
u x
ÑĢÐ°Ð½ Ð¶Ðµ
ĠÐ±ÐµÐ· ÑĢÐ°Ð·
ĠÐ²ÑĢÐ° Ð³
ĠÑĤ ÑĢÐµÐ¼Ñı
ĠÐ³Ð¾ÑĢÐ¸Ð· Ð¾Ð½ÑĤ
ĠÐ¿ÑĢÐ¸ Ð¾ÑģÑĤÐ°Ð½Ð¾Ð²
Ð¸Ð½ Ð¾Ðº
ĠÑĢÐ°Ð·Ð³Ð¾Ð²Ð°ÑĢÐ¸ Ð²Ð°ÑĤÑĮ
ĠÐ½Ð°Ð´ Ð¾Ð»Ð³Ð¾
ĠÑĦÐ¸Ð³Ñĥ ÑĢÐ°
Ì Ħ
Ðµ Ð²Ð¸ÑĩÐ°
ĠÐ¸Ð· ÑĢÐ°Ð¸Ð»ÑĮ
ÐµÑĢ ÑĥÑģÐ°Ð»
ĠÑĤÑĢÑĥ Ð±Ñĭ
ĠÐ½Ðµ Ð¾
m s
ĠÐŀ Ð¼
ĠÐºÑĢÐ¸ ÑģÑĤÐ°Ð»
ĠÐłÐµ ÑĩÑĮ
ĠÑĥÐ»Ð¸ ÑĨÐ°
ĠÐ²Ð¾ ÑģÑĤÐ¾ÐºÐµ
ĠÐ´Ð¾ÑĢÐ¾Ð³ Ð°Ñı
ĠÐ²Ð¸Ð½Ð¾Ð²Ð° ÑĤ
ĠÑģÐ¼Ðµ ÑģÑĮ
Ñı Ð±ÑĢÑĮ
Ð¸Ð´ Ð¶
ĠÐ¿Ð»Ð¾ÑĤ Ð½Ð¾
ÑĢÐµ Ð·Ð°ÑĤÑĮ
ĠÐµ Ð»
ĠÑģÐ¾Ð³Ð»Ð° ÑģÐ¸Ñı
ĠÐ¿ÐµÑĢÐµ ÑģÐ¿
ÑĢ Ð½Ð¾Ð¹
ĠÐ·Ð°ÑģÐµÐ´Ð° Ð½Ð¸Ðµ
ÑĤ ÑĢÐ¾Ð¿
ĠO ne
ĠÐļ ÐµÐ¼
ĠÐ½Ðµ Ð¿Ð¾Ð»
ĠÐ´ Ð¸Ð½Ð°
ĠÐ¾Ð´ Ð½Ð¾Ðº
Ð¾Ð½ Ð´Ð°
ĠÐ¾Ð±ÑĢÐ° ÑĤÐ¸Ð»
ĠIt al
ĠÐºÐ¾Ð¼Ð¼ÐµÐ½ÑĤÐ° ÑĢÐ¸Ñı
ĠÐ½Ð°ÑģÑĤÐ¾Ñı ÑīÐ¸Ð¼
ĠÐĶ ÑĢÐµÐ²
ĠÐļÐ°Ðº Ð¾Ðµ
ĠÐ¿ÑĢÐ¾ÑĦÐµÑģÑģ Ð¾ÑĢÐ°
ĠÐŁÐµÑĤÐµÑĢÐ±ÑĥÑĢ Ð³Ð°
ĠÐ²ÑĢÐ° Ð¶Ðµ
ĠÐ¸Ð· Ð±Ñĭ
ĠÐ°Ð½Ð³Ð»Ð¸Ð¹ ÑģÐºÐ¸Ð¹
ĠÑĢÐ°ÑģÐ¿ Ð»Ð°
o ff
ĠÐĴÑĭ Ð±Ð¾ÑĢ
Ġ z
Ġ4 3
ÑĩÐµÐ½ Ð½ÑĭÐ¼Ð¸
Ð¼Ð¾ ÑĢÐ°
ĠÐ¿ÑĢÐ¸Ð² ÐµÐ»Ð¸
Ġl ate
Ð¾ÑĢÐ¾Ð¶ Ð½Ð¾
ĠÑįÐºÑģÐ¿ÐµÑĢ ÑĤÑĭ
ĠÑĢÐ°Ð·ÑĢÐµ ÑĪÐµÐ½Ð¸Ðµ
o on
Ġp oss
ĠÑģÐ² Ð°Ð»
ĠÐ´Ð¾Ð» Ñı
ĠÐºÐ¾Ð»Ð»Ðµ Ð³Ð¸
ÐºÐ° ÑİÑĤ
ĠÐ½Ð° Ð¸Ð²
m it
um b
ĠÐ¨ Ñĥ
ĠÐ¿Ð¾ÑĤ ÑĢÑıÑģÐ°
ÑĪ Ð°Ð»Ð°
Ðº Ð½ÑĥÐ²
ÑĤÐ¾ Ð½Ð¸
ĠÑĪ ÐºÑĥ
ĠÑĨÐµÐ½ÑĤ ÑĢÐ¾Ð¼
ĠÐ¼ÐµÐ» Ð¾Ð´
Ñģ Ð°Ð½
ĠÑģÐºÐ° Ð¶ÐµÑĪÑĮ
ĠÐºÐ°Ð¼ Ð½ÐµÐ¹
ĠÐ½Ð°Ð¿Ð°Ð´ ÐµÐ½Ð¸Ñı
ÐµÐ¼ Ð¾Ðµ
ĠÐ¿ÑĢÐ¸Ð· ÐµÐ¼
ÐµÑĢ ÑĤÐ°
ÐŁÐµÑĤÐµÑĢÐ±ÑĥÑĢ Ð³Ð°
ĠÑĤÐµÑħ Ð½Ð¸ÐºÐ°
ĠÐ¸Ð³ÑĢÐ° Ð»Ð¸
ĠÑĥ ÑģÑĤÐ°Ð²Ð¸
Ð½ Ð¾Ð»ÐµÑĤ
ĠÐ²ÑĭÐ² Ð¾Ð´Ñĥ
ĠÐ¿Ð¾Ð´Ð´ÐµÑĢÐ¶ ÐºÐ°
Ð³Ð° Ð½Ð°
ĠÑģÐ¿Ñĥ ÑģÐº
ĠÐ¿Ð°ÑĨÐ¸ ÐµÐ½ÑĤÐ°
ĠÐ¾Ð¿ ÐµÑĢ
ĠÐ¾ ÑģÐ°Ð´
Ð½Ð¸Ð· Ð¼
ĠÑģÐ²ÑıÐ· Ð°Ð½
ĠÑĢÑĥ Ð¶
ĠÐ¿Ð¾Ð± Ð»Ð¸Ð¶Ðµ
ĠÐ½Ð° ÑģÐº
ÐµÐ² ÑģÐºÐ¾Ð³Ð¾
ĠÐ½ÐµÐ¼ ÑĨÐµÐ²
ĠÐ²ÑĭÑģ ÑĪÐµÐ¹
ĠÐ¥Ð¾ ÑĤÑĮ
ĠÐ¡ ÐµÐº
Ð£ ÐºÑĢÐ°
6 7
ĠÑģÐ¼ ÑĥÑĤ
ĠÐ¼Ð° ÑģÐºÐ¸
ĠÐ·Ð°ÐºÐ¾Ð½ Ð¾Ð²
ĠÑĨÐµÐ» ÑĥÑİ
ĠÐ¿ÑĢÐµÐ´ÑģÑĤÐ°Ð²Ð»Ñı Ð»
ĠÐ½Ðµ ÑģÐ¾Ð²ÐµÑĢÑĪÐµÐ½
ĠÐ´Ð¾ÑģÑĤÐ¾Ð¸Ð½ ÑģÑĤÐ²Ð°
Ð± Ð¾Ðº
l in
ĠÐŁ Ð¾Ð²ÐµÑĢ
ĠÐ½Ð¾Ð² Ð¾Ð³Ð¾Ð´
ĠÐºÐ°Ð¿Ð¸ÑĤ Ð°Ð»Ð°
Ð¾Ð» Ð¶ÐµÐ½
ÑĩÐ¸ÑĤ Ð°Ð»
ĠÐºÐ¾Ð½ ÑĤÐ¸Ð½
ĠÐ³Ð¾ÑĢÐ¾Ð´ Ð¾Ð¼
ĠÑĤÐ¸ Ð¿Ð¸
Ð»ÑĮ Ð½ÑĭÑħ
ĠÐ¿ÑĢÐ¾Ð¸Ð·Ð²Ð¾Ð´ Ð¸ÑĤÑģÑı
ĠÐĸÐµÐ½ ÑīÐ¸Ð½Ð°
ĠÐ¿Ð¾Ð´ ÑħÐ²Ð°
Ð³ ÐµÐ½ÑĤ
ĠÑĥÐºÑĢÐ°Ð¸Ð½ ÑģÐºÐ¾Ð³Ð¾
ÑĦ Ð¾Ð¼
ĠÑĩÑĥÐ´Ð¾Ð²Ð¸ Ñī
ĠÐ´ÐµÐ» Ð°Ð»Ð°
ĠÑģÑĥÑī Ð½Ð¾ÑģÑĤÐ¸
ĠÑĥÐºÑĢÐ°Ð¸Ð½ ÑģÐºÐ¾Ð¹
ĠÐº Ð¸ÐµÐ²
Ð³ ÑĢÑĥÐ¿
ĠÑįÐº ÑģÑĤ
ĠÐ·Ð°Ð´ÑĥÐ¼ Ð°Ð»ÑģÑı
ÑĩÐ°ÑĤ ÐºÐ¸
ĠÐ¼Ð°ÑĤÐµÑĢ ÑĮÑİ
ĠÑĢÐ°ÑģÑģÐ»ÐµÐ´ Ð¾Ð²Ð°Ð½Ð¸Ðµ
ĠÐ¿ÑĢÐµÐ´Ð¿Ð¾Ð»Ð°Ð³Ð° ÐµÑĤ
Ð· Ð¸Ð²
ĠÑģÐ¼ ÐµÐ»
ĠÐ¿ÑĢÐ¸ ÑĩÐ°ÑģÑĤ
ĠÐ¶ÐµÐ½ Ðµ
ĠÐĹÐ° Ð¿
ĠÐ²ÐµÑĢÑħ Ð½ÐµÐ¹
ÑĢÐ¾ Ð½Ñĭ
ĠÐ¿Ð¾Ð´ÑĤÐ²ÐµÑĢ Ð¶Ð´Ð°
Ð¾Ð»ÑĮ Ð½ÑĭÐµ
Ð¤ ÑĢÐ°Ð½
ĠÐ¡ÑĤ Ð°Ð»Ð¸Ð½Ð°
ĠÐ±Ð¾Ð»ÑĮÑĪÐµ Ðµ
ĠÐºÑĢÑĥÐ¿ Ð½ÐµÐ¹ÑĪÐ¸Ñħ
Ðĳ Ðł
ĠÑģÐ¾ Ð¾ÑĤÐ½Ð¾
ĠÐŁ Ð¾Ð»ÑĮÐ·
ĠÑĥÑħÐ¾Ð´ Ð¸ÑĤÑĮ
rib ut
o e
ĠÐ¼ÐµÐ´ Ð°Ð»ÑĮ
Ðĺ Ðĺ
ĠÐ·Ð° Ð¼Ð°
ĠA c
ĠÐ¿ÑĢÐ¸Ð¼ÐµÐ½ ÑıÑĤÑĮ
ÐµÐ»Ð¸ Ñı
Ð¡ Ðŀ
ĠÐŁ ÑĢÐ°
ĠÑİ Ð±Ð¸Ð»
Ð¾Ð± Ñĥ
ĠÑĦÐ¾ÑĢÑĥ Ð¼Ðµ
ĠÐ¿Ð¾Ð½Ð°Ð´Ð¾Ð± Ð¸ÑĤÑģÑı
ĠÐ°Ð¿ ÑĤÐµ
ĠÑģÐ½Ð° ÑĢÑĥÐ¶Ð¸
ĠÐ¥ Ð¾ÑĢ
ÑģÑĤÐ¸ ÑĤÑĮÑģÑı
ĠÐ¸Ð·Ð²ÐµÑģÑĤ Ð½Ð¾Ð³Ð¾
ĠÐ·Ð² ÑĥÑĩÐ°
ĠÐ¿ÑĢÐ°Ðº ÑĤÐ¸ÐºÐ¸
ĠÐ¿ÐµÑĢÐµ Ð¿Ð¾Ð»
ĠÐ°ÐºÑĤÐ¸Ð² Ð½Ð¾ÑģÑĤÐ¸
ĠÐ¿Ð¾Ð¸ ÑģÐºÐ¸
ĠÐ¶ÑĥÑĢÐ½Ð°Ð»Ð¸ ÑģÑĤÐ¾Ð²
Ġ É
ĠÐ¸Ð¼ Ð¿ÑĥÐ»ÑĮ
ĠÐ¾Ð±Ñĭ ÑĩÐ½ÑĭÐ¹
ĠÐ²ÐµÑĢ Ð½ÐµÑĤÑģÑı
ĠÑģÐ½Ðµ Ð³Ð°
ĠÑģÐ¿Ð¾ÑģÐ¾Ð± Ð½Ð°
ĠÐ±Ð» Ð¾Ð³
ĠÐ¿Ð¾Ðº ÑĢÐ°Ñģ
ĠÐ¾Ð± ÑīÐ°ÑĤÑĮÑģÑı
ĠÑĢÐ°Ð² Ð½Ð¾Ð²Ðµ
ĠÐ¿ÑĢÐ¸ Ð¿
ĠÐºÐ¾Ð¼Ð¿ ÐµÑĤ
ĠÑģÐ°Ð¼Ð¾ ÑĥÐ±Ð¸Ð¹
ĠÐ³ ÑĢÐµÐ±
ĠÐ¿Ð¾Ð·Ð²Ð¾ Ð½Ð¸Ð»
ĠÐ¿ÑĢÐµÐ´ÑģÑĤÐ°Ð² Ð¸ÑĤÐµÐ»Ñı
ĠÐ¿ÑĢÐ¸Ð· ÑĢÐ°
ÐŁ Ðµ
ĠÑģÐ»ÑĥÑĪ Ð°Ð»
ÑĢÐ° ÑĨÐ¸Ð¸
Ð¿ Ð¾Ðº
ÑģÐºÐ¾ ÑĩÐ¸Ð»Ð°
Ġpro ject
ĠÑĦ Ñĥ
op h
Ð°Ð· Ñĭ
Ð¿ ÐµÐ»Ð°
ĠÐ½ÐµÑĦ ÑĤÑı
ĠÐ·Ð° Ð¼ÐµÐ½Ð¸
ĠÐ¾ ÐºÐ¾
ĠÐ¿Ð¾ ÑģÑĤÐ°Ð²Ð¸Ð»Ð¸
ĠÐºÑĢÐ°Ñģ Ð½ÑĭÐ¹
ĠÐ¿ÑĢÐ°Ð²Ð¸Ð»Ð° Ð¼
Ñĩ ÑĮÑİ
ĠÐ¢ Ðŀ
Ñģ ÐµÑĤ
ĠÐ¿ÑĢÐ¾ ÑĢ
ĠÐĲÐºÐ°Ð´ÐµÐ¼ Ð¸Ð¸
ĠÐ±Ð»Ð°Ð³Ð¾ ÑĤÐ²Ð¾ÑĢÐ¸ÑĤÐµÐ»ÑĮ
ĠÐ¿ÑĢÐ¾Ð¸Ð· Ð¾Ð¹Ð´ÐµÑĤ
ĠÐ²Ð¾ÑģÐºÐ»Ð¸Ðº Ð½ÑĥÐ»Ð°
ĠÐ´ÐµÑĤ ÑģÐºÐ¾Ð¹
ĠÐ·Ð¾Ð»Ð¾ÑĤ Ð¾Ð¹
ĠÐ¿ÑĢÐ¾Ñģ Ð¸ÑĤ
ĠÐºÐ»ÐµÑĤ ÐºÐ¸
ĠÐ¥ Ð¾ÑĩÑĥ
Ġm ake
ĠÑģÐ¾ÑģÑĤÐ°Ð²Ð»Ñı ÑİÑĤ
ĠÐĳ ÐµÐ»ÑĮ
ĠÐ¿Ð¾Ð»ÑĥÑĩ ÐµÐ½Ð¸Ðµ
ĠÐ»Ð¸ Ð½Ð¸Ñı
Ġdist rict
ĠÐ¸Ð¼Ðµ ÐµÐ¼
Ð½Ð¾ ÑĢÐ°
ĠÐ¢ Ð°ÑĢ
A l
ĠÑĢÐ°Ñģ ÑģÑĤÐ°
O S
ĠÐ¿Ð¾Ðº Ð¾Ð½
Ġserv ice
ĠÑģÑĤÑĢÐ¾Ð¸ÑĤÐµÐ»ÑĮ ÑģÑĤÐ²Ðµ
ĠÑĩÐ¸Ð½Ð¾Ð² Ð½Ð¸ÐºÐ¾Ð²
ĠÐ¾Ð¿ÑĢÐµÐ´ÐµÐ» ÐµÐ½Ð½ÑĭÐµ
ĠÐ¿ÑĢÐ¾Ð´Ð¾Ð»Ð¶Ð° ÑİÑĤ
ĠÐ½Ð°Ð´Ðµ ÑıÑĤÑĮÑģÑı
ĠÑĨ ÐµÐ»Ð¾
ĠÐ²ÑĢÐ° ÑĩÐµÐ¹
ÑĢÐµ ÑĤÑĥ
ĠÐ²ÑģÐµ Ð²Ð¾Ð·Ð¼Ð¾Ð¶
ĠÐ¿Ð¾ ÑģÐ¿
ĠÐ³ÑĢÑĥ Ð±Ð¾
ĠÑĥÐ±Ð¸ Ð²Ð°ÑĤÑĮ
Ð°ÑĢ Ð¾Ð´
Ġs ide
ĠÐ²ÑģÐ¿Ð¾Ð¼ Ð½Ð¸Ð»Ð°
ĠÐ¿Ð¾Ð´Ð¿Ð¸Ñģ Ð°Ð»
ĠÐĴ Ð°Ð»ÑĮ
ĠÐºÐ¾Ð¼Ð½Ð° ÑĤÐ°
ĠÐ¾Ð¿ÑĢÐµÐ´ÐµÐ»Ñı ÐµÑĤÑģÑı
Ġt urn
ĠÐ¿ÑĢÐµÐ´ Ð¼
ĠÑĥÐ´Ð¸Ð² Ð»ÐµÐ½Ð½Ð¾
ÂłÐļ ÑĤÐ¾
ĠÐ»Ð¸ÑĤÐµÑĢÐ° ÑĤÑĥÑĢÐµ
ĠÐ¸Ð·Ð¼ÐµÐ½ ÐµÐ½Ð¸Ðµ
âĢĿ ,
________ ________
ĠÐ¼Ð¾Ð» ÑĩÐ°Ð»
ĠÐ¿ Ð»ÐµÑĤ
ĠÑĢÐ°Ð·ÑĬ ÑıÑģ
ĠÐĸ Ñĥ
Ð± Ð°ÑĤ
ĠÑģÐ»ÐµÐ´ Ð¾Ð²Ð°ÑĤÐµÐ»ÑĮÐ½Ð¾
âĢ ĳ
ĠÑĥÑģÑĤÑĢÐ¾ Ð¸ÑĤÑĮ
Ð½ ÑĳÑģ
ÑĢ Ð¾Ð¶Ð´
ĠÐ¼Ð¸ÑĢÐ¾Ð² Ð¾Ð³Ð¾
ĠÐ²Ñĭ ÑģÑĤÑĢÐ¾
ĠÐ¿Ð¾ÑģÑĤÐ°Ð² ÐºÐ¸
ĠÐ°Ð²Ð¸ Ð°ÐºÐ¾Ð¼
ĠÐĵ ÑĢÐµÐ¹
ĠÐ¿ÐµÑĢÐµ Ð²ÐµÐ´
ĠÐ¾ Ð¼
ĠÐ½Ð° Ð±Ð¸ÑĢÐ°
ĠÑģ ÑĢÐ°Ð¶Ð°
ĠÐ³ Ð¾Ð¼
ĠÐŀÐ± ÑĢÐ°Ð·
Ð¥ ÐĽ
Ð§ ÐµÑĢÐµÐ·
ĠÐ¶ÑĥÑĢÐ½Ð°Ð»Ð¸ ÑģÑĤ
ĠÐ¡ Ð°Ð´
ĠÐ¼ÑĥÐ¶ Ð¸Ðº
ĠÐ²Ð¾Ð·Ð¼Ð¾Ð¶ Ð½ÑĭÑħ
ĠÐ¼Ð°Ð¼ Ñĭ
ÑĪ ÐºÐ¸Ð½
ĠÐ½Ð°Ð¿Ð¾Ð¼ Ð¸Ð½
ĠÐ¾ÑĤ Ð½ÐµÑģ
ĠÐĲÐ»ÐµÐºÑģÐµ Ñı
Â» [
Ð¿Ð¸ Ð¾Ð½
ĠÐ½Ðµ ÑĥÐº
ĠÐ°Ñģ ÑĦÐ°Ð»ÑĮ
ÑĤÐ¸ÑĩÐµÑģÐº Ð¾Ð¼
ÑĢÐ°Ð±Ð¾ÑĤ ÐºÐ°
ĠÑģÐµÐ»ÑĮ ÑģÐºÐ¾ÑħÐ¾Ð·ÑıÐ¹
ĠÑģÐ¾ÑĨÐ¸Ð°Ð»ÑĮ Ð½Ð¾Ð³Ð¾
ĠÐºÐ°ÑĢ ÑĤ
Ġ8 00
ÑĨ Ð¾Ð²Ð°
ĠÐ²Ð·Ð°Ð¸Ð¼Ð¾Ð´ÐµÐ¹ÑģÑĤÐ² Ð¸Ñı
ÑĥÑİÑī ÑĥÑİ
ĠÐŁÐµÑĤÐµÑĢÐ±ÑĥÑĢ Ð³
ÐµÑĢÐ° Ð¼
ĠÐĴ ÑĢÐ°
Ð²ÑĪÐµÐµ ÑģÑı
ÑģÑĭÐ» ÐºÐ¸
t al
ĠÐ¿ÑĢÐ¸Ð½Ð¸Ð¼Ð° ÑİÑĤ
ÑĢÐµÐ´ Ð¸ÑĤÐ°
ĠÑĢÐ°Ð·Ð³Ð¾Ð²Ð¾ÑĢ Ñĭ
ĠÐ¿ÑĢÐ¸ ÑģÐ»ÑĥÑĪÐ¸
Ġp ort
ĠÐ¿ÑĢÐ¾Ð´Ð¾Ð»Ð¶Ð° ÐµÑĤÑģÑı
Ð°Ð»ÑĮ Ð½Ð¸Ðº
ĠÐ¾Ð±Ñĭ ÑĩÐ½Ð¾Ð¹
ĠÑįÐºÑģÐ¿ÐµÑĢ ÑĤÐ¾Ð²
Ġs old
ĠÑĤÑĢÐ¸ Ð´ÑĨÐ°ÑĤÐ¸
ÐµÐ¼ ÑĭÐ¼
ĠÐ¼ÐµÐ½ÑĮ ÑĪÐµÐ¹
Ð»Ð¸ Ñİ
ĠÐŁÐ¾Ð± ÐµÐ´Ñĭ
ĠÐºÐ¾Ð»Ð¸ ÑĩÐµÑģÑĤÐ²Ð¾Ð¼
ĠÐ½Ð°ÑĩÐ¸Ð½Ð° ÑĤÑĮ
ĠÑįÐºÑĢÐ° Ð½Ðµ
Ġsp e
Ð» ÐµÑĢÐ¾Ð²
Ġv al
Ġre fer
ĠÑĥÐ´Ð° Ð²Ð°Ð»Ð¾ÑģÑĮ
ĠÐ½ÐµÑģÐºÐ¾Ð»ÑĮ ÐºÐ¸Ð¼Ð¸
ĠÐŀ Ð¹
Ð¾ ÑĩÐµÐº
ĠÐ¸Ð½ÑĤÐµÐ» Ð»Ð¸
ĠÑĦÐ°Ðº ÑĥÐ»ÑĮÑĤ
h a
ĠR iver
Âł Â«
ĠÐ¿Ð¾ ÐµÐ·Ð´Ð°
ĠÑģÐµÐºÑĢÐµÑĤÐ° ÑĢÑĮ
ĠÐ° ÐºÑĥ
ĠÑİÐ½Ð¾ ÑĪÐ°
ĠÐ¡ Ð¿Ð¸
ĠÐ¶ Ð¸ÑĤÐµÐ»ÑĮ
ĠÑĤÐ¾Ð» ÐºÑĥ
ÑĤÑĥ Ð¸
ĠÑı ÑīÐ¸Ðº
ĠÐļ Ð¾Ð»ÑĮ
ĠÐ´Ð²Ð¸Ð³Ð° ÑĤÐµÐ»Ñı
ĠÑģÐ¾Ð± Ð°
ĠÑĤÐ¾Ð» Ð¿Ñĭ
Ð¾Ð¿Ð¸ ÑģÑĮ
ĠÐ¸Ð·ÑĥÑĩ ÐµÐ½Ð¸Ñı
6 3
Ð»Ñĥ Ð±Ðµ
ÑĤ Ñİ
ĠÐ½Ð° Ð¿Ð¸
Ð»Ðµ Ðµ
ĠÑħÐ¾Ð·Ñı ÐµÐ²Ð°
ĠÑĤÐ¾ÑĢ Ð¼Ð¾Ð·
ÑĤÐµÐ»ÑĮ Ð½Ð¾Ð¼
ĠÐ±ÑĢÐ°ÑĤÑĮ Ñı
ĠÐ¿Ð¾ Ð½ÐµÑģ
il ar
ĠÐĵÑĢÐ¸ Ð³Ð¾ÑĢ
ĠÐºÐ¾Ð½ÑĤÐ°Ðº ÑĤ
ÑģÑĤ ÐµÑĢÐµ
ĠÑĤÐ°Ð½ ÑĨÐµÐ²
ĠÑĢÐ°Ñģ ÑģÐ¿
ĠÑģÐ¾Ð² Ð¾ÐºÑĥÐ¿
Âł Ñį
ĠÐ²ÑĢÐµÐ¼ÐµÐ½ Ð½Ð¾
ĠÐ¿Ð¾Ð´ Ð¿Ð¸
ĠÑĢÐ°Ð±Ð¾ ÑĩÐ¸Ð¹
ÑģÐµÐ´ Ð½ÐµÐ²
ĠÑģÐ¿ Ð¾ÑģÐ¾Ð±Ñĭ
ĠÐ¿ÑĢÐµÐ´Ð»Ð°Ð³Ð° ÑİÑĤ
ĠÐ¸ÑģÑģÐ»ÐµÐ´ Ð¾Ð²Ð°Ð½Ð¸Ðµ
ĠÑģÐ¾Ð´ÐµÑĢ Ð¶
ÐĶ Ð¸
ĠAf ric
ĠÐºÐ°Ð¼ ÐµÑĢ
ĠÑģÐ°Ð¼Ð¾Ð»ÐµÑĤ Ð¾Ð²
Ġw ent
ĠÐ³Ð¾ÑĢÐ¾Ð´ ÑģÐºÐ¸Ñħ
ĠÑģÐ¾Ð¿ÑĢÐ¾Ð² Ð¾Ð¶
ĠÑıÐ² Ð»ÐµÐ½Ð¸Ðµ
ÑĨÐµ Ð²Ð°
Ð¸Ð» Ð»Ð°
ĠÐ·Ð°ÐºÐ»Ñİ ÑĩÐµÐ½Ð¸Ðµ
ĠÑĦÐµÐ´ÐµÑĢÐ° Ð»ÑĮÐ½Ð¾Ð³Ð¾
ĠÐ¿ÑĢÐ¾Ð² Ð¾ÑĢ
Ġd el
Ġ( ;
ĠÐ¸Ð·Ð¼ÐµÐ½Ð¸ Ð»Ð¾ÑģÑĮ
ĠÐ¼ÐµÑĤÐ°Ð» Ð»Ð°
ĠÐ¼ÐµÑĤ ÑĢÐ°
ĠÐºÐ¸Ð» Ð¾Ð³ÑĢÐ°Ð¼
Ġf ather
ĠÐ¤ Ð°Ðº
ĠÐ¼Ðµ ÑĪÐ°ÐµÑĤ
ĠÐ´ÐµÑĤ ÑģÐºÐ¸Ð¹
ĠÐµ Ð¼
ĠÐŁÑĢÐµÐ´ Ð¿Ð¾Ð»
ĠÐŁÐ¾Ð½ ÑıÑĤÐ½Ð¾
ĠÑĥ Ð½Ñĭ
ĠÑĨÐ¸Ð²Ð¸Ð»Ð¸ Ð·Ð°ÑĨÐ¸Ð¸
Ġf ac
ĠÐ±Ð¾Ð»ÑĮ Ð½Ð¸ÑĨÑĭ
ÑģÐ» ÑĭÑĪ
ĠÐ¡Ð¾ Ð¾ÑĤÐ²ÐµÑĤ
ĠÐ± Ð¾Ð½
ĠÐ¿Ð¾Ð¿ÑĭÑĤ ÐºÐ°
ĠÐ¿Ð»Ð°Ð½Ð¸ ÑĢÑĥÐµÑĤ
att le
ĠÐ´ÑĥÐ¼ Ð°Ð»Ð¸
ĠÑģÐ¸Ð»ÑĮ Ð½ÑĭÐ¼
ĠÐľÐ° ÑĢÐ¸Ð¸
ĠÐ¼ÐµÐ´Ð¸ÑĨÐ¸Ð½ ÑģÐºÐ¾Ð¹
ĠÐ¿Ð¾ÐºÐ°Ð· Ð°Ð»Ð°
ĠÑħÐ¾Ð´ Ð¸Ð»Ð¸
Ð²Ð¸ Ð»Ð¸ÑģÑĮ
Ðµ Ð´Ð°
ĠÐŁÐ¾Ð» Ð¾Ð¶
ĠÐ¡Ð¾ ÑĦ
ĠÐ³ÑĥÐ± Ð°Ð¼Ð¸
ĠÐ¿Ð¾ ÑģÑĤÐ°Ð²Ð»Ñı
ĠÐ²Ð¸Ð´ ÑıÑĤ
ĠÐĽ Ð°Ð¹
ĠÐ¡Ð¾Ð² ÑģÐµÐ¼
Ð¶ Ð´Ðµ
Ġex pl
ĠÐ²ÑĭÑģÐ¾Ðº ÑĥÑİ
ĠÐ¾Ð·Ð° Ð±Ð¾
ĠÐ¤ÐµÐ´ Ð¾ÑĢÐ¾Ð²
ĠÐ´ Ð½Ðµ
ĠÐ¿ÑĢÐ¾Ð´Ð¾Ð»Ð¶ Ð¸ÑĤÑĮ
Ġatt ack
ĠÐ´Ð²Ð¾ ÑĢÐ°
ĠÐ°ÑĢÑħ Ðµ
Ðº Ð½ÑĥÐ»Ð¸
ĠÐ²ÑĭÑģÑĤÑĥÐ¿ Ð°Ð»
S c
ĠÐ¿Ð¾Ð´ÑĢÐ°Ð·Ð´ÐµÐ» ÐµÐ½Ð¸Ñı
ÑĢ Ð½ÑĭÑħ
Ð¾Ð½Ð° Ñħ
ÑģÑĤÐ² ÑĥÑİÑīÐ¸Ðµ
Ġall ow
ĠÐ¿Ð¾ÐºÐ°Ð· Ð°Ð»ÑģÑı
Ġcomm on
Ñĥ ÑģÐµ
Â µ
ÑĩÐ¸Ð½ Ð¾Ð¹
Ð¿Ð° Ð´Ð°ÐµÑĤ
Ð¾ÑĢ Ð´Ð°
ĠÐ´Ð° Ð²Ð°Ð»Ð¸
ĠÐ·Ð°ÐºÐ° Ð·Ð°ÑĤÑĮ
Ġw in
ĠÐ¿ÑĢÐ¾ÑĦ ÑģÐ¾
ĠÐ¿ÑĢÐ¸ ÑĤÑı
ĠÐ¼Ð½Ð¾Ð³Ð¾ÑĩÐ¸ÑģÐ» ÐµÐ½Ð½ÑĭÑħ
ĠÐ½Ð°ÑģÐµ ÐºÐ¾Ð¼
9 8
ĠÐ²ÑĭÑģÑĤÐ°Ð² ÐºÐ¸
ĠÐ±Ðµ ÑĪÐµÐ½
ĠÑģÐ¾Ðº ÑĢÐ¾Ð²Ð¸
ĠÐ±Ð°Ð· Ñĥ
ĠÐ¸ÑģÐ¿Ð¾Ð»ÑĮÐ· ÑĥÐµÑĤ
ĠÐ¾ÑĤÐº Ð¸Ð½Ñĥ
ÐºÐ¾Ð½ ÑĦÐµÑĢÐµÐ½
Ð´ ÐºÐ¸
ĠÐ³Ð»Ð°Ð² Ð½Ð°Ñı
ĠÑĥÑģÐ»Ð¾Ð² Ð¸Ð¸
ĠÐ¸ÑģÐ¿ÑĭÑĤÐ° Ð½Ð¸Ñı
ĠÐ²ÑĭÐ±ÑĢÐ° Ð»
ÑģÑĤÐ¸ Ð¼Ð¾
Ð¢ Ð¡
ĠÑĤÑĢÐ° Ð³Ð¸
ĠÑĢÐµ ÐºÑĥ
ĠÑĥÑĤÐ¾Ñĩ Ð½Ð¸Ð»
ĠÐ¤ÐµÐ´ Ð¾ÑĢ
ĠÐ°ÑģÑģÐ¾ÑĨÐ¸Ð° ÑĨÐ¸Ð¸
Ð²Ð¸Ð½Ñĥ Ð»
ĠÐĶ Ð¾Ð³
ĠÑĢÐ°ÑģÑģÐ»ÐµÐ´ Ð¾Ð²Ð°Ð½Ð¸Ñı
ĠÐ¾Ð¿ÑĢÐ°Ð² Ð´
ĠÐ²Ð¾Ð» Ð½Ð°
ĠÐ¿ÑĢÐ¾ÑħÐ¾Ð´ Ð¸Ð»Ð¸
Ġm ag
ĠÐŁÐ°ÑĤ ÑĢÐ¸
ĠS m
ĠÑĩÑĥÐ²ÑģÑĤÐ²Ñĥ Ñı
ĠÐ¿ÑĢÐ¸Ð½ ÑĨ
ĠÐ³Ð°Ð» ÐµÑĢÐµ
Ð²Ð° ÑĤÐ¸
ÑģÐ¿ ÐµÐºÑĤ
Ð¾Ð¼ ÐµÑĢ
ĠÐĶ Ð½ÐµÐ¿
ĠÑģÐ´ÐµÐ» ÐºÐ¸
ĠÑģÐ²ÑıÐ·Ð° Ð½Ð°
ĠÑģÐ¾Ð·Ð´Ð° ÐµÑĤ
er a
o le
ĠÐ¾Ð± Ð¾Ð³
ĠÑģÐ¾Ð±ÑĢÐ° Ð½Ð¸Ñı
ĠÐ¾ÐºÑĢÑĥÐ³ Ðµ
ĠÑģÐ¾ÑģÑĤÐ¾Ñı Ð»Ð¾ÑģÑĮ
ÐŁ Ðļ
Ð§ ÐµÑĢ
ĠÐ¿Ð¾Ð³ ÑĢÑĥ
ĠÑĢÐµÑĪ ÐµÐ½Ð¸Ñİ
ĠÐ¿Ð¾ ÑģÑĤÐ¾Ñı
ĠÑĢÐ°Ð·Ð²ÐµÐ´ ÐºÐ¸
Ð²Ð° Ð¼
ĠÑģÐ¸Ð»ÑĮ Ð½ÑĭÐµ
Ġmon th
Ñī ÐµÑĤ
Ġ4 1
ĠÑĥÑģÐ¿Ðµ ÑħÐ¾Ð¼
ĠÑģ ÐºÐ¾Ð²
ĠÑĪ Ð²ÐµÐ¹
ĠÐ¿ÑĢÐ¾Ð´Ð¾Ð» Ð¶Ð¸
ĠÑĤÑĢÐ° Ð¼
ĠÑĢÐ°ÑģÑģÐ¼Ðµ ÑıÐ»ÑģÑı
ĠÐĴÑı ÑĩÐµ
pl oy
ĠÑģÐµ Ð³
ĠÑĥÐ´Ð¸Ð² Ð»ÐµÐ½Ð¸Ðµ
Ð¾Ð¿ ÑĢÐ¾Ð²Ð¾Ð´
ĠÐ½Ð°ÑĨÐ¸Ð¾Ð½ Ð°Ð»ÑĮÐ½Ð¾Ð³Ð¾
ĠÐ·Ð° Ð¾Ð´Ð½Ð¾
Ð¾Ð» Ð¾Ð¶
Ġeff ect
Ð° Ð´Ñĭ
ĠM on
ĠÐļ Ð¾Ð¿
ÑĢ ÐµÐ½Ð¸
ĠÐĵ ÐµÑĢÐ¾
ÐµÐ½ Ñĥ
Ð³Ð¸ Ð²Ð°Ñı
ĠÑģÐ²Ð¾ ÐµÐ²
Ð²Ðµ Ðµ
ĠÐ¾ÑĤÐ² ÑĢÐ°ÑĤ
ĠÐ¸Ð½ Ð´ÐµÐ¹
ĠÑģÑĤ Ñı
ĠÐ½ÐµÐ¿ ÑĢÐµÐ´
Ð¸Ñħ Ð°
ĠÑĢÐ°Ð±Ð¾ÑĤ Ð¾Ð´Ð°
ĠÑĩÐ°ÑģÑĤ Ð½ÑĭÑħ
ĠÐ¼Ð°Ð½Ð¸ Ð¿Ñĥ
ĠÐ»ÑİÐ´ ÑıÑħ
Ð½Ðµ ÑĦ
ĠÐ±Ð¸Ð±Ð»Ð¸ Ð¾ÑĤ
ĠÑĢÐµÐ³Ð¸Ð¾Ð½Ð° Ñħ
ÐĺÐ½ÑĤÐµÑĢ ÑĦÐ°ÐºÑģ
um mer
ru ction
ĠÐ¼ÑĥÑģ Ð¾ÑĢ
ĠÐ¿Ð¾Ð´ÑĢÐ¾Ð± Ð½ÐµÐµ
ĠÐ½ÐµÐ¿ÑĢÐ°Ð² Ð¸Ð»ÑĮ
ĠÑı Ð´
ĠC up
ĠÐ±Ðµ ÑĤÐ¾Ð½
ar i
ĠÐ· Ð²Ð°Ð»Ð¸
ĠÐĴÑģÐ¿ Ð¾Ð¼
ĠÑĦ Ð»Ð°
ĠÐĳÐµ ÑģÐ¿
ÑīÐ¸ ÐºÐ¾Ð¼
ĠÐ£ Ð²Ð°Ð¶Ð°
Ñĩ ÐºÐ¾Ð²
ĠS ch
Ġcon c
Ðľ Ð°Ð½
ĠÐ²ÑĭÐ¿Ð¾Ð» Ð½ÐµÐ½Ð¸Ðµ
ĠÐĵ ÐµÑĢÐ°
ĠÐºÐ¾Ð¿ Ð¸
ĠÐ¾Ð¿Ñĥ ÑģÑĤÐ¸Ð»
Ġch ang
Ġf re
ÑĢÑĭ Ð²Ð½Ð¾
Ġb usiness
ÑĤÐ¸ÑĩÐµÑģÐº ÑĥÑİ
Ġf ield
ĠÑģÑĤÑĢÐ° Ð½Ð¸ÑĨ
ĠÐ¶Ð°Ð» ÐºÐ¾
ĠÐ¿ÑĢÐ¾Ð¸Ð·Ð²Ð¾Ð´ ÑģÑĤÐ²Ðµ
ĠÐĽÐ¾Ð½Ð´ Ð¾Ð½
ĠÐ¿ÑĢÐ¾Ð²Ð¾Ð´ ÑıÑĤ
ĠÐ·ÑĥÐ± Ð¾Ð²
ĠÐ·Ð° Ð´ÐµÑĢÐ¶Ð¸
ĠÐļÑĢÐ°ÑģÐ½Ð¾ ÑıÑĢ
ĠÑģÐ¾Ð·Ð´Ð° Ð½Ð¸Ñİ
ĠÐ¿ÑĢ ÐµÐ½Ðµ
ĠÐ¾ÑĢ ÐºÐµ
ĠÑģÐ¾Ð¼ Ð½ÐµÐ½Ð¸Ð¹
ĠÐ¿Ð¸ÑģÐ° ÑĤÐµÐ»Ñı
Ð´ÑĢÑĥÐ³ Ð¾Ð¼Ñĥ
ĠÐĲ Ð´Ð°
ĠÑĢÑĭ Ð±Ñĭ
Ð²Ð°Ð½ Ð³
ĠÐ½ÐµÑĥ Ð²ÐµÑĢ
ĠÐºÑĢÑĭ Ð¼
ÑĪÐ¸Ð¼ ÑģÑı
y d
Ð½Ð¸Ð· Ð¼Ð°
Ġcol lect
Ð¼ ÑıÐ½
ĠÐļ Ð¾Ð´
ĠÐ¿ÐµÑĢÐ²Ñĭ Ð¼Ð¸
ĠÐ·ÑĥÐ± Ð°Ð¼Ð¸
Ġa ff
ĠÐ´ÐµÐ² ÑıÑĤ
Ġ198 6
ĠÐ²Ð°Ð¶ Ð½ÑĭÐµ
art ment
ĠÐ¿Ð¾Ð·Ð²Ð¾Ð» Ð¸Ð»
ÑĢÐ¾Ð²Ð° Ð½Ð¸ÐµÐ¼
ĠÐ´Ð¾Ð¼ Ð¾Ð¼
ĠFran ce
ĠÐ³ÑĢ Ð½
ĠÑĪ Ð°Ð¹
ĠÑĦ ÑĭÑĢ
ĠÐ½Ð°Ð¼ÐµÑĢ ÐµÐ½
ĠÐ¢ ÑĢÐ°Ð½
ĠD av
ĠÐ½ Ñİ
Ġg rad
ĠÐ»Ð°Ð±Ð¾ÑĢÐ° ÑĤÐ¾ÑĢÐ¸Ð¸
ĠÐ½Ð° ÑģÑĤÑĢÐ¾Ð¹
ĠÑĦÐ¸Ð·Ð¸ÑĩÐµÑģÐº Ð¾Ð¹
ĠÑĢÐµÑģÑĥÑĢ ÑģÑĭ
... ]
ĠÐ¾Ð±ÑīÐµ ÑģÑĤÐ²ÐµÐ½Ð½Ð¾Ð¹
ĠÑģÐ»Ð° Ð²Ð°
ĠÑį Ð»Ð¸
Ð½Ð¾Ð² ÐµÐ½Ð¸Ðµ
ĠÐ¡ÑĤ ÑĢÐ¾
ĠÑģÑĤÐ°ÑĢ ÑĪÐµÐ³Ð¾
ĠÐ½Ð°Ðº Ð»Ð¾Ð½
Ð»ÑĮ Ð½ÑĭÐ¼
ĠÑĥÑģÑĤÑĢÐ¾Ð¹ ÑģÑĤÐ²
Ð¸Ð¼ Ñĭ
ĠÐ¸Ð¼ ÐµÐ»Ð¾
Ð¡Ðļ ÐĴÐĲ
ĠÑĤÑĢÐµÑĤÑĮ ÐµÐ¼
ĠÑĢÐ°Ð·Ð»Ð¸Ñĩ Ð½ÑĭÐ¼Ð¸
Ġg r
ĠÐĹ ÐĲ
Ð²Ð° ÑİÑīÐµÐ¹
Ð±Ðµ ÑĢÐ¸
Ð´Ñĭ ÑħÐ°
Ðķ ÑīÐµ
ÐĴ ÐµÑĢ
ĠÐ¼Ð¸Ð½Ð¸ÑģÑĤÐµÑĢ ÑģÑĤÐ²Ð°
ĠÑĢÐ¾Ð´ÑģÑĤÐ²ÐµÐ½ Ð½Ð¸ÐºÐ¾Ð²
ĠÐ± ÑĢÐ¾ÑģÐ¸ÑĤÑĮ
ĠÑĥ ÑģÑĤÑĢÐ°Ð½
ĠÐ¾ÑģÑĤÐ°Ð½Ð¾Ð² Ð¸ÑĤÑĮÑģÑı
ĠÐ¡ Ð¾Ð½
ĠÐ½Ð°ÑģÑĤÐ¾Ñı ÑīÐµÐ¹
ĠÐ¡ ÐºÐ°Ð·
ĠÐ·Ð°Ð´Ð° Ð½Ð¸Ðµ
T A
ĠÐ°Ð´Ð² Ð¾ÐºÐ°ÑĤ
ĠÐ¢ Ñı
ĠÐĿÐ¸ÐºÐ¾Ð»Ð° ÐµÐ²Ð¸Ñĩ
ĠÐ¾ÑĤÐºÑĢÐ¾Ð² ÐµÐ½Ð½Ð¾
ĠÐ½Ð¾Ð² Ð¾Ð¼Ñĥ
ĠÐ» Ð°Ð¹
Ñİ Ð¼
he l
ĠÐºÑĢÐ°ÑģÐ¸ Ð²ÑĭÐ¹
ĠÑģÐ°Ð½ ÑĤÐ¸
ĠÐŁÐ¸ÑĤ ÐµÑĢ
ĠDist rict
ĠÐ½Ð°ÑģÑĤ Ð¾ÑĢÐ¾Ð¶
ĠÐ² Ð²ÐµÑģÑĤÐ¸
Ð¾Ð² ÑģÐºÐ¸Ð¹
ub e
ĠÑģÐ¿Ð¾ÑģÐ¾Ð± ÑģÑĤÐ²ÑĥÐµÑĤ
Ġk ill
ÑıÑīÐ¸Ðµ ÑģÑı
em pt
ĠÐ¾Ð±ÑģÑĤÐ¾ÑıÑĤÐµÐ»ÑĮÑģÑĤÐ²Ð° Ñħ
ĠÐ´Ð¾ÑĢ Ð¾Ð¶Ðµ
Ġstud ents
ĠÐ²Ð· Ñĭ
ĠÑıÐ²Ð»Ñı Ð»ÑģÑı
Ġinv ol
ÑģÑĤÐ² ÑĥÑİ
ĠÐ·Ð´Ð° Ð½Ð¸Ð¸
ĠÐ±Ð¾ ÑĤÐ¸Ð½
ĠÐ¿Ð¾Ð´Ð´ÐµÑĢÐ¶Ð¸ Ð²Ð°ÐµÑĤ
ÑĤÐ¸Ð² Ð½ÑĥÑİ
ĠÑıÐ² Ð»ÐµÐ½Ð¸Ñı
ĠÐ´ÐµÐ¿Ð°ÑĢÑĤÐ° Ð¼ÐµÐ½ÑĤÐ°
ĠÐ½Ðµ Ð¶Ð½Ð¾
ĠÑĢÑĭ Ð±Ð°
ĠÐ½Ð°Ð¿ÑĢÑı Ð¶ÐµÐ½Ð¸Ñı
ĠÐ´ÐµÐ»Ð° Ð¼Ð¸
ĠÐ²Ð¾Ð· Ð½Ð°
ĠÑĢÐµÐ±ÐµÐ½ ÐºÑĥ
ĠÐ¾Ð± Ð»Ð°Ð´
ÑĩÐµ Ð²Ð°
ĠÑĢÐµÐºÐ¾Ð¼ÐµÐ½ Ð´Ð°ÑĨÐ¸Ð¸
Ðĳ Ðļ
ĠÑģÑĦ ÐµÑĢÑĭ
ĠÐ·ÑĢÐ¸ ÑĤÐµÐ»ÐµÐ¹
ĠÑĩÐµÑĢ Ð½Ð¾Ð³Ð¾
ĠÐºÐ¾Ð» ÐµÑģ
Ð½ ÐµÐ½Ð½ÑĭÐµ
Ð¾Ñģ Ð»Ð¾Ð²
ĠÑĥÐ² Ð¾Ð»ÑĮ
ÑĤÐµ Ð¶
ĠÐ²Ð¾Ð·Ð¼Ð¾Ð¶ Ð½ÑĭÐ¼
Ġhist ory
ĠÐ·Ð°Ð½Ð¸Ð¼Ð° ÑİÑĤÑģÑı
ĠÐ²Ð¾Ð· ÑĢÐ°Ð¶
ĠÐ¿ ÐµÐ²
ĠÐŁ Ð¾ÑĢÑĤ
ĠÐŃÐº Ð¾Ð½Ð¾Ð¼
s elf
ĠÐ²ÑģÑĤÑĢÐµÑĩÐ° ÑİÑĤÑģÑı
ĠÑĢÐµ Ð¼Ðµ
Ġ198 7
ÑīÐ° Ñİ
Ðĳ Ð°ÑĢ
ĠÐ¸ÑģÐ¿Ð¾Ð»ÑĮÐ· Ð¾Ð²Ð°Ð»Ð¸
ĠÑĢÐ°ÑģÑģ ÑĥÐ´
ĠÑįÐ¼Ð¾ ÑĨÐ¸Ð¹
ÐĿ Ðķ
ĠÐ·Ð°Ñħ Ð»Ð¾Ð¿
Ñĩ Ð½Ð¸ÐºÐ¸
ĠÑĢÐ°Ð· Ð±Ð¾Ð¹
ĠÑĦÐ¸Ð»Ð¾ÑģÐ¾ÑĦÐ¸ Ð¸
Ð»Ð° ÑģÑĤÐ¸
Ð½Ñĥ Ñģ
ĠÐŁ ÑĢÐ°Ðº
ĠÐ¿Ð¾Ð¿ ÑĢÐ¾ÑģÐ¸Ð»Ð°
ĠÐ½Ð°ÑģÑĤÐ¾Ñı ÑīÐ°Ñı
ĠÑģÐµÐº ÑĤÐ¾ÑĢÐ°
ĠÐĶ Ð°Ð»ÑĮÑĪÐµ
ÑĢÐ° ÑģÐ½Ð¾
ĠÑģÐ¾Ð±ÑģÑĤÐ²ÐµÐ½ Ð½Ð¾Ðµ
Ġtr ack
ĠSt reet
ĠÐ¿ÐµÑģ Ð½Ñİ
ÑĤÑĭ Ð²Ð°ÐµÑĤ
Ð°Ð´ Ð¶Ð¸
ĠÐ¾ÑĪÐ¸Ð± Ð¾Ðº
Ġro le
ĠÑĥÐ±ÐµÐ´ Ð¸ÑĤÑĮ
ĠÑģÑĤÐ¸ Ð¼ÑĥÐ»Ð¸
Ġann ounc
Ġestab lished
Ġprev ious
ĠÐ²ÐµÑģ Ð¾Ð¼
ĠÐ¾ÑĪÐ¸ Ð±Ð°
ĠÐ¿ÑĢÐ¸ÑħÐ¾Ð´ ÑıÑĤ
ĠÑĢÐµÐºÐ¾Ð¼ÐµÐ½Ð´Ñĥ ÐµÑĤÑģÑı
ĠÐ¦ÐµÐ½ÑĤ ÑĢ
Ð° ÑĨÐ¸Ð¸
ĠÐ¶ÐµÐ»Ð° ÐµÑĤ
ĠÐ½ÐµÐ²ÐµÑĢÐ¾ ÑıÑĤÐ½Ð¾
Ð¸Ð½ Ð¾Ð¼
ĠÐĳ ÑĢÐ°Ð·
ĠÐ¸Ð½ÑĤÐµÑĢÐµÑģÑĥ ÐµÑĤ
Ð²Ð°ÐµÐ¼ ÑĭÐ¹
ĠÐĵ Ð¾Ð²Ð¾ÑĢÐ¸
Ġw id
ĠÐ¸Ð·Ð¾Ð± ÑĢÐµÑĤ
Ġg ames
ĠÑĢÐ°Ð·Ð¼Ðµ ÑīÐµÐ½Ð¸Ñı
ĠÐ°ÑĢÑĤÐ¸Ð»Ð»Ðµ ÑĢÐ¸Ð¹
Ñĩ ÑĥÑĢ
ÑĦÐ¾ÑĢ Ð´
ĠÐºÐ¾ÑĢÐ¾ÑĤ ÐºÐ¸Ð¹
ĠÐ¾Ð±ÑıÐ·Ð° Ð½Ñĭ
ĠÐĶ ÐµÐ¿
Ðł Âµ
ÑĢÐ¾Ñģ Ñĭ
ĠÐ¿ÑĢÐ¸ Ð½ÐµÑģÑĤÐ¸
ĠÐ¼Ð¾Ð»ÑĩÐ° Ð½Ð¸Ðµ
ĠÐ°Ð²Ð¸Ð° ÑĨÐ¸Ð¸
Ð½Ñı Ðº
ĠÐ¾Ð±ÑıÐ·Ð° ÑĤÐµÐ»ÑĮÑģÑĤÐ²Ð°
ĠÐļÐ°ÑĤ Ñı
ĠÐ½Ð°Ð¿ÑĢÑı Ð¶ÐµÐ½
ĠÐ° Ð·
Ð¸Ð´ Ñĭ
ĠÑģÑĨ ÐµÐ½Ñĭ
ĠÑĦ ÑĥÑĢ
ĠÐĴ ÐµÐ½Ðµ
Ġl angu
ÂłÐļ Ð¾Ð½ÐµÑĩÐ½Ð¾
ĠÐ½Ð°ÑĥÑĩÐ¸ ÑĤÑĮÑģÑı
ĠÐºÐ¾Ð½ ÑĦÐ¸
ĠÐ¿Ð¾Ð² ÑģÐµÐ´Ð½ÐµÐ²
ĠÑģÐ¾ÑĤ ÐµÐ½
ĠÐĲÑĦ Ð³Ð°Ð½Ð¸
ĠÐ´Ð»Ð¸Ð½ Ð½ÑĭÐ¹
Ġapp e
ÑĨÐ¸Ð¾Ð½ Ð½Ð¾Ð¼
ĠÐ¸ÑģÑĩÐµÐ· Ð»Ð°
ĠÐ°Ð¿ Ð¿ÐµÑĤ
ĠÐĴÐĴ Ð¡
ĠÐ´Ð¾ÐºÐ°Ð·Ð° ÑĤÐµÐ»ÑĮÑģÑĤÐ²Ð°
ĠÐ¿ÑĢÐ¾Ð²Ð¾Ð´ Ð¸Ð»
ĠÐ»Ð¸ Ð´ÐµÑĢÐ°
ĠÐºÐ¾ Ð°Ð»Ð¸
ĠÑĥÑĢÐ¾Ð² Ð½ÐµÐ¼
ĠÐ±Ð°ÑĪ Ð½Ð¸
ĠÐºÐ° Ð½Ð¾
ĠÑģÐ»Ðµ Ð¿
ÑīÐ° ÐµÐ¼
ĠÐ½Ð°ÑĢÐ¾Ð´ Ð½Ð¾Ð³Ð¾
Ġsh ip
ĠÑĦÐ¸Ð»ÑĮ Ð¼Ð¾Ð²
ĠEng land
ĠÐ¼Ð¾ Ð½Ð°Ñħ
ĠÐ»ÑĥÑĩ ÑĪÐµÐ³Ð¾
ĠÐ²Ð· ÑĢÑĭ
ĠÐ¸ÑģÑĤÐ¾Ñĩ Ð½Ð¸ÐºÐ°
Ð¶Ð¸Ð¼ Ð°Ñı
ĠÑģÐ¾Ð¿ÑĢÐ¾ÑĤÐ¸Ð² Ð»ÐµÐ½Ð¸Ðµ
Ð²Ð¾ ÑģÑĤÐ¾Ðº
ĠÐ¾Ñģ Ð»ÐµÐ¿
ĠP e
; &
ĠÑĥÐ´Ð° ÐµÑĤÑģÑı
lev ision
ĠÐ¿Ð¾Ð¾Ð±Ðµ ÑīÐ°Ð»
Ġs it
ĠÐ±ÑĢÐ¾ Ð½Ð¸
ĠÐ¾Ð±ÑĬ ÑıÑĤÐ¸Ñı
ĠÑĥ Ð²Ð¾Ð»
ĠÐ·ÐµÑĢÐº Ð°Ð»Ð¾
and er
ĠÐŀÑģÐ½Ð¾Ð² Ð½ÑĭÐµ
ĠÐĺ Ð±Ð¾
ĠÐ¿Ð¾ÐºÐ°Ð·Ð° ÑĤÐµÐ»ÑĮ
ĠÐ¡ÐºÐ¾ ÑĢÐ¾
ĠÐ½Ð° ÐµÐ¼
ĠÐŁÐ¾Ð»ÑĮ ÑĪÐ¸
ĠÐ·Ð°Ð±Ñĭ Ð»Ð¸
ĠÑĤÑĢÐ°Ð½ÑģÐ¿ Ð¾ÑĢ
Ðļ ÐŁ
ĠÐºÐ°Ðº Ð¾Ð¼Ñĥ
ĠÐ¼ÐµÑģÑĤ Ð½Ð¾Ð¹
ĠÑģÐºÐ°Ð½ Ð´Ð°Ð»
ÑĤ Ð¾Ð²Ð°
Ð¼ ÐµÐ´
ĠÐ¡Ð¾Ð»Ð½ ÑĨÐµ
ĠÐ¥ ÑĢÐ°
Ñĸ Ð¹
Ñĩ ÑĥÐº
ĠÑĢÐµÐºÐ¾ÑĢ Ð´
ĠÐ¿Ð¾Ð´ Ð²
ĠÐ¾Ð±ÑģÑĤÐ¾ÑıÑĤÐµÐ»ÑĮ ÑģÑĤÐ²
ĠÐ½Ð°Ñĩ Ð½ÐµÑĤÑģÑı
ĠÐķ ÑģÑĤÐµÑģÑĤÐ²ÐµÐ½Ð½Ð¾
ĠÑıÐ¹ ÑĨÐ°
ĠÑģÐ¿Ð¾ÑģÐ¾Ð± Ð½Ð¾
ĠÐĹÐ° Ð²ÑĤÑĢÐ°
ĠÑģÐ¾Ð²ÐµÑĢ ÑĪÐ¸ÑĤÑĮ
ĠÐŁÑĢÐ¾ Ð¸Ð·Ð²Ð¾Ð´
Ġe very
ĠÐ³Ð¾Ð´Ð° Ð¼Ð¸
Ġw ay
Ð¼ Ð°Ðº
ĠÑģÑĤÑĢÐ°Ð½ Ð½Ð¾Ðµ
ĠÐĵ Ð°Ð¹
ĠÐ¿Ð¾ÑĤÐµÑĢ ÑıÑĤÑĮ
ĠÐ® Ð³Ð¾
ĠÐ´Ð¸ Ð²Ð¸Ð·
ĠÐ°Ð²Ð° ÑĢÐ¸Ð¸
ĠÐ¼Ð° Ð³Ð¸Ð¸
ÑĪÐµ ÑħÐ¾Ð´
ĠÑĤÐµÐ¿ Ð»
ĠÑĥ ÑģÑĤÑĥÐ¿
ĠÑģÑĤÐ° Ð½Ñĥ
ÑĢ ÐµÐ½Ð¸Ð¸
Ġst at
Ð·Ð°Ð¿ Ð½Ð¾
ÑĢÐ¾Ðº Ð°
ĠÐ¿Ð¾Ð´ Ð°ÑĤÑĮ
ĠÐ¶ÐµÑĢÑĤ Ð²Ñĭ
ĠÐŁÐ¾Ð¿ ÑĢÐ¾Ð±
ĠÐ¿ÑĢÐ¾Ð´ ÐµÐ»
ĠÐ±Ð¾ Ð¸ÑĤÑģÑı
Ġstart ed
ap e
ÑıÐ· Ð²
Ñı Ð´
ÐµÐ½ Ð½Ð¾ÑģÑĤÑĮÑİ
ĠÑĢÑı Ð´Ñĭ
ĠÐ¿Ñĥ ÑģÐº
m a
ĠÐĴÐµÑĢÑħÐ¾Ð² Ð½Ð¾Ð³Ð¾
ĠÐ§Ð° ÑģÑĤÑĮ
ĠÐ¿ÐµÑĢÐµÑħÐ¾Ð´ Ð°
ĠÐ¿Ð¾Ñħ Ð¾Ð¶Ð¸
ĠÑĢÐ°Ð·Ð¼ÐµÑĢ Ð¾Ð¼
ĠÐ¿Ð¾Ðº Ð¾
ÑīÐµÐ½ ÐºÐ¾
ĠÑģÐ¾ÑĤÑĢÑĥÐ´Ð½Ð¸ ÑĩÐµÑģÑĤÐ²Ð¾
ĠÐ¿ ÑĭÑĪ
ir c
ÑĤÐ°Ð» ÐºÐ¸
ĠÐ½Ðµ Ð¸ÑģÐ¿
Ð¾Ð½ Ð´ÐµÐ½
ĠÐ¾Ð³Ð»Ñı Ð´ÐµÐ»
ĠÑģÐºÑĢÑĭ ÑĤÑĮ
ĠÑĦÐ¸Ð·Ð¸ÑĩÐµÑģÐº Ð¸Ñħ
ĠÑįÑĦÑĦÐµÐºÑĤÐ¸Ð² Ð½Ð¾
Ġt echn
Ð° Ð½Ð¾
ĠÑįÐºÐ¸Ð¿Ð° Ð¶Ð°
ĠÐ¿ÑĢÐ¸ÑģÑĥÑĤ ÑģÑĤÐ²Ð¸Ð¸
ĠÐ´ÐµÐº Ð»Ð°
ĠÐ¼ÐµÐ» ÐºÐ¸Ñħ
ĠÐ¼Ð¾Ð½Ð¸ ÑĤÐ¾ÑĢÐ¸
Ġf ore
Ð²ÑĪÑĥÑİ ÑģÑı
ĠÐ±Ð¾ÐµÐ²Ð¸ ÐºÐ¾Ð²
ĠÐ²ÑĭÐ²Ð¾Ð´ Ñĭ
ĠÑģÐ»ÑĥÑĩ Ð¸ÑĤÑģÑı
ÑĩÐ¸ Ð²ÑĭÐ¹
ĠÑįÐ¿Ð¸Ð· Ð¾Ð´
ĠÐ¿Ð°ÑĨÐ¸ ÐµÐ½ÑĤÐ¾Ð²
ĠÐ¿ÑĢÐ¾ÑģÑĤ ÑĭÑħ
ĠÐ¡ Ð¿Ð°Ñģ
t r
ĠÐ¸ÑģÐ¿Ð¾Ð» Ð½Ð¸
Ð¸Ð½ ÑĮ
ĠÐ¿Ð¾ÑĢ Ð¾Ð³Ðµ
Ġ6 4
Ġf ew
ĠÐĳÐµÐ»Ð°ÑĢÑĥ ÑģÑĮ
ĠÐ½ÐµÐ¿ÑĢÐ°Ð² Ð¸Ð»ÑĮÐ½Ð¾
ĠÐ¾Ð´ Ð½Ð¸Ñħ
Ð´ ÑĳÑĤ
Ð· ÐµÑĢ
ĠPh il
ĠÐºÐ½Ñı Ð¶Ðµ
ĠÐĴÑģÐµÐ¼ Ð¸ÑĢ
ĠÐ¾ÑģÐº Ð¾Ð»
ĠÐ´ ÐµÐ»ÑĮ
ĠÐ»ÑİÐ± Ð°Ñı
ĠÐ¼ÐµÑĤÐ¾Ð´ Ð¾Ð²
ĠÑģÐ¾Ð±Ð¸ÑĢÐ° Ð»Ð¸ÑģÑĮ
ĠÐ¸Ð· Ð´
Ðķ Ð³Ð¾
ÑĩÐµÑĢ Ð¾Ð¼
ĠÐ½ÑĥÐ¶ Ð´
ĠÑģÐ» Ð¾Ð¹
ĠÐ¿ÑĢÐ¸ Ð»ÐµÑĤ
ĠÐºÐ¾Ð½Ðµ ÑĩÐ½Ð¾Ð¼
ĠÑĨÐµÐ½ÑĤÑĢÐ°Ð»ÑĮ Ð½Ð¾Ð¹
ĠÐ¿Ð¾Ð¶ Ð°ÑĢÐ°
Ð¸Ð· Ð½ÐµÑģ
ĠÐ¿Ð¾Ð»ÑĥÑĩ Ð¸ÑĤÐµ
ĠÑĤÑĢÐ°Ð² Ñĭ
6 1
ĠÐĳ Ð¸Ð±Ð»Ð¸
ĠÑģÐ¾Ð·Ð´Ð° Ð½Ð°
ĠÑĦÐ¾ÑĢÑĥ Ð¼
Ġbec ome
Ġaut hor
ĠÐĲÐ½Ð°ÑĤÐ¾Ð» Ð¸Ð¹
ĠÑĪ Ð»Ð¾
ĠÐĸ Ðļ
, "
re st
ĠÐ´ÐµÐ½ÑĮ Ð³Ð°Ð¼Ð¸
Ġcharac ter
ru g
ĠÑĥÐ²ÐµÐ»Ð¸ ÑĩÐµÐ½Ð¸Ðµ
ĠÐ»ÑĮ Ð³Ð¾
ĠÐĽ Ð¸Ð·
ĠÐļ Ð¾Ð²
ĠÑĢÑĥ Ñħ
ĠÐ½Ðµ Ñħ
ĠÑģÐ² Ð¸ÑĤ
ĠÐĺÐ· Ð²Ð¸
ĠÐ²ÑģÐº Ð¾ÑĩÐ¸Ð»
Ñī Ð°Ð»Ð°ÑģÑĮ
ĠÐľÐ¾ÑĢ Ð¾Ð·
ĠÐ²ÑĭÐ±Ð¾ ÑĢÐµ
ĠÐ¾Ð±Ñĭ ÑĩÐ½ÑĭÑħ
ĠÐ·Ð° Ð´ÑĥÐ¼Ð°
Ð²Ð¸Ð¶ Ñĥ
ĠÑĤÑıÐ¶ÐµÐ» ÑĭÐµ
ĠÐĹÐ½Ð° ÐµÑĪÑĮ
ĠÐ´Ð¾Ð± ÑĢÑĭÐ¹
Ġpro p
ĠÐ¸Ð· Ð»ÑĥÑĩ
ÑĪ Ð»Ð¸ÑģÑĮ
ĠÐ´Ð¾Ð± Ð¸
Ñĩ ÐµÑĤÐµ
ĠÑģÑĤÐ° ÑĢÐ¸ÐºÐ°
Ñģ ÑħÐ¾Ð´
ĠÐ¡ÐµÐ²Ð° ÑģÑĤ
ĠÐ½ÐµÐ´ Ð¾Ð»Ð³Ð¾
ĠÐ¿ÑĢÐ¸Ð·Ð½Ð° ÐºÐ¸
ĠÑĤÐµÑħÐ½Ð¸ ÑĩÐµÑģÐºÐ¸Ñħ
Ð¿Ð¾Ð» Ð½Ð¾Ð¼Ð¾Ñĩ
Ðĳ ÐµÐ»
ĠÐ½Ð°Ð±Ð»ÑİÐ´ ÐµÐ½Ð¸Ñı
ĠÐ§Ð° ÑģÑĤÐ¾
ĠÐ¡Ð¼Ð¾Ð» ÐµÐ½
oy al
ĠÐ¿Ð¾Ð»Ð¾ÑĤ ÐµÐ½
ĠÐ½Ð°ÑģÐ»Ð° Ð¶Ð´Ð°
Ġg iven
ĠÐ¼Ð¾Ð»Ð¾Ð´ Ð°Ñı
Ð»Ñİ Ñģ
a ff
ĠÐŁ Ð¾Ð´Ñĥ
ÐµÑĢ ÐºÑĥ
et h
ĠÐ²ÑĭÑģ ÑĪÐµÐ³Ð¾
ĠÐºÐ°Ð· Ð°Ð»ÑģÑı
Ġ4 7
ĠÐ¿ÑĢÐ¾Ð´Ð¾Ð»Ð¶ Ð°Ð»Ð¸
c hed
Ð¡ Ð£
ĠÐ½Ð°Ð· Ð²Ð°Ð»Ð¸
ĠÑĢÐ°ÑģÑģÐºÐ° Ð¶Ñĥ
ĠÑĪÐºÐ° ÑĦ
ĠÐºÑĥÑĩ Ñĥ
ĠÐ¾ÑģÐ¾Ð±Ñĭ Ñħ
ĠÐ³ÑĥÐ±ÐµÑĢÐ½Ð° ÑĤÐ¾ÑĢ
ĠÐ¥ Ð°Ð½
Ð²Ð¾ ÐµÐ¼
ĠÐ¾Ð¶Ð¸ Ð´Ð°Ñı
ĠÐ² ÑĤÐ¾ÑĢÐ¸
Ñį ÑĤÐ°Ð¶
ĠÑģÐ»Ð¾Ð² Ñĥ
ĠÐ½Ðµ ÐºÐ¸Ð¹
Ð¶ ÐµÐ½Ñĭ
ĠÐ¾ÑģÐ¾Ð± Ð¾Ðµ
ĠÐ³Ð¾ÑģÑĤ Ð¸Ð½Ð¾Ð¹
Ð´Ð° ÑĩÐ°
Ð¾ÐºÐ° Ð·Ð°
ĠÑģÐ½Ð° ÑĢÑıÐ´
ĠÑģÐ¾Ð² ÐµÑĤÑĭ
ĠÐ°Ð²ÑĤÐ¾Ð¼ Ð°ÑĤ
ĠÐ¾ÑĤÐº Ð»Ð¾Ð½
ĠÐ´Ð¾ÑħÐ¾Ð´ Ð¾Ð²
ĠÐ·Ð°ÑīÐ¸ ÑīÐ°ÑĤÑĮ
ĠÐ½ÐµÐ¶ ÐµÐ»Ð°
ĠÐ¿ÑĢÐ¸ ÑģÑı
Ġyou ng
b e
ĠÐ¡Ð¿Ðµ ÑĨÐ¸Ð°Ð»Ð¸
ĠÐ¿ÑĢÐ°ÐºÑĤÐ¸ ÐºÐ°
Ġm illion
ĠÐ¿Ð¾Ð¼Ð¾Ð³Ð° ÑİÑĤ
Ð²Ð¸ Ðµ
ĠÐ¿ÑĢÐ¾Ð±Ð»ÐµÐ¼ Ð¾Ð¹
ÂłÐ¢ Ð¾Ð³Ð´Ð°
ĠÐ¿ÑĢÐ¾ÑĦ Ð¸Ð»ÑĮ
ĠÐ·Ð°Ð±Ñĭ Ð»Ð°
e ad
ĠÐ¿Ð»Ð¾ÑīÐ°Ð´ ÐºÐ¸
ĠÐ½ÐµÑģ ÑĩÐ°
ĠÐºÑĢÐ°ÑģÐ¸ Ð²ÑĭÐµ
at ch
ĠÐķÐºÐ°ÑĤÐµÑĢÐ¸ Ð½Ð°
ĠÐºÐ¾Ð½ Ð³
ĠÐ¿Ð¾ÑģÐ»ÐµÐ´ Ð½ÑıÑı
ĠÐ§ ÐµÑĢÑĤ
ĠÐ³Ð¾ÑĤÐ¾Ð² Ð¸ÑĤÑĮ
ĠÑĥÐ±ÐµÐ´Ð¸ ÑĤÑĮÑģÑı
ĠÐ¿ÐµÑĢÐµ ÑĪÐµÐ»
ĠÑĥ ÑģÐºÐ¾ÑĢ
ĠÐ¿ÑĢÐ¾Ð² Ð¾ÐºÐ°
Ð½Ð¾Ð¼ Ð¾ÑĢ
ĠÐºÑĢÐ°ÑģÐ¸ Ð²Ð°Ñı
ĠÑĢÐ°Ð·Ð¼ÐµÑĢ Ñĭ
ÑĢÐ¸ Ðµ
ĠÐ²ÑģÑĤÑĥÐ¿ Ð¸Ð»
ĠÐ¾ÑĢÐ³Ð°Ð½Ð¸Ð·Ð° ÑĨÐ¸Ñİ
ÑĪ ÑĥÐ¼
ĠÐ¦ Ð²ÐµÑĤ
ĠÑģÐ¾Ð¾ÑĤÐ²ÐµÑĤÑģÑĤÐ² ÑĥÑİÑīÐ¸Ðµ
ÑģÐ¿ Ð¾ÑĢÑĤÐ°
ĠÑįÐ»ÑĮ ÑĦ
t a
ĠÑģÑĤÐ°Ð½Ð¾Ð² Ð¸Ð»Ð¾ÑģÑĮ
ÑģÐ¾Ð² ÐµÑĤÐ°
ĠÑĦÑĥÑĤÐ± Ð¾Ð»Ñĥ
ĠÐ±Ð¾Ð»ÑĮÑĪÐµ Ð²Ð¸
ĠÑĢÐµÐ»Ð¸ Ð³Ð¸Ð¸
ĠÑĤÐ°Ð± Ð»ÐµÑĤ
P h
Ð°Ð»Ð° Ð¹
ĠÐ¼Ð°Ð³ Ð½Ð¸ÑĤ
ĠÐ± ÑĢÐ¾ÑģÐ¸Ð»Ð°
ĠÑĢÐ°Ð±Ð¾ ÑĩÐµÐ¹
ĠÑıÐ·Ñĭ ÐºÐ¾Ð²
Ġc r
ÑĥÑĤ Ñĭ
ĠÐ¡ ÑĥÐ¼
ĠÐ²Ñĭ Ð»Ð¾Ð¶
ÑĦ Ð¸Ð»
Ð°Ð» ÐµÐ½
ĠÐ±Ð¾ ÑıÑĤÑĮÑģÑı
Ð¾Ñģ Ñĭ
ÐĹ Ð½Ð°
ĠÐ¿ÑĢÐ¸Ð² ÑıÐ·
ĠÑģÐ¾Ð±Ð¸ÑĢÐ° ÑİÑĤÑģÑı
ĠÐļÐ¸ÑĤÐ° Ðµ
ĠÐ¿ÐµÑĢÐµ ÑĩÐ¸ÑģÐ»
ĠÑģÑĤÐ¾ ÑıÐ½
ĠÐ¼ÐµÐ½Ñı ÐµÑĤÑģÑı
ĠÐ¸Ð½Ð¸ÑĨÐ¸Ð° ÑĤÐ¸Ð²
Ñį ÑĦ
ĠQ u
ĠÐ´Ð¾ÑģÑĤÐ°Ð² ÐºÐ¸
ĠÑĢÐµ Ð³Ð»Ð°
ĠÐĴÐ¾Ð· Ð¼Ð¾Ð¶
ĠÑįÐ»ÐµÐºÑĤÑĢÐ¾ ÑįÐ½ÐµÑĢ
ĠÑħÑĥÐ´Ð¾Ð¶ Ð½Ð¸ÐºÐ°
ĠÐ· Ð¾
ĠÐĳÐµÐ»Ð¾ÑĢÑĥÑģ ÑģÐ¸Ð¸
ĠÐ¿ÐµÑĢÐ² ÐµÐ½
ĠÐ²ÐµÑĢ ÑĤÐ¾Ð»
Ð½ ÐµÐ½Ð°
ÐµÐ· Ð»Ð¸
ĠÐ½ÐµÐ¼ÐµÑĨ ÐºÐ¸Ñħ
ĠÐ°ÑįÑĢÐ¾Ð¿ Ð¾ÑĢÑĤÐ°
ĠÐ¾Ð¿ÑĢÐµÐ´ÐµÐ» ÐµÐ½Ð¸Ðµ
Ð»Ð° ÑĤÑĮ
ĠÐ´ ÐµÐ·
ÐµÐ·Ð¶Ð° ÐµÑĤ
ÑģÐµÑĢ Ð¾ÑģÑģÐ¸Ð¹
du ct
ÑģÑĤÑĢÐµ Ð»
ĠT witter
Ġg reat
ur ther
Ġ198 5
ĠÐ³Ð¾ÑģÐ¿ Ð¾Ð´Ð°
ĠÑĥÑĩÐ°ÑģÑĤ ÐºÐ¾Ð²
ĠÐĶÐ¼Ð¸ÑĤ ÑĢÐ¸Ñı
ĠÑģÑĩÐ¸ÑĤ Ð°Ñı
ĠÐ¿Ð¾Ñģ ÑĭÐ»
Ġorig in
ĠÐºÐ¾Ð½ÑĤÑĢÐ¾Ð»Ð¸ ÑĢÐ¾Ð²Ð°ÑĤÑĮ
Ð¶ Ð½Ð¾ÑģÑĤÑĮ
ĠÑĥÐ´Ð° ÑĢÑĭ
ĠÐ²ÐµÑĢ ÑħÐ¾Ð²
ĠÑĨÐ¸ÑĦ ÑĢÑĭ
or ies
ĠÑģÐ»Ð°Ð² ÑıÐ½
Ð¾Ð² Ð°Ð»Ð°ÑģÑĮ
ĠÑģÐ¼Ð¾ÑĤ ÑĢÑİ
ĠÐ¸Ð· Ð½ÑĥÑĤÑĢÐ¸
ĠÑģÐ¾Ð±ÑģÑĤÐ²ÐµÐ½ Ð½ÑĭÐ¼
ĠÑĢÐµÐ°Ðº ÑĨÐ¸Ñı
ĠÐ¿Ð¾Ð¼ ÐµÐ½
ĠÐ¯ ÑĢ
ÐĴ Ð¾Ð»
ĠÐł ÐµÐº
ĠÑģÐ²ÑıÑĤ Ð¾Ð³Ð¾
Ġh owever
ĠÐºÐ¾Ð¼Ð°Ð½Ð´ Ð¾Ð¹
ĠÐ²Ð¾Ð·Ð½Ð¸ÐºÐ° ÑİÑĤ
ĠÐĿÐ° ÑģÐºÐ¾Ð»ÑĮÐºÐ¾
Ð¶Ð¸ Ð½Ñĭ
ĠÐ¿Ð¾Ð»ÑĮÐ·Ð¾Ð²Ð° ÑĤÐµÐ»Ñı
ĠÐ³ ÑĥÐ´
ĠÐ¿ÐµÑĢÐµ Ð»Ð¾Ð¼
ĠÐ¸ÑģÑģÐ»ÐµÐ´ Ð¾Ð²Ð°ÑĤÐµÐ»ÑĮ
ĠÐ¾ÑĤÐ¼Ðµ ÑĩÐ°ÑİÑĤ
Ð¾Ð»Ð¾Ð³Ð¸ ÑĩÐµÑģÐºÐ¸Ð¹
ĠÐ¿Ð¾Ðº Ð¸
ĠÑĦÑĢÐ°Ð½ ÑĨÑĥ
ĠÑģÐ¾Ð±Ð¸ÑĢÐ° Ð»Ð°ÑģÑĮ
ĠÐ½Ð° ÑĢÑıÐ´
Ð³Ð° ÑĤÑĮÑģÑı
Ġt w
ĠÐºÐ¾Ð¼Ð¼ÐµÐ½ÑĤÐ° ÑĢÐ¸ÐµÐ²
ĠÐļÐ°Ð·Ð°Ñħ ÑģÑĤÐ°Ð½
Ðĵ ÐĲ
Ð²Ð° Ð½Ñĭ
Ġin it
ĠÐ¿ÑĢÐ¸ÑģÑĤ Ð°Ð»ÑĮÐ½Ð¾
ĠÐĶ ÐµÑĤÐ¸
ĠÑĤÑĥÐ¼ Ð°Ð½
ĠÐ¾Ð¿ÐµÑĢÐ° ÑĨÐ¸Ñı
ÑĢÐ¸ Ð»Ð¸ÑģÑĮ
ĠÑĤÐ¾ÑĢÐ³ Ð¾Ð²ÑĭÑħ
ĠÐ¿Ð¾Ð·Ð¸ ÑĨÐ¸Ð¹
201 0
Ð¾Ð³Ð¸ Ð¼Ð¸
Ð½Ð¸ÑĨÐ° Ð¼Ð¸
M S
ĠÐ½Ð°ÐºÐ°Ð·Ð° Ð½Ð¸Ñı
ĠÐ¾Ðº ÑĢÐµ
ÑĥÑī ÐµÐ¹
ĠÐ¿Ð°Ð»ÑĮ ÑĤÐ¾
ĠÑĦÐ¸Ð½Ð°Ð½ÑģÐ¾Ð² Ð¾Ð¹
ÑģÐ»Ñĥ ÑĪÐ°ÑĤÑĮ
ĠÐ¼ Ð¾Ð»Ðµ
Ġ0 9
ĠÐ½Ð°ÑģÑĤÑĥÐ¿ Ð»ÐµÐ½Ð¸Ðµ
ĠÑĥÐ¿ÑĢÐ°Ð¶ Ð½ÐµÐ½Ð¸Ñı
ĠÐ½ÐµÐ±Ð¾Ð»ÑĮÑĪ ÑĥÑİ
ĠÐ¾Ð±ÑĢÐ° Ð·Ð°
ĠÐ²Ð¾Ð» Ð½Ð¾Ð²
ĠÑĥÑĩÐ¸ÑĤ ÑĭÐ²Ð°ÑĤÑĮ
ĠÐĵÐµÑĢÐ¼Ð° Ð½Ð¸Ñı
ĠÐ¸Ð· Ð¾Ð±ÑĢÐ°Ð·
Ð±Ð¾ ÑĢÐ¾
ÑĦ ÐµÑĤ
ĠÑĨÐ¸ÑĤÐ¸ ÑĢÑĥÐµÑĤ
av y
ĠÐ¿Ð¾Ð»Ð¾Ð¶ ÐµÐ½Ð¾
ĠÐ¾Ð± Ð¾ÑģÐ½Ð¾Ð²
ĠÑĢÐ°Ð· Ð³Ð»ÑıÐ´
ĠÐµÐ´Ð¸Ð½ ÑģÑĤÐ²ÐµÐ½Ð½Ð¾Ðµ
ĠÐĽÐ¸ ÑĨÐ¾
Ġ5 8
Ð¡Ðµ Ð³Ð¾Ð´Ð½Ñı
ĠÐµ Ð³Ð¸
ĠÐ¿ÑĢÐµÐ´ÑģÑĤÐ°Ð² Ð¸Ð»
Ñģ Ð¸Ð¼
ĠÐºÑĢÐ¸ ÑĤÐµÑĢÐ¸
ĠÐļÐ°Ð»Ð¸ Ð½Ð¸Ð½
Ġb re
Ðº ÑĤÐ¾
ĠÑĩÐ¸ ÑģÑĤÐ¾Ð¹
ĠÐ¿ÑĢÐ¸ ÑĩÐ¸
ĠÐ´Ð¾Ð¿Ñĥ ÑģÑĤÐ¸ÑĤÑĮ
ĠÑģÑĤÑĢÐµ Ð»ÑıÑĤÑĮ
Ð² ÑıÑĤ
ĠÐ½Ð°Ð¿ÑĢÑı Ð¶ÐµÐ½Ð¸Ðµ
ĠÐĴÐ° ÑĪÐ°
or ge
ĠÑģ Ð°Ð»Ð¾
ÐĻÐ¾ÑĢ Ðº
ĠÑįÐºÐ¾Ð½Ð¾Ð¼Ð¸ÑĩÐµÑģÐº Ð¸Ñħ
ĠÐ± Ð¾Ð»Ð¾
ĠÐ£ Ð²Ð¸
ĠÑĢÐ°ÑģÐ¿Ð¾Ð»Ð¾Ð¶ ÐµÐ½Ñĭ
ĠÑĪÐ¸ÑĢÐ¾Ðº Ð¾Ð¹
ĠÐĺÐ¸Ñģ ÑĥÑģ
ĠÐ¿ÑĢÐ¸ Ð¼ÐµÐ½Ð¸
ÐµÐ· ÑĤÐ¸
ÑģÑĤ ÑĢÐ¸Ð¹
ĠÐ¿Ð¾Ð´Ð¾Ð± ÑĢÐ°ÑĤÑĮ
ec ut
ĠÐ² Ð¿ÐµÑĢ
ĠÐ¿Ð¾Ð»Ð¸ ÑĨÐ¸Ñİ
Ð¾Ð½Ð° Ð½
ĠÐ¾Ð±Ðµ Ð´Ð°
Ġn ext
ĠÐ´Ð¸ Ð²Ð°Ð½
min ist
ĠÐĺ ÐµÑĢÑĥÑģÐ°Ð»
ÑĢÐ¾Ð²Ð°Ð½ Ð½ÑĥÑİ
ÑĦ Ð¾Ð½Ð°
ĠÐ¿ÑĢÐ¾ÐµÐº ÑĤÑĥ
ĠÐ¿ÐµÑĢÑģÐ¾Ð½ Ð°Ð»Ð°
ĠÐŀÑģÑĤ Ð°Ð»ÑĮÐ½ÑĭÐµ
ĠÐ½ÐµÐ´Ð¾ ÑĥÐ¼
ĠÐºÐ°Ð¿ ÐµÐ»ÑĮ
ĠÐ¿Ð¾Ð»Ð¾Ð¶ Ð¸ÑĤÑĮ
Ð¿ ÐºÑĥ
ĠÐ½ÐµÐ±Ð¾Ð»ÑĮ ÑĪÐ°Ñı
ĠÐ¼ÑĭÑĪ ÑĨÑĭ
ĠÑģÐ¾Ð± Ð¾Ñİ
Ð¸ Ð½Ð°Ñı
ĠÐ¾ÐºÐ¾Ð½ ÑĩÐ¸Ð»
ĠÑģÐµÐ² ÐµÑĢÐµ
ĠÑģ Ð¶Ð°
ĠÐ¸ÑģÐº Ð°Ð»
Ġvar ious
ĠÐ²Ð¸Ð´ Ñı
ĠÐĴÐ¾ ÑģÑĤÐ¾ÐºÐµ
ĠÐ¡Ð¾ÑĤ ÑĢÑĥÐ´
Ġ[ ...]
ĠÐ·Ð½Ð° Ð½Ð¸Ðµ
ÑĢÐ¸ Ð½Ð¾Ð²
ĠÑģÐ¾Ð´ÐµÑĢ Ð¶Ð¸Ð¼
Ð³ Ð½ÑĥÐ»Ð°
ÐµÑĢÐµ ÑĤ
ĠÐĶÐ¶Ð¾ÑĢ Ð´Ð¶
ĠÑģÐ¾Ð¾Ð± ÑīÐµÑģÑĤÐ²Ð°
ĠÐ¸Ð½ÑĤÐµÑĢÐµÑģ Ð½ÑĭÐµ
Ġ( ,
ĠÐ½Ð°Ð²ÐµÑĢ Ð½Ð¾
ĠÑĥ Ð»ÐµÑĤ
ĠÐ² Ð±Ð»Ð¸Ð·Ð¸
ĠÐ¿Ð¾ÑĤÐ¾Ð» Ð¾Ðº
ĠÑģÑĤÑĭ Ð´Ð½Ð¾
ĠÑİ Ð³Ðµ
ĠÐ´Ð²ÐµÐ½Ð° Ð´ÑĨÐ°ÑĤÑĮ
ĠÐ¿Ð°ÑĢ ÑĤÐ¸Ñİ
ĠÐ¶ÑĥÑĢÐ½ Ð°Ð»Ðµ
ÑĨÐ¸ Ð½Ñĭ
ĠÐ¿ÑĢÐ¾ÑħÐ¾Ð´ Ð¸ÑĤÑĮ
ĠÐ´ÑĥÐ¼Ð° ÑİÑĤ
et work
ĠÐºÐ»Ð°Ñģ ÑģÐ¾Ð²
ĠÐ´ÐµÑĤ Ð°Ð»ÐµÐ¹
ĠÐ¿ÑĢÐ¾Ð´ÑĥÐº ÑĨÐ¸Ñİ
ĠÐ¿ÑĢÐ¾Ð½ Ð·
Ġc over
Ð»Ð¾ Ð½Ð°
ĠÐ¡ÐµÐ² ÐµÑĢÐ¾
ĠÐ¿ÑĢÐ¾Ñģ Ð²ÐµÑĤ
ĠÑģ Ð°ÑĢÐ°
Ġpro cess
ĠÐ²Ð¾ÑģÑģÑĤÐ°Ð½Ð¾Ð² Ð»ÐµÐ½Ð¸Ñı
ÑģÐµÐºÑĢÐµÑĤÐ° ÑĢÑĮ
ĠÐ²ÑģÐµÑĢ ÑĮÐµÐ·
ÑģÐºÐ° Ð¶Ð¸ÑĤÐµ
ĠÐºÐ¾Ð»Ð¾ Ð½Ð¸Ð¸
oci ety
ĠÐ²ÑģÑĤÑĢÐµ ÑĩÐ°ÐµÑĤÑģÑı
ÑĤÐµÐ»ÑĮ Ð½ÑĭÐ¼Ð¸
ac es
ĠÐ²Ð¾Ñģ ÑģÑĤÐ°Ð½Ð°Ð²Ð»Ð¸
ĠÑĤ ÑıÐ½
ĠÐĵÑĢÑĥ Ð·Ð¸Ð¸
ĠÐ²ÑĭÑĢÐ° ÑīÐ¸
ĠÐ²Ð½ÐµÑĪ Ð½Ð¸Ð¹
ĠÐĶÐ¾Ðº ÑĤÐ¾ÑĢ
ĠÑģÐµ ÑģÑĤÑĮ
ĠÐ¾ÑĤ Ð²ÑĢÐ°
ĠÐ´Ð¸Ð° Ð¿Ð°
ĠÑĤÐµÐ°ÑĤ ÑĢÐµ
ĠÐ·Ð°ÐºÑĢÑĭ ÑĤÑĮ
ĠÐ¼Ð¾Ð´ Ð¸
Ð¢ Ð°Ð¼
op s
Ðĵ Ðĳ
ĠÐµÐ´Ð¸Ð½ ÑģÑĤÐ²ÐµÐ½Ð½Ð°Ñı
ĠÐ¿ÑĢÐ°ÐºÑĤÐ¸ ÐºÑĥ
as es
ap p
ĠÐ¼Ð°Ð» Ð¾Ð³Ð¾
ĠÐŀÑĩÐµ Ð²Ð¸Ð´Ð½Ð¾
ĠÐ¸Ð³ÑĢÐ° ÑİÑĤ
Ð½Ñĥ ÑĤÐ°
ĠÐĽ Ð¾Ð½
ĠÑĥ Ð»Ð¾Ð¶
ĠÐ¼ÑĥÐ½Ð¸ÑĨÐ¸Ð¿ Ð°Ð»ÑĮÐ½Ð¾Ð³Ð¾
ĠÐ±ÑĢÐ¸Ð³Ð° Ð´Ñĭ
Ð¿ÑĢÐ¾ ÑĤÐ¸Ð²
Ñĥ Ð»Ð°
ĠÐ¿Ð¾ÑģÐµÑĤ Ð¸ÑĤÑĮ
ĠÑĢ ÑĤÑĥ
Ñĥ ÑİÑĤÑģÑı
ĠÐ¥ Ð°Ð±
ĠÐ¸Ñī ÐµÑĤ
ĠÑĥ ÑģÑĤÑĥÐ¿Ð°
ĠÑĢ ÑİÐº
ĠÑĥ Ð²Ðµ
ĠÐ¿Ð¾Ð»Ð¸ÑĤÐ¸ÑĩÐµÑģÐº Ð¸Ðµ
ĠÐ² ÑĢÐµÐ´Ð°
ĠÐ¿ Ð¸Ð»Ð¾
ĠÐ´ÐµÑĤ ÑģÐºÐ¾Ð³Ð¾
Ðº Ð»Ð°Ñģ
ĠÐ¼Ð¾Ð½ ÑĤÐ°
ĠÐ¿Ð¾Ñģ Ð¼Ðµ
Ġim p
Ð½Ð¸ Ð½Ñĥ
ĠÐ²ÑģÐº ÑĢÑĭ
Ġpop ular
ĠÐ¼Ð° ÑħÐ½ÑĥÐ»
Ġspec ies
re m
ĠÐ¿ÑĢÐ¾ ÑģÐ¸
ĠÐ± Ð¾Ñģ
ĠÐ¾Ñģ ÐµÐ½
ĠÐ½Ð°ÑĥÑĩ Ð½Ð¾Ð¹
ĠÑģÐ²Ð° Ð´ÐµÐ±
ĠÐ¾ÑģÑĤÐ°Ð² Ð°Ð»Ð¸ÑģÑĮ
ĠÐ¿Ð°Ð»Ð° ÑĤÑĭ
5 00
Ġv ol
ĠÑĥÐ»Ð¸ ÑĨÐ°Ñħ
ĠÑģÑĥÐ´ ÑĮÑı
ĠÐ·ÐµÐ¼ Ð»ÐµÐ¹
ĠÑģ ÑĢÐ¾
ĠÐ¼ Ð°Ð·
ĠÐĵ Ð°Ð½
ÐĲ Ðļ
Ð¸Ð½Ñĥ Ð²
ĠÑĥÐ·Ð½Ð° ÐµÑĤ
ĠÐ¿ÑĢÐµÐ´ÑģÑĤÐ°Ð² Ð¸ÑĤÐµÐ»ÑıÐ¼Ð¸
Ð²Ð° Ð¶Ð½Ð¾
ĠÑįÑĦÑĦÐµÐºÑĤÐ¸Ð² Ð½Ð¾ÑģÑĤÑĮ
ĠÑĥÐ»ÑĭÐ± Ð°ÑıÑģÑĮ
ĠÐ·Ð°Ð³ ÑĢÑıÐ·
ĠÑĥÑģÑĤÐ°Ð² Ð¸Ð»ÑģÑı
ĠÐ¸Ð·Ð³Ð¾ÑĤÐ¾Ð² Ð»ÐµÐ½Ð¸Ñı
ĠÐ¿Ð¾ ÑĪÐ»Ð¾
ĠÐºÐ¾Ð¼Ð¼Ñĥ Ð½
ĠÐ½ Ð¾Ð¼Ð¸Ð½Ð°
ĠÑĢÐµÑģÐ¿ÑĥÐ±Ð»Ð¸ ÐºÐ°Ð½
ĠÑģÐ¾Ð²ÐµÑĤ ÑģÐºÐ¸Ð¹
ÑĥÐ´ Ð¸ÑĤÑĮ
ĠÐ³ÑĢÐ° Ð¼
ĠÐ½ÐµÑģÐ¿ ÑĢÐ°Ð²
ĠÐķÐ»Ð¸ Ð·Ð°
ĠÐ· Ð»Ð¾Ð²
ÐµÑĢÐ±Ð°Ð¹ Ð´Ð¶
ĠÐŀÐ±Ñı Ð·Ð°
ĠÐĴ Ð¾Ð½
ÑİÑīÐ¸Ð¼Ð¸ ÑģÑı
ĠÐº Ð°Ð»ÑĮ
ĠÐ½Ð°Ð¼ ÐµÑĢÐµ
ÑĦÐ¸ÐºÐ° ÑĨÐ¸Ñı
Ð½Ð° ÑĢÑĥ
ĠÑĢÐ°Ð· Ð²Ð°Ð»Ð¸
ĠÐ¢ ÑĢÐ°Ð¼
ĠÑģÐ¾Ð¿ÑĢÐ¾Ð² Ð¾Ð¶Ð´
Ġt ake
Ð°Ð¼ ÑıÑĤ
ĠÐ¼Ð¾ Ñĳ
ĠÑıÐ² Ð¸Ð»ÑģÑı
ÑģÐº ÐµÑĤ
Ð´Ðµ ÑĪ
ĠÑģÑĢÐµÐ´ Ð½ÐµÐ²ÐµÐº
ĠÐºÐ° Ñģ
ĠÑģÑĭ Ð½Ñĥ
ĠÐ²Ð°Ð¶ Ð½ÑĭÐ¹
Ð´Ð¸Ð½ Ð³
ĠÐ³ÑĥÐ±ÐµÑĢ Ð½Ð¸Ð¸
ĠÐ·Ð°Ð±ÑĢÐ° ÑĤÑĮ
ÐµÐ½ ÐºÐ°
ĠÐ¼Ð°Ñģ ÑģÐ¾Ð²Ð¾Ð¹
ĠÐĴÐ°Ð»Ðµ ÑĢÐ¸Ð¹
ĠÐ´ÐµÑģ Ð°Ð½ÑĤ
ĠÐ¾ÑĤÐº Ð»Ð¸Ðº
ĠÐ²ÑĭÑģ Ð¾
Ñģ ÑĢÐ¾
Ñı Ð¹
ĠÐĹÐ° Ð¿Ð°Ð´Ð°
ĠÐŁÐµÑĢ Ð²Ð¾Ð¹
Ð± Ð¸Ð¹
ĠÑĢÐµÐ° Ð±Ð¸Ð»Ð¸
ĠÐĴÐµÑĢ Ñħ
ĠÐ³ Ð¾Ð²
ÑĤÑı Ð±ÑĢÑĮ
ĠÐ¸Ð·Ð²ÐµÑģÑĤ Ð½ÑĭÐµ
ĠÐķÐ²ÑĢÐ¾Ð¿ Ñĥ
ĠÑģÑĤÐ° ÑĢÐ°Ñı
ĠÑĥÐ±Ðµ Ð¶Ð¸
ĠÐ´Ðµ ÑĦÐ¸ÑĨ
ĠÑĪ Ð»ÐµÐ¼
ĠÐ¿Ð¸ Ð²Ð°
ĠÐ³Ð¾ÑĤÐ¾Ð² Ð½Ð¾ÑģÑĤÐ¸
ĠÐºÑĢÑĥÐ³ Ñĥ
ĠP er
ĠÑĩ ÐµÐ¹
ĠÑĥ ÑĢÐ°Ð²
ĠÑĩ Ð°Ñı
ĠÑĢÑĭ ÑĩÐ°
ĠÑģÐ¾ ÑģÑĤÐ°Ð²Ð¸ÑĤÑĮ
Ġin fl
M A
ĠÑģÑĤÐ°Ð² ÐºÐ¸
ĠÐ¸Ð½ÑģÑĤÑĢÑĥ Ð¼ÐµÐ½ÑĤÐ°
ĠÐ¸Ð¼Ð¿ Ð¾ÑĢÑĤ
Ð»Ñĭ Ð±
ĠÐ¿Ð¾Ð´Ð³Ð¾ÑĤÐ¾Ð² ÐºÑĥ
ĠÐĵ ÑĢÐ°Ð½
ĠÑĤÐ° ÑĤÐ°ÑĢ
ĠÐ¿ÑĢÐ¾ÑĤÑı Ð½ÑĥÐ»Ð°
ĠÐ§ ÐµÑĤ
Ð²Ð°ÐµÐ¼ ÑĭÐµ
ĠÐ²Ñĭ Ð²ÐµÐ´
ĠÐ¿ÑĢÐ¾ ÑģÐ¸ÑĤÑĮ
ĠÑĢÐ°ÑģÑģ Ð²ÐµÑĤ
ÑĤÑĥ Ð·Ð¸
ĠÑģÐ´ÐµÐ»Ð° Ñİ
ĠÑįÑĤÐ° Ð¶Ð°
ĠÑĤÑĢÑĥÐ´ Ð½Ð¾ÑģÑĤÐ¸
Ð½Ð¸ ÑģÑĮ
ĠÑģÐ¸Ð» Ðµ
ĠÑĥÑĤÐ²ÐµÑĢ Ð¶Ð´Ð°ÑİÑĤ
ĠÐĺÐ·ÑĢÐ° Ð¸Ð»Ñı
ĠÐ¿ÑĢÐ¸Ð¾ÑĢÐ¸ ÑĤÐµÑĤ
ĠÐ»Ð¸ÐºÐ²Ð¸ Ð´Ð¸
ĠÐ½ÐµÐ´Ð¾ÑģÑĤÐ° ÑĤÐ¾Ñĩ
ĠÑĩÐµÑĢ Ð½ÑĭÑħ
ĠÐ¿Ð¾Ð»ÑĥÑĩÐ¸ Ð²
ĠÐ²Ð¾Ð·Ð²ÑĢÐ° ÑīÐ°ÐµÑĤÑģÑı
ĠÑĤÐµÐº ÑģÑĤÐµ
ĠÐ³Ð½Ðµ Ð·
ĠÐ²ÐµÑĢ ÑģÐ¸Ñİ
F A
Âł ÑĤ
ĠÐ¿Ð¾ÑĤÐµÑĢ ÑıÐ»Ð¸
ac hed
ĠÐ¼ÐµÐ´Ð¸ÑĨÐ¸Ð½ ÑģÐºÐ¸Ñħ
ĠÐ½ÐµÑĥÐ´ Ð¾Ð±
ĠÐ¿ÑĢÐµÐºÑĢÐ° ÑĤÐ¸ÑĤÑĮ
Ġa ward
ÑĢÐ¾Ð² Ð¾
ĠÐ£ Ð¾Ð»
ĠÐ¿ÐµÐ¹ Ð·Ð°
Ġact iv
ĠÐ¿ÑĢÐ°Ð·Ð´ Ð½Ð¸ÐºÐ°
ĠÐľ ÑĥÑħ
ĠÐ¸Ð¼Ñĥ ÑīÐµ
ĠÐ¾ÑĤÐ¼ÐµÑĤ Ð¸Ð»Ð¸
ĠÑĪÐ°Ð½ ÑģÑĭ
ĠÐµÐ¶Ðµ Ð³Ð¾Ð´Ð½Ð¾
ĠÐ¶Ð¸Ð² Ñĥ
ĠÐ¿Ð¾ÐºÐ°Ð·Ð° ÑĤÐµÐ»Ð¸
ÑİÑīÑĥÑİ ÑģÑı
ĠÑĪÐµ Ð²
ĠÐ¾Ð±Ð¸ÑĤ Ð°ÑĤ
ĠÐ´Ð¾Ð» Ð³Ð°
ÑģÐºÐ° ÐµÑĤ
ĠÐĽÐ¸ Ð³Ð¸
ĠÐ¿ÑĢÐ¾Ð³ Ð½
ĠÐ²Ð»Ð¸Ñı ÐµÑĤ
Ð²Ð¾Ð»ÑĮ ÑĤÐµ
9 6
Ð½Ð° ÑĤÐ°
ĠÐ²Ð¾Ð·Ð´ÐµÐ¹ÑģÑĤÐ² Ð¸Ðµ
ÑģÐºÐ° Ð·Ð°ÑĤÑĮ
ĠÐ°Ð² ÑĤÐ¾ÑĢÑĭ
ĠÐ½Ðµ Ð²ÐµÐ´Ð¾Ð¼
ĠÑģÐ¾Ð²ÐµÑĤ ÑģÐºÐ¾Ð³Ð¾
n ey
ĠÐ¿ÑĢÐ¸ ÑģÑĤÐ°Ð²
ĠÑĩÐµÐ»Ð¾Ð²ÐµÐº Ðµ
ĠÐ³Ð¾ÑĢ Ð¾Ð¶
ĠÐ¡ Ð¾ÑĢ
Ã ©
ÑģÐ»Ð° Ð²Ð°
ÑĤÐ¸ Ð»ÑĮ
ĠÐ¼Ð°Ð³Ð°Ð· Ð¸Ð½Ð¾Ð²
ĠÐ¸Ð· Ð¾Ð»Ñı
ĠÑĢÐµÐ³Ð¸Ð¾Ð½ Ð°Ð»ÑĮÐ½Ð¾Ð³Ð¾
ĠÐ¸Ð³ Ð½Ð¾ÑĢÐ¸
ĠÐ¾ÐºÑĢÑĥÐ¶Ð° ÑİÑīÐ¸Ñħ
ĠÐ§ ÑĥÐ²
Ġg l
ain t
ĠÑĥ ÑĢÐµÐ³ÑĥÐ»Ð¸
ĠÑĦ Ð»Ð°Ð½
ĠÐ¾ÑģÑĤÐ°Ð½Ð¾Ð² Ð¸Ð»Ð¸ÑģÑĮ
ÑĢÐµÑģ ÑģÐ¸Ð²
ĠÑįÐºÐ¾Ð½Ð¾Ð¼ Ð¸ÐºÐµ
ĠÐ¿ÑĢÐ¸Ñħ Ð¾Ð¶
ĠÐ·Ð°Ð´Ð° ÑĩÐµÐ¹
ĠÐ¿ÑĢÐ°Ð² Ñĭ
ĠÑĥ ÑĤÐ¾Ð¼
ĠÐ¿Ð¾Ð²Ð¾ ÑĢÐ¾
ĠÐ½Ðµ Ð²ÐµÑģÑĤ
ĠÐ½ÐµÐ¿ÑĢÐµ ÑĢÑĭÐ²
ĠÐ´ÐµÑĪÐµÐ² Ð»Ðµ
ĠÐ·Ð°Ñī Ð¸ÑĤÐ°
' t
ĠÐ¿Ð¾Ð» ÑĥÐ¿
ĠÑĤÐ¾Ð» Ðº
ĠÐ¿Ð°ÑĢ ÑĤÐ¸Ð·
ĠÐĴÐ° ÑĪÐµÐ³Ð¾
ÐľÐ¾ÑģÐº Ð²Ð°
ÑĤÐ° Ð²
ĠÐ¾Ð·Ð½Ð°ÐºÐ¾Ð¼ Ð¸ÑĤÑĮÑģÑı
ĠV ol
ĠÐ¿ Ð¸Ð²
ĠÑĥÑĩÐµÐ½Ð¸ ÐºÐ¾Ð²
Ð¿Ð° Ñı
ro te
ĠÐŀÐ³ ÑĢÐ¾Ð¼
Ð²Ð¸Ð´ÐµÑĤ ÐµÐ»ÑĮ
ĠÐ¿Ð¾Ñģ Ð»Ð°Ð½
ĠÐ½ÐµÐ±Ð¾Ð»ÑĮ ÑĪÐ¸Ñħ
ÑīÐ¸ Ð»Ð¸
ĠÐ¿Ð¾Ð´Ð°ÑĢ ÐºÐ¸
ĠÐ¡Ð²ÑıÑĤ Ð¾Ð³Ð¾
ĠÐ·Ð°Ð³ ÑĢÑĥÐ·
Ġpr im
ĠÐ¿Ð¾ÑģÐ¿Ðµ ÑĪÐ½Ð¾
ĠÐ»ÐµÐ³ ÐºÐ¾Ð¹
Ġf un
ĠÐ¿Ñĥ ÑģÑĤÐ¾Ð¹
ĠÐ¿ÑĢÐ¾Ð¼ Ñĭ
ĠÑģÑĤÑĥÐ´ Ð¸Ð¸
ĠÐºÐ°Ð½Ð´Ð¸Ð´Ð° ÑĤÐ¾Ð²
ĠÐ²Ð·Ð°Ð¸Ð¼Ð¾ Ð¾ÑĤÐ½Ð¾
ĠÐ¦ ÐµÐ½Ð°
ĠÐĶÐ¾Ð± ÑĢÑĭÐ¹
Ð½Ð¸ ÑĩÐµÑģÑĤÐ²Ð¾
ĠÐĿÐ¸ Ð¶Ðµ
ĠÐ¼Ð¸Ð»Ð»Ð¸Ð°ÑĢ Ð´Ð°
ĠÐ·Ð° Ð³Ð¾ÑĤÐ¾Ð²
Ð¾Ñģ Ð¿Ð¾Ð´
ĠÑĤÐµ ÑģÐ½Ð¾
ĠÐ¡ÑĤÐ° Ð½Ð¸
ĠÐ¼ÐµÑĩ ÑĤÑĭ
Ġplay er
ide o
ĠÐ¼ Ð¾ÑĤ
ĠÐ½Ð¾Ð²Ð¾ ÑģÑĤÑıÐ¼Ð¸
ÐµÑĤ ÑĢÐ¾Ð²
Ġh aving
ĠÐ¿Ðµ ÑĩÐ°ÑĤÑĮ
ĠÐĿÐ° Ð²
ĠÑĤÐ°Ð½ ÐºÐ¾Ð²
ÑįÐ½ Ð´
ĠÐ¾ÐºÐµ Ð°Ð½Ð°
ĠÐ² Ð°Ð½Ð½Ð¾Ð¹
ĠÐĺÐ½ÑĦÐ¾ÑĢÐ¼Ð° ÑĨÐ¸Ñı
ĠÐĿÐ¸ÐºÐ°Ðº Ð¸Ñħ
ÑģÐµ ÑĢÐ°
ĠÐĶ ÐµÐ¹
Ġspec ial
ĠÐ¿Ð¾ÑĢ ÑĤÑĥ
Ġ5 2
ĠÑģÑĤ ÐµÑĢ
ĠÑĦÐ°Ð¼Ð¸ Ð»Ð¸Ñı
ĠÑĥ ÑĢÐ°
ĠÐ¿Ð¸ ÑīÑĥ
Ġus ing
ĠÐ¾Ð±Ð¾Ð¹ÑĤÐ¸ ÑģÑĮ
ĠÐ¸ ÑĢ
ĠÐ¼Ð°ÑĤ ÑĩÐµÐ¹
ĠÐ¼ Ð¾Ð»Ð¸
ĠÐ¸Ð·Ð±Ð¸ ÑĢÐ°ÑĤ
ĠA ct
ĠÐ¿ÐµÑĢÐµÐ´ Ð²Ð¸Ð¶
ĠÐ¿ÑĢÐµÐ´ÑģÑĤÐ°Ð² Ð»ÐµÐ½
ĠÐ±Ð¾ÐµÐ² ÑĭÐµ
ĠÐ¾ÑĤÑģÑĤÐ°Ð² ÐºÑĥ
Ñĭ Ð²Ð°Ð»ÑģÑı
ĠÑĢÑĭ Ð½Ð¾
ĠÐºÐ¾Ð½ÑĤ ÐµÐ¹
ric k
9 2
Ñī ÑĳÐ½
ĠÐ±Ñİ ÑĢÐ¾
ĠÐ½ÐµÐ½ ÑĥÐ¶
ĠT imes
i us
ĠÑĤ Ñĳ
ÑĩÑĮ Ð¸
ĠÐºÑĢÑĥÐ³ Ð¾Ð¼
ĠÑĥ Ð»Ð¸Ñĩ
ĠÐ¿ÐµÑģ Ð½Ñı
Ð¼ Ð¾Ð³Ð¾
ĠÐ·Ð°ÑģÑĤÐ°Ð²Ð»Ñı ÐµÑĤ
ÑģÐ¸ Ð½Ñĭ
ĠÐ¿Ð¸ ÑĢ
ĠÐºÑĥÑĢ ÑģÑĭ
ĠÐ°ÑĤÐ¼Ð¾Ñģ ÑĦ
ĠÐ±Ð¾Ð³ Ð¾Ð²
Ð´Ð¸ Ð»Ð¸ÑģÑĮ
ĠÐ£ ÐºÐ°Ð·
ĠÑĤÑĢÐ° ÑĤÐ¸ÑĤÑĮ
ĠÐ¸Ð· Ð´Ðµ
ĠÐ¿Ð¾Ð½Ð¸Ð¼Ð° Ð½Ð¸Ñı
ĠR oman
ĠÑĢÐ°Ð· Ð½ÑĭÐ¼
Ġcl aim
ĠÐ¾ÑĦÐ¾ÑĢÐ¼ Ð»ÐµÐ½Ð¸Ñı
ĠÐ¿Ð¾Ð·Ð½Ð°ÐºÐ¾Ð¼ Ð¸ÑĤÑĮÑģÑı
ÑĢÐ¸ Ñħ
ĠÐ²ÑĭÑĢÐ°Ð· Ð¸Ð»
ĠÑĤ ÑĢÐ¾Ð¹
ĠÐ±ÐµÑģÐ¿ Ð¾Ð¼Ð¾Ñī
ĠÐ¿ÑĢÐ¸ ÑĢÐ¾Ð´Ð°
Ġw omen
ĠÐĴÑģ ÐµÐ»ÐµÐ½Ð½Ð¾Ð¹
ĠÐ¼Ð°ÑĤÐµÑĢÐ¸ Ð½
Ð»Ñı ÑĨÐ¸Ñı
ÑĤÐ¾ÑĢÐ° Ð¼
ĠÐ¾ÑĤÐºÑĢÑĭ Ð»Ð¸
ĠÐ¶ÑĥÑĢÐ½Ð°Ð»Ð¸ ÑģÑĤÐ°Ð¼
ĠÑĥÐ´Ð¾ ÑģÑĤÐ¾Ð²ÐµÑĢ
Ġ198 4
ĠÑģÑĥÐ¼ ÐºÑĥ
ĠÑģÐºÐ¾Ð½ ÑĩÐ°Ð»ÑģÑı
ĠÐ¼Ð°Ð» ÑĭÑĪÐ°
ĠÐľÑĥÐ¶ ÑĩÐ¸Ð½Ð°
ĠÐ¡ Ð»Ð¸ÑĪÐºÐ¾Ð¼
Ð±Ñı ÑĤÐ°
Ġcon f
ĠÐĽÐµ Ð³
ĠÐ²Ð¾Ð·Ð½Ð¸Ðº Ð½Ð¾Ð²ÐµÐ½Ð¸Ñı
c ast
Ðµ ÑĢÐ¸Ñı
ĠÐ² Ð¾Ð»ÑĮ
ĠÐĶ Ð¸Ðº
ĠÐºÐ»Ð°Ñģ ÑģÐµ
Ð± Ð¾Ð»Ð¸
ĠÐ²Ð½ÑĥÑĤÑĢÐµÐ½ Ð½Ð¸Ð¹
ĠÐ´Ð»Ð¸ Ð½Ð¾Ð¹
z a
Ġne ed
ÑĤÐ¸ Ð¼Ð¾
ĠÐºÐ¾Ð» Ð¾Ð½Ð¸
ÑĢÐ¸ ÐµÐ¼
her n
ĠÐ¿Ð° ÑģÐ¿Ð¾ÑĢÑĤ
ĠÑĦÐ¸Ð»ÑĮ Ð¼Ñĭ
ĠÐ° Ð´ÐµÐº
Ð´ Ð»Ð¾Ð²
Ð±ÑĥÑĢ Ð³Ðµ
ĠÐ¡Ð¸ÑģÑĤ ÐµÐ¼Ð°
Ð²Ð°Ð¹ ÑģÑı
ĠÑį Ð³Ð¾
t rue
ĠÑĤÐµÐ¼ Ð½ÑĭÐµ
ĠÐ¿Ð¾Ð» ÐµÑĤÐ°
ĠÐŁ ÑĢÐ¾Ð´Ð°
Ðĺ ÑģÐ»Ð°Ð¼
ĠÐŁÑĢÐµÐ·Ð¸Ð´ ÐµÐ½ÑĤÐ°
ĠÐľ ÐµÐ»ÑĮ
ĠÐ½Ð°Ñĩ Ð½ÑĥÑĤ
ĠÐ³ Ð»Ñĥ
ĠÑħÐ¾Ð´ Ð¸ÑĤ
o o
ĠÐļÐ°Ð² ÐºÐ°Ð·
Ð± ÑĥÐ½
ÐŁ Ð¾ÐºÐ°
ÑĢÐµ Ñı
ĠÑĥÐ± ÑĢÐ°ÑĤÑĮ
ÑĢÐ¸ Ð°Ð½
ĠÐ·Ð° Ð½Ð°
ĠÑĤÐ¾ ÑĩÐºÐ°
ĠÐ½Ð°ÑĢÐ¾Ð´ Ð½Ð¾Ð¹
n ing
Ñĩ Ð½Ñĭ
ĠÐļÐ¾Ð»Ð¸ ÑĩÐµÑģÑĤÐ²Ð¾
ĠÐ¿Ð¾Ð´ÑĬ ÐµÐ¼
ĠÐł ÑĥÐ´
ĠÐ¿Ð¾Ð¿ ÐµÑĢÐµ
ĠÐ²Ðµ ÑĢÐ¸Ð»
ĠÐ»Ð¸ ÑģÑĤÑĮÑı
ĠÐĴÐ¾ ÑģÑĤÐ¾ÐºÐ°
ĠÐ¿Ð¾Ð»Ð¾Ð² Ð¸Ð½Ð¾Ð¹
ĠÐº Ð¾Ð¹
ab or
ĠÐ¢Ð¾Ð¼ Ð°Ñģ
ĠÑĥÐºÐ°Ð· ÑĭÐ²Ð°ÐµÑĤ
ÑĢÐµ Ð»Ð¾
Ð¢ Ðĺ
Ġ198 2
ĠÑģÐ¼ ÑıÐ³
ĠÐ¿Ð¾Ð±Ðµ Ð´Ð°
ĠÐ¼Ð¾Ñī Ð½Ð¾ÑģÑĤÐ¸
ĠÐ¾Ð± Ð»
ĠÐļÐ° Ð·Ð°
ĠÑĢÐµÐ¹ ÑĤÐ¸Ð½Ð³
Ð¡ ÐµÑĢ
Ġgener al
ĠÑģÑĤÑĢÐ°Ð½ Ð½ÑĭÐ¼
it or
ĠÑĢÐ°ÑģÑģÑĩÐ¸ÑĤ ÑĭÐ²Ð°ÑĤÑĮ
ĠÐĲÐ»ÐµÐºÑģÐ°Ð½Ð´ ÑĢÐ¾Ð²Ð¸Ñĩ
ĠÐ²Ð·Ð³Ð»Ñı Ð½ÑĥÐ»Ð°
ĠApp le
ĠÑįÑĤÐ° Ð¿Ð°
ĠÐĿ Ð¾Ð²Ð°Ñı
ĠÐºÐ»Ð¸ Ð½Ð¸
ĠCh ampionship
ÑĨÐ¸Ð¾Ð½ ÐµÑĢÐ¾Ð²
ĠÐĶÐ¾Ð½ÐµÑĨ ÐºÐ¾Ð¹
ĠÐŀÐ± ÑīÐµ
ĠÐ² Ð¾Ð¶
ÑĤÐ¸ ÑĢÐ¾Ð²Ð°Ð»
ĠÐ¿ÑĢÐµÐ¸Ð¼ÑĥÑīÐµ ÑģÑĤÐ²Ð¾
ĠÐ¾Ñħ Ð»Ð°
ĠÐ³ Ð°Ð¼
ĠÐ¾Ð± ÑıÐ·
Ð¾Ð´ÐµÑĢ Ð¶Ð°
ĠD ep
ĠÐ²ÑģÑĤÑĢÐµ ÑĤÐ¸Ð»Ð¸ÑģÑĮ
ĠÐ½Ð¾Ñģ Ð¸Ð»
ĠÐ³ÑĢÐ¾ ÑħÐ¾ÑĤ
ĠÐļÐµÐ¹ ÑĤ
ĠÐ´Ð¾Ð»Ð»Ð° ÑĢÐ°
ÐĲ Ð»ÐµÐºÑģ
ĠÑħ ÑĢÐ¾Ð½Ð¸
ĠÐ¿ÑĢÐµ ÑģÑĤÐ¸
ĠE ast
ĠÑĢÐ¸ ÑģÐºÐ¾Ð²
ĠÐº Ð¾Ð¶Ðµ
ÑģÐ° Ð¶Ð¸
Ġa ge
ĠÐ¿ÑĢÐ¾ ÑĢÐ¾
ĠÑħÐ¾Ðº ÐºÐµ
R U
ĠÐ¿ÑĢÐ¾ ÑģÑĤÑĭ
ĠÑģÐ¿Ð¾ÑģÐ¾Ð± Ð¾Ð²
Ġ197 9
ĠÐ·Ð°Ð³ Ð¾Ð²Ð¾ÑĢ
ÑģÑĤ ÑģÐºÐ¾Ð¹
ĠÐł Ð¾Ð½
Ð¾Ñģ Ðµ
Ġt em
l a
ĠÐ°ÑĢÑħ Ð¸Ð²
Ð¢ Ð¾Ð»ÑĮÐºÐ¾
ĠÐ¼Ð¾Ð»Ð¾Ð´ ÑĭÐ¼
ÑĩÐµ ÑģÑĤÐ¸
Ð»Ð¾Ð¶ ÐµÐ½Ð¸Ðµ
ĠÑįÐ»ÐµÐ¼ ÐµÐ½ÑĤ
ĠE m
Ñı Ðº
ĠÐ¿ÑĢÐ¾Ð¸Ð·Ð²ÐµÐ´ ÐµÐ½Ð¸Ð¹
Ð±Ðµ Ð¶Ð°Ð»
ĠÐĺÑĢ ÐºÑĥÑĤ
ĠÑģÐ²ÑıÑĤ Ð¾Ð¹
ĠÑģÑĤÑĥÐ´ ÐµÐ½
ĠÐĴÐµÑĢÐ¾ ÑıÑĤÐ½Ð¾
ĠÐºÐ¾Ð¼Ð¸Ñģ ÑģÐ¸Ñı
ĠÐ·Ð°Ð½Ð¸Ð¼ Ð°Ð»Ð¸ÑģÑĮ
ĠÑģÐ°Ð¼Ð¾ ÑĥÐ¿ÑĢÐ°Ð²
ĠÑģÑĭÐ³ÑĢÐ° Ð»
ÐµÐ¹ ÐºÐ¸
ĠÐµÐ´Ð¸ Ð½Ð¸ÑĨ
ĠÐ¾ÑĪÐ¸Ð± ÐºÐ°
Ðł Ðĵ
ĠÐ²ÐµÐ»Ð¸ ÐºÐ°
Ð¤ Ð¾Ð½ÑĤÐ°Ð½
ĠÐ½ÐµÐ¸Ð· Ð±ÐµÐ¶
ĠÐ²ÐµÑģ ÐµÐ½
ĠÑįÐ½ÐµÑĢ Ð³Ð¸Ñı
ĠÐ¾Ðº Ð½Ð¾Ð¼
ĠÐ´ÑĢÐ¾Ð¶ Ð°
9 7
ÐºÐ¾Ð¼ Ð¿
ĠÐĴÑģÐµ Ð³Ð´Ð°
ĠÐ¾Ð±ÑģÐ»ÑĥÐ¶Ð¸ Ð²Ð°Ð½Ð¸Ðµ
I t
8 2
ĠÑĨ Ð°
ĠÐ» ÑĥÑĩÐ¸
Ð¶Ñĥ ÑģÑĮ
ĠÐ¼Ð¾Ð½Ð°ÑģÑĤÑĭ ÑĢÑĮ
ĠÐĴ ÑģÐµÑĢÐ¾ÑģÑģÐ¸Ð¹
ĠB y
ĠÐ¾Ð¿ Ð¾ÑĢ
ĠÐĵÐ¾ÑģÐ¿ Ð¾Ð´Ð°
Ð¸ Ð²Ð°ÑİÑĤ
ĠÐ¿ÑĢÐ¾ÑĦÐµÑģÑģÐ¸Ð¾Ð½ Ð°Ð»ÑĮÐ½Ð¾Ð³Ð¾
ĠÐ½ÐµÐ½Ð° Ð´
ĠÐ¿Ð¾ÑĢÑĤ ÑĢÐµÑĤ
ĠÐ¾Ð³ÑĢÐ¾Ð¼ Ð½ÑĭÐ¼
ĠÑĢÐµÐ·ÑĥÐ»ÑĮÑĤÐ° ÑĤÐ¾Ð¼
Ġdevelop ment
ĠÑĢÐµ ÑĦ
ĠÐ¢Ðµ Ð±Ñı
ĠÐ²Ð¾Ð¹ÑģÐºÐ° Ð¼Ð¸
ÑģÐµ ÑģÑģÑĥ
ĠÐ¿ Ð¸Ð»Ð¸
ĠÑģÐµ Ð³Ð¾
am ent
ĠÑģÐ¾Ð±Ð¸ÑĢÐ° ÑĤÑĮ
ĠÐ²Ð¾Ð¾ÑĢÑĥÐ¶ ÐµÐ½Ð½ÑĭÑħ
ĠÑĥ ÑĩÐµ
ĠÑģÑĤÑĢÐ°ÑĤÐµ Ð³Ð¸Ð¸
ĠÐ¼Ð¾Ð» Ð¾ÐºÐ¾
ĠÑĦÐ°Ð¼Ð¸ Ð»Ð¸Ð¸
ĠÐ£ ÑĢ
ĠÐ²Ð»Ð° ÑģÑĤÑĮÑİ
ĠÐ¿Ð¾Ð¿ÑĢÐ¾ ÑģÑĤÑĥ
ĠÐĴÐµÐ»Ð¸ ÐºÐ¸Ð¹
Ð»Ð¸ Ð²ÑĭÐ¼
ÑĪ ÐµÐ½Ð¸
ĠÑģÐ¿ Ð»ÐµÑĤ
ĠÐ°ÐºÐºÑĥ ÑĢÐ°ÑĤ
ĠÐ±ÑĥÐº Ð²Ñĭ
ĠÐ¾Ð´Ð¸Ð½Ð° ÐºÐ¾Ð²Ð¾
ĠÑĢÐ°Ð·Ð³ ÑĢÐ¾Ð¼
ĠÐ¾Ð± ÑĥÐ²
ÑĢÑı ÑĤ
ĠÐŀÐº Ð¾Ð»Ð¾
ĠÐĵÐ¾Ð²Ð¾ÑĢ ÑıÑĤ
ĠÐ¿ÑĢÐ¸ Ð¾ÑĤÐºÑĢÑĭ
ĠÐĴÑĭ ÑģÐ¾
ĠÐĲÐ² ÑĤÐ¾Ð¼
ĠÐµÐ¶Ðµ Ð³Ð¾Ð´
ÑģÐ¸ Ðµ
ĠÑģÑĥÐ´ Ð½Ð¾
ĠÐ½Ð°Ð´Ðµ ÑıÐ»ÑģÑı
ĠÐ¿Ð¾Ð´ ÑĢÑĥÐ³Ð°
Ð¾ ÑĩÐµ
ĠÐ¿ÐµÑģ Ð¾Ðº
ĠÐ§ ÑĥÐ´
ĠÐ¿ÑĢÐ¾ ÑģÐ»ÐµÐ´
Ġs k
ĠÑĦÑĥÐ½Ðº ÑĨÐ¸Ð¹
ĠÐºÐ°Ð½Ð´Ð¸ Ð´Ð°ÑĤ
ÑĥÐ» ÐºÐ°
Ð½Ð¾ ÑģÑı
ĠÐ²ÑĢÐ°Ð¶ Ð´ÐµÐ±
ÑĪÐ¸Ð¹ ÑģÑı
ĠÐ´ÐµÑĢ Ð¶Ð¸ÑĤ
Ġreturn ed
ÑĤÐµ Ð°ÑĤ
ÐĲ Ðº
ĠÐ¸Ð½ÑĦÐ¾ÑĢÐ¼Ð° ÑĨÐ¸Ð¾Ð½Ð½ÑĭÑħ
ĠÑĤÑĥÐ°Ð» ÐµÑĤ
ĠÐŁÐµÑĢ Ð²ÑĭÐ¼
ĠÑģÐ¼Ðµ ÑĪÐ½Ð¾
ĠÐ¿Ð¾Ñĩ ÐµÑĤ
ĠÑģÑĤ ÑĢÐ¸
ĠÐ¿Ð»Ð° ÑĤÑĭ
ĠÑĢÐ°Ð·ÑĢÐ°Ð±Ð¾ÑĤ ÐºÐµ
ĠÐ¿Ð°ÑĢ ÐºÐ°
ÑĢÐ¾Ð² Ð°Ð»Ð¾ÑģÑĮ
ĠÐ¿Ð¸ÑĤÐ° Ð½Ð¸Ðµ
ĠÐµÐ¶ÐµÐ´ Ð½ÐµÐ²
ĠÐ·Ð° Ð±Ð¸ÑĢÐ°
ĠÐ¡Ð¿Ñĥ ÑģÑĤÑı
Ġs ol
ĠÐŁÑĢÐ¾ ÑĪÑĥ
ĠÐ¾Ð² Ð»Ð°
ĠÐ¿Ð¾Ð´Ð¾ ÑĪÐ»Ð¸
ĠÐ¨Ð²ÐµÐ¹ ÑĨÐ°
Ġpro duced
ĠÐĺ Ð¾ÑģÐ¸
ÐĿ Ð°Ðº
ĠÐ¾ Ð»Ð¸Ð¼Ð¿Ð¸Ð¹
ĠÐ¼Ð¾Ð½ ÐµÑĤ
Ð¼ÐµÐ½ Ñı
ĠÐ¡ Ð°ÑĢ
ĠÑģÐ¾Ð· Ð´Ð°Ð»Ð¸
ĠÑĩÑĥÐ² ÑģÑĤÐ²Ð¾Ð¼
ĠÐ° Ð»Ñİ
ĠÐ¿ÑĢÐµÐ´Ð»Ð°Ð³Ð° ÐµÐ¼
ĠÐ½Ð¾ ÑĥÑĤ
ĠÐ¶Ð¸Ð²Ð¾ÑĤ Ð½Ð¾Ðµ
ÑĤÐ¾Ð² Ð¾Ð³Ð¾
ĠÐ¸Ð½ Ð´ÐµÐº
ĠÐ¿Ð¾Ð´Ð¾Ð· ÑĢÐ¸ÑĤÐµÐ»ÑĮ
ĠÐ±ÑĥÑĢ Ð¶Ñĥ
ĠÐ¿ÐµÑĢ ÐµÐ½Ðµ
ÐĶ Ðł
ĠÑĥÐ´Ð° ÑĢÐ¾Ð²
ĠÐºÑĢÑĭ ÑĪÐ¸
ĠÐ´Ð²Ð¸Ð³Ð° ÑĤÐµÐ»ÑĮ
ĠÐ¿Ð¾Ð»ÑĮÐ·Ñĥ ÑİÑĤÑģÑı
ĠÐ¾ÑģÑĤÐ°Ð²Ð»Ñı ÑĤÑĮ
ĠÑĤÐ¸ÑĤÑĥ Ð»
ĠÐĶÐ¶ Ð¸Ð¼
Âł Ð¶Ðµ
ĠÐ·Ð°Ð´Ð° Ð½Ð¸Ñı
ĠÐ¿Ð°Ð» ÑĥÐ±
ĠÐľÐ° ÑģÑĤÐµÑĢ
ĠÐ´ÐµÐ»Ð° ÐµÑĪÑĮ
ĠÐķ ÑĢ
ĠÐ¿Ð°ÑĤÑĢÐ¸ Ð¾
ĠÑĢÐµÐ·ÑĥÐ»ÑĮÑĤÐ° ÑĤÐ°
iv id
ĠCh urch
ĠÐ³Ð¸Ð± ÐµÐ»ÑĮ
ĠÐŀ Ð»Ð¸Ð¼Ð¿Ð¸
Ñĩ Ð½Ð°
ĠT r
ÑģÑĤÐ¸ Ðº
for man
ĠÑĢÑĥÑģ ÑģÐºÐ¸Ð¼
ĠÐ»Ð¾Ð´ ÐºÐ¸
ĠÐ²ÑĭÐ³Ð»Ñı Ð´ÐµÐ»Ð°
ĠÑĩÐµÐ¼Ð¿Ð¸Ð¾Ð½Ð° ÑĤ
ĠÑģÑĤÑĢÐ° Ð´Ð°Ð½Ð¸Ñı
ÑģÑĤ ÐµÐ»
ĠÐ¼Ð¾Ð» Ð¾ÐºÐ°
ĠÐ½Ð¾Ð² Ð¸Ñĩ
ĠÐ¶ Ð°Ð»Ð¾
ĠÐ¶ÐµÑĢÑĤ Ð²Ñĥ
ĠÐ» Ð¾ÑĢÐ´
am a
ĠÐ¿ Ð°Ð»Ð¾
ĠÐ° Ð¶
ÐĴ Ðĺ
ĠÐľÐµÐ´Ð²ÐµÐ´ ÐµÐ²
ĠÐ¸Ð´Ðµ Ð°Ð»ÑĮÐ½Ð¾
ĠÑĤÐµÐºÑĥ ÑīÐµÐ³Ð¾
ĠÐ¿ÑĢÐµÐ´Ð»Ð¾Ð¶ Ð¸Ð»Ð°
ĠÐ±Ñĭ Ð²ÑĪÐ¸Ñħ
ĠÐ±Ðµ Ð´Ð°
ĠÐ½ÐµÐ³ ÑĢÐ¾Ð¼
ĠÑĥÑĩ Ð¸Ð»ÑģÑı
Ð½Ð¸Ñĩ Ð½Ð¾Ð¹
ĠÐ²ÐµÑĩÐµ ÑĢÐ¸Ð½
ot s
ĠÑģÐ¾Ð²ÑĢÐµÐ¼ÐµÐ½ Ð½Ð¾Ð¼
ĠÑĦÐ¾ÑĢÑĥ Ð¼Ð°
ĠÐĵÐ¾ÑģÑĥÐ´Ð°ÑĢ ÑģÑĤÐ²ÐµÐ½Ð½Ð¾Ð¹
ĠÐ± Ð°Ñģ
Ð¶ ÐµÐ½Ð½ÑĭÐ¹
ĠÐ½ Ð°Ð»Ðµ
ÑģÑĤÐ² Ð¾Ð²Ð°Ð½Ð¸Ðµ
ĠÐ»Ð¾Ð² ÐºÐ¾
ĠÐŀ ÐºÐ¾Ð½
ĠÐ¿ÑĢÐ¾ÑģÑĤ ÑĭÐµ
ĠÐ¸ÑĤ Ð¾Ð³Ð¸
ĠÐŃ ÑĤÐ¾Ð³Ð¾
ÑģÐ¾Ð² Ð¾Ð³Ð¾
er r
l ic
Ñĳ ÑĤÐ°
Ð²Ð°ÐµÐ¼ Ð¾Ð³Ð¾
ĠÐĶ Ðŀ
Ñī Ð°Ð¹
ĠÐ¿ÑĢÐµÐ´Ð»Ð¾Ð¶ Ð¸Ð»Ð¸
ÐµÐ½ ÑģÐºÐ¸Ð¹
ĠÑģÐ²Ð¸Ð´ÐµÑĤÐµÐ»ÑĮ ÑģÑĤÐ²ÑĥÐµÑĤ
Ð¿ Ð¾ÑĤÐµ
ĠÑĦ ÑĢÐ°Ð·Ñĥ
ĠÐ¿Ðµ ÑĪÐµÑħÐ¾Ð´
ÐŁ Ð¾ÑĩÐµÐ¼Ñĥ
ÑĤÐµÑĢ Ñĭ
ÑĤÐ¾ Ð½Ð¾Ð¼
ÑĢÐ° ÑģÑģ
ÑĤÐ¸Ð² Ð½ÑĭÐ¼Ð¸
og n
ĠÐ´Ð¾Ð¶Ð´ Ñı
ĠÑįÐºÑģÐ¿ÐµÐ´Ð¸ ÑĨÐ¸Ð¸
ĠÐ³ÑĢÐ¾Ð· Ð¸ÑĤ
ĠÐ¿ÐµÑĢÐµÑģ Ð¼Ð¾ÑĤ
ĠÐ² ÑģÑĤÑĢÐ¾
ĠÐł ÐµÐ¼
ĠÑģÐ¿ÐµÑĨÐ¸Ð°Ð»ÑĮ Ð½Ð¾Ð¹
ĠÐ·Ð° Ð²Ð°Ð»
ĠÐº Ð»ÑĥÐ±Ðµ
Ð¾Ð¿ Ð°ÑĢ
Ġpolit ical
Ð½Ð¸Ðº Ð¾Ð¹
ÐµÑĢÐ° Ñħ
ĠÑģÐµÑĤ ÐµÐ¹
Ð³Ð¾ ÑĢÐ¸ÑĤ
ÑĤÐ¾ ÑģÐ¿Ð¾ÑģÐ¾Ð±
ÑĦ Ð°Ð½
ĠÐ¿Ð¾Ð± Ð¾Ð»ÑĮÑĪÐµ
Ġs ent
ĠÐ¿ÑĢÐ¾Ñģ Ð¼Ð°ÑĤÑĢÐ¸
ĠÐ¸Ð³ÑĢÐ° Ñħ
ĠÐ¿ÑĢÐ¸Ñģ Ð¼Ð¾ÑĤ
ĠÑĢÐ°Ð· ÑĢÑı
ĠÐ¿Ð¾Ñħ Ð¸ÑĤ
ĠÐ¿Ð¾ÑĤÐµÑĢ ÑıÐ»Ð°
ĠÐ¾ÑģÐ½Ð¾Ð² Ñĭ
ĠÑĦÑĢÐ°Ð½ÑĨÑĥÐ· ÑģÐºÐ¸Ð¹
ĠÐ½Ðµ Ñİ
ÐºÐ° ÑĥÐ½
ĠÐ·Ð°Ð¿Ð°Ð´ Ð½ÑĭÑħ
ĠÐ´ÑĥÑħ Ðµ
ĠÑħÐ¾Ð´ ÑıÑĤ
ĠÐŁÐ°Ð² Ð»Ð°
ĠÐ¾ÑĤÑģÑĥÑĤ ÑģÑĤÐ²Ð¸Ð¸
ÑħÐ¾Ð´ Ñı
ĠÐ½Ð¾Ð¶ Ð¾Ð¼
ĠÐ½Ðµ ÑĢÐµ
ĠÑĤÑĭÑģÑı ÑĩÑĥ
ĠÐĲ ÑĢÐ¸
ÑİÑīÐµÐµ ÑģÑı
ĠÐĶÑį Ð²Ð¸Ð´
ĠÐŁÐ¾Ð» ÑĥÑĩÐ°
ĠÐ½ÑĢÐ°Ð² Ð¸Ð»Ð¾ÑģÑĮ
Ð¶ ÐµÐ½Ð½ÑĭÐµ
Ð²Ð¸ Ð·Ð¸Ð¾Ð½
ĠÐ´Ð¾Ð¼ Ð°Ñħ
ĠÐ¼Ð¾Ð½Ð°ÑģÑĤÑĭ ÑĢÑı
ĠÐ¡Ð¾Ð² ÐµÑĢ
ĠÐºÑĢÐ¸ ÐºÐ¸
ĠXV III
ĠÐ¼ÑĥÐ¶ ÑģÐºÐ¾Ð¹
ĠÐ¾Ð± Ð¼ÐµÐ½Ð°
ĠÐ½ÐµÑģ Ð¾
Ġbe h
ĠÐ¼Ð¾ ÑĤÐ¾ÑĢ
ĠÐ¾Ð±Ñī ÑĥÑİ
ĠÐ¿ÑĢÐ¾Ð³ Ð¾Ð»Ð¾Ñģ
ĠÐ¡ Ð±
Ġcre ated
ĠÐ²ÑĭÑħÐ¾Ð´ Ð½ÑĭÐµ
ĠÐĶ Ð²Ð¾ÑĢ
ĠÑĥÑĩÐ°ÑģÑĤ ÐºÐ¸
Ð· ÐµÐ»ÐµÐ½
Ð¢ Ð¾
Ġg en
ĠÐ¿Ð»Ð°ÑĤÑĮ Ñı
ÑĥÑģ Ð¾Ð²
ĠG eneral
ĠÐ±ÐµÑģ ÐµÐ´Ñĭ
ĠÐĶÐµ Ð²Ð¾
ĠÐ§ Ñĥ
ĠÐ·Ð°Ð¿ÑĢÐµ ÑīÐµÐ½Ð¾
Ġhist or
ĠÐº ÑĢÐµÐ´Ð¸
as tern
ĠÐ¸ÑģÐ¿ ÑĭÑĤ
ak en
ĠÐ¿ÑĢÐµÐ´Ð²Ð° ÑĢÐ¸ÑĤÐµÐ»ÑĮÐ½Ð¾
ĠÑĪ ÑĤ
ĠÐ¿ ÑģÐµÐ²
ĠÐĽÑĮ Ð²Ð¾Ð²
[...]
