{"<pad>": 0, "<s>": 1, "</s>": 2, "<unk>": 3, "<mask>": 4, "!": 5, "\"": 6, "#": 7, "$": 8, "%": 9, "&": 10, "'": 11, "(": 12, ")": 13, "*": 14, "+": 15, ",": 16, "-": 17, ".": 18, "/": 19, "0": 20, "1": 21, "2": 22, "3": 23, "4": 24, "5": 25, "6": 26, "7": 27, "8": 28, "9": 29, ":": 30, ";": 31, "<": 32, "=": 33, ">": 34, "?": 35, "@": 36, "A": 37, "B": 38, "C": 39, "D": 40, "E": 41, "F": 42, "G": 43, "H": 44, "I": 45, "J": 46, "K": 47, "L": 48, "M": 49, "N": 50, "O": 51, "P": 52, "Q": 53, "R": 54, "S": 55, "T": 56, "U": 57, "V": 58, "W": 59, "X": 60, "Y": 61, "Z": 62, "[": 63, "\\": 64, "]": 65, "^": 66, "_": 67, "`": 68, "a": 69, "b": 70, "c": 71, "d": 72, "e": 73, "f": 74, "g": 75, "h": 76, "i": 77, "j": 78, "k": 79, "l": 80, "m": 81, "n": 82, "o": 83, "p": 84, "q": 85, "r": 86, "s": 87, "t": 88, "u": 89, "v": 90, "w": 91, "x": 92, "y": 93, "z": 94, "{": 95, "|": 96, "}": 97, "~": 98, "¡": 99, "¢": 100, "£": 101, "¤": 102, "¥": 103, "¦": 104, "§": 105, "¨": 106, "©": 107, "ª": 108, "«": 109, "¬": 110, "®": 111, "¯": 112, "°": 113, "±": 114, "²": 115, "³": 116, "´": 117, "µ": 118, "¶": 119, "·": 120, "¸": 121, "¹": 122, "º": 123, "»": 124, "¼": 125, "½": 126, "¾": 127, "¿": 128, "À": 129, "Á": 130, "Â": 131, "Ã": 132, "Ä": 133, "Å": 134, "Æ": 135, "Ç": 136, "È": 137, "É": 138, "Ê": 139, "Ë": 140, "Ì": 141, "Í": 142, "Î": 143, "Ï": 144, "Ð": 145, "Ñ": 146, "Ò": 147, "Ó": 148, "Ô": 149, "Õ": 150, "Ö": 151, "×": 152, "Ø": 153, "Ù": 154, "Ú": 155, "Û": 156, "Ü": 157, "Ý": 158, "Þ": 159, "ß": 160, "à": 161, "á": 162, "â": 163, "ã": 164, "ä": 165, "å": 166, "æ": 167, "ç": 168, "è": 169, "é": 170, "ê": 171, "ë": 172, "ì": 173, "í": 174, "î": 175, "ï": 176, "ð": 177, "ñ": 178, "ò": 179, "ó": 180, "ô": 181, "õ": 182, "ö": 183, "÷": 184, "ø": 185, "ù": 186, "ú": 187, "û": 188, "ü": 189, "ý": 190, "þ": 191, "ÿ": 192, "Ā": 193, "ā": 194, "Ă": 195, "ă": 196, "Ą": 197, "ą": 198, "Ć": 199, "ć": 200, "Ĉ": 201, "ĉ": 202, "Ċ": 203, "ċ": 204, "Č": 205, "č": 206, "Ď": 207, "ď": 208, "Đ": 209, "đ": 210, "Ē": 211, "ē": 212, "Ĕ": 213, "ĕ": 214, "Ė": 215, "ė": 216, "Ę": 217, "ę": 218, "Ě": 219, "ě": 220, "Ĝ": 221, "ĝ": 222, "Ğ": 223, "ğ": 224, "Ġ": 225, "ġ": 226, "Ģ": 227, "ģ": 228, "Ĥ": 229, "ĥ": 230, "Ħ": 231, "ħ": 232, "Ĩ": 233, "ĩ": 234, "Ī": 235, "ī": 236, "Ĭ": 237, "ĭ": 238, "Į": 239, "į": 240, "İ": 241, "ı": 242, "Ĳ": 243, "ĳ": 244, "Ĵ": 245, "ĵ": 246, "Ķ": 247, "ķ": 248, "ĸ": 249, "Ĺ": 250, "ĺ": 251, "Ļ": 252, "ļ": 253, "Ľ": 254, "ľ": 255, "Ŀ": 256, "ŀ": 257, "Ł": 258, "ł": 259, "Ń": 260, "ĠÐ": 261, "Ð¾": 262, "Ðµ": 263, "Ð°": 264, "Ð¸": 265, "ÑĤ": 266, "Ñģ": 267, "Ð½": 268, "ÑĢ": 269, "Ð¾Ð": 270, "Ð»": 271, "Ñĥ": 272, "Ðº": 273, "Ñı": 274, "Ð²": 275, "Ñĭ": 276, "Ð¼": 277, "ÑĮ": 278, "ĠÐ¿": 279, "Ð´": 280, "ĠÑģ": 281, "ĠÐ²": 282, "Ñĩ": 283, "ĠÐ½": 284, "ÑģÑĤ": 285, "ÐµÐ½": 286, "ÑĢÐ°": 287, "Ð·": 288, "ĠÐ¸": 289, "ĠÐ¾": 290, "Ð¾Ð²": 291, "Ñħ": 292, "Ð¿": 293, "ĠÐº": 294, "Ð¹": 295, "Ð±": 296, "Ð³": 297, "ÑĢÐµ": 298, "ÑĤÐ¾": 299, "Ð°Ð»": 300, "ÑĪ": 301, "ĠÐ´": 302, "Ð¾Ð»": 303, "Ð¾Ð¼": 304, "ÐµÑĤ": 305, "Ñİ": 306, "Ð½Ð¸": 307, "ĠÐ¼": 308, "ĠÐ½Ð°": 309, "ÐµÐ»": 310, "ĠÑĤ": 311, "ÑĢÐ¸": 312, "Ð¶": 313, "Ð¾Ð´": 314, "Ð½Ð¾": 315, "ĠÐ±": 316, "Ð¾Ð³": 317, "Ð½Ñĭ": 318, "ÑĤÑĮ": 319, "ÐµÑĢ": 320, "ÑĨ": 321, "ĠÐ½Ðµ": 322, "Ð¾Ð¹": 323, "Ð½Ð°": 324, "ĠÐ·": 325, "Ð»Ð¸": 326, "ĠÑĩ": 327, "ÑģÐº": 328, "ĠÑĥ": 329, "ÑģÑı": 330, "ÑĢÐ¾": 331, "Ð»Ð°": 332, "Ð°Ðº": 333, "ĠÐ¿Ð¾": 334, "Ñī": 335, "ĠÐ³": 336, "ÐµÐ½Ð¸": 337, "âĢ": 338, "ÐµÐ¼": 339, "ĠÑ": 340, "Ð¸ÑĤ": 341, "Ð²Ð°": 342, "ÐºÐ°": 343, "ÑĢÑĥ": 344, "ÑĤÐ¸": 345, "Ð¾Ð³Ð¾": 346, "Ð´Ð°": 347, "Ð¾Ð±": 348, "ĠÐ·Ð°": 349, "Ð¾ÑĢ": 350, "ĠÑĢÐ°": 351, "ĠÐµ": 352, "Ð¼Ð¸": 353, "ÑĤÐ°": 354, "ÐµÐ¹": 355, "Ð¾Ð½": 356, "ÑģÑĮ": 357, "ĠÑį": 358, "ĠÐ»": 359, "ĠÐ¾ÑĤ": 360, "Ð³Ð¾": 361, "Ð¾Ð¶": 362, "Ð°Ð½": 363, "Ð¸Ð»": 364, "ĠÐĴ": 365, "ÑģÑĤÐ²": 366, "ĠÐ°": 367, "Ð¾Ðº": 368, "Âł": 369, "Ð¾ÑĤ": 370, "ĠÐ¿ÑĢÐ¸": 371, "ĠĊ": 372, "ĠÐ±Ñĭ": 373, "ĠÑĩÑĤÐ¾": 374, "Ð¸Ð½": 375, "Ġ-": 376, "ÑĨÐ¸": 377, "ĠÐŁ": 378, "Ð»Ñı": 379, "Ð¾Ð»ÑĮ": 380, "ĠÐ¾Ð±": 381, "ÐºÐ¸": 382, "ÐµÐ´": 383, "âĢĶ": 384, "ĠÐ¡": 385, "Ġt": 386, "ĠÐ²Ñĭ": 387, "ÐµÐ»ÑĮ": 388, "Ð¾Ð·": 389, "ÑĩÐµ": 390, "ĠÐĿ": 391, "Ð½Ñĥ": 392, "ĠÐ¶": 393, "ÑĢÑĭ": 394, "Ð°Ð¼": 395, "ĠÐ¿ÑĢÐ¾": 396, "Ð¾Ñģ": 397, "he": 398, "ÑĦ": 399, "ÑģÑĤÐ¸": 400, "Ð¾Ð²Ð°": 401, "ÑĢÐµÐ´": 402, "ĠÐļ": 403, "Ð½Ðµ": 404, "ÐºÐ¾": 405, "Ð¸Ð¼": 406, "Ġa": 407, "Ð¸Ñħ": 408, "ÑģÐµ": 409, "in": 410, "ĠÐ¸Ð·": 411, "Ð¾Ð¿": 412, "ÑĩÐ°": 413, "Ð°Ð»Ð¸": 414, "ĠÐŀ": 415, "Ð½Ð¾Ð¹": 416, "ĠÑı": 417, "Ð²Ð¾": 418, "ÑģÑĤÐ°": 419, "Ð²Ð¸": 420, "ĠÐľ": 421, "ĠÑģÑĤ": 422, "ÐµÑĢÐµ": 423, "ĠÐ¿Ð¾Ð´": 424, "ÑģÑĤÑĮ": 425, "Ð»Ðµ": 426, "ÐµÐ½Ð¸Ñı": 427, "ĠÐºÐ°Ðº": 428, "Ð¼Ð°": 429, "Ġ1": 430, "Ð·Ð°": 431, "Ð½ÑĭÑħ": 432, "Ð°Ð»ÑĮ": 433, "Ð½Ð¾Ð³Ð¾": 434, "Ð»Ð¾": 435, "ÑģÐ¿": 436, "ĠÐºÐ¾": 437, "ĠÐ¿ÑĢ": 438, "ĠÐĲ": 439, "ÑģÐ¸": 440, "Ð°ÑĢ": 441, "ĠÑħ": 442, "âĢĵ": 443, "er": 444, "ĠÑĢÐ°Ð·": 445, "ÑĥÐ´": 446, "ÑĩÐ¸": 447, "Ð½ÑĭÐµ": 448, "ĠÑĢÐµ": 449, "ĠÐĶ": 450, "Ð½ÑĭÐ¹": 451, "Ð¶Ðµ": 452, "ĠÑĤÐ°Ðº": 453, "ÐºÑĥ": 454, "Ð°Ð»Ð°": 455, "ÑīÐµ": 456, "ĠÐ¢": 457, "Ġ\"": 458, "ĠÐĺ": 459, "ÑĪÐ¸": 460, "on": 461, "ÑģÑĤÐ¾": 462, "Ġthe": 463, "ÑĤÐµ": 464, "Ð½Ñı": 465, "ÑĪÐµ": 466, "ÑİÑĤ": 467, "ÐµÐ½Ð¸Ðµ": 468, "ĠÑĦ": 469, "Â»": 470, "Â«": 471, "ĠÐł": 472, "Ġ(": 473, "ĠÐ¿Ð¾Ð»": 474, "ĠÐ²ÑģÐµ": 475, "Ð´Ðµ": 476, "ĠÑģÐ¾": 477, "ĠÂ«": 478, "ĠÑģÐ»": 479, "ĠÐºÐ¾ÑĤÐ¾": 480, "ĠÑįÑĤÐ¾": 481, "Ð¼Ðµ": 482, "ÑĢÐ¾Ð²": 483, "ÐµÑĤÑģÑı": 484, "Ð¸Ðµ": 485, "Ð³Ð°": 486, "ÑĥÑĤ": 487, "Ð´Ð¸": 488, "ÑĢÐ°Ð²": 489, "ÑħÐ¾Ð´": 490, "Ġ2": 491, "ĠÐ¾Ð½": 492, "Ñĳ": 493, "re": 494, "ÂłÐ": 495, "ÑĤÐ¾Ð¼": 496, "ĠÑģÐ¿": 497, "..": 498, "ÑģÐ»": 499, "ÑĩÐµÑģÐº": 500, "ÐµÐ·": 501, "ĠÑĤÐ¾": 502, "Ð¼ÐµÐ½": 503, "ĠÐĳ": 504, "ĠÐµÐ³Ð¾": 505, "ÑĤÑĮÑģÑı": 506, "ÑģÐ°": 507, "ÐµÐº": 508, "Ð¸Ð¹": 509, "ĠâĢĶ": 510, "Ð¸Ð·": 511, "ÐµÐ²": 512, "Ð¿Ð°": 513, "or": 514, "ĠÐ½Ð¾": 515, "ÑĥÑİ": 516, "an": 517, "ĠÑĤÐµ": 518, "ĠÐ´Ð¾": 519, "ĠÐ»Ð¸": 520, "ÑĢÑı": 521, "ÐµÐ½ÑĮ": 522, "ÐºÐ¾Ð²": 523, "ĠÑģÐ²Ð¾": 524, "Ð°Ñı": 525, "Ð»ÑĮ": 526, "ed": 527, "ĠÐĵ": 528, "ĠÐ¿ÑĢÐµÐ´": 529, "ÑıÑĤ": 530, "ĠÐºÐ°": 531, "at": 532, "Ð¾Ð»ÑĮÐºÐ¾": 533, "en": 534, "Ġs": 535, "Ð½ÑĭÐ¼": 536, "ĠÐ½Ð¸": 537, "ÐµÐ»Ð¸": 538, "Ð½Ð¾Ðµ": 539, "Ð¾Ð´Ð°": 540, "ĠÐ´Ð»Ñı": 541, "Ð½Ð¸Ñı": 542, "Ġo": 543, "Ġw": 544, "ÑĥÐ¶": 545, "Ð²Ðµ": 546, "Ð½Ð¾Ð¼": 547, "ÑĤÑĭ": 548, "Ð½Ð°Ñı": 549, "is": 550, "Ð²ÐµÑĢ": 551, "ÑĤÑĥ": 552, "ÑĨÐ¸Ð¸": 553, "Ð´Ñĥ": 554, "ÐµÐ»Ð°": 555, "Ð¾Ð³Ð´Ð°": 556, "ĠÐ¼Ðµ": 557, "ĠÐ¾Ð´": 558, "ar": 559, "Ð²Ñĭ": 560, "it": 561, "Ð°Ñģ": 562, "Ð¡": 563, "Ð½Ð¸Ðµ": 564, "al": 565, "ÑģÑĤÐ°Ð²": 566, "ĠÐ²Ð¾": 567, "ĠÐºÐ¾Ð½": 568, "ÑģÑĤÐ²ÐµÐ½": 569, "ÑĢÑĥÐ³": 570, "ĠÐºÐ¾Ð¼": 571, "ÑĤÐµÐ»ÑĮ": 572, "es": 573, "Ð¸ÑĤÐµÐ»ÑĮ": 574, "ĠÐ¶Ðµ": 575, "Ð°Ð»Ð¾": 576, "Ð²ÐµÑĤ": 577, "Ð¸Ð´": 578, "ĠÑĢÑĥ": 579, "ĠÑģÐµ": 580, "ĠÐ´Ð°": 581, "ÐºÐµ": 582, "ĠÑģÐ°Ð¼": 583, "ĠÐ¸Ð½": 584, "nd": 585, "ĠÐĽ": 586, "ĠÐ¿ÑĢÐµ": 587, "ĠÑĪ": 588, "Ð¿Ð¸": 589, "ĠÐ¿ÐµÑĢÐµ": 590, "Ġc": 591, "ĠÑĨ": 592, "Ġof": 593, "ĠÑģÑĤÐ°": 594, "ĠÐ±ÑĥÐ´": 595, "Ġin": 596, "Ð¼Ñĥ": 597, "ÑĢÐ°Ð·": 598, "Ñį": 599, "ÑģÐ»Ð¸": 600, "Ġf": 601, "ĠÐķ": 602, "ĠÐ²Ð¾Ð·": 603, "Ð°Ð·": 604, "ĠÐºÐ¾ÑĤÐ¾ÑĢÑĭ": 605, "ĠÐ¼Ð¾Ð¶": 606, "Ð³Ð¸": 607, "ĠÐ£": 608, "Ð½Ð¾Ð²": 609, "ÑĥÑĩ": 610, "ÐµÑģ": 611, "Ð±Ð¾": 612, "ÑĨÐ°": 613, "ÐºÐ°Ð·": 614, "Ð¾Ð²Ð¾": 615, "ÑĢÐ°Ð½": 616, "Ð½Ð¾ÑģÑĤÐ¸": 617, "ÐĲ": 618, "ĠÐ»Ñİ": 619, "ÑĢÐ¾Ð¼": 620, "ÂłâĢĶ": 621, "Ð½Ð¾ÑģÑĤÑĮ": 622, "Ð»Ñİ": 623, "ÑģÑĤÐ²Ð°": 624, "ĠÐŃ": 625, "Ð¶Ð°": 626, "Ð¾Ð±Ñĭ": 627, "ÑĢÐµÐ¼": 628, "ĠÐ¯": 629, "Ðŀ": 630, "Ġb": 631, "ĠÐĹ": 632, "as": 633, "ĠÐ¼Ð°": 634, "ÐºÐ¾Ð¼": 635, "Ð±Ðµ": 636, "Ð»ÐµÐ½": 637, "ÑĪÑĮ": 638, "ĠÐ±ÑĭÐ»Ð¾": 639, "ĠÐĿÐ°": 640, "ĠÐ¾Ñģ": 641, "Ð¾Ð²Ñĭ": 642, "ÑĥÐ±": 643, "Ġp": 644, "ÐµÐ½ÑĤ": 645, "00": 646, "Ð¾Ðµ": 647, "ÑĢÐ¾Ñģ": 648, "Ð¸ÑĤÑĮ": 649, "ÑĭÐ²Ð°": 650, "ĠâĢĵ": 651, "ĠÐ¿Ð¾Ðº": 652, "ĠÐ¾Ð¿": 653, "Ġand": 654, "âĢ¦": 655, "ĠÐ¼Ñĭ": 656, "ing": 657, "ic": 658, "ÑĤÐ¸Ð²": 659, "Ð´Ð¾": 660, "ĠÐ·Ð½Ð°": 661, "ÑģÑĤÐ²Ð¾": 662, "ĠÐ¼ÐµÐ½": 663, "ĠÐ¿Ð¾Ñģ": 664, "ÐµÑĢÐ°": 665, "ÑİÑī": 666, "Ġ19": 667, "Ð½ÑĥÑİ": 668, "ÑĪÐ°": 669, "ĠÐ¸Ð»Ð¸": 670, "ÑĥÑĢ": 671, "ÐŁ": 672, "ÑĥÐ¿": 673, "ro": 674, "Ð¶Ð¸": 675, "ĠÐ±Ð¾Ð»ÑĮ": 676, "ÐĴ": 677, "ĠÐ¾Ð½Ð°": 678, "ÑĢÐ¾Ð´": 679, "ÑģÐºÐ¾Ð¹": 680, "ĠÐ¼Ð¸": 681, "ÐĿ": 682, "ĠÑĢÐ°Ñģ": 683, "Ðļ": 684, "ĠÐ±ÑĭÐ»": 685, "Ð°Ð¹": 686, "ĠÑĤÐ¾Ð»ÑĮÐºÐ¾": 687, "ĠÐ§": 688, "ĠÑģÐ²": 689, "ĠÐ´Ð¾Ð»": 690, "ÑĬ": 691, "ion": 692, "ĠÑģÑĤÐ¾": 693, "ĠÑĤÑĭ": 694, "ÑĩÐ½Ð¾": 695, "Ð¸Ð»ÑĮ": 696, "ĠÐ¸Ñħ": 697, "ĠÐ²ÑĢÐµÐ¼": 698, "ĠÑģÐ¼": 699, "Ð´Ñĭ": 700, "Ð»Ð°ÑģÑĮ": 701, "ĠÐ´ÑĢÑĥÐ³": 702, "ĠÐ¼ÐµÐ½Ñı": 703, "Ð±Ñı": 704, "ĠÐ¼Ð¾": 705, "Ð»ÑģÑı": 706, "Ð¾Ð»Ðµ": 707, "ĠÐ·Ð°Ðº": 708, "Ð°Ð»ÑģÑı": 709, "Ġto": 710, "Ð¸Ñģ": 711, "ÑĤÐ¾Ð²": 712, "ÐµÐ»Ð¾Ð²": 713, "ĠÐ¿Ð¾Ð¼": 714, "ĠS": 715, "le": 716, "Ð¾Ñĩ": 717, "ÑģÐºÐ¾Ð³Ð¾": 718, "ĠÑģÐ¾Ð±": 719, "ĠÑģÐ¾Ð²": 720, "Ð¾Ð´Ñĥ": 721, "ĠÐµÐµ": 722, "...": 723, "Ð½Ð¸Ð¼Ð°": 724, "ÑĤÐ¾Ð±Ñĭ": 725, "ĠÑĥÐ¶Ðµ": 726, "ĠÐ¤": 727, "ÐµÐ¼Ñĥ": 728, "Ġm": 729, "Ðł": 730, "ÑīÐ¸": 731, "Ðĺ": 732, "ĠÐ²Ð·": 733, "ĠÐ¿ÐµÑĢ": 734, "ÑīÐ°": 735, "Ð±Ð¾ÑĤ": 736, "Ġd": 737, "ĠÐ³Ð»Ð°": 738, "ĠÑįÑĤ": 739, "ĠÐĿÐ¾": 740, "ĠÐ²Ðµ": 741, "Ð½Ð¸Ðº": 742, "Ð¸Ð²": 743, "ĠÐ´Ðµ": 744, "ĠÐ¾Ð½Ð¸": 745, "Ð¸Ñı": 746, "Ð´ÐµÐ»": 747, "ÑĥÐ¼": 748, "ĠÐ±ÐµÐ·": 749, "Ð½Ð¸Ð¸": 750, "Ð»Ð¸ÑģÑĮ": 751, "Ġh": 752, "ĠÑĩÑĤÐ¾Ð±Ñĭ": 753, "01": 754, "ÑĤÐ¾ÑĢ": 755, "ÑĢÐ¾Ð²Ð°": 756, "ĠÐ¼Ð¾Ð³": 757, "Ð½ÑĭÐ¼Ð¸": 758, "ÑĩÐ¸ÑĤ": 759, "ĠÐ³Ð¾ÑĢ": 760, "ÐºÐ¾Ð¹": 761, "Ð¾ÑĢÐ¾": 762, "ÐµÐ½Ð¸Ð¸": 763, "ĠÐµÑīÐµ": 764, "ou": 765, "Ð°ÑĤ": 766, "ĠÐ²Ñģ": 767, "ĠÐ¥": 768, "ĠC": 769, "ÑĭÑħ": 770, "ĠÑĩÐ°": 771, "ĠÐ¿Ðµ": 772, "ĠÐ¸Ð¼": 773, "ĠÐ³Ð¾Ð»": 774, "ÑģÑĤÐ°Ð½": 775, "ĠA": 776, "ĠÑĩÐµÐ»Ð¾Ð²": 777, "ÑģÐºÐ¸Ð¹": 778, "ĠÐ³Ð¾Ð´Ð°": 779, "Ðľ": 780, "ÐµÑĤÐµ": 781, "ÑģÐ»ÐµÐ´": 782, "ÑĨÐ¸Ñı": 783, "ĠÐ¼Ð½Ðµ": 784, "ĠÐºÐ¾Ð³Ð´Ð°": 785, "ĠT": 786, "il": 787, "Ð¼ÐµÑĢ": 788, "Ð¢": 789, "ĠÐ¾Ðº": 790, "ÑĦÐ¸": 791, "Ð»ÐµÐº": 792, "ÑģÑĤÐ¾Ñı": 793, "ĠÐ½Ð°Ð¿": 794, "ÑĥÐ´Ð°": 795, "ĠÐ²Ð°": 796, "ĠÐ¸ÑģÐ¿": 797, "ÐµÐ½Ð°": 798, "ĠÑģÑĤÑĢÐ°": 799, "ÑĨÐµ": 800, "Ð¾Ð³Ð¸": 801, "ÑİÑĤÑģÑı": 802, "ĠÑįÑĤÐ¾Ð¼": 803, "ÐµÐ»Ð¾": 804, "ÂłâĢĵ": 805, "ÑıÐ²": 806, "Ð±Ð°": 807, "ĠÐ²ÑĢÐµÐ¼Ñı": 808, "ÑĥÑħ": 809, "ĠÐ¿Ð¾Ð²": 810, "Ð¸Ð»ÑģÑı": 811, "ÐºÑĢÐ°": 812, "ĠÐ½Ð°Ñģ": 813, ").": 814, "ent": 815, "Ġ3": 816, "ĠÐŀÐ½": 817, "Ð±Ð¸": 818, "ÑĥÑĩÐ°": 819, "ÑģÐºÐ°": 820, "ĠÐ¿Ð»Ð°": 821, "ÐĶ": 822, "Ð¾Ð»Ð¸": 823, "ĠÐŁÐ¾": 824, "Ð¾Ð¼Ñĥ": 825, "Ð¾Ð²Ð¾ÑĢÐ¸": 826, "ĠÐµÑģÐ»Ð¸": 827, "ĠÑĩÐµÐ¼": 828, "ĠÐ¿Ð¾Ð·": 829, "ĠÑģÐº": 830, "ÐµÐ»Ñı": 831, "ĠÐĿÐµ": 832, "Ð²Ð¾Ð´": 833, "ĠÐ²ÐµÑĢ": 834, "ĠÐ¿ÑĢÐ°Ð²": 835, "ĠÐ¿Ñĥ": 836, "Ð½Ð¸ÐºÐ°": 837, "om": 838, "ÑĭÐµ": 839, "ĠÐ±ÑĥÐ´ÐµÑĤ": 840, "Ð¾Ð»ÑĮÐ·": 841, "ÑĤÐµÑĢ": 842, "ÑģÑĤÐµ": 843, "Ð³ÑĢÐ°": 844, "Ð½ÐµÐ¹": 845, "ĠÐ»Ðµ": 846, "Ð¸ÑĤÑģÑı": 847, "Ð·Ð¸": 848, "st": 849, "ĠÐ¿Ð°": 850, "ĠÐ¿ÑĢÐ¾Ð²": 851, "ĠÐ¿Ð¾Ð¿": 852, "Ð¾Ð½Ð°": 853, "ÑĩÐµÐ½ÑĮ": 854, "ĠÐ½Ð°Ñĩ": 855, "ĠÑģÐºÐ°Ð·": 856, "Ð¸Ð»Ð¾": 857, "Ð¾ÑģÑģÐ¸": 858, "ĠÐ»ÑİÐ±": 859, "ĠM": 860, "Â».": 861, "Ð°Ð»Ð¾ÑģÑĮ": 862, "el": 863, "Ð¿Ñĥ": 864, "ĠÐ²Ð¸Ð´": 865, "am": 866, "ĠÑĤÐµÐ¼": 867, "Ð´ÐµÑĢ": 868, "ÐµÐ½Ð½Ð¾": 869, "ĠÑįÑĤÐ¸": 870, "ÐµÑĤÐ°": 871, "Ð¿ÐµÑĢ": 872, "ÑĨÑĭ": 873, "Ð²Ð°ÑĤÑĮ": 874, "Ð¾Ð¶Ðµ": 875, "ÑĨÐ¸Ð¾Ð½": 876, "Ð³Ñĥ": 877, "Ð¸Ð¼Ð¾": 878, "ÑĭÐ¹": 879, "Ġre": 880, "ÑģÑĤÑĢÐµ": 881, "ĠÐ´Ð¾Ð»Ð¶": 882, "Ð½Ð¸Ð¹": 883, "Ð¸Ð½Ð°": 884, "Ð·Ð½Ð°": 885, "Ð³Ð¾Ð´": 886, "Ð°Ð»Ð¸ÑģÑĮ": 887, "Ð¸Ð½Ñĥ": 888, "ĠÐŃÑĤÐ¾": 889, "ÑħÐ°": 890, "ÐµÐ½Ð¸Ð¹": 891, "Ġ201": 892, "ĠÐłÐ¾ÑģÑģÐ¸": 893, "ÑĢÐ°Ð¶": 894, "ĠÐ¼Ð¾Ð¶ÐµÑĤ": 895, "ÑĥÐ»ÑĮ": 896, "ÑĥÑĪ": 897, "ĠÐ±ÑĭÐ»Ð¸": 898, "ÑģÑĤÑĢÐ°": 899, "Ð¶Ð´": 900, "ĠÐºÑĢÐ°": 901, "Ð¼Ð¾ÑĤ": 902, "\",": 903, "ĠÑĢÐ°Ð±Ð¾ÑĤ": 904, "Ð½ÑĥÐ»": 905, "ĠÐ±ÑĭÐ»Ð°": 906, "ĠI": 907, "ol": 908, "Ð¾Ð»ÐµÐµ": 909, "Â»,": 910, "Ð¿Ð¾Ð»": 911, "ĠÐµÑģÑĤÑĮ": 912, "Ð¾Ð½Ðµ": 913, "ĠÐ´Ð¾Ð¼": 914, "ÑĦÐ¾ÑĢ": 915, "ÐµÐ¹ÑģÑĤÐ²": 916, "Ð»ÐµÐ½Ð¸Ñı": 917, "Ð¼Ñĭ": 918, "Ð±Ñĭ": 919, "ĠÐ¿Ð¾Ñĩ": 920, "Ð¼ÐµÑĤ": 921, "ĠÐ°Ð²": 922, "Ð¼Ð¾Ð¶": 923, "ĠÑĤÐ¾Ð³Ð¾": 924, "Ð¸Ð»Ð¸": 925, "\".": 926, "Ð¸ÑĤÐµ": 927, "ÑĩÐµÐ½": 928, "Ð²ÑĪÐ¸": 929, "ĠÐ¶Ð¸Ð·": 930, "Ð¸Ðº": 931, "ÑĢÐ¾Ð¹": 932, "ÑģÐºÐ¸Ñħ": 933, "),": 934, "ĠÐ´Ð°Ð¶Ðµ": 935, "Ð·Ñĭ": 936, "Ð²Ð°Ð»": 937, "ÑģÑĤÑĢÐ¾": 938, "ĠÐ¾ÑĩÐµÐ½ÑĮ": 939, "ĠÐ½Ð¸Ðº": 940, "ĠÑĢ": 941, "ĠÐ¼Ð¾Ð¶Ð½Ð¾": 942, "ĠÐ¿ÑĢÐ¾Ð¸Ð·": 943, "ÐµÐ»Ðµ": 944, "ÑĢÑĥÐ´": 945, "ac": 946, "ÑĢÐ°Ðº": 947, "ÑĥÑģ": 948, "ĠÑģÐ¸": 949, "ÑĢÐ¸Ð¸": 950, "ĠB": 951, "ĠÑįÐº": 952, "ĠÐ±ÑĭÑĤÑĮ": 953, "ÐµÐ½Ð¸Ñİ": 954, "ĠÐ´Ð¸": 955, "ÑĥÑīÐµ": 956, "ÑĮÑİ": 957, "Ð³Ð»Ñı": 958, "ĠÑĤÑĢÐµ": 959, "Ð¿ÑĢÐ¸": 960, "ĠÐºÐ¾ÑĤÐ¾ÑĢÑĭÐµ": 961, "Ð°Ð»Ðµ": 962, "ĠÐ¾ÑĢ": 963, "ÐµÐ³Ð¾": 964, "ĠÑģÐµÐ±Ñı": 965, "Ð½Ð¸Ð¼": 966, "ĠÐŁÑĢÐ¸": 967, "Ð½ÐµÐµ": 968, "ĠP": 969, "ĠÑĤÐ¾Ð¼": 970, "ĠÐ¿Ð¾ÑĤÐ¾Ð¼": 971, "Ġl": 972, "ÑĪÐ¸Ñħ": 973, "ad": 974, "ĠÐµÐ¼Ñĥ": 975, "ĠÑħÐ¾ÑĤ": 976, "Ð°Ð»Ð°ÑģÑĮ": 977, "ĠÑįÑĤÐ¾Ð³Ð¾": 978, "ÐµÐ½Ð¸ÐµÐ¼": 979, "et": 980, "ĠÐĶÐ°": 981, "Ð¸Ð¼Ð¸": 982, "Ðĳ": 983, "ĠÐ¾Ð±ÑĬ": 984, "ĠÐļÐ°Ðº": 985, "ĠÐ»ÐµÑĤ": 986, "ÑĢÐµÐ½": 987, "ĠÐ³Ð´Ðµ": 988, "ÑĢÑıÐ´": 989, "ÑıÑĤÑĮ": 990, "ÑģÑĤÐ°Ð½Ð¾Ð²": 991, "Ðķ": 992, "ĠÑĥÐ¿": 993, "ĠÑģÐ»ÐµÐ´": 994, "ÑģÑĤÑĥÐ¿": 995, "ĠÐ¢Ð°Ðº": 996, "Ð´ÐµÑĤ": 997, "ĠÐ³Ð¾Ð²Ð¾ÑĢÐ¸": 998, "ĠÐĹÐ°": 999, "ÑĥÐ¼Ð°": 1000, "ĠÐ¿Ð¸": 1001, "Ġn": 1002, "ĠÐ½ÐµÑĤ": 1003, "Ð¸ÑĤÐ°": 1004, "ÑĢÑĥÐ¿": 1005, "ec": 1006, "ÐµÐ½Ñĭ": 1007, "ĠÑıÐ²": 1008, "Ðĵ": 1009, "Ġwas": 1010, "ĠÐ¿Ð¾ÑģÐ»Ðµ": 1011, "ĠÐĴÑĭ": 1012, "ÑģÑĭ": 1013, "ÐµÐ»ÐµÐ¹": 1014, "ÑģÐ¾Ð²": 1015, "ÑģÑĤÐ²Ñĥ": 1016, "ĠÐ²Ð¸": 1017, "Ð»Ñĭ": 1018, "ur": 1019, "ÑĢÐ¾Ðº": 1020, "ĠH": 1021, "Ð¾Ð³ÑĢÐ°": 1022, "ÐºÑĢÑĭ": 1023, "Ð¼Ð¾": 1024, "Ġth": 1025, "ĠÑģÐ¾Ð¾Ð±": 1026, "ÑĪÐµÐ¹": 1027, "ĠÑģÑĢÐµÐ´": 1028, "ĠÐºÐ¾ÑĤÐ¾ÑĢÑĭÐ¹": 1029, "ĠÐ¼Ð¾Ð»": 1030, "ĠÐ½ÑĥÐ¶": 1031, "Ġ4": 1032, "ĠÐ±Ð¾Ð»ÐµÐµ": 1033, "ĠÐ¨": 1034, "Ð¿Ðµ": 1035, "Ð¸ÑĩÐµÑģÐº": 1036, "Ð²ÐµÐ´": 1037, "ĠÑĤÐ°ÐºÐ¶Ðµ": 1038, "ĠÑĢÐ°ÑģÐ¿": 1039, "ĠÐºÐ¾ÑĢ": 1040, "Ð¾Ð³Ð°": 1041, "ÑĮÑı": 1042, "Ð½Ð¾Ð²Ð°": 1043, "iv": 1044, "ĠÐ³Ð¾Ð´Ñĥ": 1045, "ĠÐ±Ðµ": 1046, "ĠÐ½ÐµÐ³Ð¾": 1047, "ÐµÑĪÑĮ": 1048, "ÑĤÐµÑĢÐ¸": 1049, "ot": 1050, "Ð½Ð¸ÐºÐ¾Ð²": 1051, "id": 1052, "ĠÐ¿Ð°ÑĢ": 1053, "ĠÐ¼Ð½": 1054, "ĠÐ¿Ð¾ÐºÐ°": 1055, "ĠÑģÐ¾Ð·": 1056, "Ġe": 1057, "Ð¶Ð´Ñĥ": 1058, "ĠN": 1059, "ÑĥÐ²": 1060, "Ġ5": 1061, "ÑĩÐµÐ³Ð¾": 1062, "Ð²Ð°Ñı": 1063, "ĠÐ¾ÑģÑĤ": 1064, "ĠÑģÑĤÐ¾ÑĢÐ¾": 1065, "ÑĨÐ¸Ñİ": 1066, "ÑĢÑĥÐ¶": 1067, "Ð½ÑĮ": 1068, "ĠÐ°Ðº": 1069, "Ð»ÐµÐ½Ð¸Ðµ": 1070, "ÑĩÐ°Ñģ": 1071, "us": 1072, "ĠÐ´ÐµÑĤ": 1073, "ÑģÑĤÐ°Ð²Ð»Ñı": 1074, "ĠR": 1075, "Ð»Ð°Ð´": 1076, "ĠÐ²Ð¾Ð¿": 1077, "ĠÐ¾ÑĤÐ²ÐµÑĤ": 1078, "ÑĤÑı": 1079, "Ð»ÐµÐ¼": 1080, "ÑĪÐµÐ³Ð¾": 1081, "ÐºÐ°Ð¼Ð¸": 1082, "Ð°Ð²": 1083, "ter": 1084, "ĠÐºÑĤÐ¾": 1085, "Ð¾Ð²Ð°ÑĤÑĮ": 1086, "ĠÐ³Ð¾Ñģ": 1087, "ÐºÐ°Ð·Ð°": 1088, "ĠÐ¾Ð±ÑĢÐ°Ð·": 1089, "ÑĢÐµÐ¼ÐµÐ½": 1090, "im": 1091, "Ġfor": 1092, "Ð¾Ð²Ð¾ÑĢ": 1093, "Ð±Ð¾ÑĤÐ°": 1094, "ig": 1095, "ation": 1096, "ĠÐ´ÐµÐ¹ÑģÑĤÐ²": 1097, "ÐĽ": 1098, "Ġon": 1099, "ÑģÑĤÑĥ": 1100, "ĠÐ´ÐµÐ»Ð°": 1101, "Ð²Ð¾Ð»": 1102, "ĠÐ¿ÑĢÐ¾Ð´": 1103, "ÑĥÑİÑī": 1104, "ĠÑģÐµÑĢ": 1105, "ir": 1106, "ÐµÑĢÐµÐ·": 1107, "ĠÑģÐ»ÑĥÑĩÐ°": 1108, "ĠÑģÐºÐ°Ð·Ð°Ð»": 1109, "ĠÑĤÐµÑħ": 1110, "ÑĤÐ¸ÑĩÐµÑģÐº": 1111, "ly": 1112, "ĠÐ´Ð²": 1113, "ÑĪÐµÐ»": 1114, "ÐµÐ¹ÑĩÐ°Ñģ": 1115, "ÑĭÐ¼": 1116, "Ð°Ð´": 1117, "ÑģÐºÐ¾Ð»ÑĮÐºÐ¾": 1118, "ĠÐ´ÐµÐ½ÑĮ": 1119, "ĠÐ¿Ð¾ÑģÐ»ÐµÐ´": 1120, "ĠÐ²ÐµÐ´": 1121, "ĠÑĤÐ°Ð¼": 1122, "Ð»ÐµÑĤ": 1123, "ÑģÐ¿Ðµ": 1124, "ĠÑģÐ²Ñı": 1125, "ĠÑĢÐµÐ·": 1126, "ĠÐ²Ð¾Ñģ": 1127, "ĠÐºÐ¾Ð»": 1128, "ĠÐ½Ð¸Ñħ": 1129, "ĠD": 1130, "ĠÑĥÑĩÐ°": 1131, "Ġis": 1132, "ÑģÐºÐ¸Ðµ": 1133, "Ð°Ð¼Ð¸": 1134, "ĠÑĩÐµÐ»Ð¾Ð²ÐµÐº": 1135, "ÑĢÐ¾Ð¿": 1136, "ĠÐ¾Ð±Ð»Ð°": 1137, "ÑĤÐµÑĢÐµ": 1138, "ĠÐ¿ÑĢÐ¾ÑģÑĤÐ¾": 1139, "Ð£": 1140, "ĠÐ²ÑĭÑģ": 1141, "ĠÑĢÐµÑĪ": 1142, "ĠÐ±Ð¾Ð»ÑĮÑĪÐµ": 1143, "ÑĨÐ¸Ð°Ð»ÑĮ": 1144, "Ð»Ð°Ñģ": 1145, "ĠÐ´Ð¾Ð±": 1146, "Ð½Ð¾Ð¼Ñĥ": 1147, "Ð´ÐµÐ»Ð°": 1148, "ĠF": 1149, "Ð¿ÐµÑĢÑĮ": 1150, "Ð¸ÑĤÐµÐ»ÑĮÐ½Ð¾": 1151, "ÑĥÐ½": 1152, "Ð¸Ð½Ðµ": 1153, "Ð¸Ð»Ð°": 1154, "ÑĢÐ°ÑĤ": 1155, "Ġ200": 1156, "Ð½Ð¸ÐºÐ¸": 1157, "ĠÐ²Ð¾Ð·Ð¼Ð¾Ð¶": 1158, "ÑĨÑĥ": 1159, "Ð´ÐµÑģÑĮ": 1160, "Ð¾Ð²Ð¾Ð¹": 1161, "ÑģÐºÐ°Ñı": 1162, "Ð»Ð¾Ð¶": 1163, "ÑĢÐ°Ñı": 1164, "ÐºÐ°Ñħ": 1165, "Ð²Ð°Ð»Ð¸": 1166, "ÑĥÑĩÐ¸": 1167, "ĠÑĥÑģÐ»": 1168, "ĠÐ½ÐµÐ¼": 1169, "ow": 1170, "ut": 1171, "Ġg": 1172, "Ð³Ð°Ð½Ð¸": 1173, "ĠÑĤÐµÑĢ": 1174, "ĠÐłÐ¾ÑģÑģÐ¸Ð¸": 1175, "ĠÐ¾Ð´Ð¸Ð½": 1176, "ĠÑįÑĤÐ¾ÑĤ": 1177, "ĠÐķÑģÐ»Ð¸": 1178, "ĠÐ±Ð¾Ð»ÑĮÑĪ": 1179, "ĠG": 1180, "ĠÑĩÐµÐ»Ð¾Ð²Ðµ": 1181, "Ð¤": 1182, "ÑĢÐ¸Ñı": 1183, "Ð±Ð¾ÑĢ": 1184, "ĠL": 1185, "ÑĩÑĮ": 1186, "ĠÐ°ÑĢ": 1187, "ĠÐ¿ÐµÑĢÐµÐ´": 1188, "ĠÐ¶ÐµÐ½": 1189, "ĠÑģÐµÐ±Ðµ": 1190, "Ð°Ð½Ð´": 1191, "ĠÐľÐ¾": 1192, "ĠÐ¾ÑĤÐ½Ð¾": 1193, "ĠÑĥÐ´": 1194, "ĠÐ½Ð°Ð´": 1195, "ĠÐ¿ÑĢÐ¾Ð±": 1196, "ĠÐºÐ°ÑĢ": 1197, "ÑĤÑĢÐ¸": 1198, "ĠÑħÐ¾ÑĢÐ¾": 1199, "ch": 1200, "ay": 1201, "ĠÐ½Ð°Ð·": 1202, "ĠÐ»ÑİÐ´": 1203, "Ð´Ð°Ð½": 1204, "ĠÐ³Ð¾Ð´": 1205, "ÑĭÑĪ": 1206, "ÑģÑĤÐ²Ðµ": 1207, "Ð½ÐµÑģ": 1208, "ĠÐ²ÑģÐµÑħ": 1209, "ĠÐ¸Ð¼Ðµ": 1210, "Ð²Ð°ÐµÑĤ": 1211, "ÑģÐºÐ¾Ð¼": 1212, "ĠÐ¸ÑģÑĤÐ¾": 1213, "Ð¾ÐºÐ°": 1214, "ĠÐ²Ð¾ÑĤ": 1215, "ÑıÑģ": 1216, "ĠÐ°Ð½": 1217, "ĠÐ½ÐµÐ¿": 1218, "Ð±Ñĥ": 1219, "ĠÑıÐ²Ð»Ñı": 1220, "ĠÐ¸ÑģÐ¿Ð¾Ð»ÑĮÐ·": 1221, "ĠÐ´Ð°Ð½": 1222, "ĠÐ²ÑģÐµÐ³Ð¾": 1223, "Ġ--": 1224, "Ð°Ð³": 1225, "ÑĭÑĤ": 1226, "Ġas": 1227, "ĠÑģÐ¿Ðµ": 1228, "ĠÐ¿Ð¾ÑĤ": 1229, "ĠÐ³Ð¾": 1230, "ÑıÐ½": 1231, "ÑĤÐ¸Ñı": 1232, "ĠÐ²Ð¾Ð¹": 1233, "ĠW": 1234, "ÑĪÐµÐ½": 1235, "ĠÐĲÐ½": 1236, "Ð¾Ð²Ð°Ð½Ð¸Ñı": 1237, "em": 1238, "un": 1239, "ĠÐ²Ð¾Ð´": 1240, "ĠÐļÐ°": 1241, "Ð²Ð½Ð¾": 1242, "ÑĤÐ°Ðº": 1243, "ĠÑĢÐ¾Ð´": 1244, "ÑĤÐµÐ»ÑĮÐ½Ð¾": 1245, "Ð²ÐµÑģÑĤ": 1246, "ĠÐ²Ð¾Ð¿ÑĢÐ¾Ñģ": 1247, "ĠÑĩÐµÑĢÐµÐ·": 1248, "ÑıÑī": 1249, "ÑĤÐ¾ÑĢÑĭ": 1250, "ĠÐ¼ÐµÐ¶Ð´Ñĥ": 1251, "ĠÐ²Ð¾Ð»": 1252, "ĠÐŀÐ½Ð°": 1253, "ÐµÑĤÑĭ": 1254, "ith": 1255, "ÑĥÐ´Ð°ÑĢ": 1256, "ĠÐ¾Ð³": 1257, "ĠÐĸ": 1258, "Ð¾ÑģÐ¾Ð±": 1259, "ĠÐ»ÑĥÑĩ": 1260, "ĠÐ¿Ð¾Ð½Ñı": 1261, "ÑģÑĤÑĭ": 1262, "ĠÐ¸ÑģÐº": 1263, "ĠÐ³Ð»Ð°Ð·Ð°": 1264, "ÑģÑģ": 1265, "Ð¾Ð¶Ð´": 1266, "ÑģÑĤÐ°Ð²Ð¸": 1267, "ĠÐŀÑĤ": 1268, "ĠÐ¼Ð½Ð¾Ð³Ð¾": 1269, "ÐºÐ¸Ð¹": 1270, "ĠÐ¿Ð¾Ð±": 1271, "ĠÐ´Ð²Ð°": 1272, "ĠThe": 1273, "ĠÐ¾ÑĢÐ³Ð°Ð½Ð¸": 1274, "ÑĨÐµÐ²": 1275, "ĠÐ½Ð°ÑħÐ¾Ð´": 1276, "Ð»Ð°Ð²": 1277, "ĠÐŀÐ´": 1278, "ĠÐ¿ÑĢÐ¾ÑĤÐ¸Ð²": 1279, "ĠÑģÐ»Ð¾Ð²": 1280, "Ġ18": 1281, "ÑĤÑĢÐ°": 1282, "ĠÐ¾ÑĤÐºÑĢÑĭ": 1283, "ers": 1284, "ÑĥÐº": 1285, "Ġ6": 1286, "Ð¹ÑĤÐµ": 1287, "ÑĥÑī": 1288, "Ð¶Ð´Ñĭ": 1289, "Ð¸Ð¸": 1290, "Ð´Ð°ÑĤÑĮ": 1291, "ĠÐ¼ÑĥÐ¶": 1292, "ĠÐ½ÐµÑģÐºÐ¾Ð»ÑĮÐºÐ¾": 1293, "ĠÑģÐµÐ¼": 1294, "ÐĹ": 1295, "ÑĥÐ´ÑĮ": 1296, "ul": 1297, "Ġst": 1298, "ĠÐ½Ð°Ð¼": 1299, "ĠÐ·Ð°Ð¿": 1300, "Ð±ÑĢÑı": 1301, "ĠE": 1302, "ĠÐĴÑģÐµ": 1303, "ĠÐ²Ð°Ñģ": 1304, "Ð¾Ð½Ð¾Ð¼": 1305, "Ð¸ÑĤÑĥ": 1306, "ĠÑĦÐ¾ÑĢ": 1307, "her": 1308, "Ð½ÑĥÐ»ÑģÑı": 1309, "ÐºÐ°Ð½": 1310, "ÑĦÐ¾ÑĢÐ¼Ð°": 1311, "ĠÐ¦": 1312, "ÑĩÐµÐ¼": 1313, "ĠÑģÐµÐ¹ÑĩÐ°Ñģ": 1314, "ĠÑĤÐµÐ±Ñı": 1315, "ÑģÑĤÑı": 1316, "ce": 1317, "ÑģÑĤÐµÑĢ": 1318, "ÑģÐºÐ°Ð·": 1319, "ĠÑĤÐ¾Ð¶Ðµ": 1320, "ÐµÐ½ÑĤÐ°": 1321, "ĠÐ¼ÐµÑĤ": 1322, "Ð¸Ð»Ð¾ÑģÑĮ": 1323, "ĠÐ²ÑģÑĤÑĢÐµ": 1324, "ĠÐ¾Ð±ÑĢÐ°": 1325, "ĠÐ¿Ð¾ÑĢ": 1326, "ĠÑģÐ¸ÑģÑĤ": 1327, "ĠÐ´Ð¾ÑĢ": 1328, "ĠÐ½Ð¸ÑĩÐµÐ³Ð¾": 1329, "Ð½Ð¾ÑģÑĤÑĮÑİ": 1330, "ĠÐ½ÐµÐ¾Ð±": 1331, "ĠÐ³Ð¾ÑĢÐ¾Ð´": 1332, "ĠÑģÐ¸Ð»": 1333, "Ð»Ð¸Ñĩ": 1334, "ĠÑįÑĤÐ¾Ð¹": 1335, "ĠÐ·Ð´ÐµÑģÑĮ": 1336, "ĠÐ²Ð°Ð¼": 1337, "Ġwith": 1338, "Ð½Ð°ÐºÐ¾": 1339, "Ð¾Ð»Ð¾Ð³Ð¸": 1340, "ĠÐ¿Ð¾Ð»ÑĥÑĩ": 1341, "ĠÐ¸Ñģ": 1342, "Ð³Ð´Ð°": 1343, "Ð½ÐµÑĤ": 1344, "ĠÐľÑĭ": 1345, "and": 1346, "ÑĤÐ¾ÑĢÐ°": 1347, "ÑıÑĤÐµÐ»ÑĮ": 1348, "ÑĩÐµÑĤ": 1349, "ĠÐ±Ð»Ð°": 1350, "ĠÐºÐ¾Ð¼Ð¿Ð°": 1351, "ÑīÐµÐ³Ð¾": 1352, "Ð²Ð°ÑĢ": 1353, "ĠÐ¶Ð¸Ð·Ð½Ð¸": 1354, "ĠÑĥÐ³": 1355, "ÑģÑĤÐ¾Ð²": 1356, "ÑĩÐµÐ½Ð¸Ðµ": 1357, "Ð¯": 1358, "ÐµÑĢÑĤ": 1359, "ĠÑģÐ²Ð¾ÐµÐ¹": 1360, "ct": 1361, "ĠÐ³ÑĢÐ°": 1362, "ĠÐºÐ¾Ð¼Ð¿": 1363, "ĠÑĢÑĭ": 1364, "ĠÐ·ÐµÐ¼": 1365, "ag": 1366, "ĠÐŀÐ±": 1367, "ÑĢÐ¾Ð½": 1368, "Ð¿Ð¾": 1369, "Ð¼ÐµÐ½Ð½Ð¾": 1370, "ĠÑĥÐ±": 1371, "ĠÑĢÐ°Ð±Ð¾ÑĤÐ°": 1372, "ĠÑĤÑĥÑĤ": 1373, "Ð»Ð¾ÑģÑĮ": 1374, "ĠÐºÑĥ": 1375, "ĠÐ¿ÑĢÐ°": 1376, "ÑĥÐ»ÑĮÑĤÐ°": 1377, "ÐµÐ½Ð½ÑĭÑħ": 1378, "ĠÐ½Ð°ÑĪ": 1379, "ÐµÑĤÑĮ": 1380, "ĠÐ½Ð°Ð´Ð¾": 1381, "ĠÑİ": 1382, "ÐµÐ´Ð¸": 1383, "Ð²Ð¸Ð¶": 1384, "Ð¾Ð²ÑĭÑħ": 1385, "Ð²Ð¾Ð·": 1386, "ĠÐ¾ÑģÐ½Ð¾Ð²": 1387, "Ð»Ð¾Ð²": 1388, "ÂłÐĿ": 1389, "ÑĢÐ¾Ð²Ð°Ð½": 1390, "ĠÐ²Ð¼Ðµ": 1391, "Ð»ÑĥÐ±": 1392, "ĠÐ¿ÑĢÐ¾ÑĨ": 1393, "Ð°ÑĢÐ¸": 1394, "Ð¸ÑĢ": 1395, "ÑĢÐµÑģ": 1396, "ĠÐ§ÑĤÐ¾": 1397, "Ð°Ð»ÑĮÐ½Ð¾": 1398, "ĠÐ²Ð»Ð°": 1399, "Ġbe": 1400, "ĠÐ´ÑĢÑĥ": 1401, "ĠÑģÑĩÐ¸ÑĤ": 1402, "ĠÐ³Ð¾ÑģÑĥÐ´Ð°ÑĢ": 1403, "ĠÑĢÐ°ÑģÑģ": 1404, "ĠÑģÐ²ÐµÑĤ": 1405, "Ð²Ð¾Ð¹": 1406, "ist": 1407, "Ð°Ñħ": 1408, "Ġ7": 1409, "os": 1410, "ĠÐ½ÐµÐ¾Ð±ÑħÐ¾Ð´": 1411, "Ð¾Ð»Ð¾": 1412, "ĠÐ¾ÐºÐ°Ð·": 1413, "ÐµÐ½Ðµ": 1414, "ĠÐŁÐ¾Ñģ": 1415, "ĠÐľÐ¾ÑģÐº": 1416, "Ġby": 1417, "th": 1418, "ver": 1419, "ĠÐ½ÐµÐ¹": 1420, "ĠÑĤÑĢÐ¸": 1421, "ĠÐ¿Ð¾Ð¼Ð¾": 1422, "ĠÑģÐ²Ð¾Ñİ": 1423, "Ð½ÑĥÐ»Ð°": 1424, "Ð³Ð¾Ð´Ð½Ñı": 1425, "ĠÐ¾Ð±Ðµ": 1426, "Ð½Ñİ": 1427, "Ð´Ð¸Ð½": 1428, "ÑĩÐ¸Ð½Ð°": 1429, "ÂłÂł": 1430, "Ð²ÑĢÐ°": 1431, "ĠÐ±Ð¾": 1432, "Ð½Ð¸Ñİ": 1433, "ĠÐ¿ÑĢÐ¾Ð´Ð¾Ð»": 1434, "ĠÐ¿ÑĢÐ¸Ð½Ñı": 1435, "ĠÐ¼Ð°ÑĤÐµÑĢÐ¸": 1436, "ÑĨÐ¸Ð¹": 1437, "ĠÐ´Ð¾Ðº": 1438, "ĠÐ±Ð°": 1439, "ĠÑģÐ¸ÑģÑĤÐµÐ¼": 1440, "ĠÑĤÐµÐ¿ÐµÑĢÑĮ": 1441, "ĠJ": 1442, "ÑĪÐµÐ½Ð¸Ñı": 1443, "ÑĤÐ¾Ð¼Ñĥ": 1444, "Ð»ÐµÐºÑģ": 1445, "ÐºÐ»Ñİ": 1446, "Ð¸Ñĩ": 1447, "ĠÐ¸Ð½ÑĤÐµÑĢÐµ": 1448, "ĠÐ¼Ñĥ": 1449, "ĠÐµÐ¹": 1450, "ĠÐ·Ð²": 1451, "Ð»Ð¸Ð½": 1452, "ÐµÐ½Ð½ÑĭÐµ": 1453, "ÑħÐ¾Ð´Ð¸ÑĤ": 1454, "ĠÑģÐ¾Ð³": 1455, "um": 1456, "ĠÐ¿Ð»Ð¾": 1457, "Ð½ÐµÑĢ": 1458, "ÑĪÐ¾": 1459, "ĠÑĩÑĥÐ²": 1460, "ĠÐ¼Ð°Ð»": 1461, "ĠÐ¾ÑģÐ¾Ð±": 1462, "ÑĤÑģÑı": 1463, "Ð¨": 1464, "ÑģÐºÐ¸": 1465, "ĠÐ¿ÑĢÐ¾ÑĪ": 1466, "ĠÐĶÐ¶": 1467, "ĠÐ¿ÐµÑĢÐ²Ñĭ": 1468, "ĠÐ¿Ð¾Ð¶": 1469, "Ð´ÑĨÐ°": 1470, "ÑĥÐ±Ð»Ð¸": 1471, "ĠÐ»Ð¸ÑĪÑĮ": 1472, "Ġal": 1473, "ĠÐ¿ÑĢÐµÐ´ÑģÑĤÐ°Ð²": 1474, "Ð¾Ð²Ð°Ð»": 1475, "Ð»ÐµÐ¹": 1476, "ÑĩÐµÑĢ": 1477, "ĠÑģÐ´ÐµÐ»Ð°": 1478, "ĠÐºÑĢÐ¸": 1479, "ĠÑģÐ¿Ð¾ÑģÐ¾Ð±": 1480, "ĠÐ¸Ð³": 1481, "ĠÑģÑĥÑīÐµ": 1482, "ĠÐŁÑĢÐ¾": 1483, "Ð³Ðµ": 1484, "ÑģÑĤÐµÐ¹": 1485, "Ð²Ð¾ÑĢ": 1486, "Ð³Ð»ÑıÐ´": 1487, "Ġ8": 1488, "ÑĩÐµÐ½Ð¸Ñı": 1489, "ĠÑĤÐµÐ±Ðµ": 1490, "ÑĢÐ¾Ð±": 1491, "Ġ.": 1492, "ĠÐ»ÐµÐ³": 1493, "ĠÐ²ÑģÐµÐ³Ð´Ð°": 1494, "ĠÑģÐ¾Ð²ÐµÑĢ": 1495, "Ð¼Ð°Ð½": 1496, "Ð¸Ð±": 1497, "ĠÐ½Ð¸Ð¼": 1498, "ÑģÐ½Ð¾": 1499, "ĠÑĤÐ¾ÑĤ": 1500, "Ð½Ð°Ð»": 1501, "ÑĢÐ¸Ð¹": 1502, "ĠÐ´ÐµÐ²": 1503, "ÑĳÐ½": 1504, "Ð¾Ð²ÑĭÐµ": 1505, "ÑħÐ²Ð°": 1506, "Ð½Ð¸ÑĤÑĮ": 1507, "ÑģÑĥ": 1508, "ra": 1509, "ÑĪÐ¸Ð¹": 1510, "ĠÐ¸Ð½ÑĦÐ¾ÑĢÐ¼Ð°": 1511, "ĠÐ»ÑİÐ´ÐµÐ¹": 1512, "ĠÐ½ÑĥÐ¶Ð½Ð¾": 1513, "ĠÐ²ÑģÐµÐ¼": 1514, "ÑģÐµÐ¼": 1515, "Ġwh": 1516, "Ð²Ð¸Ð´": 1517, "ÑģÑĤÐ²Ð¾Ð¼": 1518, "ÑĢÐ¾Ð²Ð°ÑĤÑĮ": 1519, "ÑĤÐ¸Ð½": 1520, "ÐµÑħ": 1521, "Ð±ÑĢÐ°": 1522, "ÑįÑĤÐ¾Ð¼Ñĥ": 1523, "ĠÐ¼Ð¸Ð½": 1524, "Ð½Ð¸ÐµÐ¼": 1525, "ÑĢÐ¾Ðµ": 1526, "ÑĪÐ¸Ðµ": 1527, "Ð»Ñĥ": 1528, "Ġat": 1529, "ĠÐ³Ð»Ð°Ð²": 1530, "ĠÑĢÐ°Ð·Ð²": 1531, "ÑĢÐµÐ¹": 1532, "Ġ10": 1533, "ĠÐ³Ð¾ÑĤ": 1534, "ĠÐ³ÑĢÑĥÐ¿": 1535, "ÑĢÐ¾Ð³Ð¾": 1536, "ĠÑģÑĭ": 1537, "ĠÐ¼Ð½Ð¾Ð³": 1538, "rom": 1539, "ĠÐĺÐ½": 1540, "ĠÑģÐ¾ÑģÑĤÐ¾Ñı": 1541, "ĠÑįÑĤÐ°": 1542, "ĠÑĤÐ°": 1543, "ĠÐ¶Ð¸Ð²": 1544, "ÐµÐ½Ð½ÑĭÐ¹": 1545, "Ð³Ð¾ÑĤÐ¾Ð²": 1546, "Ġhe": 1547, "ĠÐ¿Ð¾ÑĤÐ¾Ð¼Ñĥ": 1548, "ÑĢÐµÐ»": 1549, "Ġan": 1550, "ĠÑģÑĥÐ´": 1551, "ĠÐ´ÐµÐ»": 1552, "ÑĢÐ°Ð·Ñĥ": 1553, "ÑĢÑĥÐº": 1554, "Ð½ÐµÐ¼": 1555, "ĠÑģÑĤÐ¾Ð»": 1556, "Ð¾Ð²Ð¾Ð»ÑĮ": 1557, "Ð½ÑĥÑĤÑĮ": 1558, "ĠÑģÑĤÐ°Ð»": 1559, "ĠÑĤÐµÐ»Ðµ": 1560, "ĠÑĥÐ´Ð°": 1561, "ĠÐ»Ð¸ÑĨ": 1562, "ĠÐ£ÐºÑĢÐ°": 1563, "'s": 1564, "ĠÐ½ÐµÐ´": 1565, "ri": 1566, "Ð¿Ð¾Ð´": 1567, "ĠÐ·Ð°ÐºÐ¾Ð½": 1568, "ÐµÐ½Ð¾": 1569, "ĠÐ±Ð»Ð¸": 1570, "Ġcon": 1571, "ru": 1572, "ĠÑĪÐµ": 1573, "ĠÑĤÐ°ÐºÐ¾Ð¹": 1574, "ĠÐ¢Ñĭ": 1575, "ĠÐ·Ð°ÑıÐ²": 1576, "ÐµÑĨ": 1577, "Ð½ÑĥÑĤ": 1578, "ÑıÑģÑĮ": 1579, "ÐºÐ¸Ñħ": 1580, "ĠÑģÐ¾ÑĤ": 1581, "ĠÐ¾Ð±ÑīÐµ": 1582, "ĠÑĢÐ°Ð¹": 1583, "ÑĢÐ¾ÑģÑģÐ¸": 1584, "ĠÑģÐ¾Ð±ÑģÑĤÐ²ÐµÐ½": 1585, "ĠÐºÐ¾ÑĤÐ¾ÑĢÐ°Ñı": 1586, "ÑİÑīÐ¸Ñħ": 1587, "ĠÑĥÐ¶": 1588, "ĠÐ¾Ð¿ÑĢÐµÐ´": 1589, "ĠÑģÐ¼Ð¾ÑĤ": 1590, "ĠÐĴÐ¾": 1591, "Ð¸ÑĢÐ°": 1592, "ĠÐ³Ð¾Ð»Ð¾Ð²": 1593, "Ð¿Ð¸Ñģ": 1594, "ĠÑģÐ²Ð¾Ð¹": 1595, "Ð¾Ð¶Ð¸": 1596, "est": 1597, "ĠÐĺÐ·": 1598, "Ð¿ÑĢÐ°Ð²": 1599, "ĠÑĥÑĤ": 1600, "ĠÑĩÐµÑĢ": 1601, "ÑģÐºÐ¾": 1602, "Ð¾Ð³ÑĢÐ°Ð¼": 1603, "ÑĢÐµÐ±": 1604, "ÐŃ": 1605, "ĠÐŀÐ½Ð¸": 1606, "ĠÐ°Ð´": 1607, "Ð½Ð¸Ñħ": 1608, "ĠÐ³Ð¾Ð»Ð¾Ñģ": 1609, "ĠÐ¼Ð¾Ð¼": 1610, "ĠÐ¿ÑĢÐ¾Ð¸Ð·Ð²Ð¾Ð´": 1611, "ĠÐ²ÑĢÐµÐ¼ÐµÐ½Ð¸": 1612, "ĠÑĤÑĥ": 1613, "ĠÐ®": 1614, "Ð³Ð¾ÑĢ": 1615, "ÑĩÑĥ": 1616, "ĠÑģÐ²Ð¾Ð¸": 1617, "19": 1618, "ĠÑĢÐµÐ·ÑĥÐ»ÑĮÑĤÐ°": 1619, "Ð´Ð¾ÑĢ": 1620, "ĠO": 1621, "Ġthat": 1622, "ĠÑıÐ²Ð»ÑıÐµÑĤÑģÑı": 1623, "Ġ,": 1624, "Ð½Ð¸Ñĩ": 1625, "ÑĢÐ¾ÑģÐ¸": 1626, "Ð¼ÐµÐ½Ð¸": 1627, "ĠÐ¿Ð¾Ð³": 1628, "ĠÑģÐ¾Ð¾Ð±Ñī": 1629, "ÑĢÐ¾ÑĤ": 1630, "ĠÑĩÐµÐ»Ð¾Ð²ÐµÐºÐ°": 1631, "ĠÐ¿ÑĢÑı": 1632, "ÐµÑĢÐ¸": 1633, "ĠÑģÐ²Ð¾Ð¸Ñħ": 1634, "ĠÐ²ÑĭÑģÐ¾Ðº": 1635, "ÑĢÐµÐ·": 1636, "ÑĢÐµÑĤ": 1637, "od": 1638, "ĠÐºÐ¾ÑĤÐ¾ÑĢÑĭÑħ": 1639, "Ð·Ð°ÑĨÐ¸Ð¸": 1640, "ĠÑģÐºÐ¾": 1641, "ĠÐ´Ð¾Ð¼Ð°": 1642, "Ð¸ÑĤÐµÐ»ÐµÐ¹": 1643, "ĠÑģÐ°Ð¹": 1644, "ÑĩÐºÐ¸": 1645, "Ð¶Ð°Ð»": 1646, "ÑıÑĤÐ¸": 1647, "ĠÐ¼Ð°Ñģ": 1648, "ĠÐ²Ð½Ð¸Ð¼Ð°": 1649, "ĠÑģÐ¾Ð·Ð´Ð°": 1650, "ĠÐĿÐ¸Ðº": 1651, "ÑĢÐ¾ÑģÐ¸Ð»": 1652, "ĠÐ²ÑģÑĳ": 1653, "ĠÐºÐ°ÑĩÐµ": 1654, "ĠÑĤÐ¾Ð³Ð´Ð°": 1655, "oc": 1656, "ĠÐºÐ°Ð¼": 1657, "Ġ9": 1658, "Ð§": 1659, "ĠÑĩÐµÐ³Ð¾": 1660, "op": 1661, "ĠÐ²Ð´": 1662, "ÑģÑĤÑĢÐ°Ð½": 1663, "ĠÐ¼Ð°ÑĢ": 1664, "ĠÐĿÑĥ": 1665, "ÑĢÑĮ": 1666, "av": 1667, "ÑĢÐ°Ð²Ð¸": 1668, "ĠÑĤÑı": 1669, "ÑĪÐ»Ð¸": 1670, "ĠÑĢÑĥÐ±": 1671, "Ð½ÐµÐ³Ð¾": 1672, "ĠÑĨÐµÐ½ÑĤ": 1673, "ÐµÐµ": 1674, "ĠÐ¾ÑĩÐµ": 1675, "Ð¶Ð°ÑĤÑĮ": 1676, "ĠÑĤÐ¾ÑĢ": 1677, "ĠÑģÐ¸Ð»ÑĮ": 1678, "ĠÑģÐ¾Ð»": 1679, "ĠÐ¿ÑĢÐ¸Ð²": 1680, "ĠÐŁÐ¾Ð´": 1681, "Ð¸ÑĤÐ¸": 1682, "Ð»Ð¾Ð¼": 1683, "ĠÐ¾Ð±Ñĭ": 1684, "ÑģÑĤÑĮÑİ": 1685, "ĠÐºÐ½Ð¸": 1686, "ÑīÐµÐµ": 1687, "ĠÑĢÐ¾ÑģÑģÐ¸": 1688, "Ġv": 1689, "ÑĩÐ¸Ð½": 1690, "Ð±ÑĥÐ´ÑĮ": 1691, "ĠÑģÐ´ÐµÐ»": 1692, "ĠÐ¸Ð·Ð²ÐµÑģÑĤ": 1693, "ĠÑģÐ»Ð¾Ð²Ð°": 1694, "Ñĸ": 1695, "ĠÐ²ÐµÐ´ÑĮ": 1696, "Ð»ÐµÐ´": 1697, "ĠÐ¼Ð¾Ð³ÑĥÑĤ": 1698, "ÑıÐ·": 1699, "Ð¾Ð²Ð°Ð½Ð¸Ðµ": 1700, "Ð¾ÑĢÑĤ": 1701, "ĠÑĢÐ¸": 1702, "ÑģÐºÐ¸Ð¼": 1703, "ĠÐ´ÐµÑĢÐµ": 1704, "ĠÐ¿Ð¾Ð½Ð¸Ð¼Ð°": 1705, "ĠÐ¼Ð¾Ð»Ð¾Ð´": 1706, "ÑħÑĢÐ°": 1707, "ĠÐ½ÐµÐºÐ¾": 1708, "Ð³Ð°Ð½": 1709, "ĠÐ½ÐµÐµ": 1710, "ÑħÐ¸": 1711, "ÑĪÐ°Ñı": 1712, "ĠÐ¿Ð¾Ð»Ð¾Ð¶": 1713, "ĠÐĴÐ°": 1714, "ĠÐ¿Ð¾ÑĩÑĤÐ¸": 1715, "ĠÐ´ÑĥÐ¼Ð°": 1716, "ĠÐ¸Ð¼ÐµÐ½Ð½Ð¾": 1717, "ĠÑģÑĤÑĢÐ¾": 1718, "ÑİÑģÑĮ": 1719, "ĠÐ¾Ð±Ñī": 1720, "ĠÐ½ÐµÑģ": 1721, "ĠÑħÐ¾Ñĩ": 1722, "Ð²Ð¸Ñģ": 1723, "Ð¾Ð¿Ð¾Ð»": 1724, "ÑĢÐ¾Ð¼Ðµ": 1725, "ĠÑĢÐ°ÑģÑģÐºÐ°Ð·": 1726, "ĠÐ½Ð°Ð¿ÑĢÐ°Ð²": 1727, "ĠÑģÐ²Ð¾ÐµÐ³Ð¾": 1728, "ain": 1729, "Ð¸Ð½Ñĭ": 1730, "Ð¸ÑĤÐµÐ»Ñı": 1731, "ĠÑģÐ»ÑĥÐ¶": 1732, "ÑİÑīÐ¸Ðµ": 1733, "ÐµÐ½Ð½Ð¾Ð¹": 1734, "ĠÐĴÐ¾ÑĤ": 1735, "Ð²Ð°Ð½": 1736, "Ð½Ð¸Ð»": 1737, "ÑıÐ»": 1738, "ĠÐ½Ð¾Ð²": 1739, "ÑĢÐµÐ²": 1740, "ĠÐ²ÐµÐ»Ð¸": 1741, "Ð¾Ð²ÑĭÐ¹": 1742, "ĠÐ´ÐµÐ»Ð¾": 1743, "Ð¶Ñĥ": 1744, "ĠÐ½Ð¸ÐºÐ°Ðº": 1745, "ÑģÑĤÐ¾Ð¹": 1746, "ĠÐ±ÑĥÐ´ÑĥÑĤ": 1747, "Ð¿Ð¸ÑĤ": 1748, "ĠÐ»ÑİÐ´Ð¸": 1749, "ĠÑģÐ»ÑĥÑĩÐ°Ðµ": 1750, "ÑıÑħ": 1751, "Ð²ÑĪÐ¸ÑģÑĮ": 1752, "ew": 1753, "ĠÐºÐ¾ÑĤÐ¾ÑĢÐ¾Ð¹": 1754, "Ð¼ÐµÑĢÐ¸": 1755, "ĠÐ¼ÐµÑģÑĤÐ¾": 1756, "ÑĪÐ¸Ð¼": 1757, "ĠÐ³ÑĢÑĥ": 1758, "ĠÐ²ÑģÑı": 1759, "Ġ15": 1760, "ĠÐĲÐ»ÐµÐºÑģ": 1761, "ĠÐ²ÑĢÐ°": 1762, "ĠÐ·Ð°Ð±": 1763, "ĠÐķÐ²": 1764, "ĠÑĢÑĥÑģ": 1765, "Ð½Ð¸Ð·": 1766, "ĠÐ¾Ð±Ð»Ð°ÑģÑĤÐ¸": 1767, "ĠÐ·Ð°ÑĤ": 1768, "ÑģÑĤÐ²ÐµÐ½Ð½Ð¾": 1769, "ĠU": 1770, "ĠÐ´Ñĥ": 1771, "ĠÐºÑĢÐµ": 1772, "ÑĪÐ»Ð°": 1773, "Ð¹ÑĤÐ¸": 1774, "ÐºÐ¸Ðµ": 1775, "ĠÑħÐ¾": 1776, "ĠÑģÐºÐ°Ð·Ð°": 1777, "Ð¼ÐµÐ½ÑĤÐ°": 1778, "Ð²ÑĪÐ¸Ð¹": 1779, "ÑħÐ¾ÑĤ": 1780, "ĠÑĪÐ¸": 1781, "ĠÐ¢Ðµ": 1782, "ĠÑĤÑĢÐ°": 1783, "ĠÐ°Ð²ÑĤÐ¾Ð¼": 1784, "res": 1785, "Ð¾ÑĤÐ²ÐµÑĤ": 1786, "ĠÐĶÐ»Ñı": 1787, "ÑĥÐµÑĤ": 1788, "ĠÐľÐ°": 1789, "Ð²Ð¾Ðµ": 1790, "ĠÐ¿ÑĢÐ¾Ð±Ð»ÐµÐ¼": 1791, "ÐµÑģÑģ": 1792, "ĠÐ´Ð°Ð»ÑĮ": 1793, "ĠÐ±ÐµÑģÐ¿": 1794, "ĠÐ¿Ð¾Ð·Ð²Ð¾Ð»": 1795, "Ð½Ð¸Ð±ÑĥÐ´ÑĮ": 1796, "ÑĭÑĤÐ°": 1797, "Ð³Ð¾Ð²": 1798, "Ġpro": 1799, "ĠÑģÐµÐ³Ð¾Ð´Ð½Ñı": 1800, "ĠÐ¼ÐµÑģÑĤ": 1801, "ĠK": 1802, "ĠÐ¿Ð¾Ñħ": 1803, "ĠÑĦÐ°Ðº": 1804, "ĠÐ¶Ð¸Ð·Ð½ÑĮ": 1805, "Ġfrom": 1806, "ĠÑģÐ¾Ð±Ð¾Ð¹": 1807, "ĠÑĩÐ°Ñģ": 1808, "Ð°Ð»ÑĮÐ½Ð¾Ð¹": 1809, "ĠÑĢÐ°Ð±Ð¾ÑĤÑĭ": 1810, "ĠÐ¿ÑĢÐ¸Ñģ": 1811, "Ð²Ð°ÐµÑĤÑģÑı": 1812, "art": 1813, "ĠÑģÑĩÐ¸ÑĤÐ°": 1814, "ÑİÑīÐ¸Ð¹": 1815, "ÑĩÐµÑģÐºÐ¸Ñħ": 1816, "ĠÑĢÑıÐ´": 1817, "Ġcom": 1818, "ĠÐ´ÐµÑĢ": 1819, "ĠÐ·Ð°Ð¼ÐµÑĤ": 1820, "Ð½Ð°Ñĩ": 1821, "Ð»Ð°Ð½": 1822, "qu": 1823, "Ġit": 1824, "ÑĤÐ¾Ñĩ": 1825, "Ð´ÐµÑĢÐ¶": 1826, "ĠÑĥÐ¿ÑĢÐ°Ð²": 1827, "ĠÐ¿ÑĢÐ¾Ð¸Ñģ": 1828, "Ð´Ð°ÐµÑĤ": 1829, "ĠÑħÐ¾ÑĤÑı": 1830, "ia": 1831, "ÑĦÑĦ": 1832, "ĠÑģÑĢÐ°Ð·Ñĥ": 1833, "ĠÐºÐ°Ð¶Ð´": 1834, "ĠÐºÐ¾Ð½Ðµ": 1835, "up": 1836, "ĠÐ²Ð°Ð¶": 1837, "Ð¾ÑĢÐ¸": 1838, "ĠÑĪÐº": 1839, "ÑīÑĳ": 1840, "ĠÐ°Ð¿": 1841, "ĠÑĥÑĩ": 1842, "if": 1843, "ĠÐ²Ð½Ðµ": 1844, "ĠÐ¡ÑĤ": 1845, "ÑĤÐ¸Ð¹": 1846, "ĠÐµÑĳ": 1847, "ĠÐ¿ÐµÑĢÐ²": 1848, "ÑĳÐ¼": 1849, "ÑģÐºÐ¾Ð»ÑĮ": 1850, "ĠÐºÐ°ÐºÐ¾Ð¹": 1851, "ĠÑģÑĤÐ°ÑĤÑĮ": 1852, "ÑĢÑĥÑİ": 1853, "ĠÑĤÑĢÑĥÐ´": 1854, "ÑĭÐ²Ð°ÑĤÑĮ": 1855, "ĠÐ¿Ð¾Ð¼Ð¾Ñī": 1856, "ĠÐ¿Ð¾ÐºÐ°Ð·": 1857, "ĠÑģÐ½Ð¾Ð²Ð°": 1858, "Ð¾Ð±ÑīÐµ": 1859, "ĠÐ¡Ð¾": 1860, "ÑĤÑĥÑĢ": 1861, "ĠÐ¿ÑĢÐ¾ÐµÐº": 1862, "ill": 1863, "Ð¾Ð³Ñĥ": 1864, "ÑıÐ²Ð¸": 1865, "ÑĢÐµÐº": 1866, "Ð²Ð°ÑİÑĤ": 1867, "ity": 1868, "Ð¾Ð»Ð°": 1869, "ĠÐĲÑĢ": 1870, "ĠÐ´Ð²Ðµ": 1871, "ĠÑĥÐ¼": 1872, "ÑĩÐµÑģÐºÐ¾Ð¹": 1873, "ĠÐ½Ð°Ðº": 1874, "ĠÐºÐ¾Ð¼Ð°Ð½": 1875, "ÐºÐ°Ð¼": 1876, "Ġ199": 1877, "ÑģÐ»ÑĥÐ¶": 1878, "ĠÐ¼Ð¸Ð½ÑĥÑĤ": 1879, "ÑģÐºÐ¾Ðµ": 1880, "ĠÐ¿Ð¾Ð»ÑĥÑĩÐ¸": 1881, "ĠÐ»ÑĥÑĩÑĪÐµ": 1882, "ĠÐ¿ÑĢÐ¾ÑĦ": 1883, "ÐºÐ¾Ð²Ð¾Ð´": 1884, "Ð¾Ð·Ñı": 1885, "ÑıÑĤÑģÑı": 1886, "ÑĤÐµÐ»Ñı": 1887, "ĠÐ´ÑĢÑĥÐ³Ð¸Ñħ": 1888, "ĠÐºÐ¾Ð½ÑĤ": 1889, "ber": 1890, "Ð¾ÑĢÐ°": 1891, "ud": 1892, "ÑĭÐ²Ð°ÐµÑĤ": 1893, "ĠÐ²ÑģÐ¿": 1894, "ĠÐłÐµ": 1895, "Ð¿Ð°Ð´": 1896, "ĠÑĥÑģÐ»Ð¾Ð²": 1897, "ÑĳÑĤ": 1898, "ate": 1899, "Ð¾Ð¶ÐµÑĤ": 1900, "Ð°Ð»ÑĮÐ½ÑĭÑħ": 1901, "ĠV": 1902, "ĠÑĥÐ²": 1903, "ĠÑħÐ¾ÑĢÐ¾ÑĪÐ¾": 1904, "Ð¾Ð»Ð¾Ð´": 1905, "ĠÑĨÐµÐ»": 1906, "ĠÑħÐ¾Ð´": 1907, "Ð±Ð»Ð¸": 1908, "Ð²Ð°Ð»Ð°": 1909, "ĠÑĤÑĭÑģÑı": 1910, "ĠÑĢÐ¾ÑģÑģÐ¸Ð¹": 1911, "Ġ12": 1912, "ab": 1913, "ĠÐ¿Ð¾Ð´Ð¾Ð±": 1914, "ĠÑĥÐ»Ñĭ": 1915, "Ð¥": 1916, "ÑĤÐ¾ÑĢÐ¸": 1917, "Ð°Ð»Ñĥ": 1918, "ÑĮÐµ": 1919, "Ð¸ÑĤÑĮÑģÑı": 1920, "Ð»Ð¸Ñı": 1921, "ĠÑıÐ·Ñĭ": 1922, "Ð¿Ñĭ": 1923, "Ð°Ð»ÑĮÐ½ÑĭÐµ": 1924, "ĠÑĤÐ¸": 1925, "ĠÑģÐ¸Ð´": 1926, "ĠÐ»Ð°": 1927, "ĠÐ¿ÑĢÐ¾Ð³ÑĢÐ°Ð¼": 1928, "ĠÑĨÐ²ÐµÑĤ": 1929, "ĉĉ": 1930, "ĠÐ¿Ð¾Ð»ÑĮÐ·": 1931, "ĠÑģÑĤÐ¸": 1932, "ĠÐ±ÑĢÐ°": 1933, "ĠÐ±Ð°Ð½": 1934, "ĠÑĩÐ¸Ñģ": 1935, "Ð²ÑĭÐµ": 1936, "ĠÐļÐ¾Ð³Ð´Ð°": 1937, "ÑĤÐ¸ÑĤÑĮ": 1938, "Ġ20": 1939, "ÑĢÐ°Ð»ÑĮ": 1940, "ÑĩÐ½Ð¾Ð¹": 1941, "ĠÐ½ÐµÐ±": 1942, "ĠÐ´Ð¾Ð»Ð¶ÐµÐ½": 1943, "Ð¾Ð±Ð¾Ð´": 1944, "Ġhis": 1945, "ĠÑĤÑĢÑĥ": 1946, "Ð¸ÑĤÐµÐ»Ð¸": 1947, "ĠÐ¼Ð¾ÑĢ": 1948, "ĠÐ´Ð²ÑĥÑħ": 1949, "ard": 1950, "ĠÑĥÑĩÐ°ÑģÑĤ": 1951, "ÐµÑĢÑĭ": 1952, "ĠÐ¿ÑĢÐ¾Ð¿": 1953, "Ð²Ð°ÑĤÑĮÑģÑı": 1954, "The": 1955, "ort": 1956, "Ð¶ÐµÐ½": 1957, "ĠÑĥÑģÑĤÐ°Ð½Ð¾Ð²": 1958, "all": 1959, "ÐµÑĢÐ¾": 1960, "Ð¿ÑĢÐ¾": 1961, "ĠÐ¼ÐµÐ´": 1962, "ĠÑģÑĤÐ¾ÑĢÐ¾Ð½Ñĭ": 1963, "ĠÑĢÐµÐ³Ð¸": 1964, "ĠÑģÐ¾Ð²ÑģÐµÐ¼": 1965, "ĠÑģÑĥ": 1966, "ĠÑįÑĤÐ¸Ñħ": 1967, "ĠÐ½Ð°Ð´Ðµ": 1968, "ĠÐ¿Ð¾ÑıÐ²": 1969, "Ð¾Ð½Ð¾Ð²": 1970, "ies": 1971, "Ð¾ÐºÐ¾": 1972, "ÑĩÐ°ÑĤ": 1973, "ĠÐ²Ð¼ÐµÑģÑĤÐµ": 1974, "Ġde": 1975, "ĠÑģÐ»Ð¸": 1976, "ĠÐ±Ð¾ÑĢ": 1977, "ĠÐ¿ÑĢÐµÐ´Ð»Ð¾Ð¶": 1978, "ÑĪÐµÐ½Ð¸Ðµ": 1979, "ĠÑĥÐ²Ð¸": 1980, "Ð´Ð¸Ð²": 1981, "Ð¿Ð¸ÑģÐ°": 1982, "Ġ/": 1983, "ĠÑģÐ¾Ð¾ÑĤÐ²ÐµÑĤ": 1984, "Ð¾Ð½ÐµÑĨ": 1985, "ĠÐ¼ÐµÑģÑı": 1986, "ĠÑĢÐ°Ð·Ð³": 1987, "ĠÐ½Ð°Ð±": 1988, "ĠÐ¿Ð¾ÑģÐ¼Ð¾ÑĤ": 1989, "ĠÐ¾ÑģÑĤÐ°": 1990, "ÐµÑĢÐ±": 1991, "ĠÐ²ÐµÑģÑĮ": 1992, "ĠÐ¶ÐµÐ»": 1993, "ÐµÐ¿": 1994, "ÂłÐĴ": 1995, "Ð¾Ð´ÐµÑĢ": 1996, "ĠÐ½Ð°ÑģÑĤÐ¾Ñı": 1997, "ĠÑĥÑĢÐ¾Ð²": 1998, "Ð·Ð¾Ð²": 1999, "ÐµÐ»ÐµÐ½": 2000, "ĠÐ³Ð¾ÑĢÐ¾Ð´Ð°": 2001, "ĠÐ½Ð¸ÐºÐ¾Ð³Ð´Ð°": 2002, "ĠÐ½ÐµÐ¾Ð±ÑħÐ¾Ð´Ð¸Ð¼Ð¾": 2003, "ÐµÐ´Ð¸Ð½": 2004, "ÑīÐµÐ½Ð¸Ñı": 2005, "ĠÐ¿Ð¾ÑĩÐµÐ¼Ñĥ": 2006, "ak": 2007, "ĠÐ´ÐµÑĢÐµÐ²": 2008, "Ð°Ð»ÑĮÐ½Ð¾Ð³Ð¾": 2009, "ĠÐ¿ÑĢÐµÐºÑĢÐ°": 2010, "Ð·Ð°Ð´": 2011, "ĠÑħÐ°": 2012, "ĠÑĤÐ²Ð¾": 2013, "ub": 2014, "ore": 2015, "Ð½Ð¸ÑĨÐ°": 2016, "igh": 2017, "ĠÐ¶ÐµÐ»Ð°": 2018, "ĠÐ²ÑĭÑħÐ¾Ð´": 2019, "ĠÐ¿Ð¾Ð²ÐµÑĢ": 2020, "ÑģÑĤÑĢÐ¾Ð¹": 2021, "ÑĤÐ¸Ð»": 2022, "ĠÑģÐºÐ°Ð·Ð°ÑĤÑĮ": 2023, "ĠÐºÐ¾ÑĤÐ¾ÑĢÐ¾Ð³Ð¾": 2024, "Ð°ÑĢÐ°": 2025, "ĠÐ¾ÑĦÐ¸": 2026, "ĠÐ²ÑĭÐ¿Ð¾Ð»": 2027, "ĠÐ¼Ð¸Ð»": 2028, "Ð¸ÑĤÑĥÐ°": 2029, "ÑĩÐµÑģÑĤÐ²Ð¾": 2030, "ĠÑģÐ»Ð¾Ð¶": 2031, "ÂłÐŁ": 2032, "Ð¶Ð¸Ð¼": 2033, "ian": 2034, "ÐºÐ¾Ð³Ð¾": 2035, "ĠÐ¾Ð±Ð¾": 2036, "ÑĪÐºÐ¾Ð¼": 2037, "ĠÑĢÑĥÐºÐ¸": 2038, "ĠÐ¿ÑĢÐµÐ·": 2039, "Ð±Ð¸ÑĢÐ°": 2040, "ĠÐ¡ÐµÑĢ": 2041, "ÑĤÐ°Ð½": 2042, "ĠÐ·Ð°Ð´Ð°": 2043, "ĠÑģÑĤÑĢÐ°Ð½": 2044, "ĠÐ´ÐµÑģÑı": 2045, "ĠÐŀÐ´Ð½Ð°ÐºÐ¾": 2046, "ÑģÐ¸Ð¸": 2047, "ĠÑģÐ´ÐµÐ»Ð°ÑĤÑĮ": 2048, "Ð¨ÐĲ": 2049, "ÑĢÐ°Ð±Ð¾ÑĤ": 2050, "ap": 2051, "ĠÐłÐ°Ð·": 2052, "ĠÑĤÐ¾Ð»": 2053, "ĠÑĩÐ¸": 2054, "ĠÑģÐ¾Ñģ": 2055, "ĠÐ·Ð°Ð½Ñı": 2056, "ĠÑĤÐµÑĢÑĢÐ¸": 2057, "ĠIn": 2058, "ĠÐ¾Ð´Ð½Ð¾Ð¹": 2059, "ĠÐ·Ð½Ð°Ñİ": 2060, "ÑıÐ·Ð°": 2061, "ĠÐ³Ð¾Ð²Ð¾ÑĢ": 2062, "Ð¾ÐºÐ¾Ð¹": 2063, "ÐµÐ·Ð´": 2064, "ld": 2065, "ĠÑįÐºÐ¾Ð½Ð¾Ð¼": 2066, "ĠÐºÐ¸": 2067, "ĠÑģÐµÐº": 2068, "ĠÐ²ÑĤÐ¾ÑĢ": 2069, "ÑħÐ¾": 2070, "ich": 2071, "ĠÐµÑīÑĳ": 2072, "ĠÑĥÐ»ÑĭÐ±": 2073, "Ð²ÐµÑģÑĤÐ¸": 2074, "ĠÐŁÐµÑĤ": 2075, "ĠÐ·Ð°Ð¼": 2076, "Ð´Ð°Ð»": 2077, "ÑıÐ¼": 2078, "ĠÐ±Ð¾Ð»": 2079, "ĠÐŁÐµÑĢ": 2080, "ĠÐ¾ÑĩÐµÑĢÐµÐ´": 2081, "Ð½ÑĥÐ»Ð°ÑģÑĮ": 2082, "ĠÐ¼Ð¾Ð¼ÐµÐ½ÑĤ": 2083, "ov": 2084, "Ð¶Ð´ÑĭÐ¹": 2085, "ĠÐłÐ°": 2086, "ÑĤÑĥÑĢÑĭ": 2087, "ÑģÑĤÑĥÐ¿Ð°": 2088, "ĠÑįÑĤÑĥ": 2089, "ĠÐ¸Ñİ": 2090, "ĠÐºÐ¾Ð½ÐµÑĩÐ½Ð¾": 2091, "ĠÑĢÐµÐ±": 2092, "ear": 2093, "ÑĢÐµÑĤÑĮ": 2094, "ĠÑĩÐ°ÑģÑĤÐ¸": 2095, "ĠÑĥÐ»Ð¸": 2096, "ĠÑĢÐ¾": 2097, "ĠÑģÐºÐ°": 2098, "ÑĨÐµÐ½": 2099, "ĠÐ²Ð¸Ð´Ðµ": 2100, "ĠÐľÐ°ÑĢ": 2101, "ÑĩÐ°ÑĤÑĮ": 2102, "ĠÑĢÑĥÐºÐ¾Ð²Ð¾Ð´": 2103, "ĠÐ¿ÑĢÐ°Ðº": 2104, "ÑĢÐ¾Ð·": 2105, "Ð²Ð¸Ð½": 2106, "ĠÐ´ÑĢÑĥÐ³Ð¾Ð¹": 2107, "ĠÐ±ÐµÑĢÐµ": 2108, "ĠSt": 2109, "Ð°Ð»ÑĮÐ½ÑĭÐ¹": 2110, "Ð»Ð°Ð´Ð¸": 2111, "ĠÐŁÐ¾ÑģÐ»Ðµ": 2112, "ĠÐ¿Ð¾Ð´Ð½Ñı": 2113, "ĠÐºÐ¾ÑĤÐ¾ÑĢÐ¾Ð¼": 2114, "ĠÐºÐ¾Ð¼Ð½Ð°": 2115, "Ð½Ð¸ÑĤÐµÐ»ÑĮ": 2116, "ĠÐ¸Ð³ÑĢÐ°": 2117, "ÑģÑĤÐ²Ð¸Ðµ": 2118, "ĠÑģÐ¼Ðµ": 2119, "Ð»ÐµÐºÑĤ": 2120, "ĠÑģÐ¸ÑĤÑĥÐ°": 2121, "ĠÑįÐºÑģÐ¿": 2122, "Ġ17": 2123, "ĠÐļÐ¾Ð½": 2124, "ĠÐ´Ð¾Ð»Ð¶Ð½Ñĭ": 2125, "ĠÐ¸Ð½ÑĤÐµÑĢ": 2126, "ÑģÐºÑĥÑİ": 2127, "Ð°Ð½ÑĤ": 2128, "ĠÑĤÐ¾Ð²Ð°": 2129, "ess": 2130, "Ð·Ñı": 2131, "ĠÐºÑĥÑĢ": 2132, "ÑģÑĤÐ°Ð²Ð¸ÑĤÑĮ": 2133, "Ð¾Ð±ÑĢÐ°Ð·": 2134, "ÐºÐ°Ñı": 2135, "ÂłÐĶ": 2136, "ÑĩÐ°Ð»": 2137, "Ġor": 2138, "ĠÐ¿Ð»Ðµ": 2139, "ĠÐ´Ð²Ð¸Ð¶": 2140, "ĠÐ²Ð¾Ð¾Ð±ÑīÐµ": 2141, "ÑĪÑĥ": 2142, "ÑĢÐ°Ð±": 2143, "Ġr": 2144, "ĠÐ¡Ð¨ÐĲ": 2145, "ĠÑģÐ¼ÐµÑĢ": 2146, "ÑĩÐºÐ°": 2147, "ip": 2148, "ĠÑģÑĥÐ¼": 2149, "Ð²Ð°Ð½Ð¸Ñı": 2150, "ĠÐĽÐ¸": 2151, "ĠÐ½Ð°ÑĢÐ¾Ð´": 2152, "ÑĩÐ¸ÑĤÑĮ": 2153, "ÑģÑĤÐ²ÑĥÐµÑĤ": 2154, "ÐµÐ½ÑĤÐ¾Ð²": 2155, "ĠÐ±ÑĭÑģÑĤÑĢÐ¾": 2156, "Ð¾Ð¼Ð¸Ð½Ð°": 2157, "ĠÐ½Ð°Ð·Ð°Ð´": 2158, "ĠÑģÐ²Ð¾Ðµ": 2159, "ÑĩÐµÑģÐºÐ¾Ð³Ð¾": 2160, "ĠÑģÐ°": 2161, "ĠÑģÐ¾Ð¿": 2162, "ÑīÐ¸ÑĤ": 2163, "ĠÐ´Ð¾ÑģÑĤÐ°": 2164, "Ð½Ð°Ñħ": 2165, "Ð½ÐµÐ½Ð¸Ñı": 2166, "ÑĥÐ³": 2167, "Ð¼Ð¸Ð½Ð¸": 2168, "Ð´Ð¾Ð²": 2169, "ĠÐ¿ÑĢÐ¾Ð²Ð¾Ð´": 2170, "ĠÐŁÐ¾ÑĤ": 2171, "ĠÑģÐ¾Ð²ÐµÑĤ": 2172, "ĠÐ¿ÑĢÐ¾Ð´Ñĥ": 2173, "ĠÑĤÐ°ÐºÐ¾Ðµ": 2174, "ĠÐ¾Ð±ÑĢÐ°Ð·Ð¾Ð¼": 2175, "ÐĿÐ°": 2176, "ĠÐ¶ÐµÐ½ÑīÐ¸": 2177, "ĠÐ¿ÑĢÐ¾Ñģ": 2178, "ÑĨÐ¸Ð°Ð»Ð¸": 2179, "ĠÐµÐ´Ð¸Ð½": 2180, "ĠÐ¸Ð´Ðµ": 2181, "ĠÐ±ÐµÐ»": 2182, "ĠÑĢÐ°Ð·Ð²Ð¸ÑĤ": 2183, "ĠÑįÑĤÐ¸Ð¼": 2184, "ĠÑĥÑģÐ¿": 2185, "ant": 2186, "ÂłÐ¢": 2187, "ÐµÑģÑĤ": 2188, "ĠÐºÐ¾Ð»Ð¸": 2189, "ĠÐ²Ð¿Ðµ": 2190, "ĠÐºÐ°Ð·": 2191, "__": 2192, "ĠÐ²Ð·Ð³Ð»ÑıÐ´": 2193, "ated": 2194, "Ð²Ð°Ð»ÑģÑı": 2195, "ĠÑģÐ²ÑıÐ·": 2196, "ĠÐ¾Ð´Ð½Ð°": 2197, "ÐµÐ½Ð½Ð¾Ð³Ð¾": 2198, "ĠÑĥÐ´Ð¸Ð²": 2199, "ĠÑģÐ²Ð¾Ð¸Ð¼": 2200, "ÑĤÐ¾ÑĩÐ½Ð¾": 2201, "ĠÐ¿ÑĢÐ¸Ð·Ð½Ð°": 2202, "Ð½Ð¸ÑĨÑĭ": 2203, "ĠÐ¾Ð¿ÐµÑĢÐ°": 2204, "ĠÐ²ÐµÑģ": 2205, "ÑĨÐ¸ÐµÐ¹": 2206, "ĠÑĥÐºÑĢÐ°": 2207, "ĠÐºÑĢÐ¾Ð²": 2208, "ÑģÑĤÐ²ÐµÐ½Ð½Ð¾Ð¹": 2209, "Ð³Ð»Ð°": 2210, ".,": 2211, "ĠÐ¸Ð´": 2212, "Ġare": 2213, "!!": 2214, "ĠÐĲÐ»ÐµÐºÑģÐ°Ð½Ð´": 2215, "ÐµÐ´ÐµÑĢÐ°": 2216, "ive": 2217, "ĠÐ¼Ð¾Ð¹": 2218, "ĠÑģÐ¾Ð²ÐµÑĢÑĪ": 2219, "ĠÐĽÑİ": 2220, "Ð»Ð¾Ð½": 2221, "ĠÑĤÐ¾Ð¼Ñĥ": 2222, "ĠÐ¼ÐµÑģÑĤÐ°": 2223, "ĠÐºÐ»Ð¸": 2224, "201": 2225, "Ð¿Ð°Ñģ": 2226, "ĠÐŁÐ¾Ð»": 2227, "ĠÐŁÑĥ": 2228, "ĠÐ¿ÐµÑĢÐ¸": 2229, "ĠÐľÐ¸": 2230, "ĠÐ¡Ð¾Ð²": 2231, "Ð¾Ð²Ð°Ñı": 2232, "ĠÐ´Ð²ÐµÑĢ": 2233, "ÑĩÐ½ÑĭÐ¹": 2234, "Ð²Ð°Ð½Ð¸Ðµ": 2235, "ĠÐ¾Ð´Ð½Ð¾Ð³Ð¾": 2236, "Ð°ÑĤÑĮ": 2237, "ĠÑģÐ¾ÑĤÑĢÑĥÐ´": 2238, "Ġ0": 2239, "ĠÐ´ÐµÐ»Ð°ÑĤÑĮ": 2240, "ĠÐºÐ¾Ð¼Ð¿Ð°Ð½Ð¸Ð¸": 2241, "ĠÑĥÐ·": 2242, "ÑĢÑİ": 2243, "ÑĢÐ°Ñħ": 2244, "ĠÐ¿ÑĢÐ¾Ð´Ð°": 2245, "ĠÑĤÑıÐ¶": 2246, "ÑĩÐ°ÑģÑĤ": 2247, "Ð½Ð¾Ñģ": 2248, "ÑĪÐ»Ð¾": 2249, "ĠÐºÑĢÐ°Ñģ": 2250, "Ð½Ð°Ð»Ð¸": 2251, "ĠÐ²ÑĢÐµÐ¼ÐµÐ½": 2252, "ÑĪÐ°ÑĤÑĮ": 2253, "Ð¶Ð´Ð°": 2254, "ĠÐĿÐ¸": 2255, "ĠÐ³ÑĢÐ°Ð¶": 2256, "ÑĩÐµÑģÐºÐ¸Ðµ": 2257, "ĠÐ¼Ð¸Ð½Ð¸": 2258, "ĠÐ³Ð¾ÑĤÐ¾Ð²": 2259, "Ð½Ð°Ð´": 2260, "Ġ16": 2261, "ĠÐ¿ÑĢÐµÐ´Ð¿ÑĢÐ¸": 2262, "ĠÐ¡Ð°Ð¼": 2263, "ĠÐ·Ð°Ð¼Ðµ": 2264, "Ð¾ÑĢÐ¾Ð¶": 2265, "Ð´Ð¶": 2266, "ĠÐ´ÐµÐ²ÑĥÑĪ": 2267, "ĠÐ¿Ð¾Ð»Ð¸": 2268, "Ð¶ÐµÑĤÑģÑı": 2269, "ĠÐ¿ÑĢÐ¸ÑħÐ¾Ð´": 2270, "ĠÑĥÐ²ÐµÑĢ": 2271, "Ð¼ÐµÐ½ÑĤ": 2272, "ĠÑĤÑĢÐ°Ð½": 2273, "ÑĤÐµÐ½": 2274, "Ð°ÐºÑģ": 2275, "ĠÐ¸Ð½ÑģÑĤ": 2276, "ĠÐ½ÐµÐºÐ¾ÑĤÐ¾ÑĢÑĭ": 2277, "ĠÐ³Ð»ÑĥÐ±": 2278, "ÑĨÐ¾Ð²": 2279, "ĠÑģÐ»Ðµ": 2280, "ĠÐ½Ð¾ÑĢ": 2281, "ĠÐ²ÑĭÐ·": 2282, "ĠÐ½Ð¾Ñģ": 2283, "ÑĪÐµÐµ": 2284, "ÑīÐ°ÐµÑĤ": 2285, "ĠÑĥÑģÐ¿Ðµ": 2286, "Ġ11": 2287, "ĠÑħÐ¾Ð·Ñı": 2288, "ÑĥÐ¶Ð´": 2289, "ĠÐ²Ð¾Ð·Ð´Ñĥ": 2290, "ĠÑģÐ°Ð¼Ð¾": 2291, "Ð¾Ð»ÐµÑĤ": 2292, "ĠÐ¿Ð¾Ð¹": 2293, "ÑĤÐµÐ»ÐµÐ¹": 2294, "ĠÐºÐ²Ð°ÑĢ": 2295, "ĠÐ¾ÑģÑĤÐ°Ð²": 2296, "ĠÐµÐ²": 2297, "ÑıÐ±ÑĢÑı": 2298, "ĠÐ´Ð½Ñı": 2299, "ÑĪÐºÐ¸": 2300, "ĠÑĩÐ°ÑģÑĤÑĮ": 2301, "ĠÐ²ÐºÐ»Ñİ": 2302, "ĠÐ³Ð°Ð·": 2303, "ĠÐ¿ÑĢÐ¾Ð´ÑĥÐº": 2304, "ÑĢÑĥÐ¶Ð¸": 2305, "ÐºÐ¸Ð¼": 2306, "se": 2307, "ĠÐ´Ð¾ÐºÑĥ": 2308, "ĠÐ¼Ð¸ÑĢ": 2309, "ÑıÑĤÐ½Ð¾": 2310, "Ð³Ð»Ð¸": 2311, "ĠÐ´ÐµÑıÑĤÐµÐ»ÑĮ": 2312, "ÐµÐºÑĤÐ¸Ð²": 2313, "Ð¿ÐµÑĢÐ°": 2314, "Ð¾Ð»ÑĮÑĪ": 2315, "ge": 2316, "ĠâĢ": 2317, "ÑĥÑĤÑĮ": 2318, "ĠÐºÑĥÐ´Ð°": 2319, "ĠÐķÐ³Ð¾": 2320, "end": 2321, "our": 2322, "ĠÑģÐºÐ°Ð·Ð°Ð»Ð°": 2323, "ÑģÐ¸Ð¾Ð½": 2324, "Ð½ÐµÐ²": 2325, "ĠÐ¡ÑĤÐ°": 2326, "ĠÐŀÑģ": 2327, "ÑĤÐ¸ÑĩÐµÑģÐºÐ¸": 2328, "ÐµÐ½ÐµÑĢÐ°": 2329, "Ð»ÑİÑĩ": 2330, "ÑĤÐ¾ÑĢÐ¸Ð¸": 2331, "ĠÑĢÐ°Ð´Ð¸": 2332, "ĠÐļÐ¾Ð¼": 2333, "Ð°Ð½Ð°": 2334, "og": 2335, "Ġex": 2336, "ĠÐ·Ð°Ð²": 2337, "ĠÑģÐ¾Ð±Ð¸ÑĢÐ°": 2338, "Ð²ÑĪÐ¸Ñħ": 2339, "ÑģÑĤÑĢÐ¸": 2340, "ĠÐ¾Ð±ÐµÑģÐ¿Ðµ": 2341, "Ð´Ð¾Ñħ": 2342, "ĠÐºÐ¾Ð½ÑĨÐµ": 2343, "Ð¸Ð½Ð¾Ð¹": 2344, "ÐºÐ½ÑĥÐ»": 2345, "ÑģÑĤÐ¾ÑıÐ½": 2346, "Ð¾Ð»Ð¾Ð²": 2347, "Ġpl": 2348, "ĠÐ¿Ð¾Ð¼Ðµ": 2349, "ĠÐ³ÑĥÐ±": 2350, "ĠÑģÐ»ÐµÐ´ÑĥÑİÑī": 2351, "ĠÐ¾ÑĤÑģ": 2352, "ĠÑģÑĤÐ¾Ð¸ÑĤ": 2353, "ĠÐ¸Ð½ÑĤÐµÑĢÐµÑģ": 2354, "ĠÐ³Ð°": 2355, "ÑĪÐºÐ°": 2356, "ÑīÐµÐ½Ð¸Ðµ": 2357, "ÑĩÐ°ÐµÑĤ": 2358, "Ð¡Ð¡": 2359, "nt": 2360, "ĠÐ¾Ð´Ð½Ð¾": 2361, "Ð»Ð¾ÑĤ": 2362, "ĠÑģÐ¿ÑĢÐ¾ÑģÐ¸Ð»": 2363, "ĠÐ¾ÐºÐ¾Ð»Ð¾": 2364, "ÑīÐµÐ½": 2365, "Ġse": 2366, "ĠÑĥÑĩÐ°ÑģÑĤÐ¸": 2367, "ÐµÐ»ÐµÐ¼": 2368, "Ġch": 2369, "ÑģÑĤÐ²Ð¸Ñı": 2370, "ÂłÐĲ": 2371, "ere": 2372, "ÑģÑĤÐ²Ð¾Ð²": 2373, "Ð´ÐµÑĢÐ¶Ð¸": 2374, "Ð¾Ð·Ð½Ð°": 2375, "ÑĤÐ¸Ð¸": 2376, "Ð³Ð¾Ð´Ð°ÑĢ": 2377, "Ð¾Ð¿Ð°Ñģ": 2378, "ĠÑħÐ°ÑĢÐ°Ðº": 2379, "ÑĳÐ»": 2380, "ÑĢÐ°Ð¼": 2381, "ĠÐ¾Ð±ÑĬÑıÑģ": 2382, "und": 2383, "ĠÐ¼Ð°ÑĤ": 2384, "ÑģÐ¸Ð»Ð¸": 2385, "ell": 2386, "ĠÐĿÐµÑĤ": 2387, "ĠÑĤÐ°ÐºÐ¸Ðµ": 2388, "ÑĤÐ°Ð¼Ð¸": 2389, "ĠÐ¿ÑĢÐµÐ´ÑģÑĤÐ°Ð²Ð»Ñı": 2390, "ĠÐ¿Ð¾ÑįÑĤÐ¾Ð¼Ñĥ": 2391, "ĠÐºÑĢÑĭ": 2392, "ĠÐ´ÑĢÑĥÐ³Ð¸Ðµ": 2393, "ĠÐ¿ÑĢÐ¸Ð·": 2394, "ĠÐ¼Ð¾Ð´": 2395, "ĠÐ¾ÑģÑĤÐ°Ð½Ð¾Ð²": 2396, "ĠÐ¸Ð¼ÐµÐµÑĤ": 2397, "ĠÐ³Ð¾Ð»Ð¾Ð²Ñĥ": 2398, "ĠÐºÑĢÑĥÐ¿": 2399, "ĠÑģÐ¾Ð´ÐµÑĢ": 2400, "ĠÐ¾ÑĤÐ»Ð¸": 2401, "ĠÑĢÐµÐ´": 2402, "ÑĩÐµÑģÐºÐ¸Ð¹": 2403, "ect": 2404, "ĠÐ¿ÑĢÐ¾Ð¼": 2405, "ĠÑĢÑıÐ´Ð¾Ð¼": 2406, "ĠÐłÐ¤": 2407, "ĠÐ¿Ð¾ÑĢÑıÐ´": 2408, "Ð½Ð¸ÐºÐ¾Ð¼": 2409, "ĠÑģÐ»Ð¸ÑĪÐºÐ¾Ð¼": 2410, "ĠÑģÑĤÐ°ÑĢ": 2411, "ĠÐ·Ð°Ð½Ð¸Ð¼Ð°": 2412, "ĠÐºÐ¾Ñģ": 2413, "Ð¾Ð»Ð¾Ð³": 2414, "ment": 2415, "ong": 2416, "ĠÐ¸ÑģÐ¿Ð¾Ð»": 2417, "Ġ14": 2418, "ĠÑģÐ°Ð¼Ð¸": 2419, "ĠÐ¿ÑĢÐµÐ·Ð¸Ð´": 2420, "ial": 2421, "ĠÐ¼Ð¸ÑĢÐ°": 2422, "ÑĢÐ°Ñģ": 2423, "ĠĠ": 2424, "ĠÐºÐ°Ð½": 2425, "ine": 2426, "ĠÐ¼Ð°Ð»ÐµÐ½ÑĮ": 2427, "Ð¼ÐµÑĢÐ¸ÐºÐ°Ð½": 2428, "Ð´ÐµÐ»ÑĮ": 2429, "Ð°Ð½Ðº": 2430, "Ð»ÐµÐ½Ð¸Ð¸": 2431, "ĠÐ¾Ð±Ð½Ð°": 2432, "ĠÐ¿ÑĢÐ¸Ð¼ÐµÑĢ": 2433, "Ð´ÑĨÐ°ÑĤÑĮ": 2434, "ÑĭÐ¼Ð¸": 2435, "ĠÐºÐ»Ð°Ñģ": 2436, "ĠÐ°Ð³": 2437, "ĠÑģÑĤÐ°Ð»Ð¾": 2438, "ÐµÑĤÐ¸": 2439, "ÑĢÐ¸Ð½": 2440, "ĠÐ´ÑĥÑħ": 2441, "Ìģ": 2442, "ĠÑĨÐ¸": 2443, "ÑĭÐ²Ð°ÐµÑĤÑģÑı": 2444, "Ð´ÐµÐ¼": 2445, "Ð¾Ð»Ñı": 2446, "ĠÐ¼Ð¾Ð³Ñĥ": 2447, "ary": 2448, "ÑģÐºÐ¾Ð²": 2449, "ĠÐĵÐ¾Ñģ": 2450, "Ð²ÑĭÐ¹": 2451, "ĠÑģÐ¾ÑģÑĤÐ°Ð²": 2452, "ĠÐ¿ÑĢÐµÐ¶": 2453, "ĠÐ¿ÑĢÐ¾Ð²ÐµÐ´": 2454, "Ġ194": 2455, "ĠÑģÐ°Ð¼Ð¾Ð¼": 2456, "Ð¸ÑĤÐ¸ÑĩÐµÑģÐº": 2457, "ĠÑģÑĤÐ°Ð»Ð¸": 2458, "Ð·Ð°ÑĤÑĮ": 2459, "Ð»Ð¾Ðº": 2460, "ĠÐĴÐ»Ð°Ð´Ð¸": 2461, "ĠÐ´Ð¾Ð³": 2462, "ĠÐ´ÐµÐ»Ðµ": 2463, "ĠÐ¾Ð±ÑıÐ·Ð°": 2464, "ĠÐľÐ½Ðµ": 2465, "ÑĩÐ½ÑĭÑħ": 2466, "ÑĤÐ¾Ð½": 2467, "ĠÐ¼ÐµÑģÑĤÐµ": 2468, "ĠÐ´Ð¾ÑģÑĤÐ¸": 2469, "ĠÐ¿Ð¾Ð»ÑĥÑĩÐ°": 2470, "ĠÐ²Ð´ÑĢÑĥÐ³": 2471, "ĠÑģÑĤÐ°Ð½Ð¾Ð²": 2472, "Ð²ÐµÑĢÑħ": 2473, "ĠÑĢÐ°Ð·Ð»Ð¸Ñĩ": 2474, "ame": 2475, "ĠÑĩÐµÑĤÑĭ": 2476, "ÐµÑĢÐ¾Ð²": 2477, "Ð´Ð°Ð½Ð¸Ñı": 2478, "10": 2479, "Ð²Ð¸Ð³Ð°": 2480, "ĠÐ¿ÑĢÐ¸Ð½": 2481, "Ð»ÐµÐ½Ð½Ð¾": 2482, "ĠÑĩÐ°ÑģÑĤ": 2483, "Ð²Ð°ÐµÐ¼": 2484, "ĠÐ´Ð°Ð»Ðµ": 2485, "ĠÐºÐ¾ÑĤÐ¾ÑĢÐ¾Ðµ": 2486, "ĠCh": 2487, "ast": 2488, "ĠÐ¾Ð³ÑĢÐ¾Ð¼": 2489, "ĠÑĩÐµÑĤ": 2490, "ĠÐ½Ð°ÑĩÐ¸Ð½Ð°": 2491, "ĠÑĥÑģ": 2492, "ĠÑģÐºÐ¾ÑĢÐ¾": 2493, "ÑİÐ´Ð°": 2494, "ĠÐ²ÐµÑĤ": 2495, "ĠÑģÑĢÐµÐ´Ð¸": 2496, "ÑĩÐ½ÑĭÐµ": 2497, "ĠÐ¿Ð¾ÑĤÐµÑĢ": 2498, "ÐºÐ¾Ð½": 2499, "ĠÐ½ÐµÐ¼Ð½Ð¾Ð³Ð¾": 2500, "ĠÐ¼Ð»": 2501, "ĠÐĽÐµ": 2502, "ÑĦÐ°": 2503, "ĠÐ½Ð¸ÐºÑĤÐ¾": 2504, "ĠÑģÐ»Ð¾Ð²Ð½Ð¾": 2505, "Ð¸Ð½Ð¾Ð²": 2506, "ĠÑĢÑĥÐºÑĥ": 2507, "Ð²ÑĪÐ¸Ðµ": 2508, "Ð¾Ð²ÑĭÐ¼": 2509, "ĠÐ¿ÑĢÐ¾Ðº": 2510, "Ġ13": 2511, "ĠÐ·Ð°ÑĤÐµÐ¼": 2512, "ĠÐ·Ð°ÐºÑĢÑĭ": 2513, "ÑĩÐ½Ð¾Ð³Ð¾": 2514, "Ð´Ñı": 2515, "Ð°Ð»Ð¾Ð²": 2516, "Ð¾Ð³Ðµ": 2517, "ĠÐ¿ÑĢÐ¾Ð´Ð¾Ð»Ð¶": 2518, "ĠÐ²Ð½ÑĥÑĤ": 2519, "ĠÐ·Ð´Ð¾ÑĢ": 2520, "ĠÐ±ÑĥÐ´ÑĤÐ¾": 2521, "ĠÐ¶Ð¸": 2522, "ÑĤÑĭÐ¹": 2523, "ĠÐ²Ð¾Ðº": 2524, "ĠÐ¿Ð¾ÑģÑĤÐ¾ÑıÐ½": 2525, "ĠÑģÐ¿ÐµÑĨÐ¸Ð°Ð»ÑĮ": 2526, "ÑģÐ¸Ñħ": 2527, "gh": 2528, "ÑĪÐµÐ¼": 2529, "ĠÐ·Ð°Ð³": 2530, "ost": 2531, "ĠÑģÐ»Ð°": 2532, "ĠÐ´ÐµÑĤÐµÐ¹": 2533, "Ð´ÑĮ": 2534, "Ð½Ð°Ð¼Ð¸": 2535, "ĠÑĤÑĢÐµÐ±": 2536, "ĠÐºÑĥÐ»ÑĮ": 2537, "ÑĢÐ¸Ð»": 2538, "ĠÐ¸Ð·Ð¼ÐµÐ½": 2539, "Ð´ÑĥÐ¼": 2540, "ÑģÑĤÐ¾Ðº": 2541, "ok": 2542, "Ð½Ð¸ÑĨ": 2543, "ĠÐºÐ¾Ð½ÑĤÑĢ": 2544, "ÑİÑīÐµÐ¹": 2545, "ÑĢÐ¾Ð¶": 2546, "Ð»ÑıÑĢ": 2547, "ĠÐ³Ð¾Ð²Ð¾ÑĢÐ¸ÑĤ": 2548, "ÑĦÐµÑĢ": 2549, "ÂłÐ¯": 2550, "ĠÑĢÐ°ÑģÐ¿Ð¾Ð»": 2551, "ĠÐºÐ°Ð¶Ð´ÑĭÐ¹": 2552, "ĠÑģÑĤÑĢÐ°Ð½Ñĭ": 2553, "ĠX": 2554, "Ġ30": 2555, "ÑģÑĤÑĥÐ¿Ð¸": 2556, "ÑģÐºÐµ": 2557, "ĠÐ´Ð¾Ð²": 2558, "ĠÐ¼ÐµÑĢ": 2559, "ĠÐ¼Ñı": 2560, "ÐºÐ»Ð°": 2561, "000": 2562, "Ð°Ð³Ð°": 2563, "ĠÑģÐ¼Ð¾Ð³": 2564, "ÑģÑĤÐ°Ð»": 2565, "ĠÐ¿Ð¾Ð±ÐµÐ´": 2566, "ĠÑĤÐ°ÐºÐ¸Ñħ": 2567, "ĠÑģÐ¾Ð²ÑĢÐµÐ¼ÐµÐ½": 2568, "ĠÐ°Ð²ÑĤÐ¾Ð¼Ð¾Ð±": 2569, "ĠÐ½Ð¾Ð²Ð¾": 2570, "ĠÐ¼Ð¸Ð»Ð»Ð¸": 2571, "ÑĩÐ¸Ðº": 2572, "ĠÑįÐ½ÐµÑĢ": 2573, "ĠÑģÐ¾Ð³Ð»Ð°Ñģ": 2574, "ÑĳÑĢ": 2575, "ÑħÐ¾Ð²": 2576, "ord": 2577, "Ġwere": 2578, "ĠÑĢÐµÐ±ÐµÐ½": 2579, "ĠÑģÑĤÐ¾ÑĢÐ¾Ð½Ñĥ": 2580, "ĠÐ¾ÑĤÐ¼ÐµÑĤ": 2581, "ÑıÐµÑĤ": 2582, "Ð½Ð°ÑĢÐ¾Ð´": 2583, "ĠÐ·Ð½Ð°ÐºÐ¾Ð¼": 2584, "ÑģÑĤÐ²ÐµÐ½Ð½Ð¾Ð³Ð¾": 2585, "ĠÐ½Ð°Ð±Ð»Ñİ": 2586, "ÑĦÐ¾Ð½": 2587, "ĠÐºÐ¾ÑĤÐ¾ÑĢÑĥÑİ": 2588, "Ð¼Ð¸Ð½Ð¸ÑģÑĤÑĢÐ°": 2589, "ĠÑģÑĤÐ°Ð½": 2590, "Ð»Ð¸Ð²Ð¾": 2591, "Ð¿Ð»Ð°": 2592, "ĠÑģÐ²Ð¾Ð±Ð¾Ð´": 2593, "Ð²Ñĥ": 2594, "ĠÑģÐ²Ð¸": 2595, "Ð²ÑĭÑħ": 2596, "ĠÐ¿ÑĢÐ¾Ð³": 2597, "ĠÐ¾ÐºÐ¾Ð½": 2598, "ĠÐ·Ð½Ð°Ñĩ": 2599, "ĠÐ¾Ñī": 2600, "ĠÐ¿Ð»Ð¾ÑīÐ°": 2601, "Ð¸Ð»Ð¸ÑģÑĮ": 2602, "Ð¾Ð½Ð¸": 2603, "Ġ2015": 2604, "Ð¼Ð¾Ð¶Ð½Ð¾": 2605, "ÑĩÐºÑĥ": 2606, "ÑĩÐµÐ¹": 2607, "ÑıÐ¼Ð¸": 2608, "Ð¼Ð°ÑĤÑĢÐ¸": 2609, "ÑĤÐ¾ÑĢÐ¾Ð¼": 2610, "ÑĢÐ¸Ðº": 2611, "ÑģÐ¾Ð½": 2612, "ÂłÐļ": 2613, "ĠÐ¸ÑĤ": 2614, "ĠÐ¿ÐµÑĢÐ²ÑĭÐ¹": 2615, "ĠÐºÐ¾Ð³Ð¾": 2616, "Ð½ÑĥÐ²": 2617, "ĠÑģÐ¾Ð³Ð»Ð°": 2618, "ĠÐ¼ÐµÐ½ÐµÐµ": 2619, "ÑĪÐ½Ð¾": 2620, "ÐµÐ»ÑĮÐ·Ñı": 2621, "ĠÑįÐ»ÐµÐºÑĤ": 2622, "ÑĥÐ¼Ð°Ð»": 2623, "ÑĩÐ¸Ðµ": 2624, "ÑĭÐ²Ð°ÑİÑĤ": 2625, "Ð»ÐµÐ½Ñĭ": 2626, "ÑĢÐµÐ¿": 2627, "ĠÐ²Ð¾Ð·Ð¼Ð¾Ð¶Ð½Ð¾": 2628, "ÑģÑĤÐ¾ÑıÑĤÐµÐ»ÑĮ": 2629, "ĠÑģÐ²ÑıÐ·Ð¸": 2630, "ĠÐ¶ÑĥÑĢ": 2631, "ÑĤÐ¾ÑĢÐ¾Ð²": 2632, "pp": 2633, "ĠÑĤÑĭÑģÑıÑĩ": 2634, "ĠÐ¿Ð°Ð»ÑĮ": 2635, "Ð½ÑıÑı": 2636, "Ġle": 2637, "ĠÐ¿ÑĢÐ¾ÑģÑĤ": 2638, "ĠÐ¸ÑģÑģÐ»ÐµÐ´": 2639, "ÑĢÐ¸ÑĤ": 2640, "ĠÐ»Ð¸ÑĨÐ¾": 2641, "ÑĥÑīÐµÑģÑĤÐ²": 2642, "so": 2643, "ĠÑĥÑģÐ»Ð¾Ð²Ð¸Ñı": 2644, "ĠÑĢÐµÑĪÐ¸": 2645, "red": 2646, "Ġ198": 2647, "ÂłÐ¡": 2648, "Ð¾ÑĤÐ¾": 2649, "ĠÐ¾Ð½Ð¾": 2650, "ĠÐ²ÑģÑİ": 2651, "ĠÑĦÐ¸Ð»ÑĮ": 2652, "ĠÐ²Ð¾ÑģÐ¿": 2653, "ĠÐ¿ÑĢÑıÐ¼Ð¾": 2654, "ĠÐ±ÐµÐ·Ð¾Ð¿Ð°Ñģ": 2655, "ÐµÑģÑĤÐ¸": 2656, "ĠÐ¾ÑĤÐ¿ÑĢÐ°Ð²": 2657, "ĠÑĢÑĭÐ½": 2658, "ÑĢÐµÐµ": 2659, "ĠÐľÐµ": 2660, "ÑĢÐ°Ð¼Ð¸": 2661, "ÑĤÐ°Ñħ": 2662, "ĠÐ¿Ð°Ð¼": 2663, "Ð°Ð»Ñĭ": 2664, "ĠÐ£ÐºÑĢÐ°Ð¸Ð½Ñĭ": 2665, "Ð»ÑıÑĤÑĮ": 2666, "ĠÐĶÐ¾": 2667, "ĠÑĦÑĥÐ½": 2668, "ĠÑĩÐ°ÑģÑĤÐ¾": 2669, "Ð»Ð°Ð³Ð°": 2670, "ĠÐ²ÑĭÐ¿Ñĥ": 2671, "ĠÑģÐ¼Ñĭ": 2672, "ĠÑĢÐ°ÑģÐº": 2673, "Ð´Ð°ÑĢ": 2674, "ÑĤÐ°Ð¼": 2675, "ÑģÑĤÑĢÑĥÐº": 2676, "Ġwhich": 2677, "ĠÐ²Ð¾Ð·Ð¼Ð¾Ð¶Ð½Ð¾ÑģÑĤÑĮ": 2678, "ÑĥÐ»": 2679, "ĠÑįÑĦÑĦ": 2680, "ĠÐ¢Ð¾Ð»ÑĮÐºÐ¾": 2681, "ÑĢÐ¾Ð²Ð°Ð½Ð¸Ñı": 2682, "ÑĮÐµÐ·": 2683, "ÑģÐµÐ´Ð°": 2684, "ĠÐ´Ð¾Ð²Ð¾Ð»ÑĮ": 2685, "ĠÐ¾Ð´Ð½Ð°ÐºÐ¾": 2686, "ĠÑģÐ¾ÑģÑĤÐ°Ð²Ð»Ñı": 2687, "ÐµÑĢÐº": 2688, "ĠÐ°Ð¼ÐµÑĢÐ¸ÐºÐ°Ð½": 2689, "Ġy": 2690, "ĠÐ¾Ð¶Ð¸": 2691, "18": 2692, "ĠÐ´Ð¾Ð»Ð³Ð¾": 2693, "ĠÐ¼Ð¾Ðµ": 2694, "ĠÐ°ÐºÑĤÐ¸Ð²": 2695, "ÑģÑĤÐ²ÐµÐ½Ð½ÑĭÐ¹": 2696, "ĠÑģÐ¾Ð²ÐµÑĢÑĪÐµÐ½Ð½Ð¾": 2697, "ĠÐķÐ²ÑĢÐ¾Ð¿": 2698, "ĠÐ¼Ð°ÑĪ": 2699, "ĠÐ½Ð°ÑĢÑĥ": 2700, "ĠÐ½ÐµÐ¿ÑĢÐ¸": 2701, "ĠÐ´Ð¾ÑģÑĤÐ°ÑĤÐ¾ÑĩÐ½Ð¾": 2702, "ĠÐ¿ÑĢÐµÐ´Ð¾": 2703, "Ð´ÐµÑĤÑĮ": 2704, "ĠÑħÐ²Ð°": 2705, "Ġ25": 2706, "Ð°Ð¼Ð°": 2707, "ĠÐ¼ÐµÐ½ÑĮ": 2708, "ĠÐ½ÐµÐ´Ð¾": 2709, "ĠÐºÐ°ÐºÐ¸Ðµ": 2710, "Ð¸Ð³": 2711, "ÑĢÑĥÐµÑĤ": 2712, "ĠÐ¿ÑĢÐ°Ð²Ð¸ÑĤÐµÐ»ÑĮ": 2713, "ĠÐ¿ÑĢÐ¸Ð¼ÐµÐ½": 2714, "ĠÐ¾ÑĤÐ²ÐµÑĤÐ¸Ð»": 2715, "ust": 2716, "ĠÐ¸ÑģÑĤÐ¾ÑĢÐ¸": 2717, "ack": 2718, "ĠÐ±Ð»Ð¸Ð·": 2719, "ĠÑģÐ»ÑĭÑĪ": 2720, "ish": 2721, "ÑĤÐ¸Ðµ": 2722, "ĠÐ½Ð°ÑģÐµÐ»": 2723, "ight": 2724, "ĠÐ¡Ð°": 2725, "ĠÐ¾ÑĢÐ³Ð°Ð½Ð¸Ð·Ð°": 2726, "ĠHe": 2727, "ÑĭÐ²Ð°Ñı": 2728, "ÑĢÐ°Ð·Ð´": 2729, "ÐµÐ»Ð¾ÑģÑĮ": 2730, "ÑģÐ¿ÑĥÐ±Ð»Ð¸": 2731, "ĠÑģÐ¾Ð±ÑĢÐ°": 2732, "ĠÑĤÐ°ÐºÐ¸Ð¼": 2733, "ĠÑĩÑĥÑĤÑĮ": 2734, "ĠÐ¾ÑĤÐ½Ð¾ÑĪ": 2735, "ÑĢÑĭÐ²": 2736, "ĠÐ¿Ð¸ÑģÑĮ": 2737, "Ð¸Ð½Ð°Ð½": 2738, "Ð¸Ð¼Ð¾ÑģÑĤÐ¸": 2739, "ep": 2740, "ĠÐ¿ÑĢÐ¾Ð¸Ð·Ð¾": 2741, "ĠÐ½Ð°ÑĩÐ°Ð»Ð°": 2742, "ĠÐºÑĢÐ°Ð¹": 2743, "ĠÐ°ÑĢÐ¼Ð¸": 2744, "ĠÑģÐ¾Ð¾ÑĤÐ²ÐµÑĤÑģÑĤÐ²": 2745, "Ð¶Ð¸ÑĤ": 2746, "II": 2747, "ĠÑģÐ¿ÐµÑĨÐ¸Ð°Ð»Ð¸": 2748, "ÐµÐ¼Ð°": 2749, "ÑģÐ¸Ñı": 2750, "ie": 2751, "ÑĢÐµÐ´Ð¸": 2752, "ĠÐ¾Ð¿ÑĢÐµÐ´ÐµÐ»": 2753, "ĠÑĤÐ¾Ð½": 2754, "ĠÐĴÐ»Ð°Ð´Ð¸Ð¼Ð¸": 2755, "ĠÑģÑĤÐ°Ð»Ð°": 2756, "ÐºÑĥÐ´Ð°": 2757, "ĠÐºÐ²Ð°ÑĢÑĤÐ¸": 2758, "ĠÐ½Ð°ÑĪÐµÐ¹": 2759, "ĠÐ²Ð¾Ð·Ð²ÑĢÐ°": 2760, "ÐµÐ´ÑĮ": 2761, "ĠÑĦÐ¸Ð·": 2762, "ĠÐĵÐµÑĢ": 2763, "ĠÐ´ÐµÐ½ÑĮÐ³Ð¸": 2764, "ran": 2765, "ĠÑĥÐºÐ°Ð·": 2766, "ÑĤÐ°ÐºÐ¸": 2767, "ĠÑĢÐ°Ð±Ð¾ÑĤÑĥ": 2768, "ĠÐĲÐ½Ð´": 2769, "ĠÐ±ÐµÑģ": 2770, "Ð¾Ð³ÑĢÐ°ÑĦÐ¸": 2771, "uc": 2772, "Ð»ÐµÐ½Ð°": 2773, "ÑĥÐ·": 2774, "ĠÐĳÑĭ": 2775, "ĠÐļÐ°ÑĢ": 2776, "ĠÐ¡Ðµ": 2777, "ÑĢÐµÐ¶Ð´": 2778, "ÂłÐŀ": 2779, "ĠÐ½Ð°ÑĩÐ°Ð»": 2780, "Ð¾ÑĢÑı": 2781, "ĠÑĥÐ·Ð½Ð°": 2782, "12": 2783, "ĠÑģÐ¾Ð±Ñĭ": 2784, "ĠÐĴÐ¾Ð·": 2785, "ĠÐ¾Ð´Ðµ": 2786, "ĠÐ¢Ð¾": 2787, "ĠÐ¾Ð³ÑĢÐ°": 2788, "ĠÐ²ÑħÐ¾Ð´": 2789, "ĠÐŁÑĢÐµÐ´": 2790, "ĠÑĢÑĥÐ±Ð»ÐµÐ¹": 2791, "ĠÐ´ÐµÐ¼": 2792, "ĠÐ²Ð¾Ð¹Ð½Ñĭ": 2793, "ÑģÑĤÐ²ÐµÐ½Ð½ÑĭÑħ": 2794, "Ð½ÑıÑĤÑĮ": 2795, "ÑĢÑĥÑģ": 2796, "ĠÐ´Ð¾Ð¿": 2797, "Ð»Ð¸Ðº": 2798, "ĠÐ²Ð½Ñĥ": 2799, "ÑĦÐµ": 2800, "Ġ2014": 2801, "ĠÑĥÐ½Ð¸": 2802, "ĠÐ´ÑĢÑĥÐ³Ð°": 2803, "ÑĢÐµÐ½Ð¸Ñı": 2804, "ĠÐ¾ÑģÐ¾Ð±ÐµÐ½Ð½Ð¾": 2805, "Ġsp": 2806, "ork": 2807, "ĠÐ¿Ð°ÑĢÐ°": 2808, "ĠÑıÐ½": 2809, "Ð¼Ð¾Ð½": 2810, "ÑģÐºÐ¾Ð»ÑĮÐºÑĥ": 2811, "ĠÐ¿ÑĢÐ¸ÑĪ": 2812, "Ġ//": 2813, "ĠÐŁÐ¾Ñĩ": 2814, "ĠÐ·Ð°ÑıÐ²Ð¸Ð»": 2815, "Ġsh": 2816, "ÑįÐ½": 2817, "ÑģÐºÐ¾Ð¼Ñĥ": 2818, "ÑĢÐµÐ¶": 2819, "ĠÑĤÐ¾ÑĩÐ½Ð¾": 2820, "ĠÑĢÐ°Ð±Ð¾": 2821, "Ð²ÑĪÐµÐ³Ð¾": 2822, "ÑģÑĤÐ²Ð¾Ð²Ð°Ð»": 2823, "ÑĩÑĤÐ¾": 2824, "Ð½Ð¸ÑĨÑĥ": 2825, "ĠÐ´ÐµÐ¹ÑģÑĤÐ²Ð¸ÑĤÐµÐ»ÑĮÐ½Ð¾": 2826, "Ð½Ð¸ÑĨÐµ": 2827, "ĠÐ¿Ð¾Ð´Ð³Ð¾ÑĤÐ¾Ð²": 2828, "Ð¸Ð»Ð°ÑģÑĮ": 2829, "Ð¾ÑĢÑĥÐ¶": 2830, "ĠÑģÐ¾ÑĨÐ¸Ð°Ð»ÑĮ": 2831, "Ġk": 2832, "ÑĩÐµÑģÑĤÐ²Ð°": 2833, "ĠÐ¿Ð¾ÑĤÑĢÐµÐ±": 2834, "ĠÐ¿ÑģÐ¸Ñħ": 2835, "ĠÑĪÐ¸ÑĢÐ¾Ðº": 2836, "Ð°Ð»ÑĮÐ½Ð¾Ðµ": 2837, "ĠÑħÐ¾ÑĤÑĮ": 2838, "ĠÐļÐ¾": 2839, "ÑĤÐ¾Ð¹": 2840, "ĠÑģÑĤÑĢÐ¾Ð¸ÑĤÐµÐ»ÑĮ": 2841, "ĠÐ²Ð¾Ð·ÑĢÐ°": 2842, "Ð¾ÑĤÐµ": 2843, "ÐºÐ¾Ðµ": 2844, "ĠÐ¿ÑıÑĤ": 2845, "ĠÑĩÐµÑĤÑĭÑĢÐµ": 2846, "Ð½ÐµÐ½": 2847, "ÑĪÑĥÑİ": 2848, "ĠÐ¿ÐµÑĢÐ¸Ð¾Ð´": 2849, "ĠÐ¤ÑĢÐ°Ð½": 2850, "Ð°Ð±": 2851, "ĠÐ¿ÑıÑĤÑĮ": 2852, "ÑıÐ»Ð¸": 2853, "ÑİÑīÐ¸Ð¼": 2854, "ÑĨÐ°Ð¼Ð¸": 2855, "ĠÑįÑĤÐ¾Ð¼Ñĥ": 2856, "ÑĢÐµÑĤÐ°": 2857, "Ð½Ð°Ð»Ð°": 2858, "ĠÐ¾ÑĤÐº": 2859, "ĠÐ¿ÑĢÐ¾ÑĦÐµÑģ": 2860, "ĠÐŁÑĢÐ°Ð²": 2861, "ĠÐ·Ð½Ð°ÑĩÐ¸ÑĤ": 2862, "ical": 2863, "ĠÐ¿Ð¾Ð¿ÑĭÑĤ": 2864, "ĠÐ¿Ð¾Ð»Ñĥ": 2865, "ĠÐ½Ð°Ð»": 2866, "ĠÐ¿Ð¾Ð¸": 2867, "ĠÐ´Ð½ÐµÐ¹": 2868, "ÑĢÐ¸ÑĤÑĮ": 2869, "ĠÑħÐ¾Ð»Ð¾Ð´": 2870, "ĠÐĲÐ²": 2871, "ĠÐ½Ð¸Ð¼Ð¸": 2872, "ÑĤÐµÐ»Ð¸": 2873, "ĠÐ½Ð°ÑĪÐ¸": 2874, "ĠÑĩÐ¸ÑģÐ»Ðµ": 2875, "ĠÐŁÐ¾ÑįÑĤÐ¾Ð¼Ñĥ": 2876, "ĠÐ¢ÐµÐ¿ÐµÑĢÑĮ": 2877, "ÐµÐ²ÐµÑĢ": 2878, "ĠÐ´Ð¾Ð»Ð¶Ð½Ð°": 2879, "Ð²Ð°Ð¹": 2880, "ĠÐ½ÐµÐ¾Ð±ÑħÐ¾Ð´Ð¸Ð¼": 2881, "Ð²Ð¸Ñĩ": 2882, "ĠÐ½Ð¾Ð¼": 2883, "--": 2884, "Ð¾ÐºÑĢÐ°": 2885, "ĠÑģÐ¿Ð¾ÑĢ": 2886, "ĠÑģÐ°Ð¼Ð¾Ð³Ð¾": 2887, "ÑģÑĤÐ¸ÑĤÑĮ": 2888, "ĠÑĤÑĢ": 2889, "ĠÐ¼Ð¾Ð¶ÐµÑĤÐµ": 2890, "ĠÐ²Ð»Ð°ÑģÑĤÐ¸": 2891, "Ð²ÐµÑĢÑģ": 2892, "Ð³Ð¸Ð¸": 2893, "ĠÐ²ÐµÑĩÐµÑĢ": 2894, "Ð´ÐµÐ½": 2895, "ĠÐ¿ÑĢÐ¸Ð´": 2896, "ĠÑĥÑĤÐ²ÐµÑĢ": 2897, "ĠÑĨÐµÐ½": 2898, "Ð¾Ð½Ñĭ": 2899, "ĠÑĤÐ°ÐºÐ¾Ð³Ð¾": 2900, "ĠÐ¡Ð¸": 2901, "ĠÐ²Ð½ÑĥÑĤÑĢÐµÐ½": 2902, "ĠÑħÑĥÐ´": 2903, "ĠÐ²Ð½Ð¸Ð¼Ð°Ð½Ð¸Ðµ": 2904, "ÑĤÐ¾Ð±": 2905, "Ð°Ð½Ð½ÑĭÐµ": 2906, "ther": 2907, "ĠÐ¶ÐµÐ½Ñī": 2908, "ÑīÐµÐ¹": 2909, "ÑĢÐ¸ÑģÑĤÐ¸": 2910, "ÑĤÐ½Ð¾": 2911, "ĠÑĤÐµÐ¿": 2912, "ĠÐ¾Ð¿Ð°Ñģ": 2913, "ĠÑĢÐ°ÑģÑĤ": 2914, "ĠÐ´Ð°Ð»ÑĮÑĪÐµ": 2915, "ĠÐ·Ð°Ð´": 2916, "ĠÐ²Ð¾ÐºÑĢÑĥÐ³": 2917, "ĠÐ·Ð°Ð²Ð¸Ñģ": 2918, "Ð²Ð°Ð»Ð¸ÑģÑĮ": 2919, "ĠÐ°Ð±": 2920, "ĠÐ¿Ð¾ÑģÑĤÐ°Ð²": 2921, "ÑģÑĤÐ¾Ð¼": 2922, "ĠÑĤÐµÑĢÑĢÐ¸ÑĤÐ¾ÑĢÐ¸Ð¸": 2923, "ĠÐ¼Ð½Ð¾Ð¹": 2924, "Ġ*": 2925, "ĠÑģÐ¸ÑģÑĤÐµÐ¼Ñĭ": 2926, "Ġ197": 2927, "ĠÐ¾ÑĤÐ´ÐµÐ»": 2928, "ions": 2929, "ĠÐ³ÐµÐ½ÐµÑĢÐ°": 2930, "ÐºÐ¸Ð½": 2931, "20": 2932, "mer": 2933, "ĠÐ¿ÐµÑģ": 2934, "Ð°Ð»Ð¸Ð·": 2935, "ÑģÐ»Ð¾Ð²": 2936, "ĠÐ¼ÑĥÐ·Ñĭ": 2937, "ÂłÐľ": 2938, "Ð¿Ð¾Ð»Ð½Ðµ": 2939, "ĠÑĦÐ¸Ð½Ð°Ð½": 2940, "ĠÐ³Ð»Ð°Ð·": 2941, "ĠÐ¼Ð°ÑĪÐ¸": 2942, "ĠÐ³Ð»": 2943, "ĠÐ´Ð°Ð²Ð½Ð¾": 2944, "ÑģÑĭÐ»": 2945, "ĠÐ·Ð½Ð°Ð»": 2946, "Ð³Ð¾ÑĢÐ¾Ð´": 2947, "ĠÑģÑĩÐµÑĤ": 2948, "ĠÐļÑĢÐ¾Ð¼Ðµ": 2949, "ĠÐ¼Ð°Ð»Ð¾": 2950, "ÑĢÐ¸Ð¼ÐµÑĢ": 2951, "Ð¼Ð¸ÑĤ": 2952, "ÐµÑĢÐ±ÑĥÑĢ": 2953, "ĠÐ³ÑĢÐ°Ð¶Ð´Ð°Ð½": 2954, "ĠÐ½ÐµÐ»ÑĮÐ·Ñı": 2955, "ĠÐ¾ÑģÐ½Ð¾Ð²Ð°": 2956, "ĠÑĥÐ²ÐµÐ»Ð¸": 2957, "ĠÑģÐµÐ½ÑĤ": 2958, "ÑĤÑĥÑĢÐ°": 2959, "ff": 2960, "ĠÐ¿Ð¾Ð²Ñĭ": 2961, "ĠÑģÐ¿Ð¾ÐºÐ¾Ð¹": 2962, "ĠÑħÐ¾ÑĤÐµÐ»": 2963, "ĠÑģÐ¸Ð¼": 2964, "ĠÐ¾ÑĪÐ¸": 2965, "ĠÐ¾ÑģÑĥÑīÐµÑģÑĤÐ²": 2966, "ĠÐ²ÑģÐ¿Ð¾Ð¼": 2967, "ĠÐ¼Ð¸ÑĢÐµ": 2968, "ĠÐ°Ð»": 2969, "ĠÐĴÐµÑĢ": 2970, "ĠÐ²Ð¾Ð»Ð¾Ñģ": 2971, "ĠÐ¿ÑĢÐ¾ÑħÐ¾Ð´": 2972, "Ð¶ÐµÐ½Ð¸Ñı": 2973, "ĠÐºÐ°Ð±": 2974, "ÐµÐºÑĤ": 2975, "Ð¸Ð½Ð³": 2976, "ÑģÐºÑĥ": 2977, "ĠÐ±Ð¸Ð·": 2978, "ĠÐ´Ð²ÐµÑĢÑĮ": 2979, "ĠÐ¿Ð¾Ð´ÑĤ": 2980, "Ð¾Ð¶Ð´ÐµÐ½Ð¸Ñı": 2981, "ĠÐ¼ÐµÐ´Ð¸": 2982, "ĠÑĢÐ°ÑģÐ¿Ð¾Ð»Ð¾Ð¶": 2983, "Ġcomp": 2984, "ĠÐ·Ð°ÑīÐ¸ÑĤ": 2985, "Ð½Ð°Ð¼": 2986, "ÑģÐ»Ñĥ": 2987, "ĠÐ»Ð¸Ð±Ð¾": 2988, "ÑİÑīÐµÐ³Ð¾": 2989, "ĠÐ¿ÑĢÐ°Ð²Ð¾": 2990, "ĠÐ½Ð°Ð²ÐµÑĢ": 2991, "ĠÐ²ÑĤÐ¾ÑĢÐ¾Ð¹": 2992, "ĠÐ´Ð¾Ð»Ð¶Ð½Ð¾": 2993, "Ġ[": 2994, "ÑıÐ»Ð°": 2995, "Ð¾Ð½ÐµÑĩÐ½Ð¾": 2996, "Ðĸ": 2997, "Ð¾Ð²Ð°ÑĤÑĮÑģÑı": 2998, "ĠÐ»Ð¸ÑĤ": 2999, "ĠÐ±Ð»Ð°Ð³Ð¾Ð´Ð°ÑĢ": 3000, "ÐŀÐ½": 3001, "Ð»ÐµÐ³": 3002, "ĠÑĢÐµÑĪÐµÐ½Ð¸Ðµ": 3003, "ĠÐ¸ÑģÐ¿Ð¾Ð»ÑĮÐ·Ñĥ": 3004, "ĠÐ¼Ð¾Ð³Ð»Ð¸": 3005, "ĠÐ½Ð°ÑĥÑĩ": 3006, "ĠÐ´Ð¾Ð¿Ð¾Ð»": 3007, "ÑģÐ¾": 3008, "ÑĢÐ¾Ð´Ðµ": 3009, "ĠÐ¿Ð»Ð°Ð½": 3010, "ĠÑĢÐ°Ð·Ð´": 3011, "ĠÐ¿ÐµÑĢÐµÐ´Ð°": 3012, "ĠÐ²Ð½ÐµÑĪ": 3013, "ĠÑģÐ»ÐµÐ´ÑĥÐµÑĤ": 3014, "ÐµÐ½ÑĤÐ¸": 3015, "cl": 3016, "ĠÑģÑĢÐ¾Ðº": 3017, "ĠÐ¿ÑĢÐ°Ð²Ð°": 3018, "ĠÐ²Ð°ÑĢÐ¸": 3019, "ĠÐ¸ÑģÐºÑĥÑģ": 3020, "Ð»ÐµÐ½Ð¸ÐµÐ¼": 3021, "ĠÑģÐ»ÑĥÑĩÐ°Ð¹": 3022, "ĠÑģÐ¾Ð¼": 3023, "ĠÐ¾ÑĤÐ²Ðµ": 3024, "ĠÐ²ÑģÐµÐ¹": 3025, "ĠÐ¢Ð°Ð¼": 3026, "ĠÑħÐ¾ÑĩÑĥ": 3027, "ue": 3028, "ĠÐ½Ð°Ð·Ð½Ð°": 3029, "Ð¸Ð¼Ð¾ÑģÑĤÑĮ": 3030, "Ð¾Ð±ÑĢÐ°": 3031, "ÑģÐ¾Ð¼": 3032, "Ð½Ð¸ÐºÑĥ": 3033, "ĠÐĴÐµÐ»Ð¸": 3034, "Ð¾Ð½ÑĮ": 3035, "ĠÑģÐ¿Ñĥ": 3036, "ĠÐ¥Ð¾ÑĤ": 3037, "ĠÐ¾ÑĤÐºÐ°Ð·": 3038, "ure": 3039, "ĠÑĪÑĤÐ°": 3040, "ÑĤÐ¾Ðº": 3041, "ÑĢÑĥÐ·": 3042, "ĠÑĢÐ°Ð·Ð¼Ðµ": 3043, "ry": 3044, "ÑģÐµÑĢ": 3045, "ÂłÐĶÐ°": 3046, "Ð¸ÐºÐ¸": 3047, "ĠÐ¿ÑĢÐ°Ð²Ð¸Ð»ÑĮ": 3048, "ĠÐ·Ð°Ð»": 3049, "Ð°Ð»ÑĮÐ½Ð°Ñı": 3050, "ÐµÐ»Ñİ": 3051, "Ġâ": 3052, "ĠÑĤÐµÐº": 3053, "Ð½Ðº": 3054, "ÑĩÐ°Ñı": 3055, "ÐµÐ½ÑĤÑĭ": 3056, "ĠÐ½Ð°Ð¿ÑĢÐ¸Ð¼ÐµÑĢ": 3057, "ÑģÐºÐ°ÑĤÑĮ": 3058, "ĠÐ¿Ð¾ÑģÑĤ": 3059, "ĠÑĤÐµÑħÐ½": 3060, "ĠÐ´ÐµÐºÐ°": 3061, "ĠÐĴÐ°Ñģ": 3062, "Ð¾Ð»Ð¾Ð³Ð¸Ð¸": 3063, "ÑĢÐ¾Ð²Ð°Ð»": 3064, "ĠÐ¿ÑĢÐ¾ÑĨÐµÑģ": 3065, "ĠÑĢÐ°Ð²Ð½Ð¾": 3066, "ĠÐ¿ÑĭÑĤÐ°": 3067, "ĠÐ¿Ð¾Ð´Ð´ÐµÑĢÐ¶": 3068, "Ġ...": 3069, "Ġ196": 3070, "ĠÐ½ÐµÐ¸Ð·": 3071, "ĠÑıÐ½Ð²Ð°": 3072, "ĠÐºÐ°Ð¶ÐµÑĤÑģÑı": 3073, "Ð°ÐºÑģÐ¸Ð¼": 3074, "Ġun": 3075, "ÑĮÐµÑĢ": 3076, "ĠÑĢÐ°Ð²": 3077, "ĠÐºÐ¾ÑĢÐ°Ð±": 3078, "ĠÐ¿Ð¾Ð»Ð¸ÑĤÐ¸": 3079, "ÑĢÐ¾ÑģÐ°": 3080, "ĠÑģÐµÑĢÑĮÐµÐ·": 3081, "ÑģÑĤÑĢ": 3082, "ĠÑĥÐº": 3083, "ĠÐ±Ð¾Ð»ÑĮÑĪÐ¾Ð¹": 3084, "ĠÑģÐ¾ÑħÑĢÐ°": 3085, "ĠÐ½Ð°ÑĢ": 3086, "Ġalso": 3087, "ĠÐ¿ÑĢÐµÐ´Ð¿Ð¾Ð»": 3088, "ĠÐ½Ð°Ð¹ÑĤÐ¸": 3089, "ÑĤÐ°Ð»": 3090, "ĠÐ¾ÑĢÐ³Ð°Ð½Ð¸Ð·": 3091, "ĠÑĩÐµÐ¼Ð¿Ð¸": 3092, "ÑİÐ·": 3093, "ĠÐ´ÐµÐ½Ðµ": 3094, "ĠÐ¿Ð¾Ð»Ð¸ÑĤÐ¸ÑĩÐµÑģÐº": 3095, "ÐĿÐµ": 3096, "ĠÑģÐºÑĢÑĭ": 3097, "ĠÐºÑĢÑĥÐ³": 3098, "ĠÐºÑĢÐ°ÑģÐ¸": 3099, "ĠÐµÐ´": 3100, "ĠÑıÑĢ": 3101, "irst": 3102, "ĠÑģÐµÐ¼ÑĮ": 3103, "age": 3104, "ous": 3105, "ĠÐºÐ°ÑĩÐµÑģÑĤÐ²Ðµ": 3106, "Ð°Ð»ÑĥÐ¹": 3107, "Ð»ÑıÐµÑĤÑģÑı": 3108, "ÑģÐ¸Ð±Ð¾": 3109, "ĠÑģÐ¾Ð¾Ð±ÑīÐ°ÐµÑĤ": 3110, "ĠÐ³Ð¾Ð²Ð¾ÑĢÐ¸ÑĤÑĮ": 3111, "ĠÑĦÐµÐ²": 3112, "ĠÐ¿ÑĢÐ°Ð·Ð´": 3113, "15": 3114, "Ġnot": 3115, "ĠÐ´Ð¾Ð±Ð°Ð²": 3116, "ĠÐ¿Ð¾Ð³Ð¸": 3117, "ĠÐ¿Ð¾Ð»Ð½Ð¾ÑģÑĤÑĮÑİ": 3118, "Ġhad": 3119, "ÑĢÐ°ÑĤÐ½Ð¾": 3120, "ĠÐ³Ð¾Ð»Ð¾Ð²Ð¾Ð¹": 3121, "ĠÑģÑĤÑĢÐµ": 3122, "Ð²Ð»Ð¸": 3123, "Ð½ÑĥÑĤÑĮÑģÑı": 3124, "ĠÐ½Ð°ÑĨÐ¸Ð¾Ð½": 3125, "ÑĢÑĭÐ¹": 3126, "Ð¦": 3127, "ĠÐ²Ð¾Ð´Ñĭ": 3128, "ĠÐľÐ¸Ñħ": 3129, "ĠÐ½ÐµÐ¼Ñĥ": 3130, "ĠÐºÐ°Ð¿Ð¸ÑĤ": 3131, "ĠÐ¼Ð°Ð³Ð°": 3132, "ĠÐ¶Ð¸Ð²Ð¾ÑĤ": 3133, "ÑĤÐ¾Ð³Ð¾": 3134, "Ġhas": 3135, "ĠÐ½Ñĥ": 3136, "ÑīÐ¸Ð¹": 3137, "ĠÐļÐ¾ÑĢ": 3138, "ĠÑĩÐ°ÑģÐ¾Ð²": 3139, "ĠÑĪÐºÐ¾Ð»": 3140, "Ð½Ð¸Ð½": 3141, "ĠÐ³Ð¾Ð´Ñĭ": 3142, "ĠÐ¿ÑĢÐ¸Ð½Ð¸Ð¼Ð°": 3143, "ass": 3144, "ĠÐºÐ¾Ð½ÐºÑĥ": 3145, "ĠÐ²Ð¾Ð²": 3146, "ĠÐ²Ð¿Ð¾Ð»Ð½Ðµ": 3147, "ĠÐ¼ÐµÑĩ": 3148, "ĠÐ¿Ð¾Ð´ÑħÐ¾Ð´": 3149, "Ð°Ð½ÑĤÐ°": 3150, "ÑĩÐ°ÐµÑĤÑģÑı": 3151, "ĠÐ¿ÑĢÐ¾ÑĤÑı": 3152, "ĠÐ³Ð¾Ð²Ð¾ÑĢÐ¸Ð»": 3153, "ĠÐ²Ð·Ð³Ð»Ñı": 3154, "ĠÐ¾ÑĤÐ´ÐµÐ»ÑĮ": 3155, "ÑĢÐ¾ÑģÐ¸Ð»Ð°": 3156, "ĠÐ»ÐµÑģ": 3157, "Ð¾Ð·Ð°": 3158, "ÑĩÐµÑĢÐ°": 3159, "ĠÐ´ÑĢÑĥÐ·": 3160, "30": 3161, "Ð½ÐµÐ½Ð¸Ðµ": 3162, "ĠÑģÐ»Ð¾Ð²Ð°Ð¼": 3163, "ĠÐ½Ð°ÑħÐ¾Ð´Ð¸ÑĤÑģÑı": 3164, "ĠÑĤÐ°Ð½": 3165, "ace": 3166, "ĠÑģÐµÑĢÐ´": 3167, "ĠÐ·Ð°ÐºÐ»Ñİ": 3168, "Ð¾Ð²Ð°ÑĤÐµÐ»ÑĮ": 3169, "ĠÐ±Ð°Ð·": 3170, "ÑĤÑĭÐµ": 3171, "ire": 3172, "Ð¶ÐµÐ½Ð¸Ðµ": 3173, "Ð°ÐºÐ°": 3174, "ĠÐ¿Ð¾Ð»Ð¾Ð²": 3175, "ĠÑģÐºÐ¾Ð»ÑĮÐºÐ¾": 3176, "ĠÑģÐ²Ð¾ÐµÐ¼": 3177, "ĠÑĤÐµÑĩÐµÐ½Ð¸Ðµ": 3178, "ÑĨÐ¸Ð¿": 3179, "ĠÐºÐ¾Ð¿": 3180, "ÑĩÐ°Ð¹": 3181, "ĠÐ¸ÑģÑĤÐ¾ÑĢÐ¸Ð¸": 3182, "ĠÐĽÑĥ": 3183, "ĠÐ¾ÐºÑĤÑı": 3184, "ave": 3185, "ĠÐ¿Ð¾Ð·Ð´": 3186, "ĠÑģÑĤÐ¾Ð»Ð¸": 3187, "iz": 3188, "ĠÐ²Ð¸Ð´ÐµÐ»": 3189, "Ð¾Ð·Ð¸": 3190, "ĠÑģÐ±Ð¾ÑĢ": 3191, "Ð¼Ð¾ÑĤÑĢÑı": 3192, "ĠÐ´ÐµÐ¹ÑģÑĤÐ²Ð¸Ñı": 3193, "ÑģÑĤÐ²Ð¾Ð²Ð°ÑĤÑĮ": 3194, "ĠÐ¿Ð¾Ð¼Ð¾ÑīÑĮÑİ": 3195, "ĠÐ¾Ð±Ð¾ÑĢÐ¾": 3196, "ĠÐ¤ÐµÐ´ÐµÑĢÐ°": 3197, "ĠÑĢÐµÐ·ÑĥÐ»ÑĮÑĤÐ°ÑĤÐµ": 3198, "Ð·Ð¸Ð¸": 3199, "Ð»Ð¾Ð¿": 3200, "Ð¾Ð½Ð´": 3201, "ĠÐºÑĢÑĥ": 3202, "ĠÑĩÐ»ÐµÐ½": 3203, "ĠÑĤÐ¸Ñħ": 3204, "Ð¶Ð½Ð¾": 3205, "Ð¾Ð¶Ð°": 3206, "ĠÐ¼Ð¾Ð³Ð»Ð°": 3207, "ĠÐ¿ÑĢÐ¸Ð²Ñĭ": 3208, "ÑĩÐµÐº": 3209, "ĠÐ½Ð°ÐºÐ¾Ð½ÐµÑĨ": 3210, "Ð½ÑĮÑĪÐµ": 3211, "ĠÐ¼Ð¾ÐµÐ¹": 3212, "Ð½Ð¸ÑĤ": 3213, "ÑģÑĤÐ½Ð¾": 3214, "ĠÐ´Ð¾Ð²Ð¾Ð»ÑĮÐ½Ð¾": 3215, "ĠÐºÐ»ÑĥÐ±": 3216, "ĠÑĤÐ¾Ð¹": 3217, "ĠÐ¿Ð¾Ð½ÑıÐ»": 3218, "ĠÑĢÐ°Ð·ÑĢÐµ": 3219, "ond": 3220, "ĠÑģÑĢÐ°Ð²": 3221, "ÑīÐ°Ñı": 3222, "ÑĮÐ¼Ð¸": 3223, "ĠÐ°Ð´Ð¼Ð¸Ð½Ð¸ÑģÑĤÑĢÐ°": 3224, "ĠÑĥÐ´Ð°Ð»Ð¾ÑģÑĮ": 3225, "ĠÐ¾Ð¿ÑıÑĤÑĮ": 3226, "ĠÐ·Ð°Ð²ÐµÑĢ": 3227, "Ð´Ð°Ð½Ð¸Ðµ": 3228, "ĠÐ¿ÑĢÐµÐ¶Ð´Ðµ": 3229, "ĠÐ²ÑĭÑĪÐµ": 3230, "ÑģÑıÑĤ": 3231, "ĠÐ¼Ð¾Ð½": 3232, "ign": 3233, "ĠÐ½ÐµÐ²Ð¾Ð·": 3234, "ĠÐºÑĢÐ¾Ð¼Ðµ": 3235, "Ð²Ð°ÑİÑĤÑģÑı": 3236, "ĠÐ²Ð¾Ð·Ð½Ð¸Ðº": 3237, "ĠÐ¿Ð¾Ð´ÑĤÐ²ÐµÑĢ": 3238, "ÑĢÐµÐ¼ÐµÐ½Ð½Ð¾": 3239, "ĠÑģÐ°Ð¼Ð¾Ðµ": 3240, "Ð¾Ð±ÑĢÐ°Ð¶": 3241, "ail": 3242, "ĠÐ·Ð°Ð¿Ð°": 3243, "Ð¾ÑĤÑĭ": 3244, "Ð¸ÐºÐ°": 3245, "ĠÑģÐ¿Ð°": 3246, "ĠÐ»Ð¸ÑĨÐ°": 3247, "ÑĦÐ¸ÐºÐ°": 3248, "ĠÐľÐ¾Ð¶ÐµÑĤ": 3249, "ÐµÐ½Ð½ÑĭÐ¼": 3250, "ĠÐ¾ÑĦÐ¸ÑĨÐ¸Ð°Ð»ÑĮ": 3251, "Ð¿ÑĥÑĤÐ°": 3252, "ĠÑģÐ°Ð¼Ð°": 3253, "ĠY": 3254, "ĠÑĢÐ°Ð½ÑĮÑĪÐµ": 3255, "ĠÑĥÐ»": 3256, "ĠÐ»ÐµÐ³ÐºÐ¾": 3257, "Ð¿Ð¾Ð¼": 3258, "Ð²ÑĭÐ¼": 3259, "ĠÐ²ÑĭÐ±Ð¾ÑĢ": 3260, "ĠÐĹÐ½Ð°": 3261, "ĠÑĩÑĥÐ´": 3262, "ĠÐ¸ÑģÑĤÐ¾Ñĩ": 3263, "ÑĢÐ°ÑĪÐ¸": 3264, "ĠÐ¼Ð°Ð»ÑĮ": 3265, "ĠÐłÐ¾ÑģÑģÐ¸Ð¹": 3266, "ĠÐ¼ÑĭÑģÐ»": 3267, "ĠÑĦÐµÐ²ÑĢÐ°": 3268, "ĠÐ³Ð¸": 3269, "ÑģÑĤÐ°ÑĤÐ¸": 3270, "ÑĢÐ¾Ð²Ð°Ð½Ð¸Ðµ": 3271, "ĠÐ´Ð¸ÑĢÐµÐº": 3272, "Ð¾Ð»Ð¾ÑĤ": 3273, "ĠÐ»ÑİÐ±Ð¾Ð²": 3274, "ĠÐ³ÑĢÐ¾Ð¼": 3275, "Ð°Ð»ÑĮÐ½ÑĭÐ¼": 3276, "ĠÐ¿ÑĢÐ¸Ð¾Ð±": 3277, "ice": 3278, "ĠÐºÐ¾ÑĤÐ¾ÑĢÑĭÐ¼": 3279, "ĠÐ¿ÑĢÐµÑģÑĤÑĥÐ¿": 3280, "ĠÑĢÐ°Ð·Ð²Ð¸ÑĤÐ¸Ñı": 3281, "ĠÐ¼Ð¸ÑĢÐ¾Ð²": 3282, "Ð¾ÑģÑĤÐ¸": 3283, "ÑģÑĤÐ¸Ð½": 3284, "ĠÑĥÐºÑĢÐ°Ð¸Ð½": 3285, "ĠÐ¿Ð¾ÐºÐ°Ð·Ð°": 3286, "ÑĤÐ¸Ð»ÑģÑı": 3287, "Ġwhe": 3288, "ĠÑĦÑĥÐ½Ðº": 3289, "ÑĢÐ°Ð±Ð¾ÑĤÐ°": 3290, "ĠÑĩÐµ": 3291, "per": 3292, "Ð½Ð°ÑĩÐ°Ð»Ð°": 3293, "ĠÐ¾ÑĤÐ¿": 3294, "Ð½Ð¾Ð²ÑĮ": 3295, "ĠIt": 3296, "ĠÐ½Ð°Ð¹": 3297, "ĠÑĤÐ°Ð¹": 3298, "Ð¿Ð¸ÑĤÑĮ": 3299, "ĠÑĨÐµÐ»ÑĮ": 3300, "ĠÐ·Ð°Ð±Ñĭ": 3301, "ÑīÐ¸Ñħ": 3302, "ĠÑĩÐµÑĤÐ²ÐµÑĢ": 3303, "ĠÑģÐ½Ðµ": 3304, "Ð½Ð¾Ðº": 3305, "Ð½ÑĥÐ»Ð¸": 3306, "ÑĩÐ¸Ð½Ñĭ": 3307, "ÑİÑīÐ°Ñı": 3308, "ide": 3309, "ÑĢÐ´": 3310, "ome": 3311, "ĠÑģÐ»Ñĥ": 3312, "ĠÑĦÐ¾ÑĤ": 3313, "Ð°Ð½Ð½ÑĭÑħ": 3314, "ĠÐ½ÑĢÐ°Ð²": 3315, "ĠÑĦÑĥÑĤ": 3316, "Ð½Ð¸ÐºÐ°Ð¼Ð¸": 3317, "ĠÐĺÐ²Ð°": 3318, "ĠÑģÐ²Ð¾Ð¸Ð¼Ð¸": 3319, "ĠÐ¾ÑĢÐ³Ð°Ð½Ð¸Ð·Ð°ÑĨÐ¸Ð¸": 3320, "ĠÑĪÐ°Ð³": 3321, "ĠÑģÐ°Ð¼ÑĭÑħ": 3322, "ÑĢÐ¾Ð³": 3323, "50": 3324, "Ð½Ð¸ÑĤÐµ": 3325, "ÑĪÐµÐ¼Ñĥ": 3326, "Ð»ÐµÑĢ": 3327, "ÑĩÐ½ÑĭÐ¼": 3328, "ĠÐ¾ÑĤÐ½Ð¾Ñģ": 3329, "ĠUn": 3330, "ĠÐ¿Ð¾Ð·Ð¸": 3331, "ĠÐ´ÑĢÐ°": 3332, "ĠÐ¼Ð½Ð¾Ð³Ð¸Ðµ": 3333, "ÑģÐºÐ¸Ð¼Ð¸": 3334, "man": 3335, "ĠÑĤÑĥÐ´Ð°": 3336, "ĠÐ¿ÑĢÐ¾Ð²ÐµÑĢ": 3337, "ĠÐ½Ð°ÑĪÐ¸Ñħ": 3338, "Ð¾Ð¹ÑĤÐ¸": 3339, "ÐºÐ¾Ð²Ð°": 3340, "ĠÐ¿ÑĭÑĤ": 3341, "ĠÐ±ÐµÐ´": 3342, "ĠÐ½Ð¾ÑĢÐ¼": 3343, "erv": 3344, "Ð¾Ñħ": 3345, "Ð±Ð¾ÑĢÐ°": 3346, "ÑĨÐµÐ¼": 3347, "ĠÐ¾Ð´Ð½Ð¸Ð¼": 3348, "ĠÐ¿Ð¸ÑģÐ°": 3349, "ĠÐ¼ÑĭÑģÐ»Ð¸": 3350, "Ġfirst": 3351, "ĠÐ¸Ð½ÑĦÐ¾ÑĢÐ¼Ð°ÑĨÐ¸Ð¸": 3352, "ĠÑģÐ²Ðµ": 3353, "ĠÐ±Ñİ": 3354, "rit": 3355, "ĠÐ¿ÑĢÐ¾ÑĦÐµÑģÑģÐ¸Ð¾Ð½": 3356, "ĠÑĤÑĢÐ°Ð½ÑģÐ¿": 3357, "ĠÐ¼ÐµÐ»": 3358, "Ð°Ð½Ð½ÑĭÐ¹": 3359, "Ġus": 3360, "ĠÐ¾ÑĤÐ½Ð¾ÑĪÐµÐ½Ð¸Ñı": 3361, "ĠÐ°Ð²Ð³Ñĥ": 3362, "ÑĥÑĢÐ°": 3363, "ĠÐ½Ð°ÑģÑĤ": 3364, "ĠÐ·Ð½Ð°ÐµÑĤ": 3365, "ĠÑģÑĤÑĥÐ´": 3366, "ĠÐ³Ð»Ñı": 3367, "ĠÐ³ÑĢÐµ": 3368, "ĠÐ½Ð°ÑĩÐ°Ð»ÑĮ": 3369, "ĠÑģÑĬ": 3370, "ĠÐ·Ð´Ð¾ÑĢÐ¾Ð²": 3371, "Ð¾Ð¼Ð°": 3372, "fter": 3373, "Ð¾Ð²Ð°ÑĢÐ¸": 3374, "ÑģÐ°Ð´": 3375, "Ð±Ð¾Ð¹": 3376, "ĠÑĢÐ°ÑģÐ¿ÑĢÐ¾": 3377, "ÑĤÐ¸Ð¼": 3378, "ĠÐĴÐ°Ð¼": 3379, "ÑĢÐ¸ÑĤÐµÐ»ÑĮ": 3380, "Ġcl": 3381, "ÑıÐ»ÑģÑı": 3382, "ÐĻ": 3383, "ÑĩÐµÑģÐºÐ°Ñı": 3384, "Ġcont": 3385, "pt": 3386, "ĠÐ¿Ð¾ÑģÐºÐ¾Ð»ÑĮÐºÑĥ": 3387, "ĠÐ¸Ð·Ð¼ÐµÐ½Ð¸": 3388, "ÑĩÐ¸Ð»": 3389, "Ð¿Ð¾Ñĩ": 3390, "Ð½Ð¸Ð»Ð°": 3391, "ĠÐ¾Ð±Ñģ": 3392, "ĠÑĥÐ´Ð¾Ð±": 3393, "ÑĢÐ¸Ð·": 3394, "Ð¸ÑĤÐ°Ð¹": 3395, "ÑħÐ°ÑĤÑĮ": 3396, "ĠÐ¡ÐµÐ¹ÑĩÐ°Ñģ": 3397, "ib": 3398, "Ð¾ÑĢÑĥ": 3399, "ĠÐºÐ¾Ð»Ð¸ÑĩÐµÑģÑĤÐ²Ð¾": 3400, "ÐºÑĥÐ½": 3401, "ĠÑģÐ¸Ð»Ñĭ": 3402, "ĠÐºÐ°Ð¿": 3403, "ĠÑģÐ´ÐµÐ»Ð°Ð»": 3404, "Ġ22": 3405, ".)": 3406, "ÑĤÐ°Ñı": 3407, "ĠÑĤÑĢÐµÐ±Ñĥ": 3408, "ÑĨÐµÐ¹": 3409, "ik": 3410, "ĠÐ±Ð°Ð»": 3411, "ÑĩÐ½Ð°Ñı": 3412, "ÐµÐ¼ÑģÑı": 3413, "ric": 3414, "ÑĩÐ¸ÑģÐ»": 3415, "ĠÐ´ÐµÑıÑĤÐµÐ»ÑĮÐ½Ð¾ÑģÑĤÐ¸": 3416, "Ġ100": 3417, "Ð±ÐµÑĢ": 3418, "ĠÐ¸Ð´ÐµÑĤ": 3419, "17": 3420, "ĠÐºÐ½Ñı": 3421, "ĠÑģÐ¼ÐµÑĢÑĤÐ¸": 3422, "Ð¶Ð°Ð¹": 3423, "ĠÐ²Ð½Ð¾Ð²ÑĮ": 3424, "ĠÑĤÑĢÐµÑĤÑĮ": 3425, "ÑĥÐ¿Ð°": 3426, "ĠÐ¿ÑĥÑĤÐ¸": 3427, "ĠÐĺÐ»Ð¸": 3428, "ĠÑģÑĤÐ°Ð²": 3429, "ÑĤÐ°ÑĢ": 3430, "Ð»Ð¸Ð²": 3431, "ĠÑĥÐ½Ð¸Ð²ÐµÑĢÑģ": 3432, "ĠÑĤÐ°ÐºÐ°Ñı": 3433, "Ġar": 3434, "ĠÑģÐ¾Ð·Ð½Ð°": 3435, "Ġ24": 3436, "ĠÑĤÑĢÐµÑħ": 3437, "ĠÐ¿Ð¾ÑıÐ²Ð¸": 3438, "Ð¸Ð±Ð¾Ð»ÐµÐµ": 3439, "ĠÐ¼ÐµÐ½ÑĮÑĪÐµ": 3440, "ĠÐ¾Ð´Ð½Ñĥ": 3441, "ĠÐ¿ÑĢÐµÐ²ÑĢÐ°": 3442, "ĠÐ½Ð°Ð»Ð¸": 3443, "ÑĤÐºÐ¸": 3444, "ĠÐ¼ÐµÐ¶Ð´ÑĥÐ½Ð°ÑĢÐ¾Ð´": 3445, "Ð¿Ð°ÑĢÐ°": 3446, "ĠÐ¼ÐµÑĤÐ¾Ð´": 3447, "ĠÑģÑĤÐµÐ½": 3448, "own": 3449, "ÐºÑĥÑİ": 3450, "Ð´Ð¸Ð¸": 3451, "ÑģÐ¿ÐµÐº": 3452, "ĠÑģÐ°Ð¼Ð¾Ð¹": 3453, "ĠÑģÑĤÐµÐ¿": 3454, "ĠÑĥÑĩÐ°ÑģÑĤÐ¸Ðµ": 3455, "ĠÐ±Ð¾ÑĢÑĮ": 3456, "Ð½Ð¸Ð»Ð¸": 3457, "ĠÑĢÐ°Ð´Ð¾": 3458, "ĠÐ¾Ð·Ð½Ð°": 3459, "Ð¾ÑĩÑĮ": 3460, "Ð´ÑĥÑĤ": 3461, "Ð¼Ð°Ñħ": 3462, "ĠÐ³ÑĢÑĥÐ¿Ð¿Ñĭ": 3463, "Ð±ÐµÐ¶": 3464, "ĠÐ´Ð°Ð²": 3465, "Ð»ÐµÐºÐ°": 3466, "ÑĤÐ¸Ð»Ð¸": 3467, "ĠÐºÐ¸Ð²": 3468, "ĠÐ¿Ð°ÑĤ": 3469, "Ġres": 3470, "ĠÐ¿ÑĢÐµÐ´Ð»Ð°Ð³Ð°": 3471, "ĠÐ½Ð°Ð¿ÑĢÑı": 3472, "ĠÐ²Ð¿": 3473, "ĠÐ°Ð¿ÑĢÐµ": 3474, "ĠÐ¾ÑĤÑģÑĥÑĤ": 3475, "ĠÐ¼Ð¾Ñı": 3476, "ĠÐ±ÑĥÐ¼Ð°": 3477, "ĠÐ±ÑĥÐ´Ñĥ": 3478, "ĠÐ´Ð¾ÐºÑĥÐ¼ÐµÐ½": 3479, "ÑģÑĤÐ°Ð½Ð°": 3480, "ĠÐ´Ð²Ð¾": 3481, "ĠÑģÐ¾Ð´ÐµÑĢÐ¶Ð°": 3482, "ĠÐºÑĥÐ¿": 3483, "ÑĢÐµÐ»Ð¸": 3484, "ĠÐ½Ñĭ": 3485, "Ð´Ð¸Ð½Ð°": 3486, "?!": 3487, "Ð½Ð¾Ð³": 3488, "ĠÐ¾ÐºÑĢÑĥ": 3489, "ÑĪÐ¸ÑĤÑĮ": 3490, "Ð±ÑĢÐµ": 3491, "ĠÐļÑĤÐ¾": 3492, "Ð²Ð¸ÑĤÑĮ": 3493, "ÑĤÑĭÑħ": 3494, "ĠÐĳÐ°": 3495, "ĠÑĥÐ±Ð¸Ð¹": 3496, "ÑģÐ»Ð°": 3497, "ĠÐ½ÐµÐ·Ð°": 3498, "ĠÐ¸Ð¼Ñı": 3499, "ĠÐ¿ÑĢÐ¸Ð±Ñĭ": 3500, "ĠÐ±Ð¾Ð»ÑĮÑĪÐ¸Ð½": 3501, "ĠÑĦÑĢÐ°Ð½": 3502, "Ġad": 3503, "ĠÐ·Ð°ÐºÐ°Ð·": 3504, "Ð²Ð¾Ð»Ñİ": 3505, "ĠÐ¶ÐµÐ»ÐµÐ·": 3506, "ĠÐľÐ¾ÑģÐºÐ²Ðµ": 3507, "ĠÑĢÐµÑĪÐ¸Ð»": 3508, "ÐºÐ°ÑĢ": 3509, "ĠÐĴÐµÐ´ÑĮ": 3510, "ĠÐ½Ð¸Ð·": 3511, "ĠÐ´Ð¾ÑĢÐ¾Ð³": 3512, "ĠÐ±ÑĥÐº": 3513, "ÑĢÐµÐ»Ð°": 3514, "ĠÐ½Ð°Ð³": 3515, "ĠÐ²ÑĭÐ±ÑĢÐ°": 3516, "port": 3517, "ĠÑģÑĥÑīÐµÑģÑĤÐ²": 3518, "ÑĪÐ°ÐµÑĤ": 3519, "act": 3520, "ĠÐ¼Ð¾Ñī": 3521, "ĠÐ¾Ð±ÑĬÐµÐº": 3522, "ĠÐ¿ÑĢÐ¸ÑģÑĥÑĤ": 3523, "ĠÐ¾Ð¿Ñĥ": 3524, "ĠÑģÐ¸Ð»ÑĮÐ½Ð¾": 3525, "ĠÐ´Ð»Ð¸Ð½": 3526, "ĠTh": 3527, "Ð³Ð¾Ð²Ð¾ÑĢ": 3528, "ĠÐ¢Ð¾Ð³Ð´Ð°": 3529, "Ð½Ð°Ð´Ð»Ðµ": 3530, "ĠÐ½Ð¾Ð²ÑĭÐµ": 3531, "ĠÐ¿ÑĥÐ½Ðº": 3532, "Ð¿Ð°ÑĢ": 3533, "ĠÐ¼Ð¾Ð¸": 3534, "ĠÑī": 3535, "Ð¼Ð¾Ð²": 3536, "ĠÐ¿Ð¾Ð¿Ñĥ": 3537, "ĠÐ¼ÐµÑĢÐµ": 3538, "ĠÐ´Ð»Ð¸": 3539, "ÂłÂłÂłÂł": 3540, "ĠÐºÐ¾Ð¼Ð°Ð½Ð´": 3541, "ĠÐ¾ÑĤÐ¼Ðµ": 3542, "ime": 3543, "ĠÐ¿Ð¾Ð´Ð¾": 3544, "ĠÐ²Ð¾Ð·Ð´ÑĥÑħ": 3545, "ĠÐ¡Ð²": 3546, "wo": 3547, "Ð»Ð°Ð³": 3548, "ater": 3549, "ĠÐ¾ÑĪÐ¸Ð±": 3550, "ĠÐŁÐ°": 3551, "Ġro": 3552, "ĠÑģÐ½Ð°": 3553, "ĠÑĥÑħÐ¾Ð´": 3554, "ĠÑĤÐµÐ»Ð¾": 3555, "ĠÐ¾ÐºÐ¾Ð½ÑĩÐ°": 3556, "ĠÐ¢ÐµÐ¼": 3557, "ĠÑħÑĢÐ°": 3558, "ÑĭÐ²Ð°ÐµÐ¼": 3559, "ĠÑģÐ°Ð¼ÑĭÐ¹": 3560, "ĠÐ½Ð¾Ð³Ð¸": 3561, "ÑĪÐµÐº": 3562, "ĠÐ±Ð¾Ð³": 3563, "ĠÐ¿Ð¾Ð½": 3564, "ult": 3565, "ĠÐ²Ð¸Ð½": 3566, "Ð¾Ð¶Ð¸Ð´Ð°Ð½": 3567, "ĠÐĿÐ¾Ð²": 3568, "ĠÐľÐ¸Ð½": 3569, "ÐºÐ¸Ð¼Ð¸": 3570, "ĠÑĤÑĢÐ°Ð²": 3571, "11": 3572, "ÑĪÐµÐ²": 3573, "ĠÐ¿ÑĢÐ¸ÐºÐ°Ð·": 3574, "ĠÐŁÐ¾ÑĤÐ¾Ð¼": 3575, "Ð»ÑıÐµÑĤ": 3576, "ĠÑĦÐ¸": 3577, "ÑģÐ¾Ð»": 3578, "ĠÑģÑĤÐ°ÑĢÐ°": 3579, "ĠÐ³Ð¾ÑĢÐ¾Ð´Ðµ": 3580, "Ġint": 3581, "ĠÐ¸ÑģÑĩÐµ": 3582, "ÐµÐ²Ð°": 3583, "ĠÐĵÐ¾ÑĢ": 3584, "ĠÑģÐ½Ð¸": 3585, "ĠÐ²Ð¾Ð¿ÑĢÐ¾ÑģÑĭ": 3586, "ĠÑģÑĥÐ±": 3587, "Ð°ÐºÐ¸": 3588, "ÑĩÐ½Ð¾Ðµ": 3589, "Ð±Ð¸Ð»Ð¸": 3590, "ĠÐ»ÑİÐ±Ð¾Ð¹": 3591, "ĠÐ¿Ð¾ÑģÑĤÑĢÐ¾": 3592, "Ð¸ÐµÐ¼": 3593, "ĠÑĥÐ¿ÑĢÐ°Ð²Ð»ÐµÐ½Ð¸Ñı": 3594, "ÑģÑĤÐ²ÐµÐ½Ð½ÑĭÐµ": 3595, "ĠÑħÐ¾Ð·ÑıÐ¹": 3596, "ĠÑģÐµÐ½ÑĤÑıÐ±ÑĢÑı": 3597, "ĠÐ¼Ð°Ñı": 3598, "ĠÐ¿Ð¾Ð¼Ð¾ÑīÐ¸": 3599, "ĠÑģÐ¾ÑĢ": 3600, "Ð²Ð¸Ð»Ð°": 3601, "Ð¹Ð½": 3602, "ĠÐ¿ÑĢÐ¸Ð½Ð°Ð´Ð»Ðµ": 3603, "ĠÐ¿Ð¾Ð»ÑĥÑĩÐ¸ÑĤÑĮ": 3604, "Ġits": 3605, "Ð¾Ð¼ÐµÑĤ": 3606, "ĠÐ´Ð¾Ð»Ð»Ð°": 3607, "Ð³ÐµÐ¹": 3608, "ĠÑĤÐ¾Ð¿": 3609, "Ġ50": 3610, "ĠÐ¿Ð¾Ð²ÐµÑĢÑħ": 3611, "ĠÑıÐ½Ð²Ð°ÑĢÑı": 3612, "ÂłÐ§": 3613, "ĠÑģÐ°Ð¹ÑĤÐµ": 3614, "ÑĨÐµÐ½Ð¸": 3615, "Ð´Ð°Ð»Ð¸": 3616, "ĠÑĢÐ°Ð¼": 3617, "ach": 3618, "ĠÐ¿Ð¾Ð»ÑĥÑĩÐ¸Ð»": 3619, "Ġtheir": 3620, "ĠÐ¿ÑĢÐ¾Ð¸ÑģÑħÐ¾Ð´Ð¸ÑĤ": 3621, "ĠÑĢÑı": 3622, "ĠÐ±ÐµÐ·Ð¾Ð¿Ð°ÑģÐ½Ð¾ÑģÑĤÐ¸": 3623, "ĠÑĢÐ°Ð±Ð¾ÑĤÐ°ÑĤÑĮ": 3624, "ĠNo": 3625, "ÐµÐ½Ð½Ð°Ñı": 3626, "out": 3627, "ÑĤÐ¾Ð¶": 3628, "ÐµÐ·Ð´Ð°": 3629, "hed": 3630, "ĠÐ²ÑĭÑģÑĤÑĥÐ¿": 3631, "pl": 3632, "ÑģÐ¸ÑĤÑĮ": 3633, "ÑĩÐµÐ±": 3634, "ĠÐ¿Ð¾Ð´Ð¾Ð·": 3635, "ĠÑĤÑıÐ¶ÐµÐ»": 3636, "Ð¾Ð²Ð°Ð»Ð¸": 3637, "ĠÑĨÐ°ÑĢ": 3638, "ÑıÐ·Ð°Ð½": 3639, "ĠÑĤÑĢÐ°Ð´Ð¸": 3640, "ĠÐ¿Ð¾Ð¼Ð¾Ð³": 3641, "Ð¾Ð±Ð¾Ð¹": 3642, "ÐµÐ²Ð¾Ð¹": 3643, "ence": 3644, "Ð²Ð°Ð»Ð°ÑģÑĮ": 3645, "ÐºÑģ": 3646, "ĠÐĶÐ°Ð¶Ðµ": 3647, "Ġ193": 3648, "ĠÐ·Ð°Ð¿Ð¸": 3649, "Ð¿ÑĢÐ¾ÑĩÐµÐ¼": 3650, "ÑįÑĢ": 3651, "ĠÑĤÐµÐ»": 3652, "Ð°ÑĤÐ¸": 3653, "ĠÐŁÐ¾ÑĩÐµÐ¼Ñĥ": 3654, "ĠÐ½Ð¾Ð²ÑĭÐ¹": 3655, "Ð¡Ð¡Ðł": 3656, "Ġpart": 3657, "ĠÑĤÐ²Ð¾ÑĢ": 3658, "are": 3659, "ĠÐ¶Ð¸ÑĤÑĮ": 3660, "ÑĮÑĤÐµ": 3661, "ĠÐ½Ð°ÑĪÐµÐ³Ð¾": 3662, "Ð´Ð¾Ð¼": 3663, "ÑģÐ¸Ð²": 3664, "ĠÐ¸Ð·Ð²ÐµÑģÑĤÐ½Ð¾": 3665, "ĠÑģÑİÐ´Ð°": 3666, "ĠÐ½ÐµÑģÐºÐ¾Ð»ÑĮ": 3667, "ember": 3668, "ang": 3669, "ĠÐ¿Ð¾Ð½ÑıÑĤÑĮ": 3670, "ĠÑģÑĥÐ´ÑĮ": 3671, "ĠÑĢÐµÐ¶Ð¸Ð¼": 3672, "Ð»ÐµÐ½Ð¸Ð¹": 3673, "ĠÑģÑĢÐµÐ´ÑģÑĤÐ²Ð°": 3674, "Ð½ÑİÑİ": 3675, "ĠÑĤÑĥÑĢ": 3676, "ount": 3677, "ĠÐ¾ÑĩÐµÑĢÐµÐ´ÑĮ": 3678, "ĠÐ·ÑĥÐ±": 3679, "In": 3680, "Ð½Ð°ÑĩÐµ": 3681, "ÂłÐĺ": 3682, "ĠÐ²Ð¾ÑģÐº": 3683, "ĠÐ´ÑĥÐ¼Ð°Ñİ": 3684, "Ð´Ð°ÑĤ": 3685, "ÑĭÑĪÐ»ÐµÐ½": 3686, "ĠÐ¾Ð·": 3687, "ĠÐłÐ°Ð½": 3688, "ĠÐºÐ¾ÑĢÐ¾ÑĤ": 3689, "Ð¾ÑĢÐ¾Ð²": 3690, "ational": 3691, "ĠÑĤÐµÐ»ÐµÑĦÐ¾Ð½": 3692, "ÐĹÐ°": 3693, "ĠÐ½ÐµÐ·": 3694, "Ġ21": 3695, "ĠÐ¾Ð±ÑĬÑıÐ²": 3696, "Ð»Ð¸Ð±Ð¾": 3697, "Ġj": 3698, "ĠÐ¡Ðº": 3699, "ĠÑĢÐ°Ð¹Ð¾Ð½Ð°": 3700, "ĠÑįÐºÐ¾Ð½Ð¾Ð¼Ð¸ÑĩÐµÑģÐº": 3701, "ĠÑģÐ»Ð¾Ð²Ð¾": 3702, "Ġ23": 3703, "Ð»Ð¾Ð´": 3704, "ĠÑĢÐ°Ð±Ð¾ÑĤÐµ": 3705, "ition": 3706, "Ð»ÐµÐ½Ð¸Ñİ": 3707, "ĠÐ¶ÐµÐ½ÑīÐ¸Ð½Ð°": 3708, "ĠÐ¾Ð´Ð½Ð¾Ð¼": 3709, "ĠÐ²Ð»Ð¸Ñı": 3710, "ĠÐ¿ÑĢÐ¸ÑĪÐ»Ð¾ÑģÑĮ": 3711, "Ð²Ð°ÑıÑģÑĮ": 3712, "Ð¿ÐµÑĢÐ²ÑĭÐµ": 3713, "ĠÐ±Ð¾Ðº": 3714, "Ġ:": 3715, "ĠÐ¿ÑĢÐ°ÐºÑĤÐ¸ÑĩÐµÑģÐºÐ¸": 3716, "ĠÐ½Ð°Ð²": 3717, "Ð¸ÑĤÐµÑĤÐ°": 3718, "ĠÐ¾ÑģÐ²": 3719, "ĠÐĲÐ»ÐµÐºÑģÐ°Ð½Ð´ÑĢ": 3720, "ĠÑģÐ»ÑĥÑĩ": 3721, "ĠÐ³ÐµÑĢ": 3722, "ĠÑĦÑĥÑĤÐ±": 3723, "ÑĪÐºÑĥ": 3724, "ĠÐ¼Ð½Ð¾Ð³Ð¸Ñħ": 3725, "ĠÐ´ÑĢÐµÐ²": 3726, "ĠÐŁÐ¾Ð¼": 3727, "ÑĩÐµÑģÐºÐ¸": 3728, "ÑģÑĤÐ¸Ð»": 3729, "ĠÐ¿Ð»Ð°Ð½Ð¸": 3730, "ĠÐ²Ð¸Ð·": 3731, "ÐµÐ½Ð½Ð¾Ðµ": 3732, "ÑĢÐµÑĨ": 3733, "Ġ2013": 3734, "Ġbut": 3735, "Ð±Ð¸ÑĤ": 3736, "ĠÐ¼Ð³": 3737, "ĠÑģÑĥÐ¿": 3738, "ĠÐķÑīÐµ": 3739, "Ð³Ð¸Ð½": 3740, "ĠÐ½Ð¾Ð²ÑĭÑħ": 3741, "ĠÐ²Ð·Ð°": 3742, "ÐĿÐ¾": 3743, "ĠÑĥÑĩÐ¸ÑĤ": 3744, "))": 3745, "ÑģÑĤÑıÐ¼Ð¸": 3746, "ĠÐ¥Ð¾ÑĤÑı": 3747, "Ð¶ÐµÑĤ": 3748, "ĠÑģÐµÐºÑĥÐ½": 3749, "ĠÑĦÐµÐ²ÑĢÐ°Ð»Ñı": 3750, "ĠÐ·Ð½Ð°ÑĤÑĮ": 3751, "ĠÑģÐ²Ð¸Ð´ÐµÑĤ": 3752, "ĠÐ½ÐµÐ±Ð¾Ð»ÑĮÑĪ": 3753, "ĠÐ¿ÑĢÐ°Ð²Ð´Ð°": 3754, "ĠÑģÐ¿ÑĢÐ°Ð²": 3755, "Ð½ÐµÐ¼Ñĥ": 3756, "ĠÐ¾Ð±ÑĭÑĩÐ½Ð¾": 3757, "com": 3758, "ĠÐĹÐ´ÐµÑģÑĮ": 3759, "ĠÐ²Ð½Ð¸Ð·": 3760, "ĠÐ´Ð°Ð½Ð½ÑĭÐ¼": 3761, "ĠÐ±Ð»Ð°Ð³Ð¾": 3762, "ĠÐ¼Ð»Ð½": 3763, "Ġwho": 3764, "ĠÐ½Ð¾ÑĩÑĮ": 3765, "ĠÐ°Ð»ÑĮ": 3766, "ens": 3767, "Ð½ÑĥÐ»Ð¸ÑģÑĮ": 3768, "ĠÐ²ÐºÑĥ": 3769, "ĠÐ±Ð¾Ð»ÐµÐ·": 3770, "ĠÐłÐ¾ÑģÑģÐ¸Ñı": 3771, "ĠÐ´Ð¾ÑģÑĤÑĥÐ¿": 3772, "ÑĨÐµÐ½ÑĤ": 3773, "ÑģÑĤÐ²ÐµÐ½Ð½Ð¾Ðµ": 3774, "ĠÐ²Ð¾Ð·Ð¼Ð¾Ð¶Ð½Ð¾ÑģÑĤÐ¸": 3775, "ree": 3776, "ark": 3777, "ÐµÐ±": 3778, "ĠÐ¿Ð¾Ð»ÐµÐ·": 3779, "ĠÐ½ÐµÐ´ÐµÐ»": 3780, "ĠÐ¿ÑĢÐµÑģÑģ": 3781, "ĠÐŁÐµÑĢÐµ": 3782, "ĠAl": 3783, "ÑĢÐ°Ð¶Ð°": 3784, "ĠÐºÐ¾Ð¼Ð¿Ð°Ð½Ð¸Ñı": 3785, "ÑĨÐ¸Ð½": 3786, "ÐºÐ¾Ð¼Ñĥ": 3787, "Ð´Ð°ÑİÑĤ": 3788, "ÑĩÐ¸Ð²Ð¾": 3789, "lect": 3790, "ĠÐ¢Ð°ÐºÐ¶Ðµ": 3791, "ÑħÐ¾Ð¼": 3792, "ÑīÐ¸Ðµ": 3793, "ÑĮÑİÑĤ": 3794, "ÐµÐ½Ñı": 3795, "ind": 3796, "Ð²Ð°Ñİ": 3797, "ĠÑĢÐ¾Ð¼": 3798, "ĠÑįÑĦÑĦÐµÐºÑĤÐ¸Ð²": 3799, "ĠÐ±Ð¾Ð¹": 3800, "ĠÐ»Ð¾": 3801, "ĠÐ¾ÐºÑĤÑıÐ±ÑĢÑı": 3802, "Ð¾Ð¶Ð½Ð¾": 3803, "Ð¼ÐµÑĨ": 3804, "Ð¢Ðŀ": 3805, "ĠÐ°Ð½ÑĤÐ¸": 3806, "ĠÐ»Ð¸ÑĤÐµÑĢÐ°": 3807, "ĠÐ±Ð¸": 3808, "ĠÐ¾ÑĤÐµÑĨ": 3809, "ey": 3810, "ĠÐ´Ð²Ð¸Ð³Ð°": 3811, "ĠÑģÑģÑĭÐ»": 3812, "ĠÑħÐ¾ÑĤÐµÐ»Ð¾ÑģÑĮ": 3813, "ĠÐ¾Ð±Ð¾ÑĢÑĥÐ´": 3814, "ĠÑģÐ¾ÑģÑĤÐ°": 3815, "ĠÐ¿ÑĥÐ±Ð»Ð¸": 3816, "ÑĥÑĪÐºÐ°": 3817, "ĠÑģÐ°Ð¼ÑĭÐ¼": 3818, "ĠÑģÐ²ÐµÑĢ": 3819, "ĠÐ¿ÑĢÐ¾ÑģÑĤÑĢÐ°Ð½": 3820, "ĠÐ¼ÐµÑĤÐ°Ð»": 3821, "Ð¾ÑĦ": 3822, "ĠÑģÐ¸Ð»Ð°": 3823, "ĠÐ°Ð²Ð¸": 3824, "ations": 3825, "ĠÑĥÐ¼ÐµÑĢ": 3826, "Ð¸Ð½ÑĤÐµÑĢÐµ": 3827, "ĠÑģÐ¾Ð¾Ð±ÑīÐ¸Ð»": 3828, "ĠÐºÐ¾Ð¼Ð¼Ñĥ": 3829, "____": 3830, "ÑıÑĤÐ¸Ñı": 3831, "ÐµÐ¶": 3832, "Ð´Ð°Ð²": 3833, "ÑģÑĤÐ²ÑĥÑİÑĤ": 3834, "ĠÐºÐ°ÑģÐ°": 3835, "ĠÐ¸ÑģÐ¿Ð¾Ð»ÑĮÐ·Ð¾Ð²Ð°ÑĤÑĮ": 3836, "ĠÑĥÐ²Ð¸Ð´ÐµÐ»": 3837, "te": 3838, "ĠÐ¿ÑĢÐ¸Ð±Ð»Ð¸": 3839, "Ġone": 3840, "Ð¼Ð¸Ð½": 3841, "ĠÑĢÐµÐ³Ñĥ": 3842, "ĠÐ°ÑĢÑħ": 3843, "ĠÐºÐ¾Ð½ÑĦ": 3844, "ĠÐ¿Ð¸ÑĪ": 3845, "ĠÑĥÐ¶Ð°Ñģ": 3846, "ÑĤÐ¸ÐºÐ¸": 3847, "ĠÑģÐºÐ¾ÑĢÐµÐµ": 3848, "ÑĢÐ¾ÑĤÐ¸Ð²": 3849, "ÑĤÐµÑĢÐ°": 3850, "Ð¼Ð¾Ð¹": 3851, "Ð¼Ð°ÑĢ": 3852, "ĠÐ´ÐµÐ²Ð¾": 3853, "ÑĢÐ¸Ð½Ð°": 3854, "ĠÑĥÐ½Ð¸Ñĩ": 3855, "ÂłÐĿÐµ": 3856, "ĠÐ¿Ð¾ÑģÑĤÐ¾ÑıÐ½Ð½Ð¾": 3857, "ĠÐ¿Ð¾Ð¿Ð°": 3858, "ÑĥÐ¼Ðµ": 3859, "ĠÐ¿ÑĢÐ¾Ð±Ð»ÐµÐ¼Ñĭ": 3860, "ĠÐ¿ÑĢÐ¾Ð¸Ð·Ð½ÐµÑģ": 3861, "ĠÐ¿ÑĢÐ¸ÑĢÐ¾Ð´": 3862, "ĠÐŃÑĤÐ¾ÑĤ": 3863, "ĠÑĢÐ°ÑģÑģÐºÐ°": 3864, "Ð´Ð¸Ð²Ð¸": 3865, "tern": 3866, "Ġab": 3867, "ĠÑģÐ¾ÑģÐµÐ´": 3868, "oll": 3869, "Ġapp": 3870, "ĠÐ¼Ð°Ð½": 3871, "ĠÐ²ÐµÑģÑĮÐ¼Ð°": 3872, "ĠÐŁÐµ": 3873, "ĠÐļÐ¸": 3874, "ĠÐ¡Ð¡Ð¡Ðł": 3875, "ĠÐ½Ð°Ð¿Ð¸Ñģ": 3876, "ĠÐĹÐ°Ðº": 3877, "ÑĩÐµÑģÐºÐ¾Ðµ": 3878, "ĠÐĵÐµÑĢÐ¼Ð°": 3879, "ÂłÐ³": 3880, "ĠÐ¢Ð°": 3881, "ĠÐ·Ð°Ñģ": 3882, "ĠÐłÑĥ": 3883, "ĠÐ¿Ð¾ÐºÑĢÑĭ": 3884, "ĠÑĢÐ°Ð·Ð´ÐµÐ»": 3885, "amp": 3886, "ĠÐ²ÑĭÑĢÐ°Ð¶": 3887, "ĠÐ½ÐµÐºÐ¾ÑĤÐ¾ÑĢÑĭÐµ": 3888, "ĠÐ¿ÑĢÐ¾Ñĩ": 3889, "Ð»ÐµÐ½Ð¾": 3890, "ĠÐ¸Ð½Ð¾Ð³Ð´Ð°": 3891, "ĠÐ¿Ð¾ÑģÑĤÑĥÐ¿": 3892, "ĠÑĥÐ²ÐµÑĢÐµÐ½": 3893, "ÑĪÐ¸ÑģÑĮ": 3894, "ĠÐµÐ´Ð²Ð°": 3895, "ÐºÐ¾Ð¼ÐµÐ½": 3896, "Ð»Ð°Ð²Ð°": 3897, "ĠÐ»ÑİÐ±Ð¸Ð¼": 3898, "Ð¿Ð¾Ð²": 3899, "ĠÐĵÐ»Ð°Ð²": 3900, "....": 3901, "16": 3902, "ĠÐºÐ°Ð·Ð°Ð»Ð¾ÑģÑĮ": 3903, "Ð°ÑģÑģÐ°": 3904, "Ð¼Ð¸ÑĢÐ°": 3905, "ĠÐºÑĢÐµÐ¿": 3906, "ĠÐ½ÐµÐ¼ÐµÑĨ": 3907, "Ġyear": 3908, "ĠÐ±ÑĢÐ¸": 3909, "ÑħÑĥ": 3910, "ĠÐĶÐ¸": 3911, "clud": 3912, "Ġher": 3913, "ĠÐ½ÐµÐ¾Ð¶Ð¸Ð´Ð°Ð½": 3914, "ĠÐºÐ¾Ð½ÑĨÐ°": 3915, "ĠÑĩÐ¸ÑĤ": 3916, "ould": 3917, "ĠÐĲÐ»": 3918, "ĠÐ¿Ð¾ÑĩÑĥÐ²": 3919, "ÑĥÑİÑīÐ¸Ñħ": 3920, "ĠÐ¾ÑīÑĥÑī": 3921, "ÐºÐµÑĤ": 3922, "ĠÐļÐ¾Ð½ÐµÑĩÐ½Ð¾": 3923, "Ð³Ð¾Ð¼": 3924, "].": 3925, "Ġte": 3926, "Ð¿ÑĢÐ¸Ð¼ÐµÑĢ": 3927, "ĠÐ½Ð°Ð¼Ð¸": 3928, "ĠÑıÐ²Ð»ÑıÑİÑĤÑģÑı": 3929, "Ð°ÐºÐ¾Ð²": 3930, "ĠÐ²ÐµÐºÐ°": 3931, "ĠÐ¿ÑĢÐ¾ÑĪÐ»": 3932, "ĠÐĹÐµÐ¼": 3933, "ĠÐ¿Ð¸Ñģ": 3934, "ÑīÐ°ÐµÑĤÑģÑı": 3935, "ng": 3936, "ÐµÑħÐ°Ð»": 3937, "ĠÑĢÐ¾Ð·": 3938, "Ġ195": 3939, "14": 3940, "ĠÑģÐ¸Ð»Ñĥ": 3941, "ĠÐ¶Ð¸Ð»": 3942, "land": 3943, "ĠÑįÐ»ÐµÐ¼": 3944, "ĠÐ¿ÑĢÐ¾ÑıÐ²": 3945, "ĠÐ¸Ð¼ÐµÐ½Ð¸": 3946, "ĠÐ¸ÑģÐºÐ»ÑİÑĩ": 3947, "ĠÑĢÐ°Ð¹Ð¾Ð½Ðµ": 3948, "ÑĤÐ¸Ð½Ð°": 3949, "ĠÑģÐµÐ»ÑĮ": 3950, "Ð±Ð¾Ð²": 3951, "ĠÐ¾Ð¿ÑĭÑĤ": 3952, "ĠÐ¾Ð³ÑĢÐ°Ð½Ð¸": 3953, "ĠÑģÐ¾Ð¶": 3954, "ĠÐ³Ð»Ð°Ð·Ð°Ð¼Ð¸": 3955, "ĠÐ¿ÑĢÐ¾Ð´Ð¾Ð»Ð¶Ð°": 3956, "ĠÑħÐ¾ÑĩÐµÑĤ": 3957, "orn": 3958, "ally": 3959, "ĠÐ²Ð½ÑĥÑĤÑĢÐ¸": 3960, "ĠÐ¿Ð¾Ð¼Ð¾ÑīÑĮ": 3961, "ory": 3962, "ÑĤÐ¸ÑĤÑĮÑģÑı": 3963, "ĠÐ´Ð°Ð»ÐµÐºÐ¾": 3964, "ĠÐ¸Ð½Ð¾": 3965, "ĠÐ´Ð²ÐµÑĢÐ¸": 3966, "ook": 3967, "ĠÑĢÐ°Ð½": 3968, "ĠÑĢÑĥÐºÐ¾Ð¹": 3969, "Ġhave": 3970, "ĠÐ¿ÑĥÑĤÑĮ": 3971, "ĠÐ´ÐµÐºÐ°Ð±ÑĢÑı": 3972, "ĠÐ·Ð°Ð¼ÐµÑĤÐ¸Ð»": 3973, "ÑĦÐ¾ÑĢÐ¼Ð¸": 3974, "ÐºÐ¾ÑĢ": 3975, "ĠÑĩÐ¸ÑĤÐ°": 3976, "ĠÐ´Ð¾Ð¼Ð¾Ð¹": 3977, "ĠÑģÐµÑĢÐ´ÑĨÐµ": 3978, "Ð¾Ð»ÐµÐ²": 3979, "Ð¾Ð¿ÑĢÐ¸Ñı": 3980, "ÑĨÑĥÐ·": 3981, "ĠÐ½ÐµÐ½Ð°": 3982, "ound": 3983, "ĠÐ±ÑĥÐ´ÐµÐ¼": 3984, "Ġac": 3985, "ĠÐ¿ÑĢÐ¾ÑĤÐ¸": 3986, "ool": 3987, "ĠÐ¶Ð°Ð»": 3988, "ĠÐ½Ð°Ð¸Ð±Ð¾Ð»ÐµÐµ": 3989, "ĠÐ¼Ð°ÑĢÑĤÐ°": 3990, "ÑģÑĤÐ²ÐµÐ½Ð½ÑĭÐ¼": 3991, "ĠÑĤÐµÐ»Ð°": 3992, "Ġplay": 3993, "ĠÐ¿Ð¾Ð³Ð¸Ð±": 3994, "ĠÐ°Ð²ÑĤÐ¾Ð¼Ð¾Ð±Ð¸Ð»": 3995, "ĠÑģÐ¾Ð»Ð½": 3996, "Ð°ÑĤÐ°": 3997, "ĠÐ½Ð°ÑĩÐ°Ð»Ðµ": 3998, "Ð¬": 3999, "ĠÐ³Ð¾ÑģÑĥÐ´Ð°ÑĢÑģÑĤÐ²Ð°": 4000, "ĠÐ¼Ð³Ð½Ð¾Ð²": 4001, "ĠÑģÐµÐ·": 4002, "200": 4003, "ĠÑħÐ°ÑĢÐ°ÐºÑĤÐµÑĢ": 4004, "ĠÐ¼Ð½Ð¾Ð¶Ðµ": 4005, "ĠÐ¿ÑĢÐµÐºÑĢÐ°Ñģ": 4006, "ĠÐ¼ÐµÑħÐ°": 4007, "ĠÑģÑĤÑĢÐ°Ð½Ðµ": 4008, "ĠÐ´Ð²Ð¾ÑĢ": 4009, "ĠÐºÐ°ÐºÐ¾Ðµ": 4010, "ĠÐ²ÑĢÐ¾Ð´Ðµ": 4011, "ugh": 4012, "ÑįÐ¹": 4013, "ĠÑĢÐ°Ð·ÑĢÐ°Ð±Ð¾ÑĤ": 4014, "ĠÐ§ÐµÑĢ": 4015, "Ġ26": 4016, "ĠÐºÐ¼": 4017, "Ġ2012": 4018, "Ð¼Ð¾Ð¼": 4019, "aw": 4020, "Ð±Ð°ÑĤÑĭ": 4021, "ÑĢÐµÐ¼Ñı": 4022, "Ġthis": 4023, "ĠÐ²Ð¿ÐµÑĢÐµÐ´": 4024, "ĠÐļÑĥ": 4025, "ÑĢÐµÐ´Ð¸ÑĤ": 4026, "ĠÑĩÐµÐ¼Ð¿Ð¸Ð¾Ð½Ð°": 4027, "Ð²ÑĪÐµÐ¹": 4028, "Ð·Ð¸Ð½": 4029, "ÑĩÐ¸Ð»Ð¸": 4030, "Ð¿Ð¾Ð½": 4031, "ÑģÑģÐ¸": 4032, "ĠÐŀÑĢ": 4033, "ress": 4034, "ĠÐļÑĢÑĭ": 4035, "ĠÐ±Ñĥ": 4036, "ĠÑģÑĦ": 4037, "ĠÐ¿Ð°ÑĢÑĥ": 4038, "Ġ28": 4039, "ĠÑģÑĤÐ°Ð½ÐµÑĤ": 4040, "Ð³Ð°Ð»": 4041, "ÐµÑĢÐ½Ð°": 4042, "ĠÐ¿ÑĥÑĤ": 4043, "Ð½Ð¸ÐºÐµ": 4044, "ÑĤÐ¸ÑĤ": 4045, "ĠÑĤÐµÐ°ÑĤ": 4046, "Ð¾Ð²Ð¾ÑĢÐ°": 4047, "ĠÐľÐ°Ðº": 4048, "ĠÐºÐ¾Ð½ÐºÑĥÑĢ": 4049, "ÑıÑĤÑĮÑģÑı": 4050, "ÂłÐŃ": 4051, "ĠÐ¸ÑģÑĩÐµÐ·": 4052, "ĠÐ¿ÑĢÐ¾Ð¸ÑģÑħÐ¾Ð´": 4053, "over": 4054, "Ġ27": 4055, "ĠÐ¿ÐµÑĢÐ²Ð¾Ð¹": 4056, "ĠÑĥÐ±Ðµ": 4057, "ile": 4058, "ĠÐĴÐ¾Ð»": 4059, "ÑĪÐµÐ´": 4060, "Ð°Ð´Ð½Ð¾": 4061, "ÑĤÐµÐ»ÑĮÑģÑĤÐ²Ð°": 4062, "ĠÐ¿Ð¾Ñį": 4063, "ÑģÐ¾Ð»ÑİÑĤ": 4064, "Ð´Ð°ÐµÑĤÑģÑı": 4065, "Ð³Ð»Ð¸Ð¹": 4066, "ĠÐ¼Ð¾Ð·": 4067, "Ð°Ð½Ð½Ð¾Ð¹": 4068, "Ð°ÑģÑģ": 4069, "ĠÑĤÑĢÐ¾": 4070, "ĠÐ¿Ð¾Ð´ÑĢÐ¾Ð±": 4071, "ÂŃ": 4072, "ĠÐ·Ð°ÑħÐ²Ð°": 4073, "ÑĩÐµÑĪÑĮ": 4074, "ĠÑĢÐµÑĪÐµÐ½Ð¸Ñı": 4075, "ĠÑģÑĢÐµÐ´ÑģÑĤÐ²": 4076, "ĠÑĢÐ°Ð·Ð³Ð¾Ð²Ð¾ÑĢ": 4077, "ĠÐ¾ÑĤÐ´Ñĭ": 4078, "ĠÑĥÑĤÑĢÐ°": 4079, "ĠÐºÐ°ÐºÐ¸Ð¼": 4080, "Ġman": 4081, "ĠÑĢÑĥÐºÐ°Ñħ": 4082, "Ð°Ð½Ð¾Ð²": 4083, "ĠÐľÐ°ÑĢÐ¸": 4084, "ĠÐ³Ñĥ": 4085, "Ð»Ð¸Ð½Ð°": 4086, "ĠÐĶÐ¼Ð¸ÑĤ": 4087, "ĠÑĥÐ½Ð¸ÑĩÑĤÐ¾Ð¶": 4088, "ĠÑĤÐ¾Ð±Ð¾Ð¹": 4089, "ĠÐ½Ð¾Ð²Ð¾Ð³Ð¾": 4090, "ĠÐ½Ð¾Ð³": 4091, "ĠÐ·Ð°Ð¿ÑĢÐµ": 4092, "ĠÐ²ÑĭÐ¿": 4093, "ĠÐ¾Ð±Ð½Ð°ÑĢÑĥÐ¶": 4094, "ĠÑĢÐ°Ð·Ð½ÑĭÑħ": 4095, "ĠÑģÐ¸ÑĤÑĥÐ°ÑĨÐ¸Ð¸": 4096, "ÑĩÐµÑĤÐ°": 4097, "ĠÐĺÑģÐ¿": 4098, "ĠÐ·Ð¸Ð¼": 4099, "ĠÐ½ÐµÑĢ": 4100, "ĠÐ¿Ð¾ÑģÐ»ÐµÐ´Ð½Ð¸Ðµ": 4101, "tt": 4102, "ĠÐ´Ð¾Ð»Ð³": 4103, "ĠÐŁÐ°Ð²": 4104, "Ġ192": 4105, "ĠÐºÐ¾Ð¼Ñĥ": 4106, "ĠÑĦÐ¸Ð·Ð¸ÑĩÐµÑģÐº": 4107, "ĠÐ¾ÑĢÐ¸": 4108, "ĠÐ¶ÐµÐ½ÑīÐ¸Ð½Ñĭ": 4109, "ÑĢÐ¾Ð²Ð°Ð»Ð¸": 4110, "Ð¼ÐµÐ½Ð°": 4111, "Ġbec": 4112, "ade": 4113, "ĠÐ½Ð¾Ñĩ": 4114, "ĠÐ¿ÑĢÐ¸Ð²Ð¾Ð´": 4115, "ĠÑģÑĤÐ¾Ð»ÑĮ": 4116, "ĠÐ½ÐµÐ¶": 4117, "ÑĩÐµÑģÐºÐ¸Ð¼": 4118, "ĠÑĢÐ¾Ð»ÑĮ": 4119, "ĠÐ½Ð¾ÑıÐ±ÑĢÑı": 4120, "Ð¾ÑĢÑĤÐ°": 4121, "ĠÐ´Ð¾Ð¼Ðµ": 4122, "ÑĤÐ¾ÑĢÐ¾Ðµ": 4123, "ĠÑĢÐµÐºÐ»Ð°": 4124, "ĠÐºÑĥÑħ": 4125, "ĠÐ¿ÑĢÐ¾ÑĨÐµÑģÑģ": 4126, "ĠÐ±Ð»Ð¸Ð¶Ð°Ð¹": 4127, "ĠÐ¿ÑĢÐ¸Ð´ÐµÑĤÑģÑı": 4128, "Ð¾ÑĢÐ¾ÑĪÐ¾": 4129, "Ð´ÐµÐ¹": 4130, "Ð½Ð¸Ð¼Ð°Ð»": 4131, "ĠÑģÑĤÑĢÐµÐ¼": 4132, "Ð¼Ð¾Ñģ": 4133, "ĠÑĢÑĥÐºÐ°Ð¼Ð¸": 4134, "ĠÐ´ÐµÐ½ÐµÐ³": 4135, "ĠÐºÐ°ÐºÐ°Ñı": 4136, "ĠÐĴÐ»Ð°Ð´Ð¸Ð¼Ð¸ÑĢ": 4137, "ÑīÐ°ÑĤÑĮ": 4138, "Ð¾Ð²Ð¾Ðµ": 4139, "ÑĩÐ°Ð»Ð°": 4140, "Ð·Ðµ": 4141, "ĠÐ±Ð»Ð°Ð³": 4142, "Ð¸Ñİ": 4143, "ĠÑģÐºÑĥ": 4144, "Ġ2016": 4145, "Ġper": 4146, "ĠÐ¿ÑĢÐ¾Ð·": 4147, "ĠÐ¿Ð¾ÑĢÑĤ": 4148, "ĠÐĺÐ¼": 4149, "ĠÐºÐ¾Ð»Ð»ÐµÐº": 4150, "Ð½Ð¸ÐºÐ°Ð¼": 4151, "Ġag": 4152, "ĠÑģÐ¾Ð²Ð¼Ðµ": 4153, "ĠÐ²Ð¾Ð¾ÑĢÑĥÐ¶": 4154, "ĠÐ¾ÑĤÐ¿Ñĥ": 4155, "ÐµÐ´Ñĥ": 4156, "ÑģÐºÐ¾ÑĢÐµ": 4157, "ĠÐ¼Ð¾ÐµÐ³Ð¾": 4158, "ĠÐ²ÐµÑĢÐ¾": 4159, "ĠÐ°Ð²Ð³ÑĥÑģÑĤÐ°": 4160, "ĠÐ´Ð¾Ð¿Ð¾Ð»Ð½Ð¸ÑĤÐµÐ»ÑĮ": 4161, "ĠÑĢÐ°Ð·Ð¼ÐµÑĢ": 4162, "ÑģÑĤÑıÑħ": 4163, "ÑĢÑĥÐµÑĤÑģÑı": 4164, "Ð½ÑıÐ»": 4165, "ob": 4166, "ĠÐ¾ÐºÐ°Ð·Ð°Ð»ÑģÑı": 4167, "Ð³Ð¾Ðµ": 4168, "for": 4169, "ĠÑĢÑĥÐº": 4170, "ÑĦÐ¾ÑĢÐ¼": 4171, "Ð°Ð½Ðµ": 4172, "ÑĩÐ¸ÐºÐ°": 4173, "ÑĢÐ¾Ð¿ÐµÐ¹": 4174, "ĠÐ¼ÐµÑĢÐ¾Ð¿ÑĢÐ¸Ñı": 4175, "ĠÑģÐ¿Ð°Ñģ": 4176, "ĠÑĩÐ°ÑģÐ°": 4177, "ÑĢÐ¸ÑģÑĤ": 4178, "ĠÐ½ÐµÐ²": 4179, "Ġall": 4180, "ĠÐ³ÐµÑĢÐ¾": 4181, "ÐļÐ°Ðº": 4182, "ĠÐ¿ÐµÑĢÐ²Ð¾Ð³Ð¾": 4183, "Ð¾Ð»ÑĮÑĪÐµ": 4184, "ĠÐ§ÑĤÐ¾Ð±Ñĭ": 4185, "ĠÐ½Ð°ÑģÐµÐ»ÐµÐ½Ð¸Ñı": 4186, "ĠÐ¼ÑıÐ³": 4187, "ĠÑģÑĤÐµÐº": 4188, "ĠÐ¸ÑİÐ»Ñı": 4189, "ĠÑĥÑģÐ»Ð¾Ð²Ð¸ÑıÑħ": 4190, "ÑĭÐ»": 4191, "ĠÐ¶ÐµÑĢÑĤ": 4192, "ĠÐ¿ÐµÑĢÐµÑħÐ¾Ð´": 4193, "ÑįÐº": 4194, "ĠÐ½Ð°ÑģÑĤÑĢÐ¾": 4195, "Ð±ÑĥÑĢ": 4196, "Ð°ÑĤÐµÐ¼": 4197, "ĠÐ¾ÑĤÐ»Ð¸Ñĩ": 4198, "ĠÐ¡Ð¾Ð²ÐµÑĤ": 4199, "ĠÑĩÑĥÐ¶": 4200, "ÑģÑĤÐ²Ð¸Ð¸": 4201, "ĠÐ´Ð²Ð¸Ð¶ÐµÐ½Ð¸Ñı": 4202, "ĠÐ´ÑĥÑħÐ¾Ð²": 4203, "ĠÐļÐ¸Ðµ": 4204, "ÐµÐ½Ð¸Ð½": 4205, "ĠÐ¿Ð¾Ð²ÐµÐ´": 4206, "Ð²Ð¸Ð»Ð¸": 4207, "ĠÑĥÑģÑĤÑĢÐ¾": 4208, "ĠÐ¸ÑİÐ½Ñı": 4209, "ĠÐ¡ÐµÑĢÐ³ÐµÐ¹": 4210, "ĠÐ±Ð¸Ð·Ð½ÐµÑģ": 4211, "ĠÑģÑĤÑĢÑĥÐº": 4212, "ĠÐ¿Ð¾Ð¶Ð°Ð»ÑĥÐ¹": 4213, "ÑīÐ°ÑĤÑĮÑģÑı": 4214, "ĠÐ½ÐµÑĦ": 4215, "ĠÐºÐ¾Ð¼Ð¼ÐµÐ½ÑĤÐ°": 4216, "ĠÐ¾ÑĨÐµÐ½": 4217, "ĠÐĳÐ¾Ð³": 4218, "fer": 4219, "ÑĪÐ¸Ð¼Ð¸": 4220, "ĠÐ¾ÑĤÐ²": 4221, "ĠÐ¾ÑħÑĢÐ°": 4222, "ĠÐ²ÑĭÑĪÐµÐ»": 4223, "ĠÐ³Ð¾ÑĢÑı": 4224, "Ġtwo": 4225, "ĠÐ²Ð¼ÐµÑģÑĤÐ¾": 4226, "ĠÑģÐ¾ÑģÑĤÐ¾": 4227, "ĠÐ´ÐµÐ²ÑĥÑĪÐºÐ°": 4228, "Ð«": 4229, "ÑĨÐµÐ¿": 4230, "ÑģÑĤÑĮÑı": 4231, "Ġinclud": 4232, "ĠÐ¾ÑĤÐ¿ÑĢÐ°Ð²Ð¸": 4233, "13": 4234, "ÄĲ": 4235, "Ð²Ð°Ð¹ÑĤÐµ": 4236, "ÑĢÐ¸Ð¿": 4237, "ĠÐ°Ð¿ÑĢÐµÐ»Ñı": 4238, "ĠÐĴÐ¸Ðº": 4239, "Ġbeen": 4240, "oy": 4241, "ĠÐµÑģÑĤÐµ": 4242, "ĠÐ¿ÑĢÐ¾Ð¸Ð·Ð¾ÑĪÐ»Ð¾": 4243, "ĠÐ¸Ð½Ð¾ÑģÑĤÑĢÐ°Ð½": 4244, "ÐµÐ»Ð¸ÑĤÑĮ": 4245, "ĠÐ¡Ð¿": 4246, "ĠÐ¸Ð¼ÐµÑİÑĤ": 4247, "Ð²Ð¸Ð·": 4248, "ĠÐ²Ð°Ð¼Ð¸": 4249, "ĠÐ²Ð°Ð»": 4250, "Ð¸ÑĤÐµÑģÑĮ": 4251, "ĠÐºÐ¾ÑĢÐ¸": 4252, "ĠÐ¿ÑĢÐµÐ¿": 4253, "Ð¸ÑĩÐ°": 4254, "ĠÐ¿Ð¾ÑģÐµÑĤ": 4255, "ĠÐ¿ÑıÑĤÐ¸": 4256, "ĠÐ°ÑĢÐ¼Ð¸Ð¸": 4257, "Ð½Ð¾Ð¿": 4258, "ĠÑĥÑģÑĤÑĢÐ¾Ð¹": 4259, "ÑĩÐ½Ð¾ÑģÑĤÐ¸": 4260, "ÑĪÑĤÐ°": 4261, "Ð²Ð°Ð»Ð¾": 4262, "ĠÐ´Ð°Ð»": 4263, "ÐµÑĤÐµÑĢÐ±ÑĥÑĢ": 4264, "ĠÑĢÐµÐºÐ¾Ð¼ÐµÐ½": 4265, "ĠÐ³Ð¾Ð²Ð¾ÑĢÑıÑĤ": 4266, "ÑĩÐ½Ð¾Ð¼": 4267, "ft": 4268, "ÑĤÑĭÐ¼": 4269, "ĠÐ±ÑĥÐ´ÑĥÑī": 4270, "!Â»": 4271, "ĠÐ´ÐµÑĤÐ¸": 4272, "!..": 4273, "ĠÐ²Ð·Ð´Ð¾Ñħ": 4274, "ĠÑģÐ¸Ð½": 4275, "ÐµÑĢÑĥ": 4276, "ĠÐ³Ð¾ÑģÐ¿Ð¾Ð´": 4277, "uring": 4278, "ĠÐ½Ð°Ð¿Ð¸ÑģÐ°": 4279, "ĠÐłÐ¾Ð´": 4280, "ĠÑĤÐ¾ÑĢÐ³Ð¾Ð²": 4281, "ĠÑĢÐµÐ±ÐµÐ½ÐºÐ°": 4282, "ÑıÑİÑĤ": 4283, "ĠÐ¿ÑĢÐ¸ÑĩÐ¸Ð½": 4284, "Ð¾Ð¶Ñĥ": 4285, "ĠÐºÐ°Ð¶Ð´Ð¾Ð³Ð¾": 4286, "ÑĨÐ°Ð¼": 4287, "ÑģÑĥÑĢ": 4288, "ĠÑģÐ°Ð¼ÑĭÐµ": 4289, "Ð¾Ð¿Ð°": 4290, "ĠÐ³ÑĢÑı": 4291, "ĠÐ¿ÑĢÐ¸Ð³Ð»Ð°": 4292, "ĠÐ´ÑĥÑĪ": 4293, "Ġen": 4294, "Ð¾Ð»Ñİ": 4295, "ĠÐ²ÐµÐ»": 4296, "ĠÑģÑĩÐ°": 4297, "Ð®": 4298, "ubl": 4299, "ĠÐ¼ÐµÐ´Ð»ÐµÐ½Ð½Ð¾": 4300, "ĠÑĢÐ°Ð¼ÐºÐ°Ñħ": 4301, "ĠÐ½Ð¸ÐºÐ°ÐºÐ¸Ñħ": 4302, "int": 4303, "Ð´Ð°Ð¼": 4304, "ĠÑģÐ¾Ð¾Ð±ÑīÐ¸": 4305, "ates": 4306, "ĠÐ¶ÐµÑģÑĤ": 4307, "ĠÐ¼Ð°ÑģÑĤÐµÑĢ": 4308, "ÐµÑĢÐ¾Ð¼": 4309, "ĠÐ´ÑĢÑĥÐ³Ð¸Ð¼": 4310, "Ð½Ð¾Ð²ÑĢÐµÐ¼ÐµÐ½Ð½Ð¾": 4311, "iss": 4312, "ĠÐ´Ð°Ð»ÑĮÐ½ÐµÐ¹": 4313, "Ð°Ð»ÑĮÐ½ÑĥÑİ": 4314, "ĠÑĢÐµÐ¹": 4315, "ĠÐ±Ð°ÑĢ": 4316, "Ġ40": 4317, "ÑĤÐ¸Ð»Ð°": 4318, "ĠÑģÐ¸Ñħ": 4319, "ĠÐŁÐ¾ÐºÐ°": 4320, "ild": 4321, "ĠÐ¼ÑĥÐ¶ÑĩÐ¸Ð½Ð°": 4322, "ÑĦÐµÑĢÐµÐ½": 4323, "ĠÐļÑĢÐ°Ñģ": 4324, "ÑĤÐµÐ¹": 4325, "ĠÐºÐ¸Ð»": 4326, "Ġrec": 4327, "ĠÑĦÐ¾Ð½": 4328, "ĠÐ¦ÐµÐ½ÑĤ": 4329, "ÑģÐ°Ñħ": 4330, "ÑħÑĢÐ°Ð½": 4331, "ĠÐ¿Ð¾Ð¿ÑĥÐ»ÑıÑĢ": 4332, "ĠÐ¿ÑĢÐ¸Ð½ÑĨÐ¸": 4333, "ÑĩÐ°Ð¼Ð¸": 4334, "ĠÐ½ÐµÑģÐºÐ¾Ð»ÑĮÐºÐ¸Ñħ": 4335, "ĠÐ»Ð¸ÑĪ": 4336, "ĠÐ´Ñĭ": 4337, "ĠÐ¡ÐµÐ³Ð¾Ð´Ð½Ñı": 4338, "ĠNew": 4339, "Ð´ÑĨÐ°ÑĤÐ¸": 4340, "ĠAr": 4341, "ĠÐĶÐµ": 4342, "ÑģÐ¿ÑĥÐ±Ð»Ð¸ÐºÐ¸": 4343, "old": 4344, "ĠÐ¸Ð½Ð°ÑĩÐµ": 4345, "ĠÐ¼Ð¾Ð½Ð°": 4346, "ĠÐ°Ð²ÑĤÐ¾": 4347, "ÐľÑĭ": 4348, "ĠÑģÐ¾ÑģÑĤÐ¾ÑıÐ½Ð¸Ð¸": 4349, "vel": 4350, "ÑĢÐ¸Ð¼": 4351, "uch": 4352, "eg": 4353, "Ð·Ð°Ð¿": 4354, "wn": 4355, "ĠÐ¿Ð¾Ð»ÑĮÐ·Ñĥ": 4356, "Ð°Ð»ÑĮÐ½Ð¾Ð¼": 4357, "ĠÐ¿ÑĢÐ¸ÐµÐ¼": 4358, "ĠÐ±ÑİÐ´Ð¶": 4359, "ĠÐ¿Ð¾Ð·Ð²Ð¾Ð»ÑıÐµÑĤ": 4360, "ĠÑĤÐ¾Ð²Ð°ÑĢÐ¸": 4361, "ĠÑģÑĤÐ°Ð½Ð¾Ð²Ð¸ÑĤÑģÑı": 4362, "ĠÐ¿Ð°ÑĢÑĤ": 4363, "ÑĢÑĥÑİÑĤ": 4364, "ĠÑħÐ¾Ð»": 4365, "ĠÐ¿Ð¾Ð¼Ð¾ÑĩÑĮ": 4366, "ÑĤÐ¾Ðµ": 4367, "ÑĩÐ½ÑĥÑİ": 4368, "ĠÐ´Ð¾Ð¿Ñĥ": 4369, "ĠÐºÐ¾Ð¼Ð¸Ñģ": 4370, "ĠÐ¸Ð½ÑĦÐ¾ÑĢÐ¼Ð°ÑĨÐ¸Ñİ": 4371, "ĠÑĤÐµÑħÐ½Ð¸": 4372, "ĠÐ½ÑĭÐ½Ðµ": 4373, "ĠÑģÑĤÐ¾ÑıÐ»": 4374, "ÑĩÐ°Ð»Ð¸": 4375, "ite": 4376, "ĠÐĳÐµÐ»": 4377, "ĠÐ¿ÑĥÑĤÐµ": 4378, "Ð·ÐµÐ¼": 4379, "ĠÑĨÐµÐ»Ð¸": 4380, "ÑĥÑİÑīÐ¸Ðµ": 4381, "ĠÐ·Ð°Ð´ÑĥÐ¼": 4382, "ĠÐ¿Ð¾ÑģÐ¼Ð¾ÑĤÑĢÐµÐ»": 4383, "Ð¿Ð°ÑģÐ¸Ð±Ð¾": 4384, "ĠÐ½ÐµÐ²Ð¾Ð·Ð¼Ð¾Ð¶Ð½Ð¾": 4385, "ĠÐĴÑģ": 4386, "ĠÑģÐ¿ÑĢÐ¾ÑģÐ¸Ð»Ð°": 4387, "ĠÐ´Ð¾ÑħÐ¾Ð´": 4388, "ors": 4389, "io": 4390, "ĠÐºÐ¾Ð¼Ð°Ð½Ð´Ð¸": 4391, "ĠÑģÑĤÑĢÐ°ÑĪ": 4392, "ĠÑĥÐ²Ð°": 4393, "âĢĿ": 4394, "Ð¡Ðļ": 4395, "Ð¸ÑĤÐµÑĤ": 4396, "Ð¾Ð³ÑĢÐ°ÑĦ": 4397, "ĠÐ¿Ð¾ÑģÐ»": 4398, "ĠÐ°Ð½Ð°Ð»": 4399, "ĠÐ¿Ð¸ÑĤÐ°": 4400, "Ð¾ÑģÐ¸": 4401, "ĠÐļÐ¾Ð»": 4402, "ÂłÐĿÑĥ": 4403, "Ð¸Ð³ÑĢÐ°": 4404, "Ġother": 4405, "ĠÐķÑģÑĤÑĮ": 4406, "ĠÐ´ÐµÐ¿ÑĥÑĤÐ°": 4407, "ÐŁÐ¾": 4408, "ĠÑĥÐ´Ð¾Ð²Ð¾Ð»ÑĮ": 4409, "ĠÐ¿ÑĥÑģÑĤÑĮ": 4410, "ĠÐ¼Ð°ÑĤÑĮ": 4411, "ĠÐ·ÐµÐ¼Ð»Ð¸": 4412, "ĠÐ´ÑĢÑĥÐ³Ð¾Ð¼": 4413, "ĠÐĽÐ°": 4414, "ÑĤÐ¸Ðº": 4415, "ÑģÑĤÐ²Ð¾Ð²Ð°Ð»Ð°": 4416, "ĠÐ¸Ð¼ÐµÑĤÑĮ": 4417, "Ġsc": 4418, "ĠÑĢÐ°Ð½ÐµÐµ": 4419, "ĠÑħÑĥ": 4420, "ĠÐ¿ÑĢÐµÐ´Ð¼ÐµÑĤ": 4421, "Ð¶Ð½Ð¾Ð¹": 4422, "ph": 4423, "ĠÐ²Ð¿ÐµÑĢÐ²ÑĭÐµ": 4424, "ĠÐ¿Ð¾Ð´Ð´ÐµÑĢÐ¶Ð¸": 4425, "ĠÐ±Ð»Ð°Ð³Ð¾Ð´Ð°ÑĢÑı": 4426, "ĠÐ·Ð°ÑĩÐµÐ¼": 4427, "ĠÐĿÐ¸ÐºÐ¾Ð»": 4428, "ĠÐŁÑĢÐµ": 4429, "ĠÐ²Ð¿ÐµÑĩÐ°ÑĤ": 4430, "ĠÐ´ÑĢÑĥÐ·ÑĮÑı": 4431, "ĠÐ²Ð¸Ð´Ñĥ": 4432, "ĠÐłÐ¾ÑģÑģÐ¸Ð¹ÑģÐºÐ¾Ð¹": 4433, "ĠÐ¾Ð±Ð²Ð¸Ð½": 4434, "ÑģÑĤÐ°Ð²Ð¸Ð»Ð¸": 4435, "Ð»ÐµÐ½Ð½ÑĭÑħ": 4436, "ĠÐ¿Ð¾ÑıÑģ": 4437, "ÂłÐ¢Ñĭ": 4438, "ĠÑĢÐµÐ»Ð¸": 4439, "Ġ2011": 4440, "ÐŃÑĤÐ¾": 4441, "ĠÐ²ÑĭÐ´ÐµÐ»": 4442, "ĠÑģÑĤÐ¾Ð»ÑĮÐºÐ¾": 4443, "ĠÐ¾ÑĤÐ²ÐµÑĤÑģÑĤÐ²ÐµÐ½": 4444, "ĠÐ²Ð·ÑıÐ»": 4445, "ĠÐ³Ð¾ÑģÑĤÐ¸": 4446, "ĠÑĢÐ°Ð·Ð»Ð¸ÑĩÐ½ÑĭÑħ": 4447, "Ð½ÑĥÐ²ÑĪÐ¸ÑģÑĮ": 4448, "Ð¶ÐµÐ¼": 4449, "ĠÐ½ÐµÐ´Ð¾ÑģÑĤÐ°": 4450, "ĠÑĢÐ°Ð·ÑĢÑĥ": 4451, "ĠÑĢÐ°Ð±Ð¾ÑĤÐ°ÐµÑĤ": 4452, "ĠÑģÐ²Ð¾ÐµÐ¼Ñĥ": 4453, "ĠÐ°Ð³ÐµÐ½ÑĤ": 4454, "Ð³Ð°Ð¼Ð¸": 4455, "one": 4456, "ĠÐ²ÐµÐº": 4457, "ĠÐ¿Ð¾ÐºÑĥÐ¿Ð°": 4458, "ĠÐ°Ð´ÑĢÐµÑģ": 4459, "ĠÐ¿ÑĢÐ¾Ð¸Ð·Ð²ÐµÐ´": 4460, "ĠÑģÐ¸ÑģÑĤÐµÐ¼Ð°": 4461, "ĠÐºÐ°Ð±Ð¸Ð½": 4462, "ĠÐ·Ð°Ð¿Ñĥ": 4463, "ÐºÐ°Ð´ÐµÐ¼": 4464, "ĠÐ²ÐµÑīÐ¸": 4465, "ĠÐ¸Ð³ÑĢÑĭ": 4466, "ÑĢÐ°Ð·Ð´Ð¾": 4467, "ĠÐĶÐ¶Ðµ": 4468, "Ð²Ð¾Ð·ÑĮ": 4469, "ĠÐ²ÑĭÐ³Ð»Ñı": 4470, "ĠÐ¿Ð¾ÑģÐ²": 4471, "Ð»ÑıÐ½": 4472, "ĠÑĢÐ°ÑģÑĪÐ¸": 4473, "ÑĥÐºÐ°": 4474, "ÑĢÐ¾ÑģÐ¸ÑĤÑĮ": 4475, "Ð¾ÑģÑĤ": 4476, "ĠÐ°ÑĤ": 4477, "ĠÑĥÐºÐ°Ð·Ð°": 4478, "Ġ2010": 4479, "ĠÐºÐ¾Ð½ÑģÑĤÑĢÑĥÐº": 4480, "ĠÑģÐµÐ¼ÐµÐ¹": 4481, "Ð¾Ð»Ð³Ð¾": 4482, "ĠÐ¾ÐºÐ°Ð·Ð°": 4483, "ĠÐ¾Ð±ÑĥÑĩ": 4484, "Ð¾Ð±Ð¾ÑĢÐ¾": 4485, "ÐµÐ¼ÑĭÑħ": 4486, "ĠÐ¼Ð°ÐºÑģÐ¸Ð¼": 4487, "ĠÑģÐ²ÑıÐ·Ð°": 4488, "ÑĤÐ¸Ð²Ð°": 4489, "Ð»ÐµÐ½Ð½ÑĭÐµ": 4490, "ĠÑģÐ¿ÑĢÐ°ÑĪÐ¸": 4491, "ĠÑĥÐ¼Ðµ": 4492, "ĠÐ²ÑģÐº": 4493, "ents": 4494, "Ð»Ð¾Ð½Ð¸": 4495, "ÑīÐ¸Ð¼Ð¸": 4496, "ĠÐ³Ðµ": 4497, "ĠÑĢÐµÑĩÑĮ": 4498, "ely": 4499, "ĠÑĤÑĭÑģ": 4500, "ug": 4501, "ĠÑĢÐ°ÑģÑģÐ¼Ð°ÑĤÑĢÐ¸": 4502, "ĠÑĤÑİ": 4503, "Ð·Ð°ÑĨÐ¸Ñı": 4504, "ĠÐ·Ð°Ð²ÑĤÑĢÐ°": 4505, "ĠÐ²Ð·Ð°Ð¸Ð¼": 4506, "ĠÐ¿Ð¾Ð´ÑĥÐ¼Ð°Ð»": 4507, "ĠÐĲÐ´": 4508, "ĠÐ±Ð¾Ð³Ð°": 4509, "ÐµÐ½Ð½Ð¾ÑģÑĤÐ¸": 4510, "ĠÐ²ÑĭÑıÑģ": 4511, "Ð´Ð°Ð²Ð½Ð¾": 4512, "Ð¶ÐµÐ½Ð¸Ð¸": 4513, "ĠÑĢÐµÐ¼Ð¾Ð½": 4514, "ĠÐ·Ð½Ð°ÐµÑĪÑĮ": 4515, "ÐºÑĢÐµÑĤ": 4516, "ĠÐ¿Ð»Ð¾ÑīÐ°Ð´": 4517, "Ġ29": 4518, "ĠÐ°Ð±ÑģÐ¾Ð»ÑİÑĤ": 4519, "Ð¾ÑĢÐ¾Ð¼": 4520, "ĠÐ²Ð¾Ð²ÑģÐµ": 4521, "ĠÐ²Ð¾ÑģÑģÑĤÐ°Ð½Ð¾Ð²": 4522, "Ð¸ÑĤÐµÐ»ÑĮÐ½ÑĭÐ¹": 4523, "ĠÑģÐ±": 4524, "ĠÑĤÑĢÑĥÐ´Ð½Ð¾": 4525, "ited": 4526, "ĠÐ¿Ð¾Ð·Ð½Ð°": 4527, "ĠÑĤÐ¸Ð¿Ð°": 4528, "ÐĶÐ°": 4529, "ĠÐľÐµÐ¶Ð´Ñĥ": 4530, "ĠÐ¼Ð¸Ðº": 4531, "ĠÑĢÐµÐ°Ð»Ð¸": 4532, "ĠÑģÑĤÑĢÐ°Ñħ": 4533, "ĠÐľÐ¾ÑģÐºÐ²Ñĭ": 4534, "ĠÐ¿ÐµÐ½": 4535, "Ġim": 4536, "Ħĸ": 4537, "ĠÐ³Ð¾Ð²Ð¾ÑĢÑı": 4538, "ĠÐ´ÑĥÐ¼Ð°Ð»": 4539, "ĠÐ½Ð°Ð¼ÐµÑĢ": 4540, "ĠÐĹÐ°ÑĤÐµÐ¼": 4541, "ĠÑħÐ¾Ð´Ðµ": 4542, "Ð¾Ð²Ð°Ð½Ð¸Ð¸": 4543, "ĠÑĥÑģÐ»Ñĥ": 4544, "ons": 4545, "ĠÑģÑĤÐ¾ÑĢÐ¾Ð½": 4546, "ĠÐ²ÑģÐµÐ¼Ñĥ": 4547, "Ð°ÐºÑĥ": 4548, "ĠÐ¿ÑĢÐ¾ÑĤÐ¸Ð²Ð¾": 4549, "ÑĨÐµÐ»": 4550, "ĠÐ¤ÐµÐ´ÐµÑĢÐ°ÑĨÐ¸Ð¸": 4551, "ĠÐ¶ÑĥÑĢÐ½Ð°Ð»Ð¸": 4552, "Ð´ÐµÑĢÐ¶Ð°": 4553, "ĠÐ¸Ð½ÑĦ": 4554, "ĠÐ¿Ð¾ÑģÐµÐ»": 4555, "ĠÐºÐ½Ð¸Ð³Ð¸": 4556, "ĠÑĦÐ¾ÑĢÐ¼Ð¸": 4557, "ÑĥÐ¼Ð°Ð»Ð°": 4558, "Ð¶ÐµÐ¹": 4559, "ĠÐ¿Ð¾Ð½Ð¸Ð¼Ð°Ñİ": 4560, "ÑĩÐ¸Ð¹": 4561, "ÑģÑĤÐ²ÐµÐ½Ð½Ð°Ñı": 4562, "ĠÐ»ÑĮ": 4563, "ĠÐºÐ»Ð°": 4564, "ÑĢÐ¸ÑĤÐµ": 4565, "ĠÐ¿ÑĢÐ¸ÑıÑĤ": 4566, "Ġwork": 4567, "ÑĨÐ¸Ð¾Ð½Ð½ÑĭÑħ": 4568, "ĠÐ¿ÑĢÐ¸Ðº": 4569, "ĠÑĢÐ°Ð·Ð°": 4570, "ÑĢÐ°Ð²Ð¾": 4571, "ĠÐĿÐ¾Ð²Ð¾": 4572, "ĠÐ¾Ð±ÑıÐ·Ð°ÑĤÐµÐ»ÑĮÐ½Ð¾": 4573, "Ð²ÐµÐ½": 4574, "âĢĻ": 4575, "ĠÐ¾ÑĤÑĨÐ°": 4576, "ĠÐ¿Ð¾Ð»Ðµ": 4577, "hn": 4578, "ĠÐĲÐ»ÑĮ": 4579, "ÐĺÐ½": 4580, "Ð³Ð¾Ð´Ð½Ð¾": 4581, "Ð¾Ð´ÐµÐ¹ÑģÑĤÐ²": 4582, "Ð¶Ð°Ð»Ð°": 4583, "ased": 4584, "we": 4585, "ĠÐ¿ÑĢÐ¾ÑĤÐµ": 4586, "ÑİÑīÐµÐµ": 4587, "ĠÐŀÐŀ": 4588, "ÐµÑĢÐºÐ¾Ð²": 4589, "ĠÐ²ÑĭÐ´Ð°": 4590, "ÑĤÐµÐ³Ð¾": 4591, "ÐŀÐ½Ð°": 4592, "Ð¾Ð²Ð¾Ð³Ð¾": 4593, "ÑģÐ»ÑĥÐ¶Ð¸": 4594, "ied": 4595, "Ð²ÐµÐ¹": 4596, "ĠÑĤÐ¸ÑħÐ¾": 4597, "ĠÐ¸Ð·Ð¾Ð±ÑĢÐ°Ð¶": 4598, "ĠÐ¾ÑĤÐ½Ð¾ÑĪÐµÐ½Ð¸Ð¸": 4599, "ĠÑģÐ°Ð¹ÑĤÐ°": 4600, "ĠÑģÐµÑĤ": 4601, "ÑģÑĤÐµÐ¿": 4602, "Ð»Ð°ÑĤ": 4603, "ĠÑĢÐ°Ð·Ð²Ð¸": 4604, "ĠÐ²ÐµÑĢÑħ": 4605, "ĠÐ²Ð»Ð°Ð´": 4606, "Ð¾ÑĢÑĭ": 4607, "ĠÐ²Ð¾ÑģÐ¿ÑĢÐ¸": 4608, "ĠÐ¾ÑĨÐµÐ½Ð¸": 4609, "Ð½ÑĥÐ¶Ð´": 4610, "ĠÐ·ÑĢÐµÐ½Ð¸Ñı": 4611, "ĠÐ²Ð½Ð¸Ð¼Ð°Ð½Ð¸Ñı": 4612, "Ġcomm": 4613, "ĠÑĥÑģÐ»ÑĭÑĪ": 4614, "ÑĭÐ²Ð°Ð»": 4615, "Ð¾Ð³Ð»Ð°Ñģ": 4616, "ĠÐºÐ¾Ð¼Ð¿Ð»ÐµÐº": 4617, "ĠÐ½Ð°ÑģÑĤÐ¾Ð»ÑĮÐºÐ¾": 4618, "ĠÐ¸Ð´ÑĤÐ¸": 4619, "ĠÐºÐ¾ÑĤ": 4620, "ĠÐ¼Ð°ÑĪÐ¸Ð½Ñĭ": 4621, "Ð±Ð°Ð²": 4622, "ĠÐ¿Ð°ÑĢÑĤÐ¸Ð¸": 4623, "ĠÑĢÐµÐ´Ð°Ðº": 4624, "ĠÑĥÐ»Ð¸ÑĨÐµ": 4625, "ĠÐ¾Ð±ÑĢÐ°Ð·Ð¾Ð²Ð°Ð½Ð¸Ñı": 4626, "Ð´ÑĢÐ°Ð²": 4627, "chool": 4628, "ĠÐ¿Ð¾Ð»Ñı": 4629, "ĠÐ°Ð½Ð³Ð»Ð¸Ð¹": 4630, "ĠÐ¾ÑħÐ¾ÑĤ": 4631, "ss": 4632, "ÑĩÐµÐ½Ñĭ": 4633, "Ð¾Ð¹Ð´ÐµÑĤ": 4634, "ĠÐĺÐ¼ÐµÐ½Ð½Ð¾": 4635, "ĠÑģÑħÐ²Ð°": 4636, "Ġafter": 4637, "ĠÐ¾ÑĢÑĥÐ¶Ð¸": 4638, "ÑĤÑĥÑĢÐµ": 4639, "Ð³Ð°ÑĢ": 4640, "ĠÐ²Ð¸Ð´ÐµÑĤÑĮ": 4641, "Ð¾ÑĢÐµ": 4642, "ĠÐ¾Ð¿Ð»Ð°": 4643, "ĠÑĪÐ°": 4644, "ĠÐ¿ÑĢÐµÐ´ÑĥÐ¿": 4645, "ÑĦÐ¸ÑĨÐ¸": 4646, "ÂłÐĹ": 4647, "ĠÑĩÐ¸ÑģÑĤ": 4648, "ÐľÐĺ": 4649, "ĠÐ·Ð°Ð¿Ð°Ð´": 4650, "Ð»ÐµÐ½Ð½ÑĭÐ¹": 4651, "ĠÐ¿ÑĢÐ¸Ð¼ÐµÑĢÐ½Ð¾": 4652, "Ð³Ð¸Ñı": 4653, "Ð¾ÑģÐ°": 4654, "ĠÐ½Ð¾Ð¶": 4655, "ex": 4656, "ĠÑĦÑĢÐ°Ð½ÑĨÑĥÐ·": 4657, "Ð¾ÑĤÑĢÐµÐ±": 4658, "ÑĤÐµÐ»": 4659, "ĠÑĢÐ°ÑģÑģÑĩÐ¸ÑĤ": 4660, "ÑĢÐµÐ·Ð¸Ð´": 4661, "ĠÐ´Ð¾Ð»Ð»Ð°ÑĢÐ¾Ð²": 4662, "ĠÐĺÑħ": 4663, "ĠÐ±Ð¾ÐµÐ²": 4664, "ĠÑĤÐµÐ¼Ð¿ÐµÑĢÐ°": 4665, "ĠÐ¿Ð¾ÑĢÑıÐ´ÐºÐµ": 4666, "Ð¶Ð°Ð»Ð¸": 4667, "Ġ+": 4668, "ÑĨÐ¸Ð¾Ð½Ð½Ð¾Ð¹": 4669, "ÐŁÑĢÐ¸": 4670, "ĠÐĳÐµÑĢ": 4671, "ĠÐ°Ñį": 4672, "ÑĤÐ°Ð»Ð¸": 4673, "ĠÐ¿Ð¾Ð´Ð°": 4674, "ĠÐ½Ð°ÑģÑĤÐ¾ÑıÑīÐµÐµ": 4675, "ĠÐ½Ð¾Ð²Ð¾Ð¹": 4676, "**": 4677, "ÑĨÐ¸ÑıÑħ": 4678, "ĠÐ´Ð²ÑĥÐ¼": 4679, "ĠÑģÑĩÐ°ÑģÑĤ": 4680, "Ð¾Ð½Ñĥ": 4681, "ĠÐľÐ¸ÑħÐ°": 4682, "ĠÑĦÑĢÐ¾Ð½": 4683, "ÑĩÐµÐ½Ð¾": 4684, "ĠÐ¿Ð¾Ð´ÑĩÐµÑĢ": 4685, "ĠÑģÐ½Ð°ÑĩÐ°Ð»Ð°": 4686, "ÑıÑīÐ¸Ñħ": 4687, "Ð²Ð°Ð»Ð¾ÑģÑĮ": 4688, "ĠÐ¾Ð¿ÑĥÐ±Ð»Ð¸": 4689, "ĠÑģÑĥÑħ": 4690, "25": 4691, "ÑĥÐºÐ¸": 4692, "ĠÐ²Ð·ÑıÑĤÑĮ": 4693, "Ð³Ð°ÑĤÑĮ": 4694, "ÐµÐ·Ð´Ðµ": 4695, "ĠÐ¿ÑĢÐ¾Ð³ÑĢÐ°Ð¼Ð¼Ñĭ": 4696, "Ð¾Ð²ÑĭÐ¼Ð¸": 4697, "ĠÐ¿ÐµÑĢÐ²ÑĥÑİ": 4698, "Ð¸ÑĤÐµÐ»ÑĮÐ½Ð¾Ð¹": 4699, "ĠÐºÐ°ÐºÐ¸Ñħ": 4700, "ĠÐ´Ð½Ð¸": 4701, "ĠÐ¿Ð»Ð¾ÑħÐ¾": 4702, "ĠÐ³Ð¾ÑĢÐ°Ð·Ð´Ð¾": 4703, "ĠÐ·Ð°Ð²Ð¾Ð´": 4704, "ĠÐ´ÐµÑģÑıÑĤÑĮ": 4705, "ÑĢÐ°ÑĤÑĮ": 4706, "ĠÐŀÐ¿": 4707, "ÑĥÐ´Ð¸": 4708, "ĠÐ¾ÑĢÐ³Ð°": 4709, "Ġform": 4710, "Ð¸Ð±Ð»Ð¸": 4711, "ĠÐ¡ÑĤÐ¾": 4712, "ĠÐ·ÐµÐ¼Ð»Ñİ": 4713, "ĠÑīÐµ": 4714, "ĠÐ¾ÐºÑĢÑĥÐ¶Ð°": 4715, "ÑĥÑĤÑģÑı": 4716, "ĠÐ¶ÐµÐ½ÑīÐ¸Ð½": 4717, "ĠÑģÑĨ": 4718, "ĠÐ·Ð°Ð¼ÐµÑĩÐ°": 4719, "ÂłÐ§ÑĤÐ¾": 4720, "urn": 4721, "ĠÐ¿Ð¾ÑģÐ»ÐµÐ´Ð½Ð¸Ð¹": 4722, "ĠÐ¾ÑĤÐºÑĥÐ´Ð°": 4723, "ÑīÑĥ": 4724, "ĠÐ¾ÑĤÐ¼ÐµÑĤÐ¸Ð»": 4725, "ĠÑıÐ²Ð½Ð¾": 4726, "ĠÐĳÑĥÐ´": 4727, "Ġup": 4728, "ĠÐ½ÐµÐºÐ¾ÑĤÐ¾ÑĢÑĭÑħ": 4729, "ĠÐ·Ð°Ð±Ð¾Ð»Ðµ": 4730, "ĠCom": 4731, "ĠÐ½Ð°ÑĩÐ°Ð»Ð¸": 4732, "ĠÐ²ÑĭÐ±": 4733, "ĠÐ¼Ð½ÐµÐ½Ð¸Ñİ": 4734, "ĠÑĢÐ°ÑģÑħÐ¾Ð´": 4735, "ĠÐ¿Ð¾Ð¼Ð¾Ð³Ð°": 4736, "ĠÐ·Ð°ÑīÐ¸": 4737, "ÐµÑĤÐ¸ÑĩÐµÑģÐº": 4738, "Ġdes": 4739, "ÐµÐ²Ð¸Ñĩ": 4740, "ĠÐ¾ÑĦÐ¸ÑĨ": 4741, "ÐĲÐĿ": 4742, "ÐºÐ°Ðº": 4743, "ĠÐ±ÑĢÐ¾": 4744, "ĠÑģÐ¿Ð¾ÐºÐ¾Ð¹Ð½Ð¾": 4745, "ĠâĢľ": 4746, "ĠÐ¿ÐµÑĢÐµÐ²Ð¾Ð´": 4747, "ĠÐ²Ð°Ð¶Ð½Ð¾": 4748, "Ð²ÑĪÐ°Ñı": 4749, "ĠÐ²Ð¸Ð´Ð½Ð¾": 4750, "ĠÐ´Ð°ÑĤÑĮ": 4751, "Ð½Ð°ÑĤ": 4752, "ĠÐ´ÑĢÑĥÐ³Ð¾Ðµ": 4753, "ÑĢÐ°Ð±Ð°ÑĤÑĭ": 4754, "ĠÑĢÐ°ÑģÑģÐ¼Ð¾ÑĤ": 4755, "ĠÐłÐ°Ð½ÐµÐµ": 4756, "ĠÑĩÐµÑģÑĤ": 4757, "ĠÐ´ÑĢÑĥÐ³Ð¾Ð³Ð¾": 4758, "ĠÐ´Ð¾ÐºÐ°": 4759, "ĠÐ´Ð°Ð½Ð½ÑĭÑħ": 4760, "ĠMar": 4761, "ÑĩÐºÐµ": 4762, "ĠÐľÐ¾ÑģÐºÐ¾Ð²": 4763, "ÑĩÐ¸ÐºÐ¾Ð²": 4764, "ĠÐ²ÑģÑĤÑĢÐµÑĩÐ°": 4765, "Ð¾Ð²Ð°Ð½Ð¸Ð¹": 4766, "ÑĢÐ¾Ð²ÐºÐ¸": 4767, "ĠÐ¿ÑĢÐ¸Ñĩ": 4768, "ĠÑĦÐ¾ÑĢÐ¼Ñĥ": 4769, "ĠÐ¿ÑĢÐµÐ·Ð¸Ð´ÐµÐ½ÑĤ": 4770, "ĠÐ±Ð»Ðµ": 4771, "ĠÐ¸Ð½ÑĤÐµÑĢÐ½ÐµÑĤ": 4772, "ĠÐ´Ð¾ÑģÑĤÐ°Ð²": 4773, "ĠÐ¿Ð¾ÑģÐµ": 4774, "ĠÐµÐ´Ð¸": 4775, "ĠÐ¼ÐµÑģÑıÑĨÐµÐ²": 4776, "ĠÐŀÑĩÐµÐ½ÑĮ": 4777, "ĠÐ´ÑĢÑĥÐ³Ð¸Ð¼Ð¸": 4778, "ĠÑĦÐ¸ÑĢ": 4779, "Ð¼ÐµÐ½ÑĮ": 4780, "ĠÐ±Ð»Ð¾Ðº": 4781, "Ð¸Ð¼Ð°": 4782, "ĠÑĥÑģÐ¸Ð»Ð¸": 4783, "ĠÐ¾Ð±ÑīÐµÐ¼": 4784, "ĠÑĤÐµÐ¼Ð½Ð¾": 4785, "ĠÐ³ÑĢÑĥÐ¿Ð¿Ð°": 4786, "ivers": 4787, "ĠÑģÐ°Ð¹ÑĤ": 4788, "ĠÐµÐ²ÑĢÐ¾Ð¿ÐµÐ¹": 4789, "ÑĢÐ°Ð¹": 4790, "Ð¸Ð»Ð¾Ñģ": 4791, "ĠÐ¿ÑĢÐ¾Ð¼ÑĭÑĪÐ»ÐµÐ½": 4792, "Ð¸ÑĤÐµÐ»ÑĮÐ½ÑĭÐµ": 4793, "ĠÐŃÑĤÐ¸": 4794, "ĠÑĥÑĩÐµÐ±": 4795, ".\"": 4796, "ÑĤÐµÐ»ÑĮÐ½ÑĭÐ¹": 4797, "ĠÐĳÐµÐ·": 4798, "Ð¾Ð¿ÑĭÑĤ": 4799, "ĠÐĵÐ¾Ð»": 4800, "ĠÐĶÐ¾Ð±": 4801, "ĠÐ¡Ð»ÐµÐ´": 4802, "ĠÐ½Ð¸Ð¶Ðµ": 4803, "ĠÐ¿ÑĢÐµÐ´ÑģÐµÐ´Ð°": 4804, "ÑĥÑĪÐºÐ¸": 4805, "ĠÑģÐ¿Ð¸": 4806, "ÑĢÐ¸Ñģ": 4807, "ĠÐ¼ÐµÐ´Ð¸ÑĨÐ¸Ð½": 4808, "ĠÐľÐ°Ð¹": 4809, "ĠÑĩÐ°ÑģÑĤÐ½Ð¾ÑģÑĤÐ¸": 4810, "ÑĢÐ¸ÐºÐ°": 4811, "Ġdis": 4812, "ĠÐ½ÐµÑģÐ¼Ð¾ÑĤÑĢÑı": 4813, "Ġpr": 4814, "ĠÐºÐ¾Ð½ÐºÑĢÐµÑĤ": 4815, "ĠÐ¾Ð±ÑıÐ·Ð°Ð½": 4816, "ĠÑĥÑĩÐµÐ½": 4817, "ĠÐ½Ð°Ð²ÐµÑĢÐ½Ð¾Ðµ": 4818, "ĠÑĢÐ°Ð·Ð²ÐµÐ´": 4819, "ĠÐ°ÑĢÐµ": 4820, "ĠÐ½ÐµÐ¸Ð·Ð²ÐµÑģÑĤ": 4821, "ĠÐ³Ð¾Ð»Ð¾Ð²Ðµ": 4822, "ĠÐ±ÑĢÐ°ÑĤÑĮ": 4823, "ĠÐŀÐ´Ð¸Ð½": 4824, "ÑīÐµÑģÑĤÐ²Ð°": 4825, "ÑģÑĤÐ°Ð²Ð¸Ð»Ð°": 4826, "ĠÑĢÐµÐ°Ðº": 4827, "pe": 4828, "ĠÐºÑĢÐ¾Ð²Ð¸": 4829, "ĠÐ¿ÑĢÐµÐ·Ð¸Ð´ÐµÐ½ÑĤÐ°": 4830, "ĠÐ¾ÑĢÐ³Ð°Ð½": 4831, "ĠÐĴÐµ": 4832, "ÑİÑīÑĥÑİ": 4833, "eb": 4834, "ĠÑģÑħ": 4835, "ĠÐ³Ð»Ð°Ð²Ð½Ð¾Ðµ": 4836, "ĠÐ³Ð»Ð°Ð·Ð°Ñħ": 4837, "Ð¾Ð²Ð°Ð½Ð¸ÐµÐ¼": 4838, "ĠÐºÐ°ÑĤÐµÐ³Ð¾": 4839, "ÑīÐµÐ½Ð¸Ð¸": 4840, "ĠÐ·ÐµÐ¼Ð»Ðµ": 4841, "ĠÑĢÐµÑģÑĥÑĢ": 4842, "Ġ$": 4843, "Ð²Ð¸Ð½Ñĥ": 4844, "ĠÐĺÐ²Ð°Ð½Ð¾Ð²": 4845, "ÑĩÐµÑģÐºÑĥÑİ": 4846, "ÑĨÐ¸Ð°": 4847, "ĠÑĢÐ°ÑģÑģÐºÐ°Ð·Ð°Ð»": 4848, "ĠÑģÐ²Ð¸Ð´ÐµÑĤÐµÐ»ÑĮ": 4849, "ĠÐ¾ÑģÑĤÐ¾ÑĢÐ¾Ð¶": 4850, "ÐµÐ¼ÑĭÐµ": 4851, "ĠÐ§ÐµÑĢÐµÐ·": 4852, "ĠÑĢÐ°Ð·Ð²Ðµ": 4853, "Ð¹ÑĤÐµÑģÑĮ": 4854, "ĠâĦĸ": 4855, "ĠÐ¿Ð¾ÐµÐ·Ð´": 4856, "ÑİÑīÐ¸Ð¼Ð¸": 4857, "ĠÐ»Ð¾Ð²": 4858, "ĠÐ¼Ð¾Ð»ÑĩÐ°": 4859, "ĠÑĥÐ²Ð¸Ð´": 4860, "ĠÑĢÐµÐ²Ð¾Ð»Ñİ": 4861, "ĠÐ£ÐºÑĢÐ°Ð¸Ð½Ðµ": 4862, "ĠÑĦÐ¾ÑĤÐ¾": 4863, "ĠÐ½Ð°Ð¿Ð¾Ð¼": 4864, "ance": 4865, "ĠÐ¿ÑĤÐ¸": 4866, "Ġout": 4867, "Ð´Ð°Ð¼Ð¸": 4868, "ÐµÐ½Ð¸ÑıÐ¼Ð¸": 4869, "Ð´ÐµÐ¹ÑģÑĤÐ²": 4870, "ĠÐ¿ÑĢÐ¾ÐµÐºÑĤ": 4871, "Ð´ÑĥÐ¼Ð°": 4872, "Ð²ÐµÐ»": 4873, "ĠÐŁÐ°ÑĢ": 4874, "under": 4875, "ÑĤÑĥÑĢÑĥ": 4876, "ÑĢÐ¾ÑģÐ»": 4877, "ĠÐ¿ÑĢÐ°ÐºÑĤÐ¸": 4878, "Ð´Ð¸Ñı": 4879, "ĠÐºÐ¾ÑĢÐ¿Ñĥ": 4880, "ĠÐ¾ÑĤÐ²ÐµÑĢ": 4881, "Ð»ÐµÐ±": 4882, "Ð»Ð¸Ð¼": 4883, "ĠÑĤÐ°ÐºÐ¾Ð¼": 4884, "ĠÐ³Ð°ÑĢ": 4885, "les": 4886, "ÑģÐ°Ð¼Ð¸": 4887, "ĠÐ¶Ð¸Ð·Ð½": 4888, "ĠÐºÐ¸Ð½Ð¾": 4889, "Ð´Ð°Ñı": 4890, "ĠÐ¡Ð¾Ð»": 4891, "Ð´Ð¸ÑĤÑĮ": 4892, "ĠÑĢÐµÐ·ÐºÐ¾": 4893, "ĠÐ²Ð°ÑĪ": 4894, "ĠÑģÐ¾Ð¿ÑĢÐ¾Ð²": 4895, "ĠÑģÐ¾ÑģÑĤÐ°Ð²Ð»ÑıÐµÑĤ": 4896, "ĠÑĥÐ·Ð½Ð°ÑĤÑĮ": 4897, "ĠÑĢÐ°Ð·Ð½Ð¾": 4898, "Ġthey": 4899, "ĠÐĵÐµÐ½": 4900, "ĠÐ½ÐµÐ·Ð°Ð²Ð¸Ñģ": 4901, "ĠÐ±Ð»": 4902, "ĠÐ¾ÑĩÐµÐ²Ð¸Ð´": 4903, "able": 4904, "ĠÑģÐ¾Ð±ÑĭÑĤÐ¸Ñı": 4905, "ĠÐ¾Ð±ÑģÑĤÐ¾ÑıÑĤÐµÐ»ÑĮ": 4906, "ĠÐ²Ð¾ÑĢÐ¾": 4907, "hip": 4908, "ĠÑĦÐµÐ´ÐµÑĢÐ°": 4909, "ĠÑĥÑģÑĤ": 4910, "ĠÐ»Ð¾ÑĪÐ°": 4911, "ÐµÐ½Ð¸ÑıÑħ": 4912, "ĠÑģÐ¼ÐµÑĢÑĤÑĮ": 4913, "ĠÐ·Ð¾Ð»Ð¾ÑĤ": 4914, "ÑĢÑĭÐµ": 4915, "ÑİÐ·Ð°": 4916, "Ġnew": 4917, "Ġover": 4918, "ath": 4919, "Ð°Ð½ÑĮ": 4920, "ÑĩÐ¸ÐºÐ¸": 4921, "ĠÐŃÑĤÐ°": 4922, "ĠÐ´ÑĢÑĥÐ¶": 4923, "Ð¸ÑĤÑĥÑĤ": 4924, "ÐŀÑĤ": 4925, "ĠÐ¡ÐµÐ¼": 4926, "ĠÐ¿ÑĢÐ°Ð²Ð¸Ð»ÑĮÐ½Ð¾": 4927, "Ð´Ð¸Ð²Ð¸Ð´Ñĥ": 4928, "Ð°ÑĢÐ¾Ð²": 4929, "ĠÐ¿ÑĢÐ¸Ð³Ð¾ÑĤÐ¾Ð²": 4930, "Ð¾Ð±Ðµ": 4931, "ÐºÐ½Ð¾Ð²": 4932, "ĠÐ¾Ð´Ð½Ð¾Ð²ÑĢÐµÐ¼ÐµÐ½Ð½Ð¾": 4933, "ÐµÐ½Ð½ÑĥÑİ": 4934, "ĠÐ¿Ð¾Ð»ÑĮÐ·Ð¾Ð²Ð°": 4935, "ĠÐ¿Ð¾Ð´Ð°ÑĢ": 4936, "ĠÑįÐ»ÐµÐºÑĤÑĢÐ¾Ð½": 4937, "Ð±ÐµÐ»ÑĮ": 4938, "ĠÐ»Ð¾Ð¶": 4939, "ĠÐ±Ð¾Ðµ": 4940, "ĠÐ¾ÑģÑĤÐ°Ð½": 4941, "ÐµÑĤÐµÑģÑĮ": 4942, "//": 4943, "ĠÐĲÐ½Ð´ÑĢÐµÐ¹": 4944, "ĠÐ±ÐµÑģÑģ": 4945, "ÑĤÐµÐ»ÑĮÐ½Ð¾Ð¹": 4946, "ĠÑĤÐ¾ÑĩÐºÐ¸": 4947, "ĠÐ¾ÑĢÑĥÐ¶": 4948, "ĠÐºÑĢÐµÑģ": 4949, "ĠÐľÐ¾Ð¶Ð½Ð¾": 4950, "ĠÑĢÐ°Ð·Ð±": 4951, "ĠÐĳÐ¾Ð»ÑĮÑĪ": 4952, "ĠÐ±ÑĥÑĢ": 4953, "ĠÑĤÐ²ÐµÑĢ": 4954, "ÑĭÑħÐ°": 4955, "ĠÐºÐ¾Ð½Ñģ": 4956, "ĠÐ´Ð¾Ð³Ð¾Ð²Ð¾ÑĢ": 4957, "ĠÐ·Ð°ÐºÐ¾Ð½Ð¾Ð´Ð°": 4958, "ĠÐ¾Ð¿ÑĢÐµÐ´ÐµÐ»Ñı": 4959, "ĠÐ¸Ð³ÑĢÐ¾Ðº": 4960, "ÑīÐ¸Ðº": 4961, "orld": 4962, "Ð¸ÑĤÐµÐ»ÐµÐ¼": 4963, "ÑģÑĤÐ²Ð¸ÐµÐ¼": 4964, "ĠÑģÐ²ÐµÑĢÑħ": 4965, "ĠÐºÐ¾Ð¼Ð°Ð½Ð´Ñĭ": 4966, "ĠÐ¿ÑĥÑĤÐµÑĪÐµ": 4967, "ĠÐ±Ð¾Ñı": 4968, "ÑĪÑĮÑģÑı": 4969, "Ð¾ÑĤÐ°": 4970, "ĠÑĥÑĩÑĢÐµÐ¶Ð´": 4971, "ĠÑĢÐ°Ð¹Ð¾Ð½": 4972, "ÑıÐµÑĤÑģÑı": 4973, "ĠÐ¼Ð°ÑĤÐµÑĢÐ¸Ð°Ð»Ð¾Ð²": 4974, "ĠÐ¿Ð¾ÑħÐ¾Ð´": 4975, "ĠÑĥÐ²Ð¸Ð´ÐµÑĤÑĮ": 4976, "ood": 4977, "Ð¾Ð²Ð¾ÑĢÐ¸Ð»": 4978, "ont": 4979, "ĠÐºÐ¸Ð²Ð½ÑĥÐ»": 4980, "ĠÐ¿ÑĢÐ¾Ð¸Ð·Ð²Ð¾Ð´ÑģÑĤÐ²Ð°": 4981, "ĠÐ¾Ð±ÑĬÐµÐ¼": 4982, "ĠÑģÐ»ÑĥÑĩÐ¸Ð»Ð¾ÑģÑĮ": 4983, "ÑīÐ°Ð»": 4984, "ĠÐ´ÐµÑĢÐ¶Ð°": 4985, "ĠÐ¼Ð°Ð¼": 4986, "ĠÐ¿Ð¾ÑħÐ¾Ð¶": 4987, "ĠÐķÐµ": 4988, "ĠÐ¿Ð°Ð»Ð°": 4989, "ÑĥÑİÑīÐ¸Ð¹": 4990, "Ð¿ÐµÑĤ": 4991, "Ġoff": 4992, "ĠÐ¼Ð¾ÑĢÐµ": 4993, "ĠÐºÐ¾Ð¼Ð¿ÑĮÑİÑĤ": 4994, "ĠÐ¼ÐµÑĤÑĢÐ¾Ð²": 4995, "ĠÑģÑĤÐµÐ¿ÐµÐ½Ð¸": 4996, "ram": 4997, "ÑĢÐµÐ½Ð¸Ðµ": 4998, "ĠÑĥÑĢÐ¾Ð²Ð½Ñı": 4999, "ĠÐĵÑĢÐ¸": 5000, "ÐµÑĪÑĮÑģÑı": 5001, "ĠÐĳÐ°ÑĢ": 5002, "ĠÐºÑĢÐµÐ´Ð¸ÑĤ": 5003, "ĠÐ¼ÐµÑģÑıÑĨ": 5004, "ĠÐŁÑĢÐ¾ÑģÑĤÐ¾": 5005, "Ð¾Ð³ÑĢÐ°ÑĦÐ¸Ð¸": 5006, "ĠÑģÐ°Ð¼Ð¾ÑģÑĤÐ¾ÑıÑĤÐµÐ»ÑĮ": 5007, "ĠÑģÐµÐ»": 5008, "ĠÑģÐ¾ÐºÑĢÐ°": 5009, "ĠÐ³Ð»ÑĥÐ¿": 5010, "ough": 5011, "ĠÐ¿Ð¾ÑĢÑĥ": 5012, "ĠÐ¿ÑĢÐµÐ´ÑĥÑģ": 5013, "ĠÐĴÐ¸": 5014, "ĠÐ½Ð°ÑģÐ»ÐµÐ´": 5015, "ĠÑĦÐ°": 5016, "ĠÐ¼Ð¸Ð½Ñĥ": 5017, "ĠÐ³Ð¸Ð±": 5018, "ĠÐ²ÑĭÐ´": 5019, "ĠÐ±ÑĢÐ°ÑĤ": 5020, "Ġ2009": 5021, "ĠÐ²ÑģÐµÐ¼Ð¸": 5022, "ĠÐ¼ÑĭÑģÐ»ÑĮ": 5023, "ĠÐ´Ð°Ð½Ð½ÑĭÐµ": 5024, "ction": 5025, "ĠÐ¿Ñĭ": 5026, "ĠÐ²Ð¾Ð»Ð¾ÑģÑĭ": 5027, "ward": 5028, "ĠÐ¿ÑĢÐµÐ´Ð¿Ð¾Ñĩ": 5029, "ÑĮÐµÐ²": 5030, "ĠÑģÐ¾Ðº": 5031, "ĠÐ»ÑİÐ±Ð²Ð¸": 5032, "ĠÑģÑĥÑĤ": 5033, "ĠÑĥÐ³Ð¾Ð»Ð¾Ð²": 5034, "ĠÐĶÐ¾Ð½": 5035, "ĠÑĤÑĢÑĥÐ±": 5036, "ĠÐ³Ð»Ð°Ð²Ð°": 5037, "ÑģÐµÐº": 5038, "Ð³ÐµÐ½": 5039, "ĠÑĥÑĢÐ¾Ð²ÐµÐ½ÑĮ": 5040, "40": 5041, "ĠÐ²ÑĭÐ²Ð¾Ð´": 5042, "ĠÐĴÐ¿ÑĢÐ¾ÑĩÐµÐ¼": 5043, "ÑģÐ¾Ð½Ð°": 5044, "ĠÐºÐµÐ¼": 5045, "Ð¸Ð½ÑĤÐµÑĢÐµÑģÐ¾Ð²": 5046, "Ð¾Ð²Ð»ÐµÑĤ": 5047, "ĠÐºÐ°ÑĢÑĤÐ¸": 5048, "Ġ2008": 5049, "ÑĢÐ¾ÑģÑĤ": 5050, "Ġ(\"": 5051, "ĠÐºÐ¾Ð¼Ð½Ð°ÑĤÑĥ": 5052, "ĠÐ¿ÑĢÐ¸ÑĪÐµÐ»": 5053, "ĠÐ¾Ð±ÑīÐµÑģÑĤÐ²Ð°": 5054, "Ð´Ð¸Ð¹": 5055, "ÐµÐ½Ð½ÑĭÐ¼Ð¸": 5056, "ĠÐĴÐ¸Ð´": 5057, "ÑĢÐµÐ³Ð¸": 5058, "Ð¼Ñı": 5059, "ÑĨÐ¾": 5060, "ĠÑįÐ¼Ð¾": 5061, "anc": 5062, "ĠÑĥÑĤÐ²ÐµÑĢÐ¶Ð´": 5063, "ĠÑĢÐ¾Ð´Ð°": 5064, "ĠÑĤÐ°ÐºÑĥÑİ": 5065, "ĠÑĥÑĢÐ¾Ð²Ð½Ðµ": 5066, "ĠÐ»ÑİÐ´ÑıÐ¼": 5067, "Ð½ÐµÑģÑĤÐ¸": 5068, "ĠÑģÐ¾Ð²ÐµÑĢÑĪÐµÐ½": 5069, "ĠÐ¿Ð»Ð¾ÑĤ": 5070, "ĠÑĤÑĢÐµÐ½": 5071, "ĠÐ´Ð¾Ñģ": 5072, "ĠÐ´ÐµÐ»Ð°ÐµÑĤ": 5073, "ĠÐºÐ¾Ð½ÑĦÐ»Ð¸Ðº": 5074, "ĠÑıÐ·ÑĭÐº": 5075, "ĠÐºÐ¾ÑĤÐ¾ÑĢÐ¾Ð¼Ñĥ": 5076, "Ð»ÑıÐ»": 5077, "ĠÑĤÐµÑĢÑĢÐ¾": 5078, "Ġev": 5079, "ĠÐ³Ð°ÑĢÐ°Ð½": 5080, "ĠÐ¾ÑģÑĤÑĢÐ¾Ð²": 5081, "Ġinto": 5082, "ĠÐ¿Ð¾Ð²Ð¾Ð´Ñĥ": 5083, "ÑĥÑİÑīÐµÐ³Ð¾": 5084, "ÑĪÐ¸Ð»": 5085, "ĠÑģÐ¾Ð¶Ð°Ð»": 5086, "ĠÐ¼Ð¾Ð¶ÐµÐ¼": 5087, "ĠÐ½ÐµÐ¿Ð¾Ñģ": 5088, "Ð²ÐµÐ´Ð¾Ð¼": 5089, "ÑĩÐ½Ð¾ÑģÑĤÑĮ": 5090, "ĠÐĵÐ´Ðµ": 5091, "ĠÑģÑĥÑīÐµÑģÑĤÐ²ÑĥÐµÑĤ": 5092, "ĠÐĿÐ°Ð´Ð¾": 5093, "ÑģÐºÐ¾ÑĢ": 5094, "ĠÐ¿Ð¾Ð´Ñģ": 5095, "ĠÐ¼Ð»ÑĢÐ´": 5096, "ÑĤÐ¾Ð½Ð°": 5097, "ĠÐ¿Ð¾Ð´ÑĬ": 5098, "ĠZ": 5099, "Ð¡Ð¢": 5100, "ÑĪÐ¸Ð½": 5101, ");": 5102, "Ð°Ð½Ð½Ð°Ñı": 5103, "ĠÑģÑĭÐ½": 5104, "ans": 5105, "ĠÐ±ÑĭÐ²Ð°ÐµÑĤ": 5106, "Ð·Ð°Ñħ": 5107, "ĠÐ½ÐµÐ¾Ð±Ñĭ": 5108, "ings": 5109, "ock": 5110, "ÐµÑĢÐºÐ²Ð¸": 5111, "ĠÐ»Ð¸ÑĩÐ½Ð¾": 5112, "ĠÐ·Ð°Ñħ": 5113, "ĠÐ¸Ð·ÑĥÑĩ": 5114, "ĠÐ¿ÑĢÐ¾ÐµÐºÑĤÐ°": 5115, "ĠÐ±ÑĥÐ´ÑĥÑīÐµ": 5116, "ĠÑĥÑģÐ»ÑĥÐ³": 5117, "ĠÑģÐ¾Ð¾ÑĤÐ²ÐµÑĤÑģÑĤÐ²Ð¸Ð¸": 5118, "ĠÑģÐ»ÑĥÐ¶Ð±Ñĭ": 5119, "ĠÑĦÐ¸Ð³Ñĥ": 5120, "ĠÐ¾ÐºÐ°Ð·Ð°Ð»Ð¾ÑģÑĮ": 5121, "Ð½Ð¾ÑģÑĤÐµÐ¹": 5122, "Ð°Ð½Ñĥ": 5123, "ÐĺÐĲ": 5124, "ÐłÐŀ": 5125, "ĠÐ§Ð°": 5126, "ĠÐ°Ð²ÑĤÐ¾Ð¼Ð°": 5127, "ĠÐ½Ð¾Ð³Ð°": 5128, "ĠÑģÑĥÐ´Ð°": 5129, "ĠÐ³Ð¾Ð²Ð¾ÑĢÐ¸ÑĤÑģÑı": 5130, "ÑĤÐµÑĤ": 5131, "ÑİÑīÐ¸ÑħÑģÑı": 5132, "ÑģÐ¸Ñİ": 5133, "ĠÐ¿ÑĢÐ¸Ð½ÑıÑĤÑĮ": 5134, "ĠÐºÐ°ÐºÑĥÑİ": 5135, "Ð³Ð¾Ð½": 5136, "ĠÐ¾ÑģÐ½Ð¾Ð²Ðµ": 5137, "ĠÐ¸ÑģÑħÐ¾Ð´": 5138, "ĠÑĩÑĥÐ²ÑģÑĤÐ²": 5139, "ĠÑģÐ²Ð°": 5140, "Ð¾ÑĢÐ¾Ð´": 5141, "ĠÐ½Ð°Ð³ÑĢÐ°": 5142, "ĠÐ·Ð°ÑıÐ²Ð¸": 5143, "ĠÐ³ÑĢÑĥÐ´": 5144, "!!!": 5145, "ÑĢÑĭÐ²Ð°": 5146, "ÐŁÐµÑĤÐµÑĢÐ±ÑĥÑĢ": 5147, "ÑĭÑĤÑĭ": 5148, "ĠÐ¸Ð½ÑģÑĤÑĢÑĥ": 5149, "Ð¶Ð¸ÑĤÐµ": 5150, "ĠÐ¡Ð²ÐµÑĤ": 5151, "ĠII": 5152, "ĠÑħÐ¸": 5153, "ĠÐ¢ÑĥÑĢ": 5154, "ĠÐºÐ»Ñİ": 5155, "ĠÐ²Ð¾Ð´Ñĥ": 5156, "ĠÐ¿Ð¾ÑĢÐ°Ð¶": 5157, "Ð°Ð½Ñģ": 5158, "ÑİÑĢ": 5159, "Ð°Ð¼ÐµÑĤ": 5160, "ĠÐĿÐ°Ð¿ÑĢÐ¸Ð¼ÐµÑĢ": 5161, "Ð²ÐµÐ»Ð¸": 5162, "ĠÑģÑĤÐ°Ð½Ð´Ð°ÑĢ": 5163, "ĠÐ¼ÑĥÐ¶ÑĩÐ¸Ð½": 5164, "ĠÐ¡Ð»": 5165, "ĠÐ¼Ð°Ð³Ð¸": 5166, "ÑĢÐ¸Ñİ": 5167, "ĠÐ²ÑĭÑģÑĤÐ°Ð²": 5168, "ĠÑģÐµÐ¼ÑĮÐ¸": 5169, "Ð»ÑıÑĤÑĮÑģÑı": 5170, "ÑıÑīÐ¸Ð¹": 5171, "ĠÐ½Ð¾Ð¼ÐµÑĢ": 5172, "ĠÑĨÐµÐ»ÑĮÑİ": 5173, "ĠÐ¿Ð¾ÑģÑĤÐ°": 5174, "ĠÐ¿Ð¾ÑħÐ¾Ð¶Ðµ": 5175, "Ġtime": 5176, "ĠÐ±Ð°Ð±": 5177, "ĠÐºÐ¾ÑģÑĤ": 5178, "ĠÐ²Ð¾Ð·Ð»Ðµ": 5179, "ĠÑģÐ²ÑıÑĤ": 5180, "ĠÐŁÑĢÐ°Ð²Ð´Ð°": 5181, "ĠÐ¿Ð¾ÐºÑĥÐ¿": 5182, "ĠÐ´ÐµÐ¼Ð¾Ð½": 5183, "ĠÐ°Ð²ÑĤÐ¾ÑĢ": 5184, "ĠÑģÐ¼Ð¾ÑĤÑĢÐµÐ»": 5185, "ĠÐ¾Ð±ÐµÑģÐ¿ÐµÑĩÐ¸": 5186, "ĠÐ¾Ð±ÑĢÐ°ÑĤÐ½Ð¾": 5187, "ĠÑģÐ¾ÑĤÑĢÑĥÐ´Ð½Ð¸": 5188, "ĠÑĦÐ¾ÑĢÐ¼Ð°": 5189, "Ġserv": 5190, "ĠÐĿÐ°Ðº": 5191, "ĠÐ¿Ð»ÐµÐ½": 5192, "ĠÐ½ÐµÐ±Ð¾Ð»ÑĮ": 5193, "ĠÐ·Ð°Ð¿Ð¾Ð»": 5194, "ĠÐ¸Ð¼ÐµÐ»": 5195, "ĠÐ¼ÐµÑģÑıÑĨÐ°": 5196, "ĠÑĤÑĢÑĥÐ´Ð°": 5197, "ĠÐ¸Ð±Ð¾": 5198, "ĠÐ¸Ð³ÑĢÑĥ": 5199, "ĠÐ½Ð°ÑĪÐµÐ¼": 5200, "ĠÐ½ÐµÐ·Ð½Ð°": 5201, "Ð¾Ð²Ð¸": 5202, "Ð°ÑĢÑĮ": 5203, "ĠÑĥÑģÑĤÑĢÐ°": 5204, "Ð°ÑģÑģÐ°Ð¶Ð¸": 5205, "ase": 5206, "ĠÐ¼Ð¾Ñİ": 5207, "ĠÐ´ÑĥÑĪÐ¸": 5208, "ĠÐ¿Ð»Ð°ÑĤ": 5209, "ĠÐ¿ÑĢÐ°Ð²Ð¸Ð»Ð°": 5210, "ĠÑģÐµÐ²ÐµÑĢ": 5211, "ĠÑħÐ¾ÑĩÐµÑĪÑĮ": 5212, "ĠÑģÐ°Ð¼Ð¾Ð»": 5213, "ĠÑĨÐµÐ½ÑĤÑĢÐµ": 5214, "ÂłÐĿÐµÑĤ": 5215, "ĠÐ¿ÐµÑĢÐ²ÑĭÐ¼": 5216, "ĠÑĢÐµÐºÐ¸": 5217, "Ð»ÑİÐ±": 5218, "ĠÐ¾Ð±ÑĬÐµÐ´Ð¸Ð½": 5219, "ÑģÑĤÐ°Ð½Ð°Ð²Ð»Ð¸": 5220, "ĠÑģÐ¼Ð¾ÑĤÑĢÐµÑĤÑĮ": 5221, "ĠÐ»Ð¸Ð´ÐµÑĢ": 5222, "ĠÐŃÐº": 5223, "ĠÑİÑĢÐ¸": 5224, "Ð°Ð½ÐºÑĤ": 5225, "Ġpre": 5226, "ĠÐ¢ÑĥÑĤ": 5227, "ĠÐľÐ¾ÑĢ": 5228, "Ð²ÑĪÐ¸Ð¹ÑģÑı": 5229, "ĠÑĢÐ°Ð·Ð½ÑĭÐµ": 5230, "ĠÐ¼ÐµÑĢÑĤ": 5231, "Ð¾ÑģÐ»ÐµÐ´": 5232, "ĠÐ´Ð¾Ð¼Ð°ÑĪ": 5233, "Ð¸Ð¼ÑĥÑīÐµ": 5234, "ĠÑĪÐµÐ»": 5235, "ĠÐ»Ð°Ð³": 5236, "ĠÐ¿Ð¾Ð·Ð°": 5237, "ÂłÐŃÑĤÐ¾": 5238, "ĠÐºÐ¾Ðµ": 5239, "ĠÐ¼Ð¾Ð¸Ñħ": 5240, "ĠÑĢÐ°ÑģÐ¿ÑĢÐ¾ÑģÑĤÑĢÐ°Ð½": 5241, "ick": 5242, "ĠÑĤÐµÑĢÐ¿": 5243, "ĠÑĨÐ²ÐµÑĤÐ°": 5244, "ĠÐ²ÐµÑģÑĤÐ¸": 5245, "ÐĴÐĶ": 5246, "Ð¾Ð¶Ð´ÐµÐ½Ð¸Ðµ": 5247, "ĠÐ¸Ð½Ð´Ð¸Ð²Ð¸Ð´Ñĥ": 5248, "ĠÐ¸Ð¼Ð¿ÐµÑĢÐ°": 5249, "Ð½ÑıÐºÐ°": 5250, "ĠÑĦÐ¸Ð½": 5251, "Ð½ÑıÐµÑĤ": 5252, "gan": 5253, "ÐºÐ»Ð°Ð´": 5254, "Ð¾ÑĤÑĥ": 5255, "Ð½Ð°Ð·Ð½Ð°": 5256, "ĠÐŁÐ¾ÑĤÐ¾Ð¼Ñĥ": 5257, "ĠÑĪÑĥÐ¼": 5258, "Ġ60": 5259, "Ġshe": 5260, "ÑıÑīÐ¸Ðµ": 5261, "ĠÐºÑĢÐ¾Ð²Ð°": 5262, "ĠÑĥÐ³ÑĢÐ¾Ð·": 5263, "ĠÐ²ÐµÑĢÐ½ÑĥÐ»ÑģÑı": 5264, "ĠÐ·Ð°Ñī": 5265, "az": 5266, "ĠÐ½Ð°Ð·Ð²Ð°Ð½Ð¸Ðµ": 5267, "ĠÐ»ÐµÑģÑĤ": 5268, "ÐµÐ½ÐºÐ¾": 5269, "ĠÑĪÐµÑģÑĤÑĮ": 5270, "ĠÑģÐ¾ÑģÑĤÐ°Ð²Ðµ": 5271, "ĠÐ²ÑĩÐµÑĢÐ°": 5272, "ĠÑģÑĩÐ¸ÑĤÐ°ÐµÑĤ": 5273, "ĠÐĳÐ»Ð°": 5274, "ÑģÐ¿Ð¾ÑģÐ¾Ð±": 5275, "ĠÑģÑĤÐ°ÑĤÑĥ": 5276, "ĠÑģÑĤÐµÐ½Ñĭ": 5277, "ĠÐ¾Ð¿Ð¸ÑģÐ°": 5278, "Ð´Ð°Ð»Ð°": 5279, "ĠÑĥÐ´Ð°Ð»": 5280, "Ð¶Ð½ÑĭÑħ": 5281, "ne": 5282, "ĠÐľÐ¸Ð½Ð¸": 5283, "ĠÐ½ÐµÐ´ÐµÐ»Ñİ": 5284, "ĠÐ¸ÑģÐºÐ»Ñİ": 5285, "ÑģÐ»Ðµ": 5286, "ĠÐ´Ð°Ð»ÐµÐµ": 5287, "ĠÐ³Ð»ÑĥÐ±Ð¾Ðº": 5288, "ĠÐ¼Ð¸Ð¼Ð¾": 5289, "ĠÐ¾ÑģÑĤÐ°Ð»Ð¾ÑģÑĮ": 5290, "ĠÐ¸Ð·Ð±Ðµ": 5291, "ĠÐ²Ð¾Ð·Ð±": 5292, "inal": 5293, "ÑģÐ»Ñı": 5294, "ĠÑģÐ²ÐµÐ´": 5295, "ĠÑģÐ¾ÑģÑĤÐ¾ÑıÐ½Ð¸Ðµ": 5296, "ww": 5297, "ĠÐ¿Ð¾ÑģÐ¼Ð¾ÑĤÑĢÐµÑĤÑĮ": 5298, "ts": 5299, "Ġatt": 5300, "ĠÐ¿Ð¸ÑĪÐµÑĤ": 5301, "ĠÐ³ÑĢÐ°Ð¶Ð´Ð°": 5302, "ĠÐ¶Ð¸ÑĤÐµÐ»ÐµÐ¹": 5303, "ĠÑģÐ¼Ð¾Ð¶ÐµÑĤ": 5304, "ĠÐ¿Ð¾Ð»Ð½Ð¾Ð¼": 5305, "ĠÐĵÐµÑĢÐ¼Ð°Ð½Ð¸Ð¸": 5306, "ÑĢÐ¸ÑĤÐ°": 5307, "ĠÑĪÐºÐ¾Ð»Ñĭ": 5308, "ĠÐŁÐ¾Ð·": 5309, "ĠÑģÐ°Ð´": 5310, "Ð¾Ð»Ð¾Ð³Ð¸Ñı": 5311, "ĠÐ¿Ð¾Ð·Ð²Ð¾": 5312, "ĠÐ¸Ð¼ÐµÐ½": 5313, "ĠÐ´Ð¾Ð¶Ð´": 5314, "Ġ%": 5315, "ĠÐ½Ð°Ð·Ð²Ð°": 5316, "ÑĥÑİÑĤ": 5317, "ĠÐ»ÑİÐ±Ð¾Ð²ÑĮ": 5318, "ĠÐºÑĥÐ»ÑĮÑĤÑĥÑĢÑĭ": 5319, "ttp": 5320, "Ð½Ð¾Ð·": 5321, "Ð¾Ð¿Ð¸": 5322, "ÑģÑĤÐ¸ÑĤÑĥ": 5323, "ĠÑģÐµÑĤÐ¸": 5324, "Ð°Ð»Ð¾Ð¼": 5325, "Ð¸ÑĤÐµÐ»ÑıÐ¼Ð¸": 5326, "ĠÐºÐ°ÑģÐ°ÐµÑĤÑģÑı": 5327, "ose": 5328, "ĠÑĨÐµÐ»Ð¾Ð¼": 5329, "ÑĢÐ¸ÑĨÐ°": 5330, "ÑĤÐµÐ»ÑĮÐ½ÑĭÐµ": 5331, "ĠÑĩÑĤÐ¾Ð±": 5332, "ĠÐ¢Ð°ÐºÐ¸Ð¼": 5333, "ĠÑħÐ°ÑĢÐ°ÐºÑĤÐµÑĢÐ¸": 5334, "ĠÑĥÐ´Ð°ÑĢ": 5335, "ĠÑĤÑĢÐµÐ²": 5336, "ĠÐ½Ð°Ð»Ð¾Ð³": 5337, "ĠÑģÐºÐ²Ð¾Ð·ÑĮ": 5338, "ÐµÑħÐ°ÑĤÑĮ": 5339, "ĠÐºÐ¾Ð½ÑĤÐ°Ðº": 5340, "ĠÐ¿ÑĢÐµÐ´Ð¿ÑĢÐ¸ÑıÑĤÐ¸": 5341, "ÑĢÐ°Ð»": 5342, "ĠÐľÐ¾ÑģÐºÐ²Ð°": 5343, "ĠÐ¾ÑģÐ½Ð¾Ð²Ð½Ð¾Ð¼": 5344, "ĠÑįÐºÑģÐ¿ÐµÑĢ": 5345, "ÑĳÑĤÑģÑı": 5346, "ĠÐĲÑĦ": 5347, "ĠÐ´ÐµÐ¹ÑģÑĤÐ²Ð¸Ð¹": 5348, "ÐµÐ½ÑĤÐ¾Ð¼": 5349, "Ð¼Ð¾ÑĢ": 5350, "ĠÐłÐ°Ñģ": 5351, "ĠÐ¿Ð¾ÑĢÐ°": 5352, "ÑįÑĤ": 5353, "ĠÑĥÑģÐ¿ÐµÐ»": 5354, "ÑĨÐ¸Ð¾Ð½Ð½Ð¾Ð³Ð¾": 5355, "://": 5356, "ĠÐ±ÑĥÑĤ": 5357, "ĠÐ²ÑĭÑģÑĤÑĥÐ¿Ð°": 5358, "rough": 5359, "ĠÐķÐ¼Ñĥ": 5360, "ÑĤÐ¸Ð·": 5361, "ĠÐ²Ð·Ð³Ð»ÑıÐ´Ð¾Ð¼": 5362, "ÑīÐ¸ÐºÐ¾Ð²": 5363, "ÑģÑĤÐ°Ð¼Ð¸": 5364, "way": 5365, "ĠÐºÐ°ÑĩÐµÑģÑĤÐ²Ð°": 5366, "ÐµÐ¼ÑĭÐ¹": 5367, "ÑīÐ¸Ð¼": 5368, "Ġgro": 5369, "ĠÐ´ÑĥÐ¼Ð°ÑĤÑĮ": 5370, "ĠÑģÐ½Ñı": 5371, "ĠÑģÐ¸Ð³": 5372, "ĠÑĢÑĥÐºÐ°": 5373, "ĠÐ½Ð°Ð·ÑĭÐ²Ð°ÐµÐ¼": 5374, "ÑīÐµÐ¼": 5375, "ĠÐºÐ°Ð½Ð´Ð¸": 5376, "ĠÐ¾ÑģÑĤÐ°Ð²Ð»Ñı": 5377, "ever": 5378, "ĠÐĳÐµ": 5379, "ÐºÐ¾ÑĤÐ¾ÑĢÑĭ": 5380, "ÑĢÐ¸ÑģÑĤÐ¸Ð°Ð½": 5381, "ĠÐ·Ð½Ð°Ð»Ð°": 5382, "ĠÐ·Ð°Ð¿Ð»Ð°": 5383, "Ð¾ÑģÑĤÑĮ": 5384, "ÑĤÐ¸Ð»Ð¸ÑģÑĮ": 5385, "Ð¿Ð»Ð¾Ð¼": 5386, "ĠÑħÐ¾ÑĤÐ¸ÑĤÐµ": 5387, "Ð½Ð¾Ð´": 5388, "ĠÐ¿Ð¾ÑģÐ²ÑıÑī": 5389, "ĠÐ¡Ð¿Ð°ÑģÐ¸Ð±Ð¾": 5390, "ĠÐ·Ð°ÐºÐ°": 5391, "ĠÐ´Ð¸Ð·Ð°": 5392, "ÑĢÑıÑģ": 5393, "Ð¾Ð½ÑĤ": 5394, "ÑĩÐµÑģÐºÐ¾Ð¼": 5395, "ÂłÐ£": 5396, "ĠÑĤÐ¾ÑĢÐ³": 5397, "ÑĤÐ¾ÑĢÐ¸Ñı": 5398, "ĠÐ·Ð»Ð¾": 5399, "Ð»ÑİÐ´": 5400, "ĠÐ¿Ð¾Ð´ÑĥÐ¼Ð°": 5401, "ĠÐŁÐ¸": 5402, "ĠÐŁÐ¾ÑģÐ»ÐµÐ´": 5403, "ĠÑħÐ¾ÑĤÐµÐ»Ð°": 5404, "outh": 5405, "ĠÑĩÐµÐ»Ð¾Ð²ÐµÐºÐ¾Ð¼": 5406, "ĠÐŀÐº": 5407, "ĠÐ¿Ð¾Ð¿ÑĢÐ¾Ð±": 5408, "ĠÐĵÐ°ÑĢ": 5409, "ĠÑĤÐµÐ½": 5410, "ÑĨÐ¾Ð¼": 5411, "ĠÐ¿ÑĢÐ¸Ð³": 5412, "ĠÑĥÑĤÑĢÐ¾Ð¼": 5413, "ĠÑĩÐµÐ¼Ñĥ": 5414, "ĠÑĢÐ°ÑģÐ¿Ð¾ÑĢÑı": 5415, "ĠÑıÑģÐ½Ð¾": 5416, "Ġloc": 5417, "ÑĤÐµÐ»ÑĮÐ½ÑĭÑħ": 5418, "ĠÐ³Ð°Ð»": 5419, "ĠÐ¼Ð¾ÑĢÑı": 5420, "ĠÑģÐ»ÐµÐ´ÑĥÑİÑīÐ¸Ð¹": 5421, "ÑĤÐ¸Ð²Ð¸": 5422, "ĠÐłÑĥÑģ": 5423, "ĠÐºÐ¾Ð»Ðµ": 5424, "ĠÑħÐ¾ÑĩÐµÑĤÑģÑı": 5425, "ĠÐ½Ð¾ÑĩÑĮÑİ": 5426, "ix": 5427, "ĠÐ·Ð½Ð°ÐµÑĤÐµ": 5428, "ĠÐ¿ÑĢÐ°Ð²Ð¸Ð»Ð¾": 5429, "ĠÐ³Ð¾Ð»Ð¾Ð²Ñĭ": 5430, "Ð¾Ð±Ð¸Ð»ÑĮ": 5431, "Ð½ÑıÐµÑĤÑģÑı": 5432, "?Â»": 5433, "ÑĤÐµÐ»ÑĮÐ½Ð¾Ð³Ð¾": 5434, "ĠÐ·Ð²Ð¾Ð½": 5435, "Ġ&": 5436, "ÐķÐĿ": 5437, "ĠÐ¾ÑĤÐ²ÐµÑĤÐ¸Ð»Ð°": 5438, "ĠÐ¿ÑĢÐ°Ð²Ð¸ÑĤÐµÐ»ÑĮÑģÑĤÐ²Ð°": 5439, "ĠÐ¶Ð¸Ð»Ð¸": 5440, "ĠÐĲÐ¼ÐµÑĢÐ¸": 5441, "Ð±Ð¸Ð»": 5442, "ÑģÑĤÑĮÐµ": 5443, "ĠÐ¼Ð»Ð°Ð´": 5444, "ĠÐ²Ð¾Ð¹ÑģÐºÐ°": 5445, "meric": 5446, "ĠÐ°Ð²Ð¸Ð°": 5447, "Â°": 5448, "ĠÐĳÐ¾ÑĢÐ¸": 5449, "ĠÐ²Ð²ÐµÑĢÑħ": 5450, "ĠÐ¡ÐµÐ²ÐµÑĢ": 5451, "ĠÐ¡Ð¾Ð±": 5452, "ĠÐ½ÐµÐ¿Ð¾Ð´": 5453, "ĠÐĴÐ¾Ð·Ð¼Ð¾Ð¶Ð½Ð¾": 5454, "ĠÐļÑĢÐ°": 5455, "ĠÐ¸Ð·Ð³Ð¾ÑĤÐ¾Ð²": 5456, "ĠÑĥÐ´Ð¾Ð²Ð»ÐµÑĤ": 5457, "ĠÐ²ÑĭÐ½ÑĥÐ¶Ð´": 5458, "ÑĤÐµÐ¿": 5459, "Ð°Ð½Ð½Ð¾Ðµ": 5460, "ÑĪÐ¸Ð½Ð°": 5461, "ĠÐºÐ¾Ð½ÑĨÐ¾Ð²": 5462, "ĠÐ²ÑĭÐ³Ð»ÑıÐ´": 5463, "ĠÐ¿ÐµÑĢÐµÐ¶Ð¸": 5464, "ĠÐĵÐ¾ÑģÐ¿Ð¾Ð´": 5465, "ÑĤÐ°ÑĤÑĮ": 5466, "ÑĢÐ¾Ð´Ð°": 5467, "ÐµÑħÐ°Ð»Ð¸": 5468, "ĠÐºÐ¸Ð»Ð¾Ð¼ÐµÑĤ": 5469, "ĠÐ²Ð°ÑĢÐ¸Ð°Ð½": 5470, "ĠÑĥÐ»ÑĥÑĩ": 5471, "ĠÐ¾ÑĢÑĥÐ¶Ð¸Ðµ": 5472, "ÑĤÐ¸ÑĩÐµÑģÐºÐ¸Ñħ": 5473, "ĠÐ¿Ð¾Ð±Ðµ": 5474, "ĠÐ²ÐµÑĩÐµÑĢÐ¾Ð¼": 5475, "ĠÐ¼Ð°ÑĢÑĪ": 5476, "ah": 5477, "ĠÐ½Ð°ÑĢÐ¾Ð´Ð°": 5478, "ĠÐŀÑĤÐµ": 5479, "ĠÑħÑĥÐ´Ð¾Ð¶": 5480, "ÑĩÐ¸Ð»Ð°": 5481, "ĠÑĨÐµÐ½ÑĤÑĢ": 5482, "ĠÐ½Ð°ÑģÑĤÑĥÐ¿": 5483, "ĠÐĴÐ°Ð»": 5484, "Ð½Ð°Ð´ÑĨÐ°ÑĤÑĮ": 5485, "Ð´ÐµÐ²": 5486, "ĠÐ¿ÐµÑĢÐ²ÑĭÐµ": 5487, "ĠÐ±Ð¾Ð¼": 5488, "Ð½ÐµÐ½Ð¸Ñİ": 5489, "ĠÑģÐµÑĢÐµ": 5490, "ĠÐ¸ÑģÐ¿ÑĭÑĤÐ°": 5491, "ĠÑĦÐ¾ÑĢÐ¼Ðµ": 5492, "24": 5493, "ĠÐ²Ð»Ð°ÑģÑĤÑĮ": 5494, "Ð¼Ð¾Ð»": 5495, "Ġhim": 5496, "ÑĤÐµÑħ": 5497, "Ġkn": 5498, "Ð»Ð¾Ð¹": 5499, "ĠÑĨÐµÐ½ÑĤÑĢÐ°": 5500, "ĠÐ¿ÑĢÐµÐ´Ð¿Ð¾Ð»Ð¾Ð¶": 5501, "ĠÐ¼Ð½Ð¾Ð¶ÐµÑģÑĤÐ²Ð¾": 5502, "ĠÐ»Ð¸ÑĨÐµ": 5503, "Ġsec": 5504, "ĠÐ¿ÑĢÐ¾Ð¿Ñĥ": 5505, "enc": 5506, "ĠÐ³ÑĢÐ¸": 5507, "ĠÑģÐ¾ÑİÐ·": 5508, "oth": 5509, "ĠÐ¿Ð¾Ð»Ð¾Ð¶ÐµÐ½Ð¸Ðµ": 5510, "ĠÑĩÐ°ÑīÐµ": 5511, "ĠÐ´Ð²ÑĥÐ¼Ñı": 5512, "ĠÐ²Ð¾Ð·Ð´ÐµÐ¹ÑģÑĤÐ²": 5513, "ĠÐ°ÑĤÐ°Ðº": 5514, "ĠÐ¼ÑĭÑĪ": 5515, "ĠÐ¿Ð°ÑģÑģÐ°Ð¶Ð¸": 5516, "ĠÐ¸ÑģÑĤÐ¾ÑĢÐ¸Ñı": 5517, "ake": 5518, "ÑĤÐ¸Ð»Ð°ÑģÑĮ": 5519, "ĠÐ´Ð¾ÑĢÐ¾Ð³Ð¸": 5520, "ĠÐ³Ð¾Ð´Ð¾Ð²": 5521, "ĠÐ½Ð¸ÐºÐ°ÐºÐ¾Ð³Ð¾": 5522, "ĠÐ·Ð°Ð½Ð¸Ð¼": 5523, "ĠÐ¿Ð¾Ð´Ð¿Ð¸Ñģ": 5524, "ĠÐ´Ð²Ð°Ð´ÑĨÐ°ÑĤÑĮ": 5525, "ÑĢÐµÐ´ÐµÐ»": 5526, "ĠÐĲÐ»ÐµÐº": 5527, "Ð¾Ð²Ð¾ÑĢÐ¸ÑĤÑĮ": 5528, "ĠÐºÑĥÐ¿Ð¸ÑĤÑĮ": 5529, "ĠÐ¡ÐµÑĢÐ³Ðµ": 5530, "ÑģÑĤÐµÐ¿ÐµÐ½Ð½Ð¾": 5531, "ĠÑĦÐ¸Ð»Ð¾Ñģ": 5532, "ĠÐĺÐ½ÑĤÐµÑĢ": 5533, "ÑĤÐ¸Ð²Ð½ÑĭÑħ": 5534, "ÑĩÐµÐ½Ð¸Ð¸": 5535, "ĠÑģÐµÑĢÐµÐ´": 5536, "Ð¸ÑĤÐµÐ»ÑĮÐ½ÑĭÑħ": 5537, "ĠÐķÐ²ÑĢÐ¾Ð¿Ñĭ": 5538, "Ð½Ð¸Ð½Ð°": 5539, "Ð°Ð½Ð½Ð¾Ð³Ð¾": 5540, "ev": 5541, "ĠÑĥÑĤÐ¾Ñĩ": 5542, "ĠÐºÐ»Ð°ÑģÑģÐ¸": 5543, "ĠÐ´ÐµÑģÑıÑĤÐ¸": 5544, "ĠÐ¾ÐºÑĢÑĥÐ¶": 5545, "ĠÐ¿ÑĢÐµÐ´Ð½Ð°Ð·Ð½Ð°": 5546, "ĠÐ²ÑĢÐµÐ¼ÐµÐ½ÐµÐ¼": 5547, "ĠÐ½ÐµÐ´Ð°Ð²Ð½Ð¾": 5548, "ĠÑĢÐµÐ³Ð¸Ð¾Ð½": 5549, "ĠÐ½ÑĢÐ°Ð²Ð¸ÑĤÑģÑı": 5550, "Ð¾ÑĢÐ´": 5551, "Ð¸ÑĤÐµÐ»ÑĮÐ½Ð¾Ðµ": 5552, "cess": 5553, "ĠÐ°Ð²ÑĤÐ¾Ð¼Ð¾Ð±Ð¸Ð»ÑĮ": 5554, "ĠÐºÐ¾Ð¼Ð½Ð°ÑĤÐµ": 5555, "ĠÑĩÑĥÐ²ÑģÑĤÐ²Ð°": 5556, "ĠÐ¼Ð°Ð¼Ð°": 5557, "ĠÐ¿Ð¾Ð´Ð½Ð¸Ð¼Ð°": 5558, "ÑĭÐ²Ð°ÑĤÑĮÑģÑı": 5559, "ĠÐ²Ð¾Ð·Ð½Ð¸ÐºÐ°": 5560, "ÑģÑĤÐ²Ð¾Ð²Ð°Ð»Ð¸": 5561, "Ð·ÑĮ": 5562, "ĠÐ»Ð¾Ð´": 5563, "ĠÐ³ÑĢÐ¾Ð·": 5564, "Ð¾Ð²ÐµÑĢ": 5565, "ÑĤÐ¾ÑĢÐ¾Ð¹": 5566, "du": 5567, "ĠÐ¿ÑĢÐ¸Ð½ÐµÑģ": 5568, "ĠÑĥÐ»ÑĭÐ±Ð½ÑĥÐ»ÑģÑı": 5569, "Ð¿Ð¾ÑĤ": 5570, "ĠÐ½Ð°ÑĪÐ°": 5571, "ĠÐ¿ÐµÑĢÐ²Ð¾Ð¼": 5572, "ĠÐľÐ°Ð»": 5573, "ĠÐ¸Ð·Ð´Ð°": 5574, "ĠÐ´Ð¾ÑģÑĤÐ¸Ð³": 5575, "ĠÐ½ÐµÐ´ÐµÐ»Ð¸": 5576, "ĠÐ²Ð½ÐµÐ·Ð°Ð¿": 5577, "ĠÐ»ÑİÐ´ÑĮÐ¼Ð¸": 5578, "ĠÐ¡Ð°Ð½ÐºÑĤ": 5579, "ÑĩÐµÑģÑĤÐ²Ðµ": 5580, "Ð¿Ð°Ð½Ð¸Ñı": 5581, "ĠÐ¿Ð¾ÑģÑĤÑĢÐ°": 5582, "Ð²ÑĪÐ¸Ð¼": 5583, "60": 5584, "ĠÐĲÐº": 5585, "ious": 5586, "ĠÐ½ÐµÐ²ÐµÑĢ": 5587, "ters": 5588, "ĠÐ´Ð¾Ð±Ð°": 5589, "ĠÐ¶ÐµÐ½Ð°": 5590, "ĠÐ´Ð¾Ð³Ð°": 5591, "ĠÐŀÑģÐ¾Ð±": 5592, "ÂłÐĳ": 5593, "ĠÐºÐ°ÑĤÐ°": 5594, "ĠÐ´Ð¾ÑĢÐ¾Ð³Ðµ": 5595, "ÑģÑĤÐ°Ñı": 5596, "Ġqu": 5597, "Ġcan": 5598, "ĠÐ¸Ð½Ð¸": 5599, "ĠÑĤÑĭÑģÑıÑĩÐ¸": 5600, "Ġwhen": 5601, "ĠÐŀÑģÐ½Ð¾Ð²": 5602, "ĠÑģÑĤÑĢÐ°ÑĤÐµ": 5603, "Ð¼ÑĭÑĪ": 5604, "ĠÐ·ÐµÐ»ÐµÐ½": 5605, "ĠÐ¿ÐµÑĢÐ²ÑĭÑħ": 5606, "ÐĲÐŀ": 5607, "ĠÐºÐ°ÐºÐ¾Ð³Ð¾": 5608, "ĠÑĢÐ°ÑģÑģÑĤÐ¾Ñı": 5609, "ÑģÐ¸Ð»Ð¸Ñı": 5610, "ren": 5611, "ĠÐ¿Ð¾ÐºÐ¸Ð½Ñĥ": 5612, "ÑĨÐ¸ÑıÐ¼Ð¸": 5613, "Ġmore": 5614, "ÐµÑĢÐ¸ÑĤÑĮ": 5615, "ĠÑĤÑĢÐ°Ð½ÑģÐ¿Ð¾ÑĢÑĤ": 5616, "ĠÐ¿ÐµÑĢÐµÐ½": 5617, "Ð¾Ð»ÑĮÐ½Ð¾": 5618, "ÑĦÑĭ": 5619, "Ð±Ð¾Ð¼": 5620, "ĠÐĴÐ°ÑĪ": 5621, "Ð»Ð¸Ð·": 5622, "ĠÑĥÑħ": 5623, "Ð»ÐµÐºÑĤÑĢÐ¸": 5624, "ĠÐ»Ð¸Ð½Ð¸Ð¸": 5625, "ĠÐ²Ð¸Ð´ÐµÐ¾": 5626, "ĠÐ¾Ð³Ð¾Ð½ÑĮ": 5627, "ĠÑģÑĤÐ°ÑĤÑĮÐ¸": 5628, "ĠÐ²Ð·ÑĢÐ¾ÑģÐ»": 5629, "ĠÑĩÐ¸ÑģÐ»Ð¾": 5630, "Ð´Ð¸ÑĪÑĮ": 5631, "ĠÐ¾Ð¶": 5632, "ĠÐ½Ð°ÑĪÐµ": 5633, "Ð¾Ð¿ÑĢÐ¸": 5634, "ĠÑĢÐµÐ³Ð¸ÑģÑĤÑĢÐ°": 5635, "ĠÐ³ÑĢÑĥÐ´Ð¸": 5636, "ĠÐĺÑģÑĤÐ¾": 5637, "ĠÑĢÐ°Ð·ÑĥÐ¼": 5638, "ĠÑĨÐµÑĢÐºÐ¾Ð²": 5639, "ĠÐ¿ÑĢÑĭ": 5640, "ĠÐ¿ÑĢÐµÐºÑĢÐ°ÑģÐ½Ð¾": 5641, "ĠÐ¼Ð°ÑĪÐ¸Ð½": 5642, "ÑĨÐ¸Ð¾Ð½Ð½ÑĭÐµ": 5643, "ĠÐ¾ÑīÑĥ": 5644, "ĠÐ¿ÐµÑĢÑģÐ¾Ð½": 5645, "ÂłÐļÐ°Ðº": 5646, "ilm": 5647, "ĠÐ¿Ð»Ð°ÑĤÑĮ": 5648, "ĠÐ¢Ñĥ": 5649, "Ð¾Ð³Ð»Ð°ÑģÐ½Ð¾": 5650, "ĠÐ·Ð½Ð°Ð¼ÐµÐ½Ð¸": 5651, "rib": 5652, "Ġ2007": 5653, "ĠÐ·Ð°Ð¼ÐµÑģÑĤ": 5654, "Ġreg": 5655, "Ð¾Ð²Ð°Ð»Ð°": 5656, "ĠÐ¿ÑĢÐµÐ´Ð¾ÑģÑĤÐ°Ð²": 5657, "ĠÑĢÐµÑĪÐ¸Ð»Ð¸": 5658, "ual": 5659, "Ð»ÑĮÑı": 5660, "ĠÐ§ÐµÐ¼": 5661, "ĠÐ´Ð¾Ð±Ñĭ": 5662, "ÑĩÐ¾": 5663, "ĠÑĢÐ¸Ñģ": 5664, "ĠÐ¿ÑĢÐ¾ÑĦÐµÑģÑģ": 5665, "ĠÐ¿Ð¾Ð´Ð²ÐµÑĢ": 5666, "ĠÑģÐ¼ÑĭÑģÐ»": 5667, "ĠÐ¾Ð±Ð½Ð°ÑĢÑĥÐ¶Ð¸": 5668, "ral": 5669, "ĠÐ¤ÑĢÐ°Ð½ÑĨÐ¸Ð¸": 5670, "ĠÐ½ÐµÐ¿Ð¾ÑģÑĢÐµÐ´": 5671, "ĠÐ¸ÑģÐ¿ÑĭÑĤÑĭ": 5672, "Ð¢Ð°Ðº": 5673, "ĠÐļÐ°Ð·": 5674, "ĠÐłÐ¾": 5675, "Ð¼ÐµÐ½ÑĤÑĭ": 5676, "Ð³ÐºÐ°": 5677, "ĠÐ¿Ð¾ÑĪÐµÐ»": 5678, "Ġbet": 5679, "ÑģÐ»Ð°Ð²": 5680, "Ð½Ð¸Ð¼Ð¸": 5681, "?..": 5682, "ĠÐ¿ÑĢÐ¾ÑĪÐ»Ð¾": 5683, "ĠÐ¿Ð¾Ð»ÑĥÑĩÐ¸Ð»Ð¸": 5684, "ĠÐ¿Ð»Ð¾Ñħ": 5685, "ĠÐ±ÐµÑģÐº": 5686, "Ð¼Ð°Ð½Ð°": 5687, "ĠÐ·Ð°Ð´ÐµÑĢÐ¶": 5688, "ĠÐ´Ð¸ÑģÐº": 5689, "ĠÐºÐ°Ð¶Ð´Ð¾Ð¹": 5690, "ĠÐŃÐ½": 5691, "ĠÐ´Ð¾Ð±Ð°Ð²Ð¸Ð»": 5692, "ĠÑĤÑĢÐµÐ±Ð¾Ð²Ð°Ð½Ð¸Ñı": 5693, "ÑģÐºÐ¾Ð¿": 5694, "ĠÐ´Ð°ÐµÑĤ": 5695, "ĠÐĿÐ¸ÐºÐ¾Ð»Ð°": 5696, "ĠÐĿÐµÑģ": 5697, "ĠÑĢÐ°ÑģÐºÑĢÑĭ": 5698, "ĠâĢ¢": 5699, "Ð»Ð¸ÑĤ": 5700, "Ġcons": 5701, "ĠÐ¾ÑģÑĤÐ°ÐµÑĤÑģÑı": 5702, "ĠÑĢÐ¾Ð»Ð¸": 5703, "ĠÐ·Ð¾Ð»Ð¾": 5704, "ĠÑģÑĤÑĥÐ¿": 5705, "Ð´Ð°Ñħ": 5706, "ict": 5707, "Ð¸ÑĤÐµÐ»ÑĮÐ½Ð¾Ð³Ð¾": 5708, "ĠÐ·Ð°Ð²ÐµÐ´": 5709, "ished": 5710, "ĠÑĥÑģÐ¼Ðµ": 5711, "ÑģÑĤÐ¾ÑĢ": 5712, "!\"": 5713, "ĠÐĲÐ±": 5714, "ÑĥÐ¼ÐµÐµÑĤÑģÑı": 5715, "ÐºÐ¸Ð´": 5716, "ics": 5717, "Ð½Ð¸ÑĨÐ¸Ð¿": 5718, "Ð´ÑĢÑĥÐ³": 5719, "Ð»Ð°Ð±": 5720, "Ð²Ð¸Ð³": 5721, "ĠÐ¿Ð¾Ð»Ð¸ÑĨÐµÐ¹": 5722, "ĠÑģÐ»ÐµÐ³ÐºÐ°": 5723, "Ġunder": 5724, "ĠÑĥÑĩÐµÐ½Ð¸": 5725, "ĠÐ½Ð¸ÐºÐ¾Ð³Ð¾": 5726, "ĠÐ³Ð»ÑıÐ´Ñı": 5727, "ĠÐ¼Ð¸Ð½ÑĥÑĤÑĥ": 5728, "ĠÑĢÐ¾ÑĤ": 5729, "ÑĥÐ¶ÐµÐ»Ð¸": 5730, "ĠSh": 5731, "ĠÐ²Ð°ÑĪÐµÐ¹": 5732, "olog": 5733, "ĠÐ´Ð°Ð½Ð½ÑĭÐ¹": 5734, "Ð¾Ð´Ð¸": 5735, "ĠÐ¼Ð¾Ð³Ð»Ð¾": 5736, "80": 5737, "ĠÐ·Ð°ÐºÐ¾Ð½Ð°": 5738, "ĠÑģÐ¸Ð´ÐµÐ»": 5739, "ÑģÑĤÐ¸Ð»Ð¸": 5740, "Ġ31": 5741, "ĠÐ²ÐµÐ´ÑĥÑī": 5742, "ĠÐ¿ÑĢÐ¾Ð²ÐµÐ´ÐµÐ½Ð¸Ñı": 5743, "ĠÐ½Ð°Ñħ": 5744, "Ð±Ð¸Ð½": 5745, "ĠÐºÐ¾Ð»ÑĮ": 5746, "ĠÐ¿Ð¾Ð·Ð¶Ðµ": 5747, "ĠÐ²ÑĭÐ±Ð¾": 5748, "ĠÐĿÐµÐ¼": 5749, "ĠÐ½ÑĭÐ½ÐµÑĪ": 5750, "ĠÐ»Ð¾Ð³Ð¸": 5751, "ĠÐ¼Ð¸Ð»Ð»Ð¸Ð¾Ð½Ð¾Ð²": 5752, "ener": 5753, "ĠÐ¿ÑĢÐµÐ´Ð¿ÑĢÐ¸ÑıÑĤÐ¸Ñı": 5754, "ĠÐ³Ð¾Ð²Ð¾ÑĢÑİ": 5755, "rad": 5756, "ĠÑģÐ¾ÐµÐ´Ð¸Ð½": 5757, "che": 5758, "22": 5759, "Ġ190": 5760, "ĠÐ¼Ð°ÑĤÐµÑĢÐ¸Ð°Ð»Ð°": 5761, "ĠÐ»ÐµÐ²": 5762, "ank": 5763, "ĠÐ»Ð°Ð´": 5764, "ÑĢÐ°ÑıÑģÑĮ": 5765, "form": 5766, "ĠÐ°ÑģÑģ": 5767, "ÐµÐ½Ð½Ð¾ÑģÑĤÑĮ": 5768, "ĠÐ½ÐµÑĥ": 5769, "Ð¼ÐµÐ½ÑĤÐ¸": 5770, "ĠÐ¿Ð¸ÑģÑĮÐ¼Ð¾": 5771, "ÑĤÐµÐ»ÐµÐ¼": 5772, "ĠÐ°Ð±ÑģÐ¾Ð»ÑİÑĤÐ½Ð¾": 5773, "ĠÑĢÐ¾Ð²": 5774, "ĠÐ´Ð¾Ð±ÑĢÐ°": 5775, "ĠÑĢÐµÐ¿": 5776, "ĠÐ²ÑĭÑĢÐ°Ð·": 5777, "ĠÐ°ÑĢÐµÐ½": 5778, "Ð³Ð°ÐµÑĤ": 5779, "ĠÐ³Ð¾Ð²Ð¾ÑĢÐ¸Ð»Ð¸": 5780, "ĠÑĢÐ¾ÑģÑģÐ¸Ð¹ÑģÐºÐ¸Ñħ": 5781, "Ð¸ÑĤÑĭ": 5782, "ĠÑĤÐºÐ°": 5783, "ll": 5784, "ÑģÑĤÐ½Ð¾Ð¹": 5785, "ÐĴÑĭ": 5786, "ĠÐ¼ÑĥÑģ": 5787, "ĠÐ¿Ð¾Ð»Ð°Ð³Ð°": 5788, "ason": 5789, "ĠÐ²ÑģÑĤÑĢÐµÑĩÐ¸": 5790, "ĠÑĢÐµÐ³Ð¸Ð¾Ð½Ð°": 5791, "ĠÐ¡ÐľÐĺ": 5792, "Ð½Ð¸ÑĨÐµÐ¹": 5793, "ĠÑģÑĭÐ½Ð°": 5794, "Ð½Ð¾Ð³Ð¸Ðµ": 5795, "ĠÐ¾ÐºÐ½Ð°": 5796, "ĠÐ¿ÑĢÐµÐ¼": 5797, "ÐļÐ¾Ð³Ð´Ð°": 5798, "Ð½ÑĥÐ»Ð¾": 5799, "ÑİÑīÐ¸ÐµÑģÑı": 5800, "Ð§ÑĤÐ¾": 5801, "Ð»ÑıÑİÑĤ": 5802, "Ġwould": 5803, "ÐºÐ¾ÑģÑĤÑĮ": 5804, "ÐµÐ´Ð»ÐµÐ½Ð½Ð¾": 5805, "ĠÐ¿Ð°Ð¼ÑıÑĤÐ¸": 5806, "ĠÑĥÐ±ÐµÐ´": 5807, "ÑĭÐ²Ð°ÑİÑĤÑģÑı": 5808, "ĠÑĦÐ°ÐºÑĤ": 5809, "ĠLe": 5810, "ton": 5811, "ÑĩÐ¸Ñħ": 5812, "ĠÐ¸Ð¼Ñĥ": 5813, "ĠÑĢÑĭÐ½ÐºÐµ": 5814, "ĠÐºÐ°Ð¿Ð¸ÑĤÐ°Ð½": 5815, "ĠÐ²Ð²ÐµÐ´": 5816, "ĠÐºÐ¾Ð½ÑĨ": 5817, "Ð¾Ð±Ð¾ÑĢÐ¾ÑĤ": 5818, "ĠÐ¤ÐµÐ´": 5819, "ÑıÐ»Ð°ÑģÑĮ": 5820, "ĠÐĿÐĲ": 5821, "ÑĪÑĳÐ»": 5822, "ĠÐ¾ÐºÐ°Ð·Ð°Ð»Ð¸ÑģÑĮ": 5823, "ĠÐ¿ÑĢÐ¸Ð»Ð¾Ð¶": 5824, "ĠÐ¸Ð½ÑĦÐ¾ÑĢÐ¼Ð°ÑĨÐ¸Ñı": 5825, "ĠÐ¾Ð±Ð°": 5826, "ÑĢÐµÐ³Ð¸ÑģÑĤÑĢÐ¸": 5827, "ĠÐ¾Ð¿ÑĢÐ°Ð²": 5828, "ĠÐ²Ð¸Ð¶Ñĥ": 5829, "ÑįÐ¼": 5830, "ĠÑģÐµÐ³Ð¾Ð´Ð½ÑıÑĪ": 5831, "ÑĩÐ°ÑİÑĤ": 5832, "ĠÐºÑĢÐ°Ð¹Ð½ÐµÐ¹": 5833, "ĠÐ¼Ð¾Ð»Ð¾Ð´Ð¾Ð¹": 5834, "ĠÐ¥Ð°": 5835, "ĠÐ¸Ð·Ð¼ÐµÐ½ÐµÐ½Ð¸Ñı": 5836, "ĠÐ¶Ð´Ð°ÑĤÑĮ": 5837, "âľ": 5838, "ĠÑģÐ²ÐµÑĤÐ°": 5839, "ĠÐ²ÑĭÐ±Ð¸ÑĢÐ°": 5840, "ĠÐ³Ð¾Ð½": 5841, "ĠÐ¸Ð¼Ð¸": 5842, "ĠÐ¿Ð°Ð½": 5843, "ĠÐ¾ÑĤÐ´Ð°": 5844, "ĠÐ±Ð¸Ð±Ð»Ð¸": 5845, "ĠÐ¾ÑĩÐ¸": 5846, "ÐµÐ´Ð¶": 5847, "ĠÐ¿ÑĢÐ¾Ð²ÐµÑģÑĤÐ¸": 5848, "ĠÐ¿ÑĢÐ¾Ñħ": 5849, "ĠÐŀÑģÑĤ": 5850, "ĠÐºÐ¾Ð¼Ð¿Ð»ÐµÐºÑģ": 5851, "ĠÐ²ÐºÑĥÑģ": 5852, "ÐĲÐ½": 5853, "ĠÐ¿ÑĢÐµÐ´ÑģÑĤÐ°Ð²Ð¸ÑĤÐµÐ»ÑĮ": 5854, "ÑĤÐ¸ÑĩÐµÑģÐºÐ¾Ð¹": 5855, "ÑĢÐ¾Ð²Ð°Ð½Ð½ÑĭÑħ": 5856, "ĠÐŁÐ¾Ð¿": 5857, "ÐºÐ¾Ð³": 5858, "ĠÐ¿ÑĢÐµÐ²": 5859, "ĠÐ²ÑĭÑģÐºÐ°Ð·": 5860, "Ġhttp": 5861, "ÑĨÐ¸Ð¾Ð½Ð½ÑĭÐ¹": 5862, "ĠÐ¿Ð¾Ð»Ð½Ð¾": 5863, "Ġbu": 5864, "ĠÐ²Ð¾Ð´Ð°": 5865, "ĠÑĨÐ¸ÑĦ": 5866, "orth": 5867, "Ð³Ð°Ñħ": 5868, "ĠÐ¿ÑĢÐ¸ÑĩÐ¸Ð½Ð°": 5869, "ĠÐ½Ð°ÑģÐºÐ¾Ð»ÑĮÐºÐ¾": 5870, "ĠÐļÐ°Ð¼": 5871, "ĠÐ¿Ð°Ðº": 5872, "ÑĩÐ¸ÑĤÑĮÑģÑı": 5873, "ĠÐºÑĥÑĢÑģ": 5874, "ĠÐĻ": 5875, "ĠÐ¼Ð¾ÑģÐºÐ¾Ð²": 5876, "ÑģÑĤÑĢÐµÐµ": 5877, "ĠÐ½Ð°Ð¿Ð¾Ð¼Ð¸Ð½Ð°": 5878, "reat": 5879, "ĠÐĺÐ³Ð¾ÑĢ": 5880, "ÑĩÐµÐ²": 5881, "ĠÐ¾ÑģÐ²Ðµ": 5882, "ĠÐ¿ÑĢÐ¾Ð´Ð¾Ð»Ð¶Ð°Ð»": 5883, "ĠÐ¾Ð¿Ð°": 5884, "Ð½Ð¸ÐµÐ¹": 5885, "ÑĳÐ·": 5886, "ĠÑģÐ¾Ð»Ð´Ð°ÑĤ": 5887, "ÑįÐ»ÑĮ": 5888, "ĠÐ¿ÑĥÑģÑĤ": 5889, "ĠÐ£Ð¶Ðµ": 5890, "ĠÐ¾ÑĦÐ¾ÑĢÐ¼": 5891, "ĠÐ¿Ð¾Ð¶Ð°Ð»": 5892, "Ġact": 5893, "ĠÐ¼Ð°ÑĪÐ¸Ð½Ñĥ": 5894, "Ġ2006": 5895, "ĠÐ¿ÑĢÐµÐ¸Ð¼ÑĥÑīÐµ": 5896, "ĠÐ·Ð°ÐºÐ»ÑİÑĩ": 5897, "Ð¸Ð¼ÑģÑı": 5898, "Ð¿ÑĢÐµÐ¶": 5899, "ÑģÑĤÐ°Ð»Ð°": 5900, "ĠÐ¸ÑģÑĤÐ¾ÑĢÐ¸Ñİ": 5901, "ÑĤÐ¸ÐºÐ°": 5902, "ĠÐ³Ð¾Ð»Ð¾Ð²Ð°": 5903, "ĠÑĢÑĭÐ±": 5904, "ollow": 5905, "ĠÐ±Ð¾Ð»ÑĮÑĪÐ¸Ð½ÑģÑĤÐ²Ð¾": 5906, "ĠÐ±Ð¾Ð»ÑĮÑĪÐ¾Ðµ": 5907, "ĠÐºÐ»ÐµÑĤ": 5908, "ĠÐŁÐµÑĤÐµÑĢÐ±ÑĥÑĢ": 5909, "ĠÐ³ÑĢÑĥÐ¿Ð¿": 5910, "ĠÑĢÐ°Ð·Ð²ÐµÑĢ": 5911, "ĠÐ¿ÐµÑĢÐµÐ³Ð¾Ð²Ð¾ÑĢ": 5912, "ĠÐºÑĢÐ¾Ð²ÑĮ": 5913, "ĠÑĥÐ¼ÐµÐ½ÑĮ": 5914, "ĠÐ¾ÐºÐ°Ð·Ð°Ð»Ð°ÑģÑĮ": 5915, "ĠÐ²Ð¾ÑģÐµÐ¼": 5916, "ĠÐ·Ð°Ð²Ð¸ÑģÐ¸ÑĤ": 5917, "Ð¾ÑģÐ½Ð¾Ð²": 5918, "Ð¸ÑĤÐµÐº": 5919, "ĠÐ½Ð°Ð¹Ð´": 5920, "ĠÐ¿Ð»Ñİ": 5921, "ĠÐ´Ð²Ð¸Ð¶ÐµÐ½Ð¸Ðµ": 5922, "ĠÐ¿ÐµÑĢÐµÐ´Ð°ÐµÑĤ": 5923, "rans": 5924, "Ð°Ð»ÑĮÐ½ÑĭÐ¼Ð¸": 5925, "ĠÐ±ÑĥÐºÐ²": 5926, "Ð¾ÐºÑĥ": 5927, "ĠÑģÐ»Ð°Ð²": 5928, "ÐµÐ½ÑĮÐµ": 5929, "ĠÐ¿Ð¾ÑģÑĤÐ°Ð½Ð¾Ð²": 5930, "ĠÑĢÐ°Ð±Ð¾ÑĤÐ°Ð»": 5931, "Ð´Ð¸Ð»": 5932, "Ð¾Ð¼Ð¾": 5933, "Ð¿Ð¾ÑĢÐ°": 5934, "ĠÐ´Ð¾ÑĢÐ¾Ð¶": 5935, "ĠÐ¼Ð¾Ð´ÐµÐ»Ð¸": 5936, "Ð¶Ð½ÑĭÐ¹": 5937, "ĠÑģÐ¾Ð³Ð»Ð°ÑģÐ½Ð¾": 5938, "ĠÑģÑĤÐ¾ÑĢÐ¾Ð½Ðµ": 5939, "ĠÐ¿Ð»ÐµÐ¼": 5940, "ĠÐ½ÐµÐ¾Ð±ÑħÐ¾Ð´Ð¸Ð¼Ð¾ÑģÑĤÐ¸": 5941, "ĠÐ¿ÑĢÐµÐ´Ð¿ÑĢÐ¸Ð½Ð¸Ð¼Ð°": 5942, "ĠÐ¿Ð°Ð¼ÑıÑĤ": 5943, "ÐµÐ¹Ð½": 5944, "ÑģÐµÐ½": 5945, "Ð»ÑĮÐ½Ð¾Ð³Ð¾": 5946, "âľĤ": 5947, "ĠÐ»Ð¸ÑĨÐ¾Ð¼": 5948, "ÂłÐ²": 5949, "ĠÐ½Ð°Ð·Ñĭ": 5950, "ĠÑģÐ¼Ð¾Ð¶": 5951, "Ð¸ÑģÑĤ": 5952, "Ġ70": 5953, "ÑģÑĤÐ¾ÑĢÐ¾Ð½": 5954, "ÂłÑģ": 5955, "ÐĲÐ¡Ð¡": 5956, "ĠÐ²ÑģÐºÐ¾ÑĢÐµ": 5957, "ĠÑħÐ»Ð¾Ð¿": 5958, "ĠAmeric": 5959, "ĠÐ¾Ð±ÑģÐ»ÑĥÐ¶Ð¸": 5960, "ĠÑĩÑĥÐ²ÑģÑĤÐ²Ð¾": 5961, "ĠÐ¿ÑĢÐ¸Ð½ÑıÐ»": 5962, "ĠÐ½Ð¾ÑĩÐ¸": 5963, "ĠÐ±ÐµÑĢÐµÐ³Ñĥ": 5964, "ÑĢÐ°Ð·Ð´ÐµÐ»": 5965, "Ð¸ÑĤÐµÐ»ÑĮÐ½ÑĭÐ¼": 5966, "ÑģÑĤÐµÑĢÐ°": 5967, "ĠÑģÐ²ÐµÑĤÐµ": 5968, "ĠÑĢÐ°Ð·Ð²Ð¸ÑĤÐ¸Ðµ": 5969, "Ð¸ÑĤÐµÐ»ÑıÐ¼": 5970, "ĠÐĵÐ°": 5971, "ÑĤÐ¾ÑĢÑı": 5972, "ĠÐ¼Ð°Ð¹": 5973, "ĠÑģÐ¾Ð½": 5974, "ĠÐ¿Ð¾ÑģÐ»ÐµÐ´Ð½ÐµÐµ": 5975, "ÑĥÑģÐ»Ð¾Ð²": 5976, "ĠÐ¶ÐµÐ»Ð°Ð½Ð¸Ðµ": 5977, "ĠÐ¸ÑģÐºÐ°ÑĤÑĮ": 5978, "ÑıÐ»Ð¸ÑģÑĮ": 5979, "ĠÐ½Ð°Ð¿Ð¾Ð»": 5980, "ĠÐ¸ÑģÑģÐ»ÐµÐ´Ð¾Ð²Ð°Ð½Ð¸Ñı": 5981, "ĠPro": 5982, "Ð¼ÐµÐ¹": 5983, "ĠÐ²Ð°ÑĪÐµÐ³Ð¾": 5984, "Ð»ÑıÑİÑĤÑģÑı": 5985, "Ġonly": 5986, "ĠÐłÐ¾Ð¼": 5987, "ĠÑģÑħÐ¾Ð´": 5988, "ince": 5989, "ĠÐ¢Ð¾Ð¼": 5990, "oint": 5991, "ĠÑħÑĥÐ¶Ðµ": 5992, "ĠÑĪÐºÐ¾Ð»ÑĮ": 5993, "eat": 5994, "ĠÑĨÐµÐ½Ñĭ": 5995, "ĠÐ¥Ð¾ÑĢÐ¾ÑĪÐ¾": 5996, "ĠÐ´ÑĭÑħÐ°": 5997, "ĠÐ´ÐµÑıÑĤÐµÐ»ÑĮÐ½Ð¾ÑģÑĤÑĮ": 5998, "%.": 5999, "Ð½Ð¸Ð»Ð¾ÑģÑĮ": 6000, "ĠÐļÑĥÑĢ": 6001, "Ð»Ð°Ðº": 6002, "ĠÑģÐ¼ÑĭÑģÐ»Ðµ": 6003, "ĠÐ¿Ð¾Ð¶Ð°Ð»ÑĥÐ¹ÑģÑĤÐ°": 6004, "Ð±Ð¸ÑĢ": 6005, "ÂłÐĴÑĭ": 6006, "ĠÐ·Ð½Ð°ÑĩÐµÐ½Ð¸Ðµ": 6007, "...âľĤ": 6008, "Ð¸Ð»ÑĮÐ½Ð¾": 6009, "ĠÑģÐ¾Ð³Ð»Ð°ÑģÐ¸": 6010, "ÑĤÐ¸Ð²Ð½Ð¾": 6011, "ĠÐ¾Ð±ÐµÑĢ": 6012, "Ġstud": 6013, "ÐĺÐ·": 6014, "ĠÑģÐ¿Ð¸Ñģ": 6015, "ÑĩÐ¸Ð²": 6016, "ĠÐ½ÐµÐ±Ð¾": 6017, "ĠÐ½ÐµÐ¿ÑĢÐ¸ÑıÑĤ": 6018, "ĠÐĿÐ¾Ð²Ð¾ÑģÑĤÐ¸": 6019, "ĠÐ·ÐµÐ¼Ð»Ñı": 6020, "ĠÐ¿Ð¾Ð½ÑıÐ»Ð°": 6021, "ĠÑģÐµÐ²": 6022, "ĠÐĿÐ°Ð¼": 6023, "Ġyears": 6024, "ÑĢÐ¾Ð²Ð°Ð½Ñĭ": 6025, "ĠÐ¸Ð½ÑĤÐµÑĢÐµÑģÐ½Ð¾": 6026, "----": 6027, "use": 6028, "ĠÐ²Ð°ÑĢÐ¸Ð°Ð½ÑĤ": 6029, "ÐĴÐĲ": 6030, "ĠÐ¸ÑĤÐ¾Ð³Ðµ": 6031, "ĠÐ½ÐµÑĳ": 6032, "Ð¸ÑĤÐµÐ»ÑĮÐ½Ð¾ÑģÑĤÐ¸": 6033, "ĠÐ¼Ð°ÑĤÐµÑĢÐ¸Ð°Ð»Ñĭ": 6034, "ÑĢÐµÑģÑģ": 6035, "ÐµÐ¼Ð¾Ð¹": 6036, "Ð°ÐºÐ¾Ð½": 6037, "ÐºÐ½ÑĥÐ»Ð°": 6038, "ÐĴÑģÐµ": 6039, "ĠÐ½ÑĥÐ¶ÐµÐ½": 6040, "ÑĥÑģÐ°": 6041, "ĠÐ¿ÑĢÐ¸Ð²ÐµÐ´": 6042, "ĠÑĩÐ¸Ð½Ð¾Ð²": 6043, "Ġwhere": 6044, "ĠÐ²Ð°ÑĪÐ¸": 6045, "ĠÐ¿Ð¾ÐºÐ¾Ð»": 6046, "Ð»Ð°Ð½Ð´": 6047, "ĠÐ¿ÑĢÐµÐ´ÑģÑĤÐ°Ð²Ð»ÑıÐµÑĤ": 6048, "ĠÑĦÐ¸Ð½Ð°Ð½Ñģ": 6049, "Ð½ÐµÑĤÑģÑı": 6050, "ĠÐ¿Ð°ÑĨÐ¸": 6051, "ĠÐ¼ÑĥÐ¶ÑĩÐ¸Ð½Ñĭ": 6052, "ĠÐ¾Ð¿ÐµÑĢÐ°ÑĨÐ¸Ð¸": 6053, "ĠÐ½ÐµÐ¾Ð¶Ð¸Ð´Ð°Ð½Ð½Ð¾": 6054, "ÑĭÐ´Ñĥ": 6055, "Ġmost": 6056, "ĠÐ¿Ð°ÑĢÐµÐ½ÑĮ": 6057, "ĠÐ¾ÐºÐ°": 6058, "ĠÑģÐ¾Ð±ÑĭÑĤÐ¸Ð¹": 6059, ".:": 6060, "ĠÐĺÐ²Ð°Ð½": 6061, "ĠÐ³Ð¾Ð»ÑĥÐ±": 6062, "Ð»ÐµÐ½Ð½Ð¾Ð¹": 6063, "ÑĩÐ¸Ñı": 6064, "ĠÑģÐ¾Ð·Ð´Ð°Ð½": 6065, "ĠÐ¿ÑĢÐ¸Ð²Ð»ÐµÐºÐ°": 6066, "ĠÑĢÐ¾Ð¶Ð´ÐµÐ½Ð¸Ñı": 6067, "ĠÐĴÐ¼Ðµ": 6068, "ween": 6069, "ĠÐľÐ¸ÑħÐ°Ð¸Ð»": 6070, "ĠÑĦÐ¾ÑĢÑĥ": 6071, "ĠÐĵÐµ": 6072, "Ġagain": 6073, "Ð¾Ð´Ñĭ": 6074, "ĠÐ¿Ð¾Ð²ÑĤÐ¾ÑĢÐ¸": 6075, "ular": 6076, "ÑĢÑĭÑħ": 6077, "Ġpubl": 6078, "ĠÐ´Ð¶": 6079, "ĠÐłÐĺÐĲ": 6080, "ĠÐºÐ¸ÑĤÐ°Ð¹": 6081, "ÑģÐ¿ÐµÑĢÐ¸": 6082, "ĠÐĶÑĢÑĥÐ³": 6083, "ĠÑģÐ¼Ñĥ": 6084, "ĠÑģÐ¿Ð¾ÑĢÑĤ": 6085, "ÑģÑĤÑıÐ¼": 6086, "Ð¾Ð¿ÑĢÐ¾": 6087, "ĠÐ¾ÑģÑĤÐ°Ð»ÑģÑı": 6088, "ĠÐ½Ð°ÑĪÐµÐ»": 6089, "ÑıÑīÐµÐ³Ð¾": 6090, "23": 6091, "ĠÐ»Ñĥ": 6092, "Ð¿ÑĢÐµÐ¶Ð½ÐµÐ¼Ñĥ": 6093, "Ð»ÑĭÐ¹": 6094, "ĠÑģÐ¾Ð¶Ð°Ð»ÐµÐ½Ð¸Ñİ": 6095, "ĠÐĲÐ»ÐµÐºÑģÐµÐ¹": 6096, "ĠÐ±Ð¾Ð»ÑĮÑĪÐ¸Ð¼": 6097, "iel": 6098, "ĠÐ·Ð°Ð²Ð¸ÑģÐ¸Ð¼Ð¾ÑģÑĤÐ¸": 6099, "ĠÐ¿Ð¾ÑĤÐµÐ½": 6100, "ĠÑĦÐ¾ÑĢÐ¼Ñĭ": 6101, "ĠÐ¿ÑĢÐ¸ÑģÐ¾": 6102, "Ġind": 6103, "ĠÐ¿ÑĢÐ¾ÑĪÐ»Ð¾Ð¼": 6104, "ĠÐ°Ð²ÑĤÐ¾Ð±": 6105, "ĠÐ¼Ð½ÐµÐ½Ð¸Ðµ": 6106, "ĠÐ¾ÑģÐ²Ð¾Ð±": 6107, "ash": 6108, "ins": 6109, "ĠÐ¿ÑĢÐ¸ÑħÐ¾Ð´Ð¸ÑĤÑģÑı": 6110, "ĠÐŁÐ°ÑĢÐ¸": 6111, "Ġret": 6112, "ĠÐ¿ÑĢÐµÐ´Ð²Ð°": 6113, "ĠÐ²Ð¾Ð¹ÑģÐº": 6114, "ÐŀÐ±": 6115, "ĠÐ´Ð¸Ð¿Ð»Ð¾Ð¼": 6116, "Ð¸Ð½Ð°Ð¼Ð¸": 6117, "ĠÐ³ÐµÐ½ÐµÑĢÐ°Ð»": 6118, "ident": 6119, "ĠÐºÑĥÐ»ÑĮÑĤÑĥÑĢ": 6120, "Ġcent": 6121, "ĠSp": 6122, "ÑĩÐºÐ¾Ð¹": 6123, "ily": 6124, "ĠÑģÐ¾Ð·Ð´Ð°ÑĤÑĮ": 6125, "ĠÐľÐµÐ½Ñı": 6126, "ĠÐ¸ÑĤÐ¾Ð³": 6127, "ĠÐ´ÐµÑĢÐµÐ²ÑıÐ½": 6128, "ĠÐ¿ÑĢÐ¸Ð²ÐµÑĤ": 6129, "Ġ000": 6130, "ĠÐŀÐ»ÑĮ": 6131, "Ð´Ð¸Ð½Ð¾": 6132, "ĠÐºÐ¾ÑĤÐ¾ÑĢÑĭÐ¼Ð¸": 6133, "ĠÑģÑĤÐ¾Ð¸Ð¼Ð¾ÑģÑĤÑĮ": 6134, "ÑĤÐµÐ»ÑĮÑģÑĤÐ²Ð¾": 6135, "ĠÑĩÑĢÐµÐ·": 6136, "ÐµÐ½ÑĤÑĥ": 6137, "ĠÑģÐ¸ÑģÑĤÐµÐ¼Ñĥ": 6138, "âĢľ": 6139, "ĠÐłÐ¾Ð±": 6140, "ĠÐ²ÑĤÐ¾": 6141, "ÐºÐ°ÑĤÐµÑĢÐ¸": 6142, "ĠÑģÐ¾Ð·Ð´Ð°Ð½Ð¸Ñı": 6143, "ĠÐ²ÐµÐ´Ð¾Ð¼": 6144, "Ġ'": 6145, "ĠÐ·Ð°Ð¹": 6146, "Ð½ÐµÑĨ": 6147, "ÑģÑĤÑĥÐ¿Ð¸ÑĤÑĮ": 6148, "ÑĢÐ¾Ð²Ð°ÑĤÑĮÑģÑı": 6149, "ÑĩÐ½ÑĭÐ¼Ð¸": 6150, "ĠÐ´ÑĥÑĪÐµ": 6151, "ĠÐ¾ÑĤÐ½Ð¾ÑģÐ¸ÑĤÐµÐ»ÑĮÐ½Ð¾": 6152, "ĠÐ¸Ð½Ð²ÐµÑģÑĤÐ¸": 6153, "ĠÐºÑĢÐ¾": 6154, "ĠÐ¿ÑĢÐ¾ÑģÑĮ": 6155, "ĠÑĨÐµÐ½ÑĤÑĢÐ°Ð»ÑĮ": 6156, "Ð³ÐµÑĢ": 6157, "ĠÐ¡ÑĥÐ´": 6158, "ĠÑĤÐµÑĢÑĢÐ¸ÑĤÐ¾ÑĢÐ¸": 6159, "ĠÑģÐ»ÑĥÑĩÐ°ÑıÑħ": 6160, "ÐķÑģÐ»Ð¸": 6161, ".-": 6162, "ÑĢÐ°ÑĩÐ¸": 6163, "ĠÐ¶Ð°ÑĢ": 6164, "Ġsup": 6165, "Ġ(Â«": 6166, "Ð´ÐµÑģÑıÑĤ": 6167, "ĠÐ¿Ð¾Ð´Ð½ÑıÐ»": 6168, "ĠÑĤÐ¾ÑĢÐ¶Ðµ": 6169, "ĠÐ´Ð¸Ñģ": 6170, "ÑĤÐºÐ°": 6171, "ĠÐ°Ð½Ð³": 6172, "ĠÑģÐ»Ð¾Ð²Ð°Ð¼Ð¸": 6173, "ĠÐ±Ð¾Ð»ÑĮÑĪÐ°Ñı": 6174, "ĠÐ¼Ð¾Ð¼ÐµÐ½ÑĤÐ°": 6175, "ĠÐĵÐ¾ÑģÑĥÐ´Ð°ÑĢ": 6176, "ĠÐ¿ÑĢÐ¸ÑĩÐµÐ¼": 6177, "ÑīÐ°ÑİÑĤ": 6178, "ĠÐµÐ·": 6179, "ÑĤÐ¸ÑĩÐµÑģÐºÐ¸Ðµ": 6180, "ĠÐ¿Ð¾ÑıÐ²Ð¸Ð»ÑģÑı": 6181, "ÑĢÑĭÐ¼": 6182, "ÑĤÐ¸ÑģÑĤÐ¸": 6183, "ĠÐĿÐ°Ð²ÐµÑĢ": 6184, ".).": 6185, "ision": 6186, "ĠÐ´Ð¸ÑĢÐµÐºÑĤÐ¾ÑĢ": 6187, "==": 6188, "ÑĤÐ°Ð¹": 6189, "ĠÐ¼ÐµÐ¶": 6190, "Ð¾Ð²Ð°Ð»Ð¾": 6191, "ĠÐ¼Ð¾Ð¶ÐµÑĪÑĮ": 6192, "ĠÐĶÐµÐ²": 6193, "Ð¾Ñĥ": 6194, "ĠÐ¼ÑĥÐ½Ð¸ÑĨÐ¸Ð¿": 6195, "ĠÑĥÑģÐ»ÑĥÐ³Ð¸": 6196, "ĠÐ½ÐµÐ±Ð¾Ð»ÑĮÑĪÐ¾Ð¹": 6197, "ĠÐ·Ð°ÑīÐ¸ÑĤÑĭ": 6198, "ÐķÐł": 6199, "ÑĢÐ¸ÐºÐ¸": 6200, "ĠÑįÐºÑģÐ¿Ð»Ñĥ": 6201, "ĠĠĠĠ": 6202, "ĠÑģÐ´Ð°": 6203, "ĠÐ¿Ð°Ð»": 6204, "ÑĤÑĭÐ¼Ð¸": 6205, "ĠÐ³Ð¾Ð´Ð°Ñħ": 6206, "ÐļÐ°": 6207, "Ð½ÐµÐ½Ð¸Ð¹": 6208, "ĠÐĶÑĥÐ¼Ð°": 6209, "ĠÑĦÐ°Ð½ÑĤÐ°": 6210, "ĠÐĵÑĢÐµ": 6211, "ĠÐºÐ¾ÑĢÐ¾Ð»ÐµÐ²": 6212, "ĠÐ´Ð¾ÑĢÐ¾Ð³Ñĥ": 6213, "ĠÐ°ÐºÐ°Ð´ÐµÐ¼": 6214, "ĠÑĢÐ¾Ð´ÑģÑĤÐ²ÐµÐ½": 6215, "Ð¾Ð²Ð°Ð½Ð¸Ñİ": 6216, "ĠÐ¡ÐºÐ°": 6217, "ĠÐ¿Ð¾Ð½ÑıÑĤÐ½Ð¾": 6218, "ĠÑĢÐµÐ±Ñı": 6219, "ĠÐ¸Ð½ÑĤÐµÐ»": 6220, "ĠÐ²Ð¾Ð´Ð¾Ð¹": 6221, "Ð²ÑĥÑĩ": 6222, "ÐĿÐŀ": 6223, "ier": 6224, "Ð¾Ð²Ð°Ð½Ñĭ": 6225, "ĠÐ¸ÑģÐ¿Ð¾Ð»ÑĮÐ·Ð¾Ð²Ð°Ð½Ð¸Ñı": 6226, "ĠÐ²ÐµÐ»Ð¸Ðº": 6227, "ĠÐ±Ð¾Ð»ÑĮÑĪÐ¸Ðµ": 6228, "ĠÐ¼Ð°ÑģÑģ": 6229, "ĠÐ²ÑģÐ»ÐµÐ´": 6230, "ĠÐºÐ¾Ð½ÑĤÑĢÐ°Ðº": 6231, "ĠÐ¿ÑĢÐ¾Ð¶Ð¸": 6232, "ĠÐ¿Ð¾Ð»Ð¸ÑĨÐ¸Ð¸": 6233, "ĠÐ¢Ð¾ÑĤ": 6234, "ÑĩÐµÐ½ÐºÐ¾": 6235, "ĠÐ¾ÑĤÑĩÐµÑĤ": 6236, "ÑĪÐºÐµ": 6237, "ÐµÐ½Ð½Ð¾Ð¼": 6238, "Ð°Ð»ÑĮÐ½Ð¾ÑģÑĤÐ¸": 6239, "Ð½ÐµÐ´": 6240, "ĠÑĩÐµÐ»Ð¾Ð²ÐµÐºÑĥ": 6241, "ĠÑĪÑĥÑĤ": 6242, "ĠÐ°ÐºÐºÑĥ": 6243, "ĠÐ¿ÑĢÐ¸Ð²Ð»Ðµ": 6244, "ĠÐ¿ÑĢÐµÐ²Ñĭ": 6245, "ĠÑģÐ¿ÐµÑĨ": 6246, "ĠÐ¾ÑģÑĤÐ°Ð»ÑĮÐ½ÑĭÐµ": 6247, "ĠÐ¼Ð°Ð³": 6248, "ĠÐ¿ÑĢÐµÐ¿Ð¾Ð´Ð°": 6249, "ĠÑĤÑĥÑĢÐ½Ð¸": 6250, "Ġduring": 6251, "ÑıÑĢ": 6252, "ĠÐ¾ÐºÑĢÑĥÐ³": 6253, "ĠÑĤÐ°Ð»": 6254, "ĠÑįÐ½ÐµÑĢÐ³": 6255, "Ġear": 6256, "Ġsub": 6257, "ĠÐ¡Ð°Ð½": 6258, "ĠÐ´Ð¾Ð²ÐµÑĢ": 6259, "ĠÐĶÐ¶Ð¾Ð½": 6260, "ĠÐ¿Ð°Ð´": 6261, "ĠÑĢÐµÑģÑĤÐ¾": 6262, "yst": 6263, "ÑĪÐµÐ½ÐºÐ¾": 6264, "ÑĩÐ½Ð¸Ðº": 6265, "ĠÑĤÐµÐ¼Ñĥ": 6266, "ĠÐ¿ÑĢÐ¸ÐºÑĢÑĭ": 6267, "ĠÐ¾Ð±ÑģÑĥÐ¶Ð´": 6268, "ĠÐ»ÐµÐ´": 6269, "Ġ189": 6270, "ĠÐºÐ¾Ð¼Ð¿Ð°Ð½Ð¸Ð¹": 6271, "ĠÐ¿ÑĢÐ¾Ð³ÑĢÐ°Ð¼Ð¼": 6272, "ĠÐ²ÐµÑĢÐ½ÑĥÑĤÑĮÑģÑı": 6273, "ĠÐ¿ÑĭÑĤÐ°Ð»ÑģÑı": 6274, "ÑĤÐ°ÐµÑĤ": 6275, "ĠÐ²ÑĭÑĪÐ»Ð°": 6276, "Ġco": 6277, "ĠÐ½Ð°ÑĩÐ¸Ð½": 6278, "Ð°Ð½Ð½ÑĭÐ¼": 6279, "ĠÑģÑĭÐ³ÑĢÐ°": 6280, "ĠÐ¸Ð³ÑĢÐ°ÑĤÑĮ": 6281, "ÐµÐ·Ð¶Ð°": 6282, "ĠÐ´Ñı": 6283, "Ð³ÑĢÐ°Ð´": 6284, "ĠÐ±Ð¸Ð·Ð½Ðµ": 6285, "Ð¾ÑĢÑĤÐ¸": 6286, "ĠÐ½Ð°ÑĩÐ°Ð»Ð¾": 6287, "ĠÐĲÐ½Ð´ÑĢÐµ": 6288, "ĠÑĢÐµÐ»Ð¸Ð³Ð¸": 6289, "ĠÐŁÐµÑĢÐµÐ´": 6290, "ÑĤÑıÐ³Ð¸": 6291, "ĠÑĩÐµÑģÑĤÑĮ": 6292, "ĠÑģÑĩÐ°ÑģÑĤÐ»Ð¸": 6293, "ÐµÑģÑĤÑĮ": 6294, "ĠÑģÐ¸ÑĤÑĥÐ°ÑĨÐ¸Ñı": 6295, "ĠÐ¿Ð°ÑĢÐ»Ð°": 6296, "iversity": 6297, "ÑĤÐ¸Ñİ": 6298, "ĠÐºÐ¾Ð¼Ð½Ð°ÑĤÑĭ": 6299, "oun": 6300, "ÑĥÑİÑīÐµÐµ": 6301, "ĠÐºÑĥÑģ": 6302, "any": 6303, "ĠÐ´Ð¾ÑĩÑĮ": 6304, "ÑĤÐ¾Ð»": 6305, "ÂłÐĵ": 6306, "ĠÐĹÐ½Ð°ÑĩÐ¸ÑĤ": 6307, "ÐļÐĲ": 6308, "ĠÐ¾ÑĤÐºÐ°Ð·Ð°": 6309, "Ð¸Ð²Ð°Ð»": 6310, "ĠÐ¿Ð¾Ð»ÐºÐ¾Ð²": 6311, "ĠÐ¿ÑĢÐ¾Ð¶": 6312, "ĠÐļÐ¾Ð½ÑģÑĤÐ°Ð½": 6313, "ĠÑįÐ»ÐµÐºÑĤÑĢÐ¸": 6314, "ĠÐļÑĢÐ¸": 6315, "ÐµÐ»Ð¾ÑĢÑĥÑģ": 6316, "ĠÑĢÐ°Ð´": 6317, "ÑĢÐµÐ²Ð°": 6318, "ĠÐ¡ÑĤÑĢÐ°": 6319, "ĠÐ²ÑĭÑģÑĤÑĢÐµ": 6320, "Ð°Ð»ÑĮÐ½Ð¾ÑģÑĤÑĮ": 6321, "ĠÐ¼Ð¼": 6322, "ĠÐ¿Ð¾ÑĤÐ¾Ð»": 6323, "ÑĢÐ¾Ð²Ð¸": 6324, "ĠÐ´Ð¾ÐºÑĥÐ¼ÐµÐ½ÑĤÐ°": 6325, "Ð¼ÑĭÑģÐ»": 6326, "ĠÐ½ÐµÐ²Ñĭ": 6327, "Ð¼ÐµÐ½Ñĭ": 6328, "Ð±Ð°ÑĢ": 6329, "ĠÐ¿Ð¾ÑģÑĤÐµÐ¿ÐµÐ½Ð½Ð¾": 6330, "ĠÐłÐ¸": 6331, "ĠÐ½ÑĥÐ¶Ð½Ð°": 6332, "ĠÑĤÐ²Ð¾Ð¹": 6333, "ĠÑĥÐ½Ð¸Ðº": 6334, "ĠÐ±Ð¾Ð»ÑĮÑĪÑĥÑİ": 6335, "ĠÐ¿ÑĢÐµÐ¼Ð¸": 6336, "ĠÐĳÐ¾Ð³Ð°": 6337, "ĠÑĥÑģÐ¿Ð¾ÐºÐ¾": 6338, "ÑĤÐµÐº": 6339, "ĠÐ¿ÑĢÐ¾Ð´ÑĥÐºÑĨÐ¸Ð¸": 6340, "ĠÑģÐ°Ð½Ðº": 6341, "ĠÐ¿ÑĢÐµÐ´Ð¿Ð¾Ð»Ð°Ð³Ð°": 6342, "Ð¶Ð½ÑĭÐµ": 6343, "ĠÐ¾ÑģÐ¾Ð·Ð½Ð°": 6344, "ÑĪÐ°ÐµÑĤÑģÑı": 6345, "Ġteam": 6346, "ĠÑĢÐ°ÑģÑģÐ»ÐµÐ´": 6347, "ĠÐ¿ÑĢÐµÐ´ÑģÑĤÐ°Ð²Ð¸ÑĤÑĮ": 6348, "ĠÐ·Ð»": 6349, "ee": 6350, "ĠÐŁÑĥÑģÑĤÑĮ": 6351, "ĠÑĨÐµÐ¿": 6352, "ĠÐ·Ð½Ð°ÑĩÐ¸ÑĤÐµÐ»ÑĮÐ½Ð¾": 6353, "ĠÐ³Ð¾ÑĤÐ¾Ð²Ñĭ": 6354, "Ð»ÑıÐ»Ð¸": 6355, "ĠÐ²Ð¾Ð¿ÑĢÐ¾ÑģÐ°": 6356, "ĠÐ¿Ð°ÑĢÑĤÐ½ÐµÑĢ": 6357, "duc": 6358, "ĠÐ·Ð´Ð°Ð½Ð¸Ñı": 6359, "ĠÐ¾Ð³Ð»Ñı": 6360, "ĠÐ¸ÑģÑĤÐ¸Ð½": 6361, "ÑĭÑĪÐ°": 6362, "ĠÐĿÐ¸ÐºÐ¾Ð»Ð°Ð¹": 6363, "ĠÐ·ÐµÑĢÐº": 6364, "ĠÑĦÐ¸Ð½Ð°Ð½ÑģÐ¾Ð²": 6365, "ĠÑĤÐµÐ»ÐµÑĦ": 6366, "ĠÑĥÑĩÐ°ÑģÑĤÐ½Ð¸ÐºÐ¾Ð²": 6367, "ĠÑĢÐ°Ð·Ð»Ð¸": 6368, "ĠÐ½Ð°ÑĩÐ¸Ð½Ð°ÐµÑĤ": 6369, "ĠÐĶÐ¼Ð¸ÑĤÑĢÐ¸Ð¹": 6370, "ĠÐ½Ð°ÑĪÐ»Ð¸": 6371, "Ð¿Ð°Ð´Ð°": 6372, "ĠÐŀÐ´Ð½Ð°": 6373, "Ġ90": 6374, "ÑģÑĤÐ¾Ð»": 6375, "ĠÑĤÐµÐºÑĥ": 6376, "ĠÐ²ÑĢÐµÐ´": 6377, "ĠÐ²Ð¸Ð´ÐµÐ»Ð°": 6378, "Ð²ÑĪÐ¸ÑħÑģÑı": 6379, "ĠÑģÐºÐ»Ð°Ð´": 6380, "ĠÑģÐ¿Ð¸Ð½Ð¾Ð¹": 6381, "ĠÐ¿ÑĢÐ¾ÑĪÐµÐ»": 6382, "Ġ2000": 6383, "ĠÐ¾Ð±ÑĢÐ°ÑĤ": 6384, "Ð³Ð»Ð°Ð²": 6385, "ÂłÐķ": 6386, "ĠÐ½Ð¸Ð¶": 6387, "ĠÑģÐ»ÑĭÑĪÐ°Ð»": 6388, "ĠÐľÐ¾Ð»": 6389, "ÑĩÐµÑģÐºÐ¸Ð¼Ð¸": 6390, "ĠÐ¾Ð±Ð»Ð°ÑģÑĤÑĮ": 6391, "ĠÑĤÑıÐ¶ÐµÐ»Ð¾": 6392, "ĠÐ²Ð¾ÑģÐ¿Ð¾Ð»ÑĮÐ·": 6393, "ĠÐ¿Ð»Ð¾ÑīÐ°Ð´Ð¸": 6394, "ĠÐ³ÑĥÐ±Ñĭ": 6395, "ĠÑģÐ¿ÑĥÑģÑĤÑı": 6396, "Ð²Ð¸ÑĤ": 6397, "ĠÐºÐ¾Ð½ÐµÑĨ": 6398, "ÑĥÑħÐ°": 6399, "ĠÐ¿Ð»ÐµÑĩÐ°Ð¼Ð¸": 6400, "ĠÐ¿Ð¾Ð´ÑĩÐ¸Ð½": 6401, "ĠÐ½Ð¾Ð²ÑĥÑİ": 6402, "Ġcol": 6403, "ĠÐ¾ÑĦ": 6404, "ĠÐ¿ÐµÑĢÐµÑģ": 6405, "ÑĢÐ¾Ð²Ð°Ð»Ð°": 6406, "ina": 6407, "ÑįÐ»": 6408, "ĠÐ¿Ð¾Ð»Ð½Ð¾Ð¹": 6409, "ÑĤÐ¸Ð»Ð¾": 6410, "ĠÐ¾Ð·Ð½Ð°ÑĩÐ°ÐµÑĤ": 6411, "ĠÑĢÐ°Ð·Ð³Ð¾Ð²Ð°ÑĢÐ¸": 6412, "ĠÑģÐ°Ð¼Ð¾Ð»ÐµÑĤ": 6413, "ĠÐ¼Ð¾Ð½Ð°ÑģÑĤÑĭ": 6414, "ĠÐ·Ð°Ð±ÑĢÐ°": 6415, "ĠÐ²ÑĭÑĤÐ°": 6416, "Ġrel": 6417, "ĠÐ²Ð¸Ð´ÐµÐ»Ð¸": 6418, "ĠÐ´ÑĢÐ¾Ð¶": 6419, "ĠÐľÑĥ": 6420, "ĠÑĥÐ³Ð¾Ð»": 6421, "ĠÐļÑģÑĤÐ°ÑĤÐ¸": 6422, "ĠÐĿÐ°ÑĢ": 6423, "Ð´ÐµÑĢÐ¶Ð°ÑĤÑĮ": 6424, "Ð»Ð°Ð¼Ð¸": 6425, "ĠÑĢÐ¾Ð¼Ð°Ð½": 6426, "45": 6427, "ĠÑįÐ¿": 6428, "ĠÐºÐ¾Ð´": 6429, "ĠÑĦÐ°Ð¼Ð¸": 6430, "ĠÐ¾ÑĢÐ³Ð°Ð½Ð¾Ð²": 6431, "ĠÐ¾Ñĩ": 6432, "ÐºÐ¾ÑĤÐ¾ÑĢÑĭÐµ": 6433, "ĠÐłÑĭ": 6434, "ĠÐ±Ð¸Ð»": 6435, "ÑĦÐ¸Ð½": 6436, "ĠÐĶÐ¾Ð¼": 6437, "ĠÐĽÐµÐ½Ð¸Ð½": 6438, "ĠÐ¿ÑĢÐ¾Ð±Ð»ÐµÐ¼Ð°": 6439, "ĠÑĩÐ°Ð¹": 6440, "ĠÑĢÐµÐ·ÑĥÐ»ÑĮÑĤÐ°ÑĤ": 6441, "ĠÑģÐ¾Ð¾Ð±ÑīÐ¸Ð»Ð¸": 6442, "ĠÐ¿Ð¸ÑģÐ°Ð»": 6443, "ÐºÐ¾Ð±": 6444, "ann": 6445, "ĠÐ¸Ð½Ð¶ÐµÐ½": 6446, "ĠÐ¼Ð¸Ð»Ð¸": 6447, "ĠÐ¿ÐµÑĢÐµÐ¼Ðµ": 6448, "ĠÐ»ÑİÐ±Ð¾Ð¼": 6449, "ĠÑĤÑĢÐµÐ½Ð¸": 6450, "Ð»ÑĥÑĪÐ°": 6451, "ĠÐľÐ°ÑĤ": 6452, "ĠÐ½ÑĥÐ¶Ð½Ñĭ": 6453, "ÑģÐ¸Ð¹": 6454, "ĠÐ¿ÑĢÐµÐ´Ð»Ð¾Ð¶Ð¸Ð»": 6455, "ĠÐºÑĢÐ°Ñı": 6456, "ĠÐºÐ¾Ð½ÑĤÑĢÐ¾Ð»ÑĮ": 6457, "ÐµÐ»Ð¸ÑĤÑĮÑģÑı": 6458, "Ġ80": 6459, "\")": 6460, "Ġdec": 6461, "27": 6462, "ĠÐ½Ð°Ð¿Ð¸ÑģÐ°Ð»": 6463, "ÐµÑĤÐ¾Ð²": 6464, "oci": 6465, "ÑĤÐ¸Ð²Ð½Ð¾Ð¹": 6466, "Ġbetween": 6467, "ÑģÑĤÐ°Ð²Ð¸Ð²": 6468, "ĠÐ¿Ð¾ÑĤÐ¾Ðº": 6469, "ĠÐĵÑĥ": 6470, "Ġme": 6471, "ĠÐ¾ÑģÐ¾Ð±Ñĭ": 6472, "Ð´Ð½Ð¾": 6473, "ĠÐ½ÐµÐ¿ÑĢÐ°Ð²": 6474, "26": 6475, "ĠÐ±Ð»Ð¸Ð¶Ðµ": 6476, "ĠÐ²ÑĢÐµÐ¼ÐµÐ½Ð°": 6477, "ĠÐ¼ÑĥÐ´": 6478, "Ġass": 6479, "ĠÑĥÐ¿Ð¾ÑĤÑĢÐµÐ±": 6480, "aj": 6481, "ÐµÑģÐµÐ´": 6482, "ement": 6483, "ĠÐ±Ð¾Ð»Ð¸": 6484, "ĠÐ³Ð¾Ð»Ð¾ÑģÐ¾Ð¼": 6485, "Ð°Ð³Ð¸": 6486, "Ð¾Ð¿Ð¾Ð»Ð¾Ð¶": 6487, "2015": 6488, "ĠÐ¾Ð¿ÑĥÐ±Ð»Ð¸ÐºÐ¾Ð²": 6489, "ĠÐĿÐ¸ÑĩÐµÐ³Ð¾": 6490, "ĠÑģÑĦÐµÑĢÐµ": 6491, "ĠÑģÐ¸Ð¼Ð²Ð¾Ð»": 6492, "ĠÐ±Ð¸ÑĤ": 6493, "ĠÐ²Ð½Ð¸Ð¼Ð°ÑĤÐµÐ»ÑĮÐ½Ð¾": 6494, "ĠÐ¿ÑĢÐµÐ´Ð¾ÑģÑĤÐ°Ð²Ð»Ñı": 6495, "ÑĨÐ²ÐµÑĤ": 6496, "ĠÐ¾Ð¿ÑĢÐµÐ´ÐµÐ»ÐµÐ½": 6497, "ĠÐ¿ÑĢÐ¸ÑĪÐ»Ð¸": 6498, "ĠÐļÐ°ÑĤ": 6499, "Ð»Ð°Ð¼": 6500, "ĠÐ´Ð²Ð¾Ðµ": 6501, "ĠÐ¿ÑĢÐµÐ´ÑĭÐ´Ñĥ": 6502, "ÑıÑı": 6503, "air": 6504, "ĠÐ½ÐµÑĩÑĤÐ¾": 6505, "ĠÐ¾Ð±Ð¸Ð´": 6506, "ÑĤÐ¸ÑĩÐµÑģÐºÐ¾Ð³Ð¾": 6507, "ĠÑİÑĢÐ¸Ð´Ð¸": 6508, "ĠÐ¿ÐµÑĩ": 6509, "ĠÐ¼Ð½Ð¾Ð³Ð¾ÑĩÐ¸ÑģÐ»": 6510, "ĠÑĢÐµÐ±ÐµÐ½Ð¾Ðº": 6511, "fore": 6512, "sh": 6513, "ÑĢÐ°Ð²Ð°": 6514, "ĠÑĪÑĤÑĥ": 6515, "ĠÑĨÐµÑĢÐºÐ²Ð¸": 6516, "ĠÐ½Ð°Ð¼Ðµ": 6517, "ĠÑįÐ»ÐµÐºÑĤÑĢÐ¾": 6518, "Ð²ÑĪÐ¸ÐµÑģÑı": 6519, "ÑĤÐ¾ÑĢÑĥ": 6520, "ÑĩÐµÐ½Ð°": 6521, "ÑĢÐ¾Ð²Ð¸Ñĩ": 6522, "ĠÑıÐ¿Ð¾Ð½": 6523, "ĠÐ²ÑĭÐ¿Ð»Ð°": 6524, "ĠÑĤÑĢÑĥÐ´Ð¾Ð¼": 6525, "Ð±Ð¾Ðµ": 6526, "ĠÐ´ÑĢÑĥÐ³Ñĥ": 6527, "ĠÐ²Ð¾Ð¿ÑĢÐ¾ÑģÐ¾Ð²": 6528, "ĠÑĤÐµÐºÑģÑĤ": 6529, "Ġused": 6530, "ĠÑĤÐµÐ¿Ð»Ð¾": 6531, "ĠÑģÑĩÐ¸ÑĤÐ°ÑĤÑĮ": 6532, "ĠÐĲÑħ": 6533, "ÑĦÐ¸Ðº": 6534, "ĠÐ½Ð°ÑħÐ¾Ð´ÑıÑĤÑģÑı": 6535, "ĠÐ¸Ð¼Ð¿Ðµ": 6536, "ÑģÑģÐµ": 6537, "Ð»Ð°Ð·": 6538, "ĠÐ¿Ð¾Ð²ÑĤÐ¾ÑĢÑı": 6539, "ĠÐ»ÑİÐ±Ð»Ñİ": 6540, "ĠÐ½Ð°ÐºÐ°Ð·Ð°": 6541, "ĠÐ°Ð¼": 6542, "ĠÐ¼ÑĢÐ°": 6543, "ĠÐ¿Ð¾Ð´Ð¾ÑĪÐµÐ»": 6544, "Ð²ÑĭÐ¼Ð¸": 6545, "ÑĦÑĥ": 6546, "ĠÑģÐ´ÐµÐ»Ð°Ð»Ð¸": 6547, "ĠÐ³Ð»Ð°Ð²Ð½ÑĭÐ¹": 6548, "ĠÐ´Ð¾ÐºÑĥÐ¼ÐµÐ½ÑĤÑĭ": 6549, "ĠÑģÑĤÑĭ": 6550, "ĠÐłÐ¾ÑģÑģÐ¸Ñİ": 6551, "ĠÐŁÐ¾Ð½": 6552, "oot": 6553, "ĠÑĢÐµÑĪÐ¸Ð»Ð°": 6554, "ĠÐ´ÑĢÑĥÐ³ÑĥÑİ": 6555, "ĠÐ´ÐµÐ²ÑĥÑĪÐºÐ¸": 6556, "ĠÐ¾Ð¿Ð¸Ñģ": 6557, "ĠÐ·Ð°ÑĢÐµÐ³Ð¸ÑģÑĤÑĢÐ¸": 6558, "Ġinter": 6559, "Ġrem": 6560, "ĠÐ°Ð¿Ð¿Ð°ÑĢÐ°": 6561, "ĠÐ²Ð¾ÑģÐ¿Ð¾Ð¼Ð¸Ð½Ð°": 6562, "ÑĪÐ¸Ð»Ð¸": 6563, "ĠÐĹÐ°Ð¿Ð°Ð´": 6564, "ĠÐ¾ÑģÐ¼Ð¾ÑĤ": 6565, "ĠÑĩÐµÑĤÑĭÑĢÐµÑħ": 6566, "ĠÐºÐ°Ð´": 6567, "21": 6568, "ĠÐ¿Ð¾Ð»Ð¸ÑĤÐ¸ÐºÐ¸": 6569, "ĠÐ¿ÑĢÐµÐ´ÐµÐ»Ð°": 6570, "ĠÐ¼Ð¸ÑĢÐ¾Ð²Ð¾Ð¹": 6571, "Ġthere": 6572, "Ð¿Ð¸ÑģÑĮ": 6573, "ĠÐºÐ°Ð½Ð´Ð¸Ð´Ð°": 6574, "ĠÑĦÐ¾ÑĢÐ¼": 6575, "ĠÑĢÐµÐ³ÑĥÐ»ÑıÑĢ": 6576, "ĠÑĢÐ°Ð·Ð½Ð¾Ð¾Ð±ÑĢÐ°Ð·": 6577, "Ġthrough": 6578, "ĠÐ¿Ð¾ÑĢÑıÐ´Ð¾Ðº": 6579, "ted": 6580, "ĠÐºÐ»Ð°Ð´": 6581, "ĠÐ´Ð¾Ð¼Ð¾Ð²": 6582, "ÐµÐ´Ð¸Ð½Ð¸": 6583, "ĠÐ½Ð¾Ð²Ð¾Ðµ": 6584, "Ð½Ð¸ÑıÑħ": 6585, "ĠÐ¼ÐµÑħÐ°Ð½Ð¸Ð·": 6586, "Ð¾ÑĤÐ¾Ð²": 6587, "ĠÐ¾ÑĤÐ»Ð¸ÑĩÐ¸Ðµ": 6588, "ÐºÐ¾Ð²Ð¾Ð¹": 6589, "ĠÐļÑĥÐ±": 6590, "ĠÑĢÐ¾ÑģÑĤ": 6591, "ĠÐ¡Ð¾Ð³Ð»Ð°ÑģÐ½Ð¾": 6592, "ÑĢÐ¸Ð»ÑģÑı": 6593, "ĠÐ¼ÐµÑģÑĤÐ°Ñħ": 6594, "ĠÐºÐ°ÐºÐ¾Ð¼": 6595, "ÐļÐŀ": 6596, "ĠÐ·Ð½Ð°ÑİÑĤ": 6597, "ĠÑģÐµÐ¼ÑĮÐµ": 6598, "Ð°Ð»Ð¸Ð½": 6599, "ĠÐ¶ÐµÐ½Ð¸": 6600, "ĠÐ·Ð°Ð¼ÐµÑĢ": 6601, "ĠÐ·Ð°ÑģÑĤÐ°Ð²Ð»Ñı": 6602, "Ġ35": 6603, "ĠÐ¿Ð¾Ð´Ð¾Ð·ÑĢÐµ": 6604, "ĠÐ¿Ð¾ÑıÐ²Ð¸Ð»Ð°ÑģÑĮ": 6605, "ĠÐĳÑĥ": 6606, "ĠQ": 6607, "ÑĩÐ°Ð»ÑģÑı": 6608, "Ġso": 6609, "Ġfl": 6610, "Ð¶Ð´Ð°Ñı": 6611, "ĠÑģÐ»ÑĥÑĪÐ°": 6612, "Ð²Ð¸Ð´Ð¸Ð¼": 6613, "ĠÐ¼Ð°Ð³Ð°Ð·Ð¸": 6614, "ĠÐ¼Ð¸ÐºÑĢÐ¾": 6615, "Ð²Ð¾Ð»ÑĮ": 6616, "ĠÐ¾ÑĢÑĥÐ¶Ð¸Ñı": 6617, "Ġfound": 6618, "ĠÐ´ÐµÐ»Ñĥ": 6619, "ÑĢÐ¾ÑģÑĤÐ¸": 6620, "ĠÑģÐ¾Ð»Ð½ÑĨÐµ": 6621, "ĠÐ½Ð°ÑĩÐ°ÑĤÑĮ": 6622, "ĠÐºÐ°ÑĢÑĤÐ¸Ð½": 6623, "ĠÐŁÑĢÐµÐ·Ð¸Ð´": 6624, "ÑĢÑĥÐ³Ð°": 6625, "ĠÐ¿Ð¾Ð·Ð½Ð°ÐºÐ¾Ð¼": 6626, "Ġpol": 6627, "ative": 6628, "ÐµÑĤÑĥ": 6629, "ĠÐĴÐ·": 6630, "ĠÐ´Ð°Ð¼": 6631, "ĠÐºÐ¸Ð½": 6632, "ĠÐ½Ð°ÑĪÑĥ": 6633, "??": 6634, "ĠÐ´ÑĢ": 6635, "ĠÐ°ÑĢÑħÐ¸ÑĤÐµÐº": 6636, "Ð·Ñĥ": 6637, "ower": 6638, "ÑģÐ¾Ðº": 6639, "ĠÑģÐ¾ÑģÑĤÐ¾Ð¸ÑĤ": 6640, "ĠÐ½Ð°Ð¿Ð°Ð´": 6641, "ĠÐ¿Ð°Ð¼ÑıÑĤÑĮ": 6642, "ĠÐ·Ð¾Ð²": 6643, "ĠÐļÐ°Ð¶Ð´ÑĭÐ¹": 6644, "ĠÐ¾Ð±Ð»ÐµÐ³": 6645, "ĠÑĥÑĩÐµÑĤ": 6646, "Ð¾Ð¶Ð´Ð°": 6647, "ĠÑĪÐºÐ¾Ð»Ðµ": 6648, "Ġrele": 6649, "Ð´ÐµÐ»Ð¸": 6650, "ÑĮÐ¸": 6651, "ĠÑģÑĥÐ´ÐµÐ±": 6652, "ĠÑĢÐ°Ð´Ð¸Ð¾": 6653, "35": 6654, "ĠÐ·Ð°ÑģÐµÐ´Ð°": 6655, "ĠÑģÐ¿Ð¸ÑģÐ¾Ðº": 6656, "ĠÑĤÐµÑħÐ½Ð¸ÐºÐ¸": 6657, "ĠÑħÐ²Ð¾": 6658, "als": 6659, "ĠÐ¾ÑĤÐ´ÐµÐ»Ð°": 6660, "ĠÐ¾Ð´Ð½Ð¾Ð¼Ñĥ": 6661, "ĠÑįÐºÑģÐ¿ÐµÑĢÐ¸": 6662, "ĠÑħÐ¸Ð¼Ð¸": 6663, "ĠÐłÐµÑģÐ¿ÑĥÐ±Ð»Ð¸ÐºÐ¸": 6664, "ĠÐķÐ²Ð³": 6665, "ĠÑģÑĤÐ¾ÑıÐ»Ð°": 6666, "ÐµÐ´Ñĭ": 6667, "Ġthem": 6668, "ĠÐ½ÐµÐ½Ð°Ð²Ð¸": 6669, "ĠÐķÐºÐ°ÑĤÐµÑĢÐ¸": 6670, "Ġthree": 6671, "Ġthen": 6672, "ĠÐĿÐ°Ð´Ðµ": 6673, "ĠÑģÑĤÑĢÐµÐ»": 6674, "ĠÐ¡ÐºÐ¾": 6675, "ÑĤÐ¸Ð²Ð½ÑĭÐµ": 6676, "ĠÐ³Ð»Ð°Ð²Ñĭ": 6677, "ĠÑĥÐ±Ð¸": 6678, "Ð°Ð»ÑĮÑıÐ½": 6679, "ĠÐ¿Ð¾Ð¼Ð½Ñİ": 6680, "ĠÑĥÐºÑĢÐµÐ¿": 6681, "ĠÐĳÐ¾Ð»ÐµÐµ": 6682, "ĠÐ½Ð°ÐºÐ°": 6683, "ĠÐ²Ð¾ÐµÐ½Ð½ÑĭÑħ": 6684, "ife": 6685, "Ð°ÑıÑģÑĮ": 6686, "ĠÑĤÑīÐ°": 6687, "ĠÐ¿Ð¾Ð·Ð¸ÑĨÐ¸Ð¸": 6688, "Ð¾Ð°Ð½": 6689, "ities": 6690, "ĠÑģÐ¾Ð¿ÑĢÐ¾ÑĤÐ¸Ð²": 6691, "ĠÑģÑĤÐ¾Ð»Ð°": 6692, "Ġpe": 6693, "Ð²ÑĮÑİ": 6694, "70": 6695, "ĠÑħÐ¾ÑĤÑıÑĤ": 6696, "ĠJo": 6697, "ĠÐŁÐ»Ð°": 6698, "ÐµÐ¼Ð¾Ð³Ð¾": 6699, "ĠÐ³ÐµÐ½": 6700, "Ð´Ð°Ð³": 6701, "ĠÐ´Ð¾ÐºÑĥÐ¼ÐµÐ½ÑĤÐ¾Ð²": 6702, "Ð»Ð°Ð¹Ð½": 6703, "ĠâĢŀ": 6704, "ĠÐ¿ÑĢÐ¾ÑĪÐ»Ð¾Ð³Ð¾": 6705, "ÐĴÐ¾": 6706, "ĠÐ±Ð°ÑĤ": 6707, "ĠÐĿÐ°Ð¿Ð¾Ð¼": 6708, "ĠÐ²Ð¸Ð´Ð¸Ð¼Ð¾": 6709, "ÐµÐ½Ð¸ÑıÐ¼": 6710, "ĠÐ½ÐµÐºÐ¾ÑĤÐ¾ÑĢÐ¾Ðµ": 6711, "ĠÐ¿ÑĢÐ¸ÑĪÐ»Ð°": 6712, "ĠÑĩÐ¸ÑĤÐ°ÑĤÑĮ": 6713, "ĠÐ»ÑİÐ±Ð¾Ð³Ð¾": 6714, "ĠÐºÐ¾ÑĦÐµ": 6715, "ĠÐ»Ð°Ð³ÐµÑĢ": 6716, "ĠÑĩÐµÑĢÐµ": 6717, "ĠÑıÐ·ÑĭÐºÐµ": 6718, "att": 6719, "ĠÐ¶Ð¸Ð»ÑĮ": 6720, "ĠÐ¿Ð¾Ð¼Ð¾Ð¶ÐµÑĤ": 6721, "ĠÐ´ÑĢÑĥÐ·ÐµÐ¹": 6722, "ĠÐ½Ð°ÑĢÑĥÑĪ": 6723, "Ġfilm": 6724, "Ġabout": 6725, "ÑĩÐµÐ½Ð¸ÐµÐ¼": 6726, "ĠÐĶÐ¶ÐµÐ¹": 6727, "ÑĢÐ¾Ð²Ð°Ð½Ð½ÑĭÐµ": 6728, "ĠÐľÐ°ÐºÑģÐ¸Ð¼": 6729, "ĠÑģÐ¸ÑĤÑĥÐ°ÑĨÐ¸Ñİ": 6730, "ÑģÑĤÐ²ÐµÐ½Ð½ÑĥÑİ": 6731, "ĠÐŁÑĥÑĤÐ¸Ð½": 6732, "ĠÐ¢Ð¸": 6733, "ĠÐ¿Ð¾Ð²ÐµÑĢÑħÐ½Ð¾ÑģÑĤÐ¸": 6734, "ĠÐĽÑĥÑĩ": 6735, "ĠÐ²Ð´Ð¾Ð»ÑĮ": 6736, "Ð³Ð°Ð»Ð¸": 6737, "ĠBl": 6738, "ÐºÐ²Ð¸": 6739, "ĠÐ²ÑĤÐ¾ÑĢÐ¾Ð³Ð¾": 6740, "ÑĢÐµÑģÑĤÐ¸": 6741, "ĠÐ½ÐµÐ¿Ð¾Ð½": 6742, "uss": 6743, "ĠÐ¿Ð¾Ð´ÑĢÐ°Ð·Ð´ÐµÐ»": 6744, "ĠÐ·Ð½Ð°Ð»Ð¸": 6745, "ÑĨÐ¸Ð¾Ð½Ð¸": 6746, "ĠÐºÐ¾Ð½ÑĦÐµÑĢÐµÐ½": 6747, "ĠÐ·Ð°Ð»Ð¸": 6748, "ĠÐ·Ð°ÑĢ": 6749, "ĠÐ²ÑģÑĤÑĥÐ¿": 6750, "ĠÑģÐºÐ¾ÑĢ": 6751, "ĠÐ·Ð°ÑħÐ¾ÑĤ": 6752, "ÐµÑĢÐµÐ¹": 6753, "ĠÐŁÐ¾Ð¶": 6754, "ÑħÐµ": 6755, "Ġmade": 6756, "Ð¸ÑģÐ¿": 6757, "ÐµÐ½ÑĮÑİ": 6758, "ĠÐ¼Ð°ÑĢÑĪÑĢÑĥ": 6759, "ĠÐ¿Ð»Ð°ÑģÑĤÐ¸": 6760, "Ð²Ð¾Ð²": 6761, "Ð¾ÑĤÐ½Ð¾": 6762, "ĠÐ¿ÑĢÐ¾ÑĤÐ¸Ð²Ð½Ð¸ÐºÐ°": 6763, "ĠÐ²Ð¾Ð·ÑĢÐ°ÑģÑĤÐ°": 6764, "ĠÐ¡ÑĢÐµÐ´": 6765, "Ð´Ð¾ÑĢÐ¾Ð²": 6766, "Ð°Ð¹ÑĤÐµ": 6767, "ĠÐ°ÑįÑĢÐ¾Ð¿": 6768, "ĠÐ½Ð°Ð²ÐµÑĢÐ½ÑıÐºÐ°": 6769, "ĠÑģÐ¿ÑĥÑĤ": 6770, "ĠÐ¼Ð°ÑĤÐµÑĢÐ¸Ð°Ð»": 6771, "ÑĢÐµÑģÑĤ": 6772, "ÑĤÐ¸Ð²Ñĭ": 6773, "ĠÐ¿Ð¾Ð·Ð´Ð½Ð¾": 6774, "ĠThis": 6775, "ĠÐ·Ð°Ð¿Ð¸Ñģ": 6776, "Ġfollow": 6777, "Ġ)": 6778, "ÑĤÐ¸Ð²Ð½ÑĭÐ¹": 6779, "ĠÑıÐ·ÑĭÐºÐ°": 6780, "Ð¿ÐµÑĢÐµ": 6781, "ÐµÐ»Ð¾Ð²ÐµÐº": 6782, "ĠÑħÑĢÐ¸ÑģÑĤÐ¸Ð°Ð½": 6783, "ÑģÐºÐ°Ñħ": 6784, "Ġnum": 6785, "ĠÑģÐµÑĢÐ´ÑĨÐ°": 6786, "Ġsuch": 6787, "Ð»ÐµÐ¿": 6788, "ĠÑģÐµÐºÑĢÐµÑĤÐ°": 6789, "ĠÐ¾Ð±ÑĢÐ°Ñī": 6790, "ĠÑģÑĩ": 6791, "Ð»ÑĮÐ½ÑĭÐ¹": 6792, "ĠÑĦÐ¸Ð»ÑĮÐ¼": 6793, "ĠCol": 6794, "ĠÐ¿ÑĢÐµÑĤÐµÐ½": 6795, "overn": 6796, "ĠÑģÐ»Ð¾": 6797, "ĠÐ²Ð¾ÐµÐ½Ð½Ð¾": 6798, "pr": 6799, "Ð¹ÑģÑı": 6800, "ĠÐ¿Ð¾Ð½ÑĢÐ°Ð²": 6801, "ĠÐ±Ð°Ð½ÐºÐ¾Ð²": 6802, "ĠÐºÐ½Ð¾Ð¿": 6803, "ÐłÐĲ": 6804, "ĠÐ½ÐµÐ»Ðµ": 6805, "ÐµÐ´Ð»Ð¸Ð²Ð¾": 6806, "ĠÑģÐ²ÑıÐ·ÑĮ": 6807, "Ð°Ð½Ð³": 6808, "Ð¿Ð¾Ð·Ð¸": 6809, "ĠÑĥÑģÐ¼ÐµÑħ": 6810, "ĠÑĤÐµÐ¾": 6811, "ÑĤÐ°Ð»Ð°": 6812, "ject": 6813, "ĠÑģÐ¾ÑĤÑĢÑĥÐ´Ð½Ð¸ÐºÐ¾Ð²": 6814, "ĠÐ¾ÑĤÑĢÐ¸ÑĨÐ°": 6815, "ĠÐĲÐ»ÐµÐºÑģÐ°Ð½Ð´ÑĢÐ°": 6816, "hen": 6817, "ÑĢÐ¸Ð»Ð°": 6818, "ĠÐ¼Ð¾Ð±Ð¸Ð»ÑĮ": 6819, "ĠÐ½Ð°ÑħÐ¾Ð´Ð¸Ð»ÑģÑı": 6820, "Ġmov": 6821, "ÑĥÑİÑīÐ¸Ð¼": 6822, "ĠÑĢÑĥÐºÐµ": 6823, "ĠCl": 6824, "ĠÐľÐµÐ´": 6825, "ÑĤÑĥÐ´Ð°": 6826, "ĠInd": 6827, "ĠÐºÑĢÐµÐ¿Ð¾": 6828, "ĠÑģÐ¸ÑģÑĤÐµÐ¼Ðµ": 6829, "ĠÐ´Ð¾ÐºÐ°Ð·Ð°": 6830, "ĠÐ¡ÑĢÐµÐ´Ð¸": 6831, "ÑĤÐµÐ»ÑĮÐ½ÑĭÐ¼": 6832, "ÑıÐ»Ð¾": 6833, "ÑĪÐµÐ±": 6834, "ĠÐĿÑĮÑİ": 6835, "ĠÐ¸ÑģÐºÐ»ÑİÑĩÐ¸ÑĤÐµÐ»ÑĮÐ½Ð¾": 6836, "49": 6837, "Ð±Ð°Ð½": 6838, "ÑĤÐµÐ»ÑĮÐ½Ð¾Ðµ": 6839, "ÑģÑĤÐ¾Ð¸Ð½": 6840, "ĠÑĢÐ¸ÑģÐº": 6841, "ĠÐ¼Ð¸Ð»Ð»Ð¸Ð°ÑĢ": 6842, "ĠÐ¾ÑĤÐ½Ð¾ÑĪÐµÐ½Ð¸Ðµ": 6843, "ĠÐ¾ÑĤÐºÑĢÑĭÐ»": 6844, "Ð·Ð°Ð¼": 6845, "ĠÑįÐ½ÐµÑĢÐ³Ð¸Ð¸": 6846, "ĠÐ±ÑĭÑģÑĤÑĢÐµÐµ": 6847, "ĠÑģÐ¾Ð»Ð´Ð°": 6848, "ĠÑĥÐ¼Ð°": 6849, "Ð¸Ð·Ð²Ð¾Ð´": 6850, "ĠÑĥÐ·Ð½Ð°Ð»": 6851, "Ð´ÐµÐº": 6852, "ĠÐ±ÑĭÑģÑĤ": 6853, "ĠÑĢÐ°Ð·Ð¼": 6854, "arg": 6855, "ĠÐºÐ¾ÑĢÐ¾Ð±": 6856, "ames": 6857, "ĠÐ¿Ð¾ÑĪÐ»Ð¸": 6858, "ĠÐ·Ð°ÑģÑĤÐ°Ð²": 6859, "âĢ¦Â»": 6860, "ĠÑģÐ°Ð¼Ð¾Ð¼Ñĥ": 6861, "28": 6862, "ĠÐ²ÑĭÐ¹ÑĤÐ¸": 6863, "Ġlater": 6864, "ific": 6865, "ĠÐºÐ½Ð¸Ð³": 6866, "ĠÑįÐºÑĢÐ°": 6867, "Ġam": 6868, "ows": 6869, "ÑĨÐ°Ñħ": 6870, "ÑĢÐ¾Ð¼Ð°": 6871, "der": 6872, "ĠÐĴÐ¸ÑĤ": 6873, "ĠÑģÐ¿ÐµÑĨÐ¸Ð°Ð»ÑĮÐ½Ð¾": 6874, "Ð¾Ð»Ð¾Ñģ": 6875, "ÑĤÐ¸Ð²Ð½Ð¾Ð³Ð¾": 6876, "ĠÑĥÐ±ÐµÐ¶Ð´": 6877, "ouse": 6878, "ÑĩÐµÐ½Ð¸Ñİ": 6879, "ĠÐºÐ¾ÑģÑĤÑİ": 6880, "ĠÑģÑĩÐ¸ÑĤÐ°ÑİÑĤ": 6881, "pen": 6882, "ĠÐĸÐµÐ½": 6883, "ĠÑĪÐ»Ð¸": 6884, "ĠÐ¼Ð¸Ð³": 6885, "ĠÐ¿ÑĢÐ¾Ð¹ÑĤÐ¸": 6886, "ÑģÑĤÐ¾ÐºÐµ": 6887, "ĠÐ²Ð¾Ð¹Ð½Ð°": 6888, "ÐŁÑĢÐ¾": 6889, "ÐľÐ¾": 6890, "ĠÐ½Ð°Ð¾Ð±Ð¾ÑĢÐ¾ÑĤ": 6891, "ĠÐ¼Ð¸Ð½Ð¸Ð¼Ñĥ": 6892, "Ð±ÑĢÑĮ": 6893, "29": 6894, "ĠÐ²ÐºÐ»ÑİÑĩÐ°Ñı": 6895, "Ð±ÑĢÐ°Ð½": 6896, "ĠÐ¡Ð¾Ð²ÐµÑĤÐ°": 6897, "ĠÐ¿ÑĢÐ¸ÑħÐ¾Ð´Ð¸Ð»Ð¾ÑģÑĮ": 6898, "ĠÑĤÑİÑĢÑĮ": 6899, "ĠÐ·Ð°Ð»Ðµ": 6900, "Ð¾ÑĩÐºÐ¸": 6901, "ĠÐ¶Ð¸Ð´": 6902, "ĠÑģÐ¿ÑĢÑı": 6903, "ÐŁÐ¾Ñģ": 6904, "ĠÑģÐ¾Ð±ÑģÑĤÐ²ÐµÐ½Ð½Ð¾Ð¹": 6905, "ĠÑĩÐ°ÑģÑĤÑĮÑİ": 6906, "ĠÐĲÐ»ÐµÐºÑģÐµ": 6907, "ĠÐ·Ð°Ð½Ð¸Ð¼Ð°ÑĤÑĮÑģÑı": 6908, "ĠÑĢÐ¾Ð±": 6909, "ĠÑģÐ¿Ð°ÑģÐ¸Ð±Ð¾": 6910, "ĠÑĢÐ°Ð·Ð»Ð¸ÑĩÐ½ÑĭÐµ": 6911, "ÑĢÐ°Ð½ÐµÐµ": 6912, "ĠÐ±ÑĥÐ´ÐµÑĪÑĮ": 6913, "ÑıÐ±ÑĢÐµ": 6914, "ÑģÑĤÐ¸Ð»Ð°": 6915, "inn": 6916, "ĠÑģÐ°Ð¼Ð°Ñı": 6917, "ĠÐ²Ð»Ð°Ð´ÐµÐ»ÑĮ": 6918, "ĠÑģÐ¸Ð»Ð¾Ð¹": 6919, "ĠÐºÐ¾Ð¼ÑĦÐ¾ÑĢ": 6920, "ĠÐºÐ°Ð¶Ð´Ñĭ": 6921, "ĠÑĥÐ³Ð¾Ð´Ð½Ð¾": 6922, "ĠÐ¼ÑıÑģ": 6923, "ĠÐ¿ÑĢÐ¸Ð¼": 6924, "ĠÑĢÐ°ÑģÐ¿ÑĢÐ¾ÑģÑĤÑĢÐ°": 6925, "ÑģÑĤÑĢÑĥ": 6926, "ĠÐ½Ð°Ð±Ð»ÑİÐ´": 6927, "ĠÐĿÐ°Ñģ": 6928, "ĠÐ¿ÑĥÑĤÐµÐ¼": 6929, "ĠÑİÐ½Ð¾": 6930, "ĠÐºÐ½Ð¸Ð³Ñĥ": 6931, "Ð¾ÑģÐ»Ð°Ð²": 6932, "ĠÐ¾ÑģÑĤÐ°Ð»Ð¸ÑģÑĮ": 6933, "ĠÐ¾ÑĤÑģÑİÐ´Ð°": 6934, "ĠÐ²Ð°ÑĪÐµ": 6935, "Ð´Ð¾Ðº": 6936, "ĠÐ°Ð´Ð¼Ð¸Ð½Ð¸ÑģÑĤÑĢÐ°ÑĨÐ¸Ð¸": 6937, "ĠÐ½ÐµÐ¼ÐµÐ´Ð»ÐµÐ½Ð½Ð¾": 6938, "ĠÐ¥Ð¾": 6939, "ĠÐ¾ÑĩÐµÑĢÐµÐ´Ð½Ð¾Ð¹": 6940, "ÑĪÐµÐ¿": 6941, "ĠÐ½Ð°Ð¿ÑĢÐ°Ð²Ð»ÐµÐ½Ð¸Ð¸": 6942, "Ġschool": 6943, "erm": 6944, "ÑĤÐ½ÑĭÐ¹": 6945, "ÑĢÑĥÑı": 6946, "ĠÑģÑĤÐ°ÑĤÐ¸ÑģÑĤÐ¸": 6947, "ÑĥÑĢÐ¾": 6948, "ĠÐ³Ð¾Ð²Ð¾ÑĢÐ¸Ð»Ð°": 6949, "ĠSc": 6950, "ÑīÐ¸ÐºÐ¸": 6951, "Ð¼Ð¸ÑĢ": 6952, "ÑĢÐ¸ÑĤÐµÐ»ÑĮÐ½Ð¾": 6953, "Ð½Ð¸Ð²": 6954, "ury": 6955, "ĠÑģÐµÐ¼ÑĮÑı": 6956, "Ġ500": 6957, "ĠÐ»Ð¾Ðº": 6958, "ĠÐ¿ÑĢÐµÑģÐ»ÐµÐ´": 6959, "Ð·Ð°ÑĢ": 6960, "ĠÐ²Ð¸Ð´Ð¾Ð²": 6961, "ĠÐ¾ÑĢÐ¸Ð³Ð¸Ð½": 6962, "ĠÐ»ÐµÐ¹": 6963, "ÑĢÐ¾Ð²Ð¾Ð¹": 6964, "ÑĢÐ¾Ð²Ð°Ð½Ð½ÑĭÐ¹": 6965, "ĠÑįÐºÑģÐ¿Ð»ÑĥÐ°ÑĤÐ°": 6966, "ĠÐ·Ð´Ð°": 6967, "ĠÐ³Ð³": 6968, "ÐĿÐł": 6969, "ĠÐ±Ð¾Ð³Ð°ÑĤ": 6970, "Ð²Ð¾Ð»Ð¸": 6971, "ĠÐ±ÑĢÐ¾Ñģ": 6972, "ĠÐ¾Ð±Ð½Ð¾Ð²": 6973, "ĠÐ²Ð¸Ð´Ð°": 6974, "ĠÑĢÐ¾Ð´Ð¸ÑĤÐµÐ»ÐµÐ¹": 6975, "Ð´Ð¸Ð»Ð¸": 6976, "ĠÐ´ÐµÐ»Ð°ÑİÑĤ": 6977, "ĠÐ²ÐµÑĤÐµÑĢ": 6978, "ĠÐ¾ÑĤÐ´ÑĭÑħÐ°": 6979, "ĠÐ£ÐºÑĢÐ°Ð¸Ð½Ð°": 6980, "ĠÐ¿ÐµÑĢÐµÐ²": 6981, "Ġ2005": 6982, "ĠÐ¿ÑĢÐ¾ÑĩÐ¸ÑĤ": 6983, "ĠÐ¸Ð¼ÐµÐ»Ð¸": 6984, "ÑĭÐ²Ð°Ð»Ð¸": 6985, "ĠÐ¾Ð±ÑģÑĤÐ°Ð½Ð¾Ð²": 6986, "ĠÐ¼Ð°Ð»ÑĮÑĩÐ¸": 6987, "son": 6988, "Ġdist": 6989, "=\"": 6990, "ĠÐ±ÑĥÐ´ÐµÑĤÐµ": 6991, "ÑĢÐ¸Ð´": 6992, "ĠÐºÑĢÐ°Ð¹Ð½Ðµ": 6993, "ĠÐ²Ð¾Ð½": 6994, "Ġsome": 6995, "ĠÐ·Ð°ÑĤÐ¾": 6996, "ĠÑģÑĤÑĢÐ¾Ð¸ÑĤÐµÐ»ÑĮÑģÑĤÐ²Ð°": 6997, "ĠÑģÐ»ÑĥÑħ": 6998, "ĠÐĴÐ°ÑĢ": 6999, "ĠÑĢÐ°Ð·Ð¾Ð±ÑĢÐ°": 7000, "Ð¼Ð¸Ð½Ð°": 7001, "ÑĭÑĪÐ°ÑĤÑĮ": 7002, "ĠÐ´Ð¾ÑģÑĤÐ¾Ð¹": 7003, "ĠÐ»ÑİÐ±Ð¾Ð¿ÑĭÑĤ": 7004, "ĠÑĢÐµÐ·ÑĥÐ»ÑĮÑĤÐ°ÑĤÑĭ": 7005, "ĠÐ²ÑĢÑıÐ´": 7006, "ĠÐ²ÑģÑĤÐ°Ð»": 7007, "ĠÑħÐ°ÑĢÐ°ÐºÑĤÐµÑĢÐ¸ÑģÑĤÐ¸": 7008, "ĠÐŃÐ´": 7009, "ĠÐ³ÑĥÐ±ÐµÑĢÐ½Ð°": 7010, "Ð¾ÑģÐ¿": 7011, "ĠÐ½Ð¸ÐºÐ¾Ð¼Ñĥ": 7012, "ĠÐ²ÑģÑĤÐ°": 7013, "Ð¸Ð»Ñı": 7014, "ĠÐ¿ÐµÑĢÐ²Ð¾Ðµ": 7015, "Ð¾ÑĢÐ³": 7016, "Ġend": 7017, "ĠÐ¶Ð¸Ð²Ð¾ÑĤÐ½ÑĭÑħ": 7018, "ĠÑĢÐ¾ÑģÑĤÐ°": 7019, "ĠÑģÑĤÐ°Ð½ÑĨÐ¸Ð¸": 7020, "ÑĩÐµÐ½Ð½ÑĭÐ¹": 7021, "ĠÐĶÐ¾Ð»": 7022, "ĠÐ¼ÐµÐ»ÑĮ": 7023, "ĠÐŀÐŀÐŀ": 7024, "Ð½ÐµÐ½Ð¸Ð¸": 7025, "ĠÐ¾ÑģÑĤÐ¾ÑĢÐ¾Ð¶Ð½Ð¾": 7026, "ÐµÑĢÐ¿": 7027, "ating": 7028, "ĠÐ³ÑĢÑĥÐ·": 7029, "ĠÐ°ÑĤÐ¼Ð¾Ñģ": 7030, "ÂłÐ¥": 7031, "ĠÑĩÐ»ÐµÐ½Ð¾Ð²": 7032, "ÑıÑīÐµÐ¹": 7033, "ines": 7034, "Ð¾Ð¿ÑĢÐ¾Ñģ": 7035, "ĠÐ½Ð¾Ð²Ð¾ÑģÑĤÐ¸": 7036, "ÑīÐ¸Ð½Ð°": 7037, "ĠÑģÑĤÐ¾ÑıÐ»Ð¸": 7038, "Ġthan": 7039, "ĠÐ¿Ð¾ÐºÐ°Ð·Ð°Ð»Ð¾ÑģÑĮ": 7040, "Ġra": 7041, "ĠÐľÐ½Ð¾Ð³Ð¸Ðµ": 7042, "ĠÑĢÑĭÐ½ÐºÐ°": 7043, "ĠÐķÐ²ÑĢÐ¾Ð¿Ðµ": 7044, "ĠÐ½Ð¸ÐºÐ°ÐºÐ¾Ð¹": 7045, "ÑĭÐ²Ð°Ð½Ð¸Ñı": 7046, "ĠÐ»ÐµÐºÐ°ÑĢ": 7047, "ĠÑıÐº": 7048, "Ġprov": 7049, "ÑĩÐµÐ½Ð½ÑĭÐµ": 7050, "ĠÐ¿ÑĢÐµÐ´ÑĥÑģÐ¼Ð¾ÑĤ": 7051, "ĠÑĥÐ´Ð¾Ð²Ð»ÐµÑĤÐ²Ð¾ÑĢ": 7052, "ĠÐ¾Ð´Ð¸Ð½Ð¾": 7053, "Ð½ÑıÐ¼Ð¸": 7054, "Ð½Ð°Ð´Ð¾Ð±": 7055, "Ġsecond": 7056, "Ð½ÐµÐ½Ð½Ð¾": 7057, "ĠÐ²ÑĭÑĢÐ°": 7058, "ĠÐ¿ÑĢÐµÐ´Ð»Ð¾Ð¶ÐµÐ½Ð¸Ðµ": 7059, "ĠNE": 7060, "ĠÐ¼ÐµÑĪ": 7061, "ĠÐ½ÐµÐ¿Ð»Ð¾": 7062, "ĠÐ¼Ð¾Ð´ÐµÐ»ÑĮ": 7063, "ĠÐ¿ÑĢÐ°Ð²Ð¸ÑĤÐµÐ»ÑĮÑģÑĤÐ²Ð¾": 7064, "ĠÐ±Ð°Ð½Ðº": 7065, "ived": 7066, "ĠÑģÐ¾Ð²ÐµÑĤÐ°": 7067, "Ġelect": 7068, "ÑĩÐµÐ½Ð½ÑĭÑħ": 7069, "ĠÐĲÐ¹": 7070, "ĠÑĤÐ°ÐºÐ¸Ð¼Ð¸": 7071, "ĠÑĨÐµÐ½Ð°": 7072, "ĠÐ»ÐµÐ¶Ð°": 7073, "Ð¾Ð¶Ð´Ðµ": 7074, "ĠÐ¢ÑĢÐ¸": 7075, "ĠÐĴÐ°ÑģÐ¸Ð»ÑĮ": 7076, "ĠÐ¾Ð´Ð¸Ð½Ð°": 7077, "resent": 7078, "ÐºÐ¾ÑģÑĤÐ¸": 7079, "ĠÐ¾ÑĤÐ½Ð¾ÑĪÐµÐ½Ð¸Ð¹": 7080, "ĠÑģÐ¸Ð»ÑĮÐ½ÐµÐµ": 7081, "Ġtra": 7082, "ĠÑĥÐ²ÐµÐ»Ð¸ÑĩÐ¸": 7083, "ĠÐ¼Ð¸ÑģÑĤÐµÑĢ": 7084, "ĠAn": 7085, "ÑĢÐ¾Ð²Ð¾Ð´": 7086, "ĠÐ²Ð¾ÑĢ": 7087, "Ð²Ð°Ð´": 7088, "ĠÐºÑģÑĤÐ°ÑĤÐ¸": 7089, "ĠÑĥÑĢÐ¾Ðº": 7090, "Ġbecame": 7091, "Ð¸Ð²Ð°Ð»Ð¸": 7092, "ĠÐµÐ¶": 7093, "ĠÐ±Ð°ÑĪ": 7094, "ĠÐ½Ð°Ð´ÐµÐ¶": 7095, "ÐºÐ»Ð¸": 7096, "ĠÐ²Ð¾Ð·Ð´ÑĥÑħÐ°": 7097, "Ġknown": 7098, "ĠÐ¿ÑĢÐ¸Ð½Ð¸Ð¼Ð°ÑĤÑĮ": 7099, "ĠÐĿÐ°ÐºÐ¾Ð½ÐµÑĨ": 7100, "ĠÐ¸ÑģÐºÑĢÐµÐ½": 7101, "ÑģÐ¸Ð»Ð°": 7102, "Ð½Ð¾Ð¶": 7103, "ĠÂ": 7104, "ĠÐºÐ¾Ð¶Ð¸": 7105, "ĠÐĿÐ°Ð¿Ð¾Ð¼Ð½Ð¸Ð¼": 7106, "ĠÐ²Ð¾Ð·Ð¼Ñĥ": 7107, "ĠÐ²Ð½ÐµÐ·Ð°Ð¿Ð½Ð¾": 7108, "ĠÐ²Ð¾ÑģÐµÐ¼ÑĮ": 7109, "ĠÐ´Ð¾ÐºÑĤÐ¾ÑĢ": 7110, "ĠÐ¾Ð¶Ð¸Ð´": 7111, "ĠÐ¿ÑĥÑģÑĤÑĭ": 7112, "ÑĤÐ½ÑĭÑħ": 7113, "ÑĤÐ²Ð¾": 7114, "ĠÐĿÑĥÐ¶": 7115, "Ġfam": 7116, "ĠÐ¾ÑģÐ¾Ð±Ð¾": 7117, "ĠÐ¶Ð¸Ð²ÐµÑĤ": 7118, "ĠUnited": 7119, "ĠÐĶÑį": 7120, "Ð²ÐµÑģ": 7121, "ÑįÐºÐ¾Ð½Ð¾Ð¼": 7122, "ĠÐ¢Ð¾Ð»": 7123, "Ð¸ÑĤÐµÐ»ÑĮÐ½Ð°Ñı": 7124, "ÑĩÐ¾Ðº": 7125, "ÑģÑĤÐ½ÑĭÑħ": 7126, "Ð¿Ð°Ð½": 7127, "ÐĵÐ°Ð·": 7128, "iew": 7129, "ĠÐ¼Ð¸Ð½ÑĥÑĤÑĭ": 7130, "ĠÐ°Ð²Ð°": 7131, "ĠÐĹÐ°ÑĩÐµÐ¼": 7132, "ÑīÐµÑģÑĤÐ²Ð¾": 7133, "ĠÐ¿Ð¾ÑıÐ²Ð¸Ð»Ð¸ÑģÑĮ": 7134, "ĠÑĢÐµÑģÐ¿ÑĥÐ±Ð»Ð¸": 7135, "ĠÑģÐ»Ð°Ð±": 7136, "ĠÐ·Ð²ÑĥÑĩ": 7137, "cc": 7138, "ĠÐ°Ð»ÐºÐ¾Ð³": 7139, "ĠÑĤÐ¾ÑĢÐ¾Ð¿": 7140, "ÂłÐł": 7141, "Ð¸ÑĤÐµÐ»ÑĮÐ½Ð¾ÑģÑĤÑĮ": 7142, "ĠÐ±ÑİÐ´Ð¶ÐµÑĤ": 7143, "Ð°Ð»ÐµÐµ": 7144, "ÑģÑĤÑĥÐ¿Ð¸Ð»Ð°": 7145, "ĠÐ¾ÑģÑĤÐ°Ð²Ð¸ÑĤÑĮ": 7146, "ĠÑĤÐµÑĤ": 7147, "ÐŁÐ¾Ð´": 7148, "ĠÐ³ÑĢÑıÐ·": 7149, "ĠÐ±ÑĥÐºÐ²Ð°Ð»ÑĮÐ½Ð¾": 7150, "ĠÐ·Ð°ÑģÑĤ": 7151, "ÐµÑĢÐµÐ¶": 7152, "ĠÐ²ÑĢÑĥ": 7153, "ĠÑĥÑģÑĤÐ°Ð½Ð°Ð²Ð»Ð¸": 7154, "ĠÐ¿Ð¾Ð»ÑĥÑĩÐ°ÐµÑĤÑģÑı": 7155, "ax": 7156, "Ð·Ð¾ÑĢ": 7157, "ÑĤÐµÐ¼": 7158, "ĠÐ¿Ð¾ÑģÐ¿Ðµ": 7159, "ĠUniversity": 7160, "ten": 7161, "ley": 7162, "ÑĢÐ°Ð²Ð¸ÑĤÑĮ": 7163, "Ġspec": 7164, "Ð°ÐºÐ¾Ð¼": 7165, "ĠÐ²ÑĭÑĢ": 7166, "ÑĦÐ¸ÐºÐ°ÑĨÐ¸Ð¸": 7167, "ĠÐ½Ð°ÑĪÐ¸Ð¼": 7168, "ron": 7169, "Ð¾Ð»Ñĥ": 7170, "ĠÐ¾ÑĤÑĩÐ°": 7171, "________": 7172, "ĠÐºÐ¾Ð¼Ð¿ÑĮÑİÑĤÐµÑĢ": 7173, "ĠÐ¿Ð¾Ð´Ð°Ð²": 7174, "ĠÐ¼Ð¾Ð¸Ð¼": 7175, "Ġinv": 7176, "ĠÐ·Ð°Ð³Ð°": 7177, "ĠÑĢÐµÐ»Ð¸Ð³Ð¸Ð¾Ð·": 7178, "ĠÑĢÐ¾ÑģÑģÐ¸Ð¹ÑģÐºÐ¾Ð³Ð¾": 7179, "ĠÑģÐ¾ÑħÑĢÐ°Ð½": 7180, "90": 7181, "ĠÑĢÐµÐ´ÐºÐ¾": 7182, "ĠÐ¿ÑĥÐ±Ð»Ð¸ÐºÐ°": 7183, "irect": 7184, "Ġdo": 7185, "ĠÐ¿ÑĢÐ¾Ð½Ð¸Ðº": 7186, "ĠÑħÐ¾ÑĤÐµÐ»Ð¸": 7187, "ĠÐ¡Ñĥ": 7188, "WS": 7189, "ĠÐ¿ÑĢÐµÐ´ÑģÑĤÐ°Ð²Ð¸ÑĤÐµÐ»Ð¸": 7190, "ĠÐŃÐ»": 7191, "ĠÐ²Ð¾ÑģÑĮ": 7192, "ĠÐºÐ¾Ð¼Ð°Ð½Ð´Ð°": 7193, "Ð»ÐµÐ½Ð½Ð¾Ð³Ð¾": 7194, "Ð°Ð½ÑĩÐ¸": 7195, "ĠÐ¶Ð°": 7196, "ĠÐ·Ð°Ð±Ð¾ÑĤ": 7197, "ĠÐ¡Ð²ÑıÑĤ": 7198, "ĠÑģÐ´ÐµÐ»Ð°Ð»Ð°": 7199, "ĠÐŁÐµÑĢÐ²ÑĭÐ¹": 7200, "Ġpop": 7201, "Ð°Ð»ÑĮÑĪÐµ": 7202, "ĠÐ¾Ð±ÑīÐµÐ³Ð¾": 7203, "ĠÐ´Ð°Ð½Ð½Ð¾Ð¼": 7204, "ĠXV": 7205, "ĠÐ¿ÑĭÑĤÐ°ÑıÑģÑĮ": 7206, "Ð¼ÐµÐ½Ð¸ÑĤÑĮ": 7207, "ĠÐ½ÐµÐº": 7208, "Ð´ÑĢÐ°Ð²ÑģÑĤÐ²Ñĥ": 7209, "ÑĹ": 7210, "ĠÐ±ÑĢÐ¸ÑĤÐ°Ð½": 7211, "ĠÑģÐ²Ð¾Ñĳ": 7212, "Ð»ÑĭÐ¼": 7213, "ĠÑģÐ¾Ð³Ð»Ð°ÑģÐ¸Ð»ÑģÑı": 7214, "ÂłÐĿÐ°": 7215, "ÑİÑīÐ¸Ð¹ÑģÑı": 7216, "Ð»Ð»Ñİ": 7217, "ĠÐ²Ð¾Ð·Ð´ÑĥÑĪ": 7218, "Ð¸ÑĤÐ¾Ð²": 7219, "ĠÑĤÑĢÐµÐ±ÑĥÐµÑĤ": 7220, "ĠÐ´Ð°ÑĢ": 7221, "ĠÐ¾Ð²": 7222, "ÑģÐ°Ð¼": 7223, "ÐµÐ´ÐµÐ»ÑĮ": 7224, "ĠÐ¾Ð±Ð¾ÑĢÐ¾Ð½Ñĭ": 7225, "ÂłÐĽ": 7226, "ĠÐ¼ÑĥÐ¶Ð°": 7227, "emb": 7228, "ÐºÐ°Ð»": 7229, "ĠÐ¿ÑĢÑıÐ¼": 7230, "ĠÑĩÐ¸ÑĤÐ°ÑĤ": 7231, "ÑĳÑħ": 7232, "ĠÐ³Ð¾ÑģÑĥÐ´Ð°ÑĢÑģÑĤÐ²ÐµÐ½Ð½Ð¾Ð¹": 7233, "ĠÑįÐºÐ¾Ð½Ð¾Ð¼Ð¸ÐºÐ¸": 7234, "ĠÐ¸Ð·Ð¾Ð±": 7235, "ĠÐ¾ÑĤÐ´Ð°Ð»": 7236, "Ð²Ð¾Ð¼": 7237, "ĠÑģÐ¿Ð°ÑĤÑĮ": 7238, "ĠÐ¿ÑĢÐ¸Ð½ÑıÑĤÐ¾": 7239, "ĠÐ¿Ð»Ð¾Ð´": 7240, "ĠÑįÐºÐ¸": 7241, "ĠÐ½ÐµÑĥÐ´Ð°": 7242, "ĠÑĢÐµÐ°Ð»Ð¸Ð·": 7243, "ÑīÐ¸Ð½Ñĭ": 7244, "Ð¼ÐµÐ½ÑĤÐ¾Ð²": 7245, "velop": 7246, "ĠÐ´Ð¾ÑģÑĤÐ¾Ð¸Ð½": 7247, "ĠÑĢÐ°Ð·Ð¾": 7248, "ĠÐĿÐµÑģÐ¼Ð¾ÑĤÑĢÑı": 7249, "ĠÐĹÐ°Ð¼": 7250, "ÑĩÑĥÐ²": 7251, "ĠÐºÐ°Ð¶Ð´Ð¾Ð¼": 7252, "ĠÐ´Ð°Ð½Ð½Ð¾Ð¹": 7253, "ĠÐĴÑģÑĳ": 7254, "ĠÐľÐµÐ¶Ð´ÑĥÐ½Ð°ÑĢÐ¾Ð´": 7255, "ĠÑģÐµÐ¹": 7256, "ĠÐ¾ÑĢÐ³Ð°Ð½Ð¸Ð·Ð°ÑĨÐ¸Ð¹": 7257, "ĠÑĩÐ°ÑģÑĭ": 7258, "ĠÐ²ÑĢÐ°Ñĩ": 7259, "ĠÐ²ÐµÑĢÐ¾ÑıÑĤÐ½Ð¾": 7260, "ĠÑĤÐ°Ð±": 7261, "ĠShe": 7262, "ĠÐľÐ¾Ð½": 7263, "ĠÑģÐµÐºÑĥÐ½Ð´": 7264, "ĠÐ³Ð»Ð°Ð²Ð½ÑĭÐ¼": 7265, "ĠÐ¿ÑĢÐ¾ÑĤÑıÐ¶ÐµÐ½Ð¸Ð¸": 7266, "ÑĪÐ°ÑİÑĤ": 7267, "Ġent": 7268, "ĠÑĢÑĥÑģÑģÐºÐ¸Ñħ": 7269, "ĠÐ´Ð¸Ð·Ð°Ð¹": 7270, "ÑģÑİ": 7271, "ĠÐ¼ÐµÑĢÑĭ": 7272, "ĠÑįÐ½ÐµÑĢÐ³Ð¸": 7273, "Ð¾Ð²ÐµÐ´": 7274, "ĠÑĢÐ°Ð·ÑĢÐ°Ð±Ð¾ÑĤÐ°": 7275, "ĠÐºÐ¾Ð»Ð»Ðµ": 7276, "ystem": 7277, "Ġdef": 7278, "ĠÐ¼ÑĥÐ·ÑĭÐº": 7279, "ĠÑģÐ»ÑĥÑĩÐ°Ð¹Ð½Ð¾": 7280, "ĠÐ»ÑİÐ±Ð¸ÑĤ": 7281, "ÑĢÐ¸Ð»Ð¸": 7282, "ĠÐ¾ÐºÐ½Ð¾": 7283, "ĠÑģÐ½Ð¸Ð¼Ð°": 7284, "ĠÐºÑĥÐ±": 7285, "ÑĮÐµÑĢÐ°": 7286, "ĠÐľÑį": 7287, "ĠÐ°ÑĥÐ´Ð¸": 7288, "ĠÐ·Ð½Ð°Ð½Ð¸Ñı": 7289, "ÐĲÐł": 7290, "ĠÐ½Ð°Ð·ÑĭÐ²Ð°ÐµÑĤÑģÑı": 7291, "ÑģÑĤÐ²ÐµÐ½Ð½Ð¾Ð¼": 7292, "Ð¾Ð»ÐµÐ·": 7293, "ĠÐ»ÐµÑĤÐ°": 7294, "ĠÐºÐ¾ÑĢÐ°Ð±Ð»Ñı": 7295, "ĠÑĥÐ¿ÑĢÐ°Ð²Ð»Ñı": 7296, "ĠÐ¾Ð±Ð¾ÑĢÑĥÐ´Ð¾Ð²Ð°Ð½Ð¸Ñı": 7297, "ÑĤÐ¸Ñħ": 7298, "ĠÑģÐºÐ°Ð·Ð°Ð»Ð¸": 7299, "ĠÐ¼Ð°ÑģÑĪÑĤÐ°": 7300, "ĠÐ²Ð¾Ð·Ð±ÑĥÐ¶Ð´": 7301, "ĠÐľÐ¸Ð½Ð¸ÑģÑĤÐµÑĢ": 7302, "ĠÐ´Ð¸Ð°Ð³": 7303, "ĠÐ¾ÑĤÐ±": 7304, "ĠÐ¿Ð¸Ð»": 7305, "ÐĲÑĢ": 7306, "ĠÐµÐ²ÑĢÐ¾": 7307, "Ġ()": 7308, "ÑģÑĤÐ°Ð¼": 7309, "ÑĤÐ½Ð¾Ð¹": 7310, "ÑĢÐ¸ÑģÑĤÐ¾Ð²": 7311, "ĠÐ¿ÑĢÐ¾ÑħÐ¾Ð´Ð¸ÑĤ": 7312, "Ġwell": 7313, "Ð²ÑĪÑĥÑİ": 7314, "ÐµÐ»ÑıÑħ": 7315, "ĠÐ²Ð½ÐµÑģ": 7316, "Ġcall": 7317, "ĠÐ½Ð°ÑĥÑĩÐ¸": 7318, "ĠÐ²ÑĭÐ¹": 7319, "usic": 7320, "ĠÐ±Ð¸Ð·Ð½ÐµÑģÐ°": 7321, "ĠÑģÑĤÑĢÐ°Ð½Ð½Ð¾": 7322, "ĠÐĿÐµÐ²": 7323, "ale": 7324, "ÑģÐµÐ³Ð´Ð°": 7325, "iver": 7326, "ÑĢÐµÐ²Ð½Ð¾Ð²Ð°": 7327, "ĠÐ¿Ð¾ÑĩÑĥÐ²ÑģÑĤÐ²Ð¾Ð²Ð°Ð»": 7328, "Ð¿ÐµÑĢÐ²ÑĭÑħ": 7329, "ĠÐłÐ°Ð·Ð²Ðµ": 7330, "ĠÐ¿ÑĮÑı": 7331, "ĠÐ¿ÑĢÐ¸Ð²Ð¾Ð´Ð¸ÑĤ": 7332, "its": 7333, "ĠÐ¸Ð¼Ð¿": 7334, "ĠÑģÐµÐ»Ð°": 7335, "ÑīÐ¸ÐºÐ°": 7336, "ĠÐ¸Ð½ÑĤÐµÑĢÐ²ÑĮÑİ": 7337, "ĠÑģÑĤÑĢÐ°Ð½Ð°Ñħ": 7338, "ĠÑģÐ»Ð¾Ð¶Ð½Ð¾": 7339, "ĠÐ´ÐµÐ¼Ð¾ÐºÑĢÐ°": 7340, "ĠÐºÐ¾ÑĢÐ¿Ð¾ÑĢÐ°": 7341, "ĠÑģÐ±Ð¾ÑĢÐ½Ð¾Ð¹": 7342, "ĠÐ¾Ð±ÑīÐµÐ¹": 7343, "ĠÑģÐ¾Ð»Ð½Ðµ": 7344, "ĠÑģÐ²Ð¾Ð´": 7345, "ĠÐºÐ¾Ð½ÑĤÑĢÐ¾Ð»Ð¸": 7346, "ĠÐ´Ð¸Ð²Ð¸": 7347, "ÑĤÑĢ": 7348, "ÐµÑħÐ°Ð»Ð°": 7349, "ve": 7350, "ĠÐ¿ÐµÑĢÐµÐ¿": 7351, "ĠÐ¼Ð°ÑĪÐ¸Ð½Ð°": 7352, "ĠÐ²Ð¾Ð·ÑĢÐ°ÑģÑĤÐµ": 7353, "ĠÐ¾ÑģÐ²Ð¾Ð±Ð¾Ð´": 7354, "Ð¾ÑĦÐ¸": 7355, "ĠÐ¿Ð¾Ð»ÑĥÑĩÐ¸Ð»Ð°": 7356, "Ð´Ð¾Ð½": 7357, "ĠÐ¿Ð¾Ð»ÑĥÑĩÐµÐ½Ð¸Ñı": 7358, "ĠÑįÐ¿Ð¾": 7359, "ĠÑģÑĤÐ¾Ð¹": 7360, "round": 7361, "ĠÐĲÐ»Ð¸": 7362, "Ð»ÑĭÐµ": 7363, "Ð¾ÑģÑħÐ¾Ð´": 7364, "ĠÑĥÑģÐ¿ÐµÑĪ": 7365, "ĠÐ¼Ð³Ð½Ð¾Ð²ÐµÐ½Ð¸Ðµ": 7366, "ÑģÑĤÑĥÐ¿Ð¸Ð»Ð¸": 7367, "ĠRe": 7368, "ĠÐ½ÐµÐ·Ð½Ð°ÐºÐ¾Ð¼": 7369, "oss": 7370, "ÑĢÑĥÐ±": 7371, "ÑīÐµÐ½Ñĭ": 7372, "ÐµÐ´Ð»Ð¸": 7373, "ĠÑĩÐµÑĢÑĤ": 7374, "ĠÐĺÑģ": 7375, "ÑĤÐ¸ÑĩÐµÑģÐºÐ¸Ð¹": 7376, "ĠÑĥÐ½Ð¸Ð²ÐµÑĢÑģÐ¸ÑĤÐµÑĤÐ°": 7377, "ĠÐ±ÑĥÑĤÑĭÐ»": 7378, "ÑĪÐºÐ¾Ð¹": 7379, "Ð²Ð¾Ð³Ð¾": 7380, "Ñ£": 7381, "ĠÑĥÐ²Ð¸Ð´ÐµÐ»Ð°": 7382, "ĠÑģÐ²ÑıÑīÐµÐ½": 7383, "ĠÐĴÐµÐ½": 7384, "ÑģÑĤÐ½Ð¾Ð³Ð¾": 7385, "ĠÑģÐºÐ»Ð¾Ð½": 7386, "ĠÑĪÐ»Ð°": 7387, "ĠÐ²Ð¾ÑģÐºÑĢÐµÑģ": 7388, "ĠÐ¼Ð°Ðº": 7389, "ĠÐºÐ¾ÑģÐ¼Ð¸": 7390, "ĠÐ¿ÑĢÐ¸Ð¾Ð±ÑĢÐµÑĤ": 7391, "ÑĤÐ½ÑĭÐµ": 7392, "ĠÑĢÐ°Ð±Ð¾ÑĤÐ°ÑİÑĤ": 7393, "ĠEng": 7394, "ĠÐ²Ð¾ÑģÑĤÐ¾": 7395, "ĠÑįÑĤÐ¸Ð¼Ð¸": 7396, "Ð¾Ð»ÐµÐ¿": 7397, "ĠÐ²Ð¾ÑģÑĤÐ¾ÑĢ": 7398, "ĠÐ¤Ð¸Ð»Ð¸": 7399, "ĠÐĴÐµÑĢÑħÐ¾Ð²": 7400, "Ġseason": 7401, "ĠÐ¸Ð½ÑģÑĤÐ¸ÑĤÑĥ": 7402, "ĠÐ¾ÐºÐµ": 7403, "ÑīÐµÐ¼Ñĥ": 7404, "ĠÐ¸Ð½ÑĤÐµÑĢÐµÑģÐ¾Ð²": 7405, "ĠÐ¾Ð´Ð½Ð°Ð¶Ð´Ñĭ": 7406, "ĠÐ²Ð¸Ð½Ð¾Ð²Ð°": 7407, "Ð»Ð¾Ð²Ð°": 7408, "ĠÐĴÑĤÐ¾ÑĢÐ¾Ð¹": 7409, "ĠÐ³Ð»Ð°Ð²Ðµ": 7410, "ike": 7411, "ĠÐĺÑĢÐ°": 7412, "ĠÑģÑĢÐ°Ð²Ð½ÐµÐ½Ð¸Ñİ": 7413, "Ð¿Ð°ÑĢÐ°ÑĤ": 7414, "ĠÐ½Ð°Ð¿ÑĢÐ¾ÑĤÐ¸Ð²": 7415, "ÐºÐ°ÐµÑĤ": 7416, "ĠÐ²Ð¾Ð¸Ð½": 7417, "%,": 7418, "ĠÐ±ÐµÐ³": 7419, "ÑĢÑĭÐ·": 7420, "Ð¿Ð°Ð½Ð¸Ð¸": 7421, "ĠÐ²ÑĤÐ¾ÑĢÐ¾Ð¼": 7422, "ĠÐ²Ð¾Ð¹Ð½Ðµ": 7423, "ÑĤÐºÐ¾Ð²": 7424, "ÐºÐ°ÑĤÑĮ": 7425, "ĠÐ¿Ð¾ÑģÐ»ÐµÐ´Ð½Ð¸Ñħ": 7426, "ĠÐºÐ°Ð»": 7427, "ĠÐºÐ²Ð°ÑĢÑĤÐ¸ÑĢÑĭ": 7428, "Ð°Ð»Ð¸Ð·Ð¸": 7429, "ĠÐºÐ¸ÑģÐ»": 7430, "ĠÐ¿Ð¾ÑĢÑıÐ´ÐºÐ°": 7431, "Ð½ÐµÑģÐ»Ð¸": 7432, "ĠÐ¿ÑĢÐ¾ÑĨÐµÑģÑģÐµ": 7433, "ÑĢÐ¾Ð²ÐºÐ°": 7434, "ĠÑĤÐµÑħÐ½Ð¾Ð»Ð¾Ð³Ð¸Ð¸": 7435, "ars": 7436, "ĠÑįÐ½": 7437, "ĠÑĤÐ¾Ð²Ð°ÑĢÐ¾Ð²": 7438, "bum": 7439, "ĠÑģÑĢÐ°Ð¶": 7440, "ĠÐ³Ð¾ÑģÑĥÐ´Ð°ÑĢÑģÑĤÐ²Ð¾": 7441, "Ð°Ð¹Ð»Ð¾Ð²": 7442, "ĠÐ¾ÑĤÐµ": 7443, "Ð½Ð¸Ð¼Ð°Ð»Ð¸": 7444, "ĠÐĳÐ»Ð°Ð³Ð¾Ð´Ð°ÑĢ": 7445, "ĠÑĢÐµÐ°Ð»Ð¸Ð·Ð°ÑĨÐ¸Ð¸": 7446, "Ð¾ÐºÐ¸": 7447, "ÐĿÑĥ": 7448, "ÂłÐĿÐ¾": 7449, "ÑĤÐ°Ð»ÑĮ": 7450, "ĠÐ²ÑĭÑĪÐ»Ð¸": 7451, "ĠÐ±ÑĢÐ¾ÑģÐ¸": 7452, "ĠÑģÐ¾ÑģÑĢÐµÐ´": 7453, "ÑģÑĤÑĢÐµÐ±": 7454, "ĠÐ²ÑĭÐ²": 7455, "ĠÑģÑĥÐ±ÑĬ": 7456, "ĠÐ¼Ð½Ð¾Ð³Ð¾Ðµ": 7457, "uro": 7458, "ĠÑģÑĨÐµÐ½Ð°": 7459, "Ð¾Ð¹Ð´": 7460, "ĠÐ¼ÐµÑĢÐ¾Ð¿ÑĢÐ¸ÑıÑĤÐ¸Ñı": 7461, "ĠÐ¿ÐµÑĢÐµÐ²Ð¾Ð·": 7462, "ai": 7463, "ert": 7464, "Ġed": 7465, "ĠÑĤÑĥÐ¼": 7466, "ĠÐ²ÑĬ": 7467, "Ð»ÑĮÐ½Ð¾Ð¹": 7468, "ĠÐ½Ð°Ð¿ÑĢÐ°Ð²Ð»ÐµÐ½Ð¸Ñı": 7469, "Ð¸Ð³ÑĢÑĭ": 7470, "Ð»Ð°Ñı": 7471, "ĠNEWS": 7472, "ÑĥÑı": 7473, "Ð±ÑĥÑĢÐ³": 7474, "ĠÐ²ÐµÑĢÑģÐ¸Ð¸": 7475, "ĠÐ¾Ð±ÐµÐ·": 7476, "ĠÐ¾ÑħÐ²Ð°": 7477, "Ð½Ð¸ÐºÐ°Ñħ": 7478, "ĠÐ¿Ð¾Ð´Ð½ÑıÐ»ÑģÑı": 7479, "ĠÐ¿Ð¾ÑģÐ¼Ð¾ÑĤÑĢÐµÐ»Ð°": 7480, "ĠÐºÐ¾Ð»Ð¾Ð½": 7481, "ĠÐ¾Ð±ÑģÑĤÐ¾ÑıÑĤÐµÐ»ÑĮÑģÑĤÐ²Ð°": 7482, "Ð½ÐµÐ¹ÑĪÐ¸Ñħ": 7483, "ÐĺÐĿ": 7484, "ĠÐŃÐ¹": 7485, "ĠÐĺÑĤÐ°Ð»Ð¸": 7486, "ĠÑħÑĥÐ´Ð¾Ð¶Ðµ": 7487, "ĠÑģÑĤÐ°Ðº": 7488, "Ð¾ÑĩÐºÐ°": 7489, "ĠÐ¾ÑģÑĤÐ°Ð½Ð¾Ð²Ð¸Ð»ÑģÑı": 7490, "ĠÐ½Ð°Ð±Ð»ÑİÐ´Ð°": 7491, "ÐºÐ¾Ð²ÑĭÑħ": 7492, "ĠÑģÐ°Ð»": 7493, "ÐĴÐ¾ÑĤ": 7494, "very": 7495, "ĠÑĢÐ°Ð·Ð´ÑĢÐ°Ð¶": 7496, "ern": 7497, "ÐĴÐŀ": 7498, "ĠÐ²ÑĭÐ¸Ð³ÑĢÐ°": 7499, "ĠÐŀÐ½Ð¾": 7500, "ĠÑģÐ¾Ð¼Ð½Ðµ": 7501, "ĠÑĤÑĢÐ°Ðº": 7502, "iam": 7503, "ĠÑĤÑĢÐµÑĤÐ¸Ð¹": 7504, "Ð³Ð¾Ð»": 7505, "ĠNEWSru": 7506, "Ð¸Ð»Ðµ": 7507, "Ġbeing": 7508, "Ð»Ð°ÑģÑģ": 7509, "ĠÐ²Ð·Ð´Ð¾ÑħÐ½ÑĥÐ»": 7510, "Ð¾Ð±Ð»Ð°": 7511, "ĠÑģÑĥÐ¼Ð¼Ñĥ": 7512, "Ð»Ð¸Ð¸": 7513, "ĠÐ²ÐµÑĢÐ¾ÑıÑĤ": 7514, "ÐºÐ»": 7515, ".]": 7516, "ĠÐºÐ¾Ð½ÑģÑĥÐ»ÑĮÑĤÐ°": 7517, "ĠÑĪÐµÑģÑĤÐ¸": 7518, "ĠÐ¿Ð¾Ð²ÑĢÐµÐ¶Ð´": 7519, "Ġ2004": 7520, "ÐµÑĢÐµÐ²": 7521, "ĠÐľÐ¾ÑģÐºÐ²Ñĥ": 7522, "ÑĤÐ°Ð¶": 7523, "ÑĩÐ¸Ð»ÑģÑı": 7524, "ÑĩÐ¸ÑĤÐ°": 7525, "ober": 7526, "Ð¼Ð°Ð·": 7527, "ĠÐ±ÑĢÐ¸Ð³Ð°": 7528, "ÑĤÑĥÑİ": 7529, "ÐļÐ¾Ð¼": 7530, "ĠÐ¿Ð¾Ð½Ð°Ð´Ð¾Ð±": 7531, "ÂłÐ¿": 7532, "ĠÑıÑģ": 7533, "ĠÐ¿Ð¾Ð»ÑĮ": 7534, "Ġtrans": 7535, "33": 7536, "ĠÐĳÑĭÐ»Ð¾": 7537, "III": 7538, "Ð°Ð½Ð½ÑĥÑİ": 7539, "ĠÐ¿ÑĢÐ¾ÑĨÐµÐ½ÑĤÐ¾Ð²": 7540, "ĠÐ¸ÑģÐºÑĥÑģÑģÑĤÐ²Ð°": 7541, "ĠÐ½ÐµÑĢÐ²": 7542, "ÑĢÐ¾Ð½Ð¸": 7543, "ĠÐ¾Ð±Ð¼ÐµÐ½": 7544, "ĠÑģÐ¼ÐµÑĪ": 7545, "ĠÐ²Ð¾Ð¿ÑĢÐ¾ÑģÐ°Ð¼": 7546, "ĠÐ°Ð²ÑĤ": 7547, "ĠÐ½ÐµÐ´Ð²Ð¸Ð¶": 7548, "ĠÐ¾ÑĤÐºÑĢÐ¾Ð²": 7549, "ĠÐĺÐ³Ð¾ÑĢÑĮ": 7550, "ĠÑĥÐ»ÑĭÐ±Ð½ÑĥÐ»Ð°ÑģÑĮ": 7551, "ĠÑĪÐºÐ°": 7552, "ĠÐ¿ÑĢÐ¾Ð³Ñĥ": 7553, "ĠÐºÐ¾ÑĢÐ°Ð±Ð»ÑĮ": 7554, "ĠÐ¿ÑĢÐ¸Ð¼ÐµÑĢÑĥ": 7555, "ĠÐ°ÐºÑĤÐ¸Ð²Ð½Ð¾": 7556, "ĠÑģÐ°Ð¼Ð¾ÑģÑĤÐ¾ÑıÑĤÐµÐ»ÑĮÐ½Ð¾": 7557, "Ð¾Ð·Ñĭ": 7558, "ĠÐ²Ð¾ÑģÐ¿Ð¸ÑĤÐ°": 7559, "Ð³Ð´Ðµ": 7560, "ĠÑĩÐµÐ¼Ð¿Ð¸Ð¾Ð½Ð°ÑĤÐ°": 7561, "ĠÑĪÐ¸ÑĢÐ¾ÐºÐ¾": 7562, "ĠÐ±ÑĢÐ¾ÑģÐ¸Ð»": 7563, "ĠÐ¿Ð»Ñı": 7564, "ĠÐľÑĥÐ¶": 7565, "ĠÐ¼Ð°ÑģÑģÐ°": 7566, "ield": 7567, "ĠÐ½ÐµÐ²ÐµÑĢÐ¾": 7568, "ĠÐ²Ð·ÑĢÑĭÐ²": 7569, "ĠÐ²Ð¾Ð·Ð´ÑĥÑħÐµ": 7570, "ĠÐ½ÐµÐ´Ð¾Ð²Ð¾Ð»ÑĮ": 7571, "ĠÐ²ÑĭÐ¿ÑĥÑģÐº": 7572, "ĠÑģÑĤÑĢÐ¾Ð¹": 7573, "ĠÐ·Ð´Ð¾ÑĢÐ¾Ð²ÑĮÑı": 7574, "Ð¾Ð»Ð°Ð³Ð°": 7575, "Ð¾Ð²ÑĥÑİ": 7576, "imes": 7577, "ĠWorld": 7578, "ĠÑģÑĤÐµÐ½Ðµ": 7579, "Ð²ÑĭÑĩÐ°Ð¹": 7580, "ĠÐºÐ°ÑĩÐµÑģÑĤÐ²Ð¾": 7581, "Ð¾Ð·ÑıÐ¹": 7582, "ĠÑĢÐ¾ÑģÑģÐ¸Ð¹ÑģÐºÐ¾Ð¹": 7583, "Ġset": 7584, "ÑģÑıÑĤÑģÑı": 7585, "ĠÐºÐ»ÑĥÐ±Ð°": 7586, "ĠÐ´Ð¾Ð³Ð°Ð´": 7587, "Ð¾ÑĨÐ¸Ð°": 7588, "ĠÐ¦ÐµÐ½ÑĤÑĢÐ°Ð»ÑĮ": 7589, "ĠÑĢÐµÐ³ÑĥÐ»Ð¸": 7590, "ox": 7591, "Ð»ÑĥÑĩ": 7592, "Ġ300": 7593, "ĠÐĽÑİÐ´Ð¸": 7594, "ĠÐ²Ð¸Ð´Ð¾Ð¼": 7595, "ĠÐĺÐ·ÑĢÐ°": 7596, "ĠÐķÐ¡": 7597, "ĠÐºÐ¾ÑĢÐ¸Ð´Ð¾": 7598, "ĠÐĺÑĢ": 7599, "ĠÐ¿ÑĢÐµÐ´Ð°": 7600, "ĠÐ·Ð°ÑĢÐ°Ð±Ð¾ÑĤ": 7601, "ĠÐ¸Ð´Ð¸": 7602, "ĠÐĳÐ¾": 7603, "other": 7604, "ĠÑĥÐ¼Ð¸ÑĢÐ°": 7605, "ĠÐ¿ÑĢÐµÐ±": 7606, "ĠÑĥÐ´Ð¾": 7607, "Ð¿Ð¸Ð¹": 7608, "ĠÐ¿ÑĢÐ¾Ð²ÐµÐ»": 7609, "ĠÐ±ÑĢÐ¾Ð½": 7610, "Ġmon": 7611, "ĠÑģÐ»ÑĥÑĪ": 7612, "ĠÐ³Ð¾ÑģÐ¿Ð¾Ð´Ð¸Ð½": 7613, "ĠÐ¾Ð¶Ð¸Ð´Ð°": 7614, "ÑĦÐ¾Ð²": 7615, "ĠÐ½ÐµÐ¾Ð´": 7616, "ism": 7617, "ÑģÑĤÐ°Ð»Ð¸": 7618, "ĠÑĩÐ¸ÑģÐ»Ð°": 7619, "ĠÐ¿ÑĢÐµÐ´ÑģÑĤÐ°Ð²Ð¸ÑĤÐµÐ»ÐµÐ¹": 7620, "ÑģÑĭÐ¿": 7621, "ĠÐ¾Ð´Ð¾Ð±": 7622, "ĠÐ½Ð°ÑģÑĤÐ¾ÑıÑīÐ¸Ð¹": 7623, "ĠÐ¿ÑĢÐ¾Ð²Ð¸Ð½": 7624, "ĠÐ¿Ð¾Ð¿Ð¾Ð»": 7625, "ĠÑĥÐ»Ð¸ÑĨÑĭ": 7626, "Ð¶Ð¸ÑģÑģ": 7627, "ĠÐºÐ»Ðµ": 7628, "Ð²ÐµÑĤÐ°": 7629, "ÑĢÐ¾ÑģÑĤÑĮ": 7630, "ĠÑĥÐ¹ÑĤÐ¸": 7631, "ĠÑĤÐ¾Ñĩ": 7632, "ĠÑĢÐ°Ð·Ñĥ": 7633, "ĠÐ½ÐµÐ¿ÑĢÐ¾": 7634, "ĠÐĽÑİÐ±": 7635, "ĠÑģÐ½Ð¸Ð·": 7636, "eries": 7637, "ĠÐ¿ÑĢÐµÐ¼ÑĮÐµÑĢ": 7638, "ĠÑĩÑĥÐ²ÑģÑĤÐ²Ð¾Ð²Ð°Ð»": 7639, "Ġ45": 7640, "ÐľÐŀ": 7641, "ĠÐ²Ð¿ÐµÑĩÐ°ÑĤÐ»ÐµÐ½Ð¸Ðµ": 7642, "ĠÑģÐ¾ÑĩÐµÑĤÐ°": 7643, "ĠÑħÐ¸ÑĤ": 7644, "ĠÑĥÐ¿Ð¾Ð¼": 7645, "ĠÐ³Ð¾ÑģÑĤÐµÐ¹": 7646, "ÑĤÐ¸Ð»Ð»Ðµ": 7647, "ĠÐ½ÐµÑģÑĩÐ°ÑģÑĤ": 7648, "ĠÑĢÐ°Ð·Ð±Ð¸ÑĢÐ°": 7649, "ĠÐ¿ÑĢÐ¸Ð½ÑıÐ»Ð¸": 7650, "ĠÐ¡Ð¸Ð¼": 7651, "Ġmany": 7652, "ĠÑħÐ¾ÑĢÐ¾ÑĪÐ¸Ð¹": 7653, "ĠÑģÐ»Ð°Ð±Ð¾": 7654, "ĠÐ½ÐµÑĥÐ´": 7655, "Ð¸ÐµÐ²": 7656, "Ġbl": 7657, "ĠÐ±Ð¾Ð»ÑĮÑĪÐ¸Ñħ": 7658, "ĠÐŁÐ¾Ð»ÑĮ": 7659, "owever": 7660, "ĠÐ¿ÑĢÐµÐ¾Ð´": 7661, "ÑĥÐ¹": 7662, "ĠÐºÐ»Ð°ÑģÑģÐ°": 7663, "ĠÐ°Ð½Ð°Ð»Ð¾Ð³Ð¸": 7664, "ĠÐ·ÐµÐ»": 7665, "Ġrecord": 7666, "ÑĢÐ¾Ð²Ð°Ð½Ð¾": 7667, "ĠÐ»ÐµÐ³ÐµÐ½": 7668, "ĠÐķÐ´Ð¸Ð½": 7669, "ĠÐ¿Ð¾ÑģÑĢÐµÐ´": 7670, "Ð½ÐµÑĢÐ°": 7671, "ise": 7672, "Ð¾Ñİ": 7673, "ĠÐ¿ÑĢÐ¾Ð»": 7674, "02": 7675, "ĠÐ¢ÐµÑĢ": 7676, "ĠÐ¿Ð¾ÑĤÑı": 7677, "Ð¸Ð²ÑĪÐ¸ÑģÑĮ": 7678, "Ð°Ð»Ð¸Ð·Ð°": 7679, "ĠÐ±ÑĢÐ°ÑĤÐ°": 7680, "ÑĢÐ¾ÑĩÐ½Ð¾": 7681, "ĠÑĪÑĤÑĢÐ°": 7682, "ĠÐ´ÑĥÑĪÑĥ": 7683, "ĠÐ²Ð·Ð°Ð¸Ð¼Ð¾Ð´ÐµÐ¹ÑģÑĤÐ²": 7684, "ĠÐ¾ÑĤÑĢÐ°": 7685, "ĠÐ¿Ð¾Ð»Ð¾Ñģ": 7686, "ĠFran": 7687, "ĠÐ¯Ð¿Ð¾": 7688, "Ġfour": 7689, "ÑĩÐ¸Ð¸": 7690, "Ġem": 7691, "ĠÑĢÐ°Ð·ÑĬ": 7692, "ĠÑĦÐ¾ÑĤÐ¾Ð³ÑĢÐ°ÑĦ": 7693, "ĠÐ²ÑĭÐ±ÑĢÐ°ÑĤÑĮ": 7694, "ĠÐ¿Ð¸ÑģÐ°ÑĤÑĮ": 7695, "ĠÑħÐ²Ð°ÑĤÐ°ÐµÑĤ": 7696, "ined": 7697, "Ð³Ð½ÑĥÐ»": 7698, "ĠÐĿÐµÐºÐ¾ÑĤÐ¾ÑĢÑĭÐµ": 7699, "ĠÐĲÐ½Ð³Ð»Ð¸": 7700, "ÑĪÐº": 7701, "ÑĤÐ¸ÐµÐ¼": 7702, "37": 7703, "ĠÐŁÐ¾Ð±": 7704, "ĠÑģÑĤÐ°ÑĤÑĮÐµ": 7705, "Ð¸Ð½ÑĥÐ»": 7706, "ÑĳÐ½Ð½ÑĭÑħ": 7707, "ople": 7708, "ĠÑģÐºÐ°Ð½": 7709, "Ð¾ÑĩÐ¸Ð»": 7710, "ĠÐºÐ°ÑĢÐ¼Ð°Ð½": 7711, "ÑģÐ¿Ð¾ÑĢÑĤ": 7712, "ĠÐ·Ð½Ð°ÑĩÐµÐ½Ð¸Ñı": 7713, "ĠÐ»Ð¸Ð½": 7714, "ÑĨÐ¸ÑıÐ¼": 7715, "Ð°Ð³Ð°Ð½": 7716, "ĠÐ¼ÑĥÑĩ": 7717, "ĠÐ¾ÑĤÑĢÑı": 7718, "ÑģÑĤÑĢÐ¾Ð²": 7719, "ĠÐŁÐ¾Ðº": 7720, "ĠÐ»Ð°Ð¼": 7721, "ĠÐ¼ÐµÑĤÐ°Ð»Ð»Ð¸": 7722, "ÑıÑİÑĤÑģÑı": 7723, "Ð»ÐµÑĤÐ°": 7724, "ĠÑģÐ¾Ð±ÐµÑģÐµÐ´": 7725, "Ð¸Ð²Ð°ÑĤÑĮ": 7726, "ĠÐļÐ¸ÐµÐ²": 7727, "enn": 7728, "ÑĢÐµÑģÐ¿": 7729, "ĠÐ½Ð°Ð½ÐµÑģ": 7730, "Ð¾Ð²ÐµÑĤ": 7731, "ĠÐ¿ÐµÑĢÐ²Ð°Ñı": 7732, "ÑĢÐ¾Ð²Ð°Ð½Ð½Ð¾Ð¹": 7733, "ÑĪÐ¸ÑħÑģÑı": 7734, "ĠÐ·Ð°ÑĢÐ°Ð½ÐµÐµ": 7735, "ĠÐ²Ð¿ÐµÑĢÐµÐ´Ð¸": 7736, "ĠÑģÐ¼Ð¾Ð³Ð»Ð¸": 7737, "ĠÐ´ÑĥÐ¼Ð°Ð»Ð°": 7738, "ĠÑģÐ¾Ð¿ÐµÑĢ": 7739, "ÑĢÐ¾Ð³ÑĢÐ°Ð¼": 7740, "ĠÐ²ÐµÐ½": 7741, "Ð¾ÑħÑĢÐ°": 7742, "ĠÐĶÐµÐ»Ð¾": 7743, "ĠÐ±ÐµÑģÐ¿Ð»Ð°ÑĤ": 7744, "Ð»ÐµÑĤÐ½Ð¸Ð¹": 7745, "ĠÐ¼Ð°Ð»ÐµÐ½ÑĮÐºÐ¸Ð¹": 7746, "ĠÐ·Ð°Ð¿Ð°Ñħ": 7747, "ĠÑģÑĤÑĢÐ°ÑĪÐ½Ð¾": 7748, "ĠÐĺÐ½ÑĤÐµÑĢÐµ": 7749, "ĠÐ¿Ð¾Ð½Ð¸Ð¼Ð°Ð»": 7750, "34": 7751, "ional": 7752, "ĠÐŁÐµÑĤÑĢ": 7753, "ĠÐ¾ÑģÑĤÑĢÐ¾Ð²Ð°": 7754, "ĠÑģÑģÑĭÐ»ÐºÐ¾Ð¹": 7755, "ĠÑģÐµÑĢÐ¸Ð¸": 7756, "ĠÐ¿Ð¾Ð¿Ð°Ð»": 7757, "ĠÐĴÑģÐµÐ³Ð¾": 7758, "ĠÑģÑĤÑĢÐ°Ð½Ð¸ÑĨÐµ": 7759, "ĠÐ´Ð½ÐµÐ¼": 7760, "ĠÑĢÐ¾Ð´Ð¸ÑĤÐµÐ»Ð¸": 7761, "ĠÐ¾ÑĤÑĤÑĥÐ´Ð°": 7762, "ĠÐ´Ð¾ÑĢÐ¾Ð³Ð°": 7763, "ĠÐ³ÑĢÑĥÐ´ÑĮ": 7764, "ures": 7765, "ĠÐ³Ð»ÑĥÐ±Ð¾ÐºÐ¾": 7766, "ĠÐ´ÐµÐ´": 7767, "ÑĤÐµÐ»ÑıÐ¼": 7768, "Ð½Ð°Ð½": 7769, "ĠÐ¸Ð»Ð»Ñİ": 7770, "ÑĤÐµÐ»ÑıÐ¼Ð¸": 7771, "ĠÐ°Ð´Ð²": 7772, "ĠÐ²ÑĭÑģÐ¾ÐºÐ¾Ð¹": 7773, "Ð¾Ð´Ðµ": 7774, "ĠÐ¿Ð¾Ð¼ÐµÑīÐµÐ½Ð¸Ñı": 7775, "Ð²Ð¸Ð¸": 7776, "ĠÑĥÑĪÐµÐ»": 7777, "ÑģÑĤÑĮÑıÐ½": 7778, "ÑģÐ¸Ð½": 7779, "ĠÐĴÐ¾ÑĢÐ¾": 7780, "ĠÐ¿Ð¾Ð²Ðµ": 7781, "ĠÑģÐ´": 7782, "ua": 7783, "Ð´Ð¾Ð¹": 7784, "ĠÐºÐ¾Ð¼Ð¼ÐµÑĢ": 7785, "ĠÐ¿ÐµÑĢÐµÐ³": 7786, "ÑĢÐ°Ð²Ð¸ÑĤÑĮÑģÑı": 7787, "ĠÐ½Ð°Ð·ÑĭÐ²Ð°ÑİÑĤ": 7788, "ĠXI": 7789, "ÑĥÐµÐ¼": 7790, "ÑĪÐ°Ð»": 7791, "ĠÐ¿Ð¸ÑģÑĮÐ¼Ð°": 7792, "ĠÐĺÐ½Ð¾Ð³Ð´Ð°": 7793, "ĠÑģÐ¾Ð·Ð´Ð°Ð½Ð¸Ðµ": 7794, "ÑĢÐ°Ð½ÐµÐ½Ð¸Ñı": 7795, "ĠÐ¸Ð½Ð¾ÑģÑĤÑĢÐ°Ð½Ð½ÑĭÑħ": 7796, "ĠÑĢÑĥÐ±Ð°": 7797, "ÐŀÐ´": 7798, "ĠÑĥÑģÑĤÐ°Ð²": 7799, "ĠÐ·ÐµÐ¼ÐµÐ»ÑĮ": 7800, "ĠÐ¿ÑĢÐ¾ÑĪÐ»Ð°": 7801, "ĠÑĤÑĢÐ°Ð½Ñģ": 7802, "ÑĭÐ²Ð°Ñİ": 7803, "ĠAd": 7804, "Ð¸ÐºÐµ": 7805, "erman": 7806, "ĠÐ·Ð²ÐµÑĢ": 7807, "ĠÑĥÐ±Ð¸ÑĤ": 7808, "ÑĦÐµÐ¹": 7809, "ĠÐŀÐ±ÑĬ": 7810, "ĠÐ±Ð¾ÑĢÑĮÐ±Ñĭ": 7811, "ĠÐ²Ð¾Ð¹Ð½Ñĥ": 7812, "ĠÐ¸ÑĤÐ°Ð»ÑĮÑıÐ½": 7813, "ĠÐ¾ÑĤÑģÑĥÑĤÑģÑĤÐ²Ð¸Ðµ": 7814, "ĠÐ½Ð°ÑģÐ»Ð°": 7815, "ĠÐ¿Ð°ÑĤÑĢÐ¸": 7816, "):": 7817, "ĠÐ½Ð°Ð·Ð²Ð°ÑĤÑĮ": 7818, "ÑĢÐ¾Ð²ÐµÑĢ": 7819, "ĠÐ¿Ð¾Ð»ÑĥÑĩÐ¸Ð»Ð¾ÑģÑĮ": 7820, "Ð¼Ð°ÑĤ": 7821, "Ð¾ÑģÑģÐ¸Ð¹": 7822, "ĠÐ±ÑĥÐ´ÑĥÑīÐµÐ¼": 7823, "ĠÐĿÐ°ÑĨÐ¸Ð¾Ð½": 7824, "ĠAmerican": 7825, "ĠÐ²ÐµÑĢÐ½Ð¾": 7826, "ĠÐ±ÐµÑĢÐµÐ³": 7827, "sp": 7828, "ĠÑĢÐ°ÑģÑĤÐµÑĢ": 7829, "ball": 7830, "Ð»ÑıÐ»ÑģÑı": 7831, "ĠÐ¾ÑĤÐ½Ð¾ÑģÐ¸ÑĤÑģÑı": 7832, "ĠÑĤÐ¾Ð½Ð½": 7833, "ĠÑģÐ¸Ð³Ð½Ð°Ð»": 7834, "ĠÐ¾ÐºÐ¾Ð½ÑĩÐ°ÑĤÐµÐ»ÑĮÐ½Ð¾": 7835, "ĠÐ·Ð½Ð°ÐµÐ¼": 7836, "ÑĩÐ¾Ð½": 7837, "ĠÐłÐ¸Ð¼": 7838, "Ð±Ð»": 7839, "Ð¶ÐºÐ¸": 7840, "ĠOn": 7841, "ĠÐ¾ÑģÑĤÐ°Ð»ÑĮÐ½ÑĭÑħ": 7842, "ĠÑĩÑĥÐ²ÑģÑĤÐ²Ñĥ": 7843, "Ð½ÐµÑĤÐµ": 7844, "ĠÐ¿Ð¾ÑģÑĤÑĥÐ¿Ð°": 7845, "ĠÐ¿Ð¾ÐºÐ°Ð·Ð°Ð»": 7846, "Ġ2017": 7847, "ĠÐ½Ð°Ð·Ð²Ð°Ð½Ð¸ÐµÐ¼": 7848, "ĠÐ´ÑĭÐ¼": 7849, "ĠÐºÐ²Ð°Ð»Ð¸": 7850, "ÑĤÐ¸Ð½Ð³": 7851, "ĠÐ¿Ð¾Ð±Ñĭ": 7852, "ĠÐ²Ð¸Ñģ": 7853, "Ġmod": 7854, "ÑģÑĤÑĭÐµ": 7855, "ĠÑģÐ°Ð½": 7856, "ĠÐ¨Ð¸": 7857, "ĠÐĿÐ¸ÐºÑĤÐ¾": 7858, "ĠÐ¾Ð±ÑĬÑıÑģÐ½Ð¸ÑĤÑĮ": 7859, "ĠÐ²Ð¾ÑģÐ¿Ð¸ÑĤ": 7860, "ÑħÐ½ÑĥÐ»": 7861, "ÑĮÐµÑĤ": 7862, "ĠÐ´Ð°Ð»Ð¸": 7863, "Ð½Ð¾Ñİ": 7864, "ĠÐ¸Ð´ÐµÑı": 7865, "ĠÑģÐ¾ÑĢÐµÐ²Ð½Ð¾Ð²Ð°": 7866, "Ġph": 7867, "ĠÐ¾Ð±ÑĬÐµÐºÑĤÐ¾Ð²": 7868, "ĠÐ¿ÑĢÐ¸Ð²ÐµÑģÑĤÐ¸": 7869, "ÑĤÐµÐ»ÑĮÐ½Ð°Ñı": 7870, "Ð¾Ð²Ðµ": 7871, "ĠÑģÐºÐ¾ÑĢÐ¾ÑģÑĤÑĮ": 7872, "ĠÐ±ÑĢÑİ": 7873, "ĠÑĨÐ¸Ð²Ð¸Ð»Ð¸": 7874, "ĠÐļÐŁ": 7875, "Ð²Ð¸ÑĩÐ°": 7876, "ÑĤÐ¾ÑĢÑĭÑħ": 7877, "ĠÐ»ÑĥÑĩÑĪÐ¸Ñħ": 7878, "ĠÐķÐ¹": 7879, "Ð²Ð¸ÑĤÑĮÑģÑı": 7880, "ĠÐ²Ð¾Ð·ÑĮ": 7881, "ĠÐ³Ð¾ÑģÐ¿": 7882, "ĠÐ¡ÐºÐ¾Ð»ÑĮÐºÐ¾": 7883, "ĠÐ½Ð°ÑĥÐº": 7884, "ĠÑĢÐ°Ð½Ð¾": 7885, "ĠÐŁÑĢÐ¾Ð´": 7886, "ĠÐ¿ÑĢÐ¾ÑĪÐµÐ¿": 7887, "Ġincluding": 7888, "ĠÐ²Ð¾ÑĢÐ¾ÑĤ": 7889, "ĠÐ¿Ð¸ÑĤÑĮ": 7890, "ĠÐĵÑĢÐ°": 7891, "Ð»ÑıÑı": 7892, "ĠÑĨÐµÐ»ÑĭÐ¹": 7893, "Ð²ÑĪÐµÐ³Ð¾ÑģÑı": 7894, "Ð²Ð°Ð¼Ð¸": 7895, "ĠÐ¿ÐµÑĢÐµÐº": 7896, "ĠÐ¸ÑģÑĤÐ¾ÑĩÐ½Ð¸Ðº": 7897, "ĠÑĢÐ°Ð±Ð¾ÑĩÐ¸Ñħ": 7898, "Ð·Ð°Ð¼Ð¸": 7899, "Ð¸ÑģÐ°": 7900, "ĠÐ»ÐµÑĩÐµÐ½Ð¸Ñı": 7901, "ĠÑģÑĤÐµÐ½Ð°": 7902, "ĠÐ¿Ð»ÐµÑĩÐ¸": 7903, "ĠÐ³Ð¾ÑģÑĥÐ´Ð°ÑĢÑģÑĤÐ²ÐµÐ½Ð½Ð¾Ð³Ð¾": 7904, "ĠÐĴÐ»Ð°": 7905, "ĠÐ³Ð¾ÑĢÐµ": 7906, "ĠÐŁÐ°ÑĤ": 7907, "ĠÐ½ÐµÑĩÐµÐ³Ð¾": 7908, "ĠÐ¡Ð½Ð°ÑĩÐ°Ð»Ð°": 7909, "ĠÐ¸Ð½ÑģÑĤÑĢÑĥÐº": 7910, "Ġi": 7911, "ĠÐĶÐ¾Ð½ÐµÑĨ": 7912, "ĠÐĴÐ°ÑģÐ¸Ð»Ð¸": 7913, "ĠÐĴÑģÐµÐ¼": 7914, "ĠÑĥÑģÐ»ÑĭÑĪÐ°Ð»": 7915, "ĠÑĥÑī": 7916, "ĠÑįÐºÐ¸Ð¿Ð°": 7917, "ĠÐ²Ð´Ð¾Ñħ": 7918, "ĠÐºÐ¾Ð»Ð¸ÑĩÐµÑģÑĤÐ²Ð°": 7919, "ĠÐºÐ¾Ð¼Ð¸ÑĤÐµÑĤÐ°": 7920, "Ð¾Ð»Ð¾Ð³Ð¸Ð¹": 7921, "elf": 7922, "ÐµÑĢÐ°Ð¼Ð¸": 7923, "ĠÐ¿Ð¾Ð´ÐºÐ»Ñİ": 7924, "ĠÑģÐ¾ÑģÑĤÐ¾ÑıÐ½Ð¸Ñı": 7925, "ĠÐ¿Ð¾ÑĢÐ°Ð·": 7926, "Ð²ÑĪÐµÐµ": 7927, "ĠÑģÐ¿Ð¾ÑĢÑĤÐ°": 7928, "ÑİÐº": 7929, "ĠDe": 7930, "ĠPl": 7931, "ĠÐ³ÑĢÑĥÐ·Ð¾Ð²": 7932, "ĠÐ¿ÑĢÐµÐ´ÑģÑĤÐ¾Ñı": 7933, "ĠÐ¾ÑģÐ½Ð¾Ð²Ð½ÑĭÑħ": 7934, "ÐµÐ·Ð´Ñĭ": 7935, "ĠÑģÐ¼Ð¾Ð¶ÐµÑĤÐµ": 7936, "ĠÐ¡Ð¿Ðµ": 7937, "ĠÐ¿ÑĢÐ¾Ð³ÑĢÐ°Ð¼Ð¼Ð°": 7938, "ĠÐ¡Ð¸Ð½": 7939, "ĠÑĤÐ¸Ð¿": 7940, "ĠÑĪÐ°Ñħ": 7941, "ÐµÐºÐ¾Ð¼": 7942, "ays": 7943, "ÑįÑĤÐ¾": 7944, "ĠÑĢÐ°ÑģÑģÐºÐ°Ð·Ð°ÑĤÑĮ": 7945, "ĠÐ¿ÑĢÐ¸ÑıÑĤÐ½Ð¾": 7946, "ĠÐĴÐ¸ÐºÑĤÐ¾ÑĢ": 7947, "ĠÐ¿ÑĢÐµÐ¿Ð°ÑĢÐ°": 7948, "ĠÑĥÑĤÑĢÐ¾": 7949, "ĠÐ·Ð²Ð¾": 7950, "ĠÐ¿ÐµÑĢÑģÐ¾Ð½Ð°": 7951, "ĠÐŁÐ¾Ñħ": 7952, "ĠÐ¿ÑĢÐµÐ´Ð²Ð°ÑĢÐ¸ÑĤÐµÐ»ÑĮ": 7953, "Ð±Ð¸Ð»Ð°": 7954, "ĠÑģÑĤÑĢÐ¾Ð¸ÑĤÐµÐ»ÑĮÑģÑĤÐ²Ð¾": 7955, "ĠÐĲÐ½Ð½Ð°": 7956, "ĠÐ²Ð»Ð¸ÑıÐ½Ð¸Ðµ": 7957, "ÑĥÑİÑīÐµÐ¹": 7958, "Ġart": 7959, "ÑĨÐºÐ¸Ð¹": 7960, "ĠÐ¾ÑĤÑĢÐ°Ð¶": 7961, "Ġalbum": 7962, "ĠÐ¾ÑĤÐ·Ñĭ": 7963, "ÑĢÑĥÐµÐ¼": 7964, "ĠÑģÑİ": 7965, "ÑĥÐ¼Ñĭ": 7966, "ĠÐ²Ð¸Ð´Ð¸Ð¼": 7967, "ĠÐ±ÐµÑģÐ¿Ð¾ÐºÐ¾": 7968, "ĠÐ½Ð¾Ð²Ð°Ñı": 7969, "ĠÐ¿Ð¾Ð»Ð½ÑĭÐ¹": 7970, "ÑĤÑĢÐ°Ð½": 7971, "Ð¼Ð¸ÑĤÐµ": 7972, "ĠÐĳÐµÐ»Ð°": 7973, "ĠÐŀÐ»ÐµÐ³": 7974, "ĠÑĢÑĥÑģÑģÐºÐ¾Ð³Ð¾": 7975, "Ð»ÐµÐ·": 7976, "ĠÐ¼Ð°ÑĤÑĩÐ°": 7977, "ĠÐ¿Ð¾ÑģÐ»Ð°": 7978, "Ġinc": 7979, "Ð´ÐµÑģÑı": 7980, "ks": 7981, "ĠÐ¾Ð±Ð¸": 7982, "ull": 7983, "ÑģÐ¾ÑĤ": 7984, "ĠÑģÑĤÐ¾Ð»Ðµ": 7985, "ÂłÐ¢Ð°Ðº": 7986, "ĠÑģÐ¿ÐµÑĨÐ¸Ð°Ð»Ð¸ÑģÑĤÐ¾Ð²": 7987, "ĠÐĳÐ°Ð»": 7988, "Ð¸Ð½Ð¸": 7989, "ĠÐ²ÑĭÑĢÐ¾Ñģ": 7990, "ĠÐ»ÐµÐº": 7991, "ĠÐ²Ð¾Ð»ÑĪÐµÐ±": 7992, "ĠÐ·Ð°ÑĢÐ¿Ð»Ð°": 7993, "ĠÐ°Ð²ÑĤÐ¾Ð¼Ð¾Ð±Ð¸Ð»Ñı": 7994, "ĠÐ¿ÐµÐ´Ð°Ð³": 7995, "ĠÐ½Ð°ÑĩÐ°Ð»ÑĮÐ½Ð¸Ðº": 7996, "ĠÐ·Ð°Ð»Ð¾Ð¶": 7997, "ĠÐ·Ð°Ð³Ð»Ñı": 7998, "ÑĥÐ»Ð¸": 7999, "ĠYork": 8000, "ĠÐĿÐ¾ÑĢ": 8001, "ĠÐ»Ð°Ð±Ð¾ÑĢÐ°": 8002, "ĠÐ¿Ð¾ÑģÑĤÐ°ÑĢÐ°": 8003, "ĠÐ´Ð¾ÑĩÐµ": 8004, "ĠÐ±ÐµÑĢ": 8005, "ĠÐºÐ»Ð¸ÐµÐ½ÑĤÐ°": 8006, "ĠÑĩÑĤ": 8007, "ĠÑģÐ¿Ð°ÑģÐ°": 8008, "ĠÐĳÐµÐ½": 8009, "ĠÐ·Ð°Ð´Ð°ÑĩÐ°": 8010, "ĠÑĦÐ¾Ð½Ðµ": 8011, "ÐµÐºÑĤÐ°": 8012, "til": 8013, "ÑĤÐ¸ÐºÐ¾Ð²": 8014, "ĠÐ¿ÑĢÐ¾ÑĤÐ¸Ð²Ð¾ÑĢÐµ": 8015, "Ð±Ð°Ñģ": 8016, "rict": 8017, "ĠÑģÐ¼ÐµÐ½Ð¸": 8018, "ĠÐĿÐ°Ð²ÐµÑĢÐ½Ð¾Ðµ": 8019, "ĠÐºÑĢÐ¾Ð²Ð°ÑĤÐ¸": 8020, "ÑģÑĤÑĢÑĭ": 8021, "ĠÐ²Ð¾Ð·Ð³Ð»Ð°Ð²": 8022, "ĠÑĢÐ°Ð·Ñĭ": 8023, "Ð¾ÑģÐ»ÐµÐ´ÑģÑĤÐ²Ð¸Ð¸": 8024, "ĠÑĢÐ°Ð·Ð¼ÑĭÑĪ": 8025, "ĠÐ³Ð°ÑĢÐ°Ð½ÑĤÐ¸": 8026, "ĠÐŁÐ¸ÑĤ": 8027, "ĠÐ½Ð°ÑĢÑĥÐ¶": 8028, "ÐµÐ»Ñĭ": 8029, "ĠÐ»ÐµÐ³ÑĩÐµ": 8030, "ĠÐ¿Ð¾Ð¿ÑĢÐ°Ð²": 8031, "ÑģÐ»ÑĥÑĪÐ¸": 8032, "ĠÐĺÑĤÐ°Ðº": 8033, "ĠÐ²ÑħÐ¾Ð´Ð¸ÑĤ": 8034, "ĠComm": 8035, "ĠÐ²Ð¾Ð´Ðµ": 8036, "ĠÐ±Ð¾Ð»ÐµÐ·Ð½Ð¸": 8037, "ĠÐ¡Ñĭ": 8038, "Ġest": 8039, "ĠÐ½ÐµÐ³Ð°": 8040, "Ð¾Ð²Ð°ÑĤÐµÐ»ÑĮÐ½Ð¾": 8041, "55": 8042, "Ð¾Ð»Ð¾Ð³Ð¸ÑĩÐµÑģÐºÐ¸Ñħ": 8043, "ĠÐ¶Ð¸ÑĤÐµÐ»Ð¸": 8044, "ĠÐļÐ°Ð»Ð¸": 8045, "ĠÐ¾ÑĤÐ»Ð¸ÑĩÐ½Ð¾": 8046, "Ð³Ð¾ÑĢÐ°": 8047, "ĠÐłÐµÐ¹": 8048, "ĠÐ©": 8049, "ĠÐ¾ÑģÑĤÐ°Ð½Ð°": 8050, "ĠÐ¿Ð¾ÐºÐ°Ð·Ð°ÑĤÑĮ": 8051, "ĠÐ²ÑĭÑģÐ¾ÐºÐ¾": 8052, "ÐºÐ¸Ð½Ð°": 8053, "ĠÐ¶ÑĥÑĢÐ½Ð°Ð»": 8054, "ĠÐ¾ÑĤÐ²ÐµÑĤÐ¸ÑĤÑĮ": 8055, "ĠÐ¿ÑĢÐ¾ÑĪÐ»Ð¸": 8056, "ĠÑģÐ¿Ð¸Ð½Ñĥ": 8057, "ĠÐ¿ÐµÑĢÐ²Ð¾": 8058, "ĠÐ¸Ð´ÐµÐ¸": 8059, "ĠÑĦÐ¸Ð»Ð¾ÑģÐ¾ÑĦ": 8060, "ĠÐ±ÐµÑĢÐµÐ¼ÐµÐ½": 8061, "ĠÐ¼Ð°Ð³Ð°Ð·": 8062, "ĠÐ¾Ð½Ð»Ð°Ð¹Ð½": 8063, "ĠÐ¾ÑģÑĤÐ°Ð½Ð°Ð²Ð»Ð¸": 8064, "ĠÑĤÑĢÐ¾Ð¿": 8065, "36": 8066, "ĠÐ½Ð°Ð¼Ð½Ð¾Ð³Ð¾": 8067, "ĠÐºÐ°ÑĢÑĤÐ¾": 8068, "ists": 8069, "ĠÑģÐ¼Ð¾Ð³ÑĥÑĤ": 8070, "ĠÐĶÐ²Ð°": 8071, "ĠÐ´ÑĥÑĢÐ°": 8072, "Ġno": 8073, "ĠÐ½Ð°Ð±ÑĢÐ°": 8074, "Ð³Ð°Ð½ÑĤ": 8075, "Ð¾Ð»Ñĭ": 8076, "ĠÐ²Ð°ÑĪÐ°": 8077, "ĠÐĶÐµÐ½ÑĮ": 8078, "ĠÐĿÐµÑĥÐ¶ÐµÐ»Ð¸": 8079, "ĠÐ½ÐµÐ¿ÑĢÐµ": 8080, "38": 8081, "ÑģÑĤÐ¾Ð¸ÑĤ": 8082, "ĠWar": 8083, "ĠÐ¾ÑĩÐµÐ²Ð¸Ð´Ð½Ð¾": 8084, "Ð»ÐµÐ½Ð½ÑĭÐ¼": 8085, "ĠÐ±Ð¸Ð±Ð»Ð¸Ð¾ÑĤÐµ": 8086, "ÑĢÐ¾Ð²Ð°Ð½Ð°": 8087, "ĠÐ¿Ð»ÐµÑĩÐ¾": 8088, "ĠÐ»ÐµÐ·": 8089, "ĠÐ¸ÑģÐ¿Ñĥ": 8090, "ty": 8091, "ĠÐºÐ¾Ð²": 8092, "ĠÐ¿Ð¾ÑĪÐ»Ð°": 8093, "ĠÐºÐ²Ð°ÑĢÑĤÐ¸ÑĢÑĥ": 8094, "ĠÐ¿ÑĢÐ¾ÑĤÐ¸Ð²Ð¾Ð¿Ð¾Ð»Ð¾Ð¶": 8095, "ÑĩÐ¸Ð»Ð°ÑģÑĮ": 8096, "ĠÐ¾ÑĤÐ¼ÐµÑĤÐ¸ÑĤÑĮ": 8097, "ĠÐ³Ð¾ÑĢÐ¸Ð·": 8098, "ĠÐ¼Ð¸Ð½Ð¸ÑģÑĤÑĢ": 8099, "ĠÐ½Ð¾Ð³Ð°Ð¼Ð¸": 8100, "ĠFor": 8101, "ĠÐ¼Ð¾Ð»Ð¸ÑĤ": 8102, "ĠÑĥÑģÐ¿ÐµÑĪÐ½Ð¾": 8103, "Ġadd": 8104, "ĠÐ·Ð°ÐºÐ°Ð½ÑĩÐ¸": 8105, "ÑģÐºÐ¾ÑĢÐ±": 8106, "ĠÐ¿Ð¾Ð¶Ð°ÑĢ": 8107, "Ð¿ÑĢÐµ": 8108, "ĠÐ´ÐµÐ²Ð¾ÑĩÐºÐ°": 8109, "ĠÐĿÐ°Ñĩ": 8110, "ĠÑĥÐ¿Ð¾ÑĢ": 8111, "Ð°Ð½ÐºÐ°": 8112, "ĠÐ³Ð¾Ð»Ð¾ÑģÐ°": 8113, "Ð±Ð¸Ð½Ð°": 8114, "ĠÐ¸Ð½ÑģÑĤÐ¸ÑĤÑĥÑĤ": 8115, "ĠÐ¿Ð¾Ð²ÐµÑĢÐ½ÑĥÐ»ÑģÑı": 8116, "ĠÐ¢Ð¾ÑĢ": 8117, "une": 8118, "ĠÐ¾Ð±ÑĢÐ°Ð±Ð¾ÑĤ": 8119, "ĠÑģÐµÐºÑĢÐµÑĤ": 8120, "ĠÐ°Ð²ÑĤÐ¾ÑĢÐ°": 8121, "ĠÐ±ÑĥÑħ": 8122, "ĠÐ¿ÑĢÐµÐ´Ð»Ð°Ð³Ð°ÐµÑĤ": 8123, "ĠÑģÐ²Ð¾Ð±Ð¾Ð´Ñĭ": 8124, "ĠÐ±ÑĥÐ´ÑĥÑīÐµÐµ": 8125, "ÑĢÐ¸ÑģÑĤÐ°": 8126, "ĠÑĦÑĢÐ°": 8127, "Ġbefore": 8128, "ĠÐĶÐµÐ¼": 8129, "ĠPh": 8130, "ĠÐ¾Ð±Ð»Ð¸": 8131, "ĠÐ¾ÑĤÑĢÐµ": 8132, "Ġlead": 8133, "ĠÐ½Ð°ÑĩÐ¸": 8134, "ÑĨÐµÑģ": 8135, "ĠÐŁÐŀ": 8136, "ĠÑĢÐ°Ðº": 8137, "ĠÐºÐ»Ð¸ÐµÐ½ÑĤÐ¾Ð²": 8138, "Ð¿ÐµÐ»": 8139, "Ð¾Ð²Ð°Ð½Ð°": 8140, "Ġexp": 8141, "Ð¾Ð³Ð¾Ð´": 8142, "ĠAs": 8143, "ĠÐ¡Ð¸ÑĢÐ¸Ð¸": 8144, "Ġagainst": 8145, "ĠÐ¿Ð¾Ð´ÑĥÐ¼Ð°Ð»Ð°": 8146, "ÑĩÐ°ÑİÑĤÑģÑı": 8147, "ĠÐ´ÑĢÑĥÐ³Ð°Ñı": 8148, "ĠÐ¿ÑĢÐ¾ÑģÑĤÑĢÐ°Ð½ÑģÑĤÐ²Ð¾": 8149, "ĠÐ¿ÑĢÐµÑģÑĤÑĥÐ¿Ð»ÐµÐ½Ð¸Ñı": 8150, "ĠÑģÐµÑĢÐµÐ´Ð¸Ð½Ðµ": 8151, "ĠÑĢÐ°Ð·Ð²Ð¸ÑĤÐ¸": 8152, "ĠÐ¿ÑĢÐ¾Ð¸ÑģÑħ": 8153, "ĠÐ¾Ð¿Ñĭ": 8154, "ÑģÑĤÐ²Ð¸Ð¹": 8155, "ĠÐ¿Ð¾Ð´Ð´ÐµÑĢÐ¶ÐºÑĥ": 8156, "2014": 8157, "ÑīÑĮ": 8158, "ĠÐ»Ð¾Ð±": 8159, "ĠÑĩÑĳÑĢ": 8160, "ĠÐ¾Ð·Ð°": 8161, "ĠÑħÐ²Ð°ÑĤÐ¸ÑĤ": 8162, "ÐĵÐŀ": 8163, "ĠÐ´ÐµÐ»Ð°Ð»": 8164, "ĠÐ¿ÑĢÐ¾ÑĨÐµÑģÑģÐ°": 8165, "ĠÑĤÑĢÐµÐ±ÑĥÐµÑĤÑģÑı": 8166, "ered": 8167, "ĠÐ¿ÐµÑĤ": 8168, "ĠÑĩÑĢÐµÐ·Ð²ÑĭÑĩÐ°Ð¹": 8169, "ĠÐ²Ð·ÑıÑĤ": 8170, "ÑīÐ°ÑİÑĤÑģÑı": 8171, "199": 8172, "ĠÑģÐ²Ð¾Ð±": 8173, "09": 8174, "ĠÐ¡Ð°Ð¹": 8175, "ĠÑĢÐ¸ÑģÑĥÐ½": 8176, "Ġcount": 8177, "ept": 8178, "arl": 8179, "ĠÑĢÐµÑĩÐ¸": 8180, "ĠÐ¿Ð¾Ð¿ÑĭÑĤÐ°Ð»ÑģÑı": 8181, "ĠÐ¼Ð¾Ð»Ð¾Ð´ÑĭÑħ": 8182, "ĠÐ´ÐµÐ¹ÑģÑĤÐ²Ð¸Ðµ": 8183, "Ġsur": 8184, "ĠÐ¾ÑĦÐ¸Ñģ": 8185, "ĠÐ²Ð°ÑĪÐ¸Ñħ": 8186, "ĠÑĢÐ°ÐºÐµÑĤ": 8187, "ĠÑģÐºÐ°Ð¶Ñĥ": 8188, "ĠÐ¼Ð¸ÑģÑģÐ¸": 8189, "ĠÐ¾Ð±Ð¼Ð°Ð½": 8190, "ÑĪÐµÐ½Ð¸Ð¸": 8191, "ĠÐ¿ÑĢÐ¾Ð¹Ð´ÐµÑĤ": 8192, "ĠÑĢÐµÑģÐ¿ÑĥÐ±Ð»Ð¸ÐºÐ¸": 8193, "Ġsing": 8194, "ĠÑĩÐ¸ÑģÑĤÐ¾": 8195, "ute": 8196, "ĠÐ¿ÑĢÐ¾Ð²Ð¾Ð´Ð¸ÑĤÑĮ": 8197, "ĠÑĩÐ¸ÑģÐ»": 8198, "Ġwhile": 8199, "Ð´ÐµÐ±": 8200, "ĠÐ¹": 8201, "ĠÐ¾Ð±ÑĥÑĩÐµÐ½Ð¸Ñı": 8202, "ĠÐ¿Ð¾Ð¸ÑģÐº": 8203, "ĠÐ²Ð°Ð»ÑİÑĤ": 8204, "ÐºÐ¾Ð²ÑĭÐµ": 8205, "ĠÐ¾ÑīÑĥÑīÐµÐ½Ð¸Ðµ": 8206, "ÑīÐ¸Ð»": 8207, "ÑģÑĤÐ¾Ð²ÐµÑĢ": 8208, "ounc": 8209, "ĠÐ¿ÑĢÐµÐ²Ð¾ÑģÑħÐ¾Ð´": 8210, "ĠÑĥÐ¿Ð°Ð»": 8211, "ĠÐ½Ð°Ð³ÑĢÑĥÐ·": 8212, "ĠÐľÐ¾Ð¹": 8213, "ĠÐ±Ð¾Ð»ÑĮÑĪÐ¾Ð³Ð¾": 8214, "ÐĵÐ»Ð°Ð²Ð°": 8215, "Ð±ÐµÐ»": 8216, "ĠÐ¾ÑĤÐ²ÐµÑĤÑģÑĤÐ²ÐµÐ½Ð½Ð¾ÑģÑĤÐ¸": 8217, "Ġown": 8218, "ĠÐ²ÐºÐ»Ð°Ð´": 8219, "ĠÑĢÐµÐ·ÐµÑĢ": 8220, "ĠÐļÐ°Ð·Ð°Ñħ": 8221, "ÐĽÐĲ": 8222, "ÐķÐ¢": 8223, "ĠÐ³Ð½Ðµ": 8224, "ĠÐ¸ÑģÐ¿Ð¾Ð»ÑĮÐ·Ð¾Ð²Ð°Ð½Ð¸Ðµ": 8225, "ĠÐ¼Ð°Ð³Ð°Ð·Ð¸Ð½": 8226, "ÐµÐ¼Ñĭ": 8227, "Ð¾Ð±Ð½Ð¾": 8228, "ÐºÐ¾Ð±ÑĢÐ¸ÑĤÐ°": 8229, "ĠÐŀÐ³": 8230, "ĠÐľÐĴÐĶ": 8231, "ĠÐ¶Ð´ÐµÑĤ": 8232, "ĠÐ³ÑĢÐ¾Ð¼ÐºÐ¾": 8233, "ĠÑĦÐ¾ÑĤÐ¾Ð³ÑĢÐ°ÑĦÐ¸Ð¸": 8234, "ĠÐ°ÑĢÑĤÐ¸Ð»Ð»Ðµ": 8235, "ĠÐ²ÑĭÐ³Ð¾Ð´": 8236, "ĠÐ°Ð²ÑĤÐ¾ÑĢÐ¸": 8237, "urch": 8238, "Ð»ÑıÑĨÐ¸Ð¸": 8239, "ĠÐ¾ÑĤÑĢÑıÐ´": 8240, "ĠÑģÐ¾ÑĤÐ½Ð¸": 8241, "?\"": 8242, "ĠÐ¼ÐµÑģÑĤÐ½ÑĭÑħ": 8243, "ÐŀÐ½Ð¸": 8244, "stit": 8245, "ĠÐ¿Ð¾Ð»Ñİ": 8246, "ĠÐ²Ð¾ÑģÐºÐ»Ð¸": 8247, "ĠÑĤÐ²Ð¾Ñı": 8248, "ĠÑģÐµÑĢÑĮÐµÐ·Ð½Ð¾": 8249, "Ġhigh": 8250, "ĠÐ¾ÑĤÐ¾Ð·": 8251, "ĠÐ°ÐºÑĤÑĥ": 8252, "Ð·Ð¸Ñı": 8253, "ĠÐ¼Ð¸ÑĤ": 8254, "ĠÐłÐµÐ·": 8255, "Ð¾Ð¶Ð´ÐµÐ½Ð¸Ð¸": 8256, "ĠÑģÐ²ÐµÑĢÑħÑĥ": 8257, "ĠÑĥÐ±Ð¸ÑĤÑĮ": 8258, "ĠÐ¿Ð»Ð°ÑĤÑĮÐµ": 8259, "ÑĨÐ¸Ð¾Ð½Ð½Ð¾": 8260, "ĠÐ¶ÐµÐ»Ð°Ð½Ð¸Ñı": 8261, "Ð±Ð°Ð»": 8262, "quot": 8263, "ĠÐ¾ÑĤÐ²ÐµÑĤÐ°": 8264, "ĠÐ·Ð°Ð±Ð¾Ð»ÐµÐ²Ð°Ð½Ð¸Ñı": 8265, "ĠÐ·Ð°Ð´Ð°ÑĩÐ¸": 8266, "ĠÐ¼Ð°ÑĤÑĩÐµ": 8267, "Ġ188": 8268, "ĠÐĶÑĥÐ¼Ð°Ñİ": 8269, "Ð²Ð¸Ð°": 8270, "ĠÐ¾Ð±ÑģÑĥÐ¶": 8271, "ĠÐ¸Ð´ÑĥÑĤ": 8272, "Ð½Ð¸ÑĤÐ°ÑĢ": 8273, "ĠÐ¾Ð±ÐµÑģÐ¿ÐµÑĩÐµÐ½Ð¸Ñı": 8274, "ĠÑĢÑĭÐ½Ð¾Ðº": 8275, "ĠÐŀÑģÐ¾Ð±ÐµÐ½Ð½Ð¾": 8276, "Ġgo": 8277, "ĠÐ²ÑĭÐ¿Ð¾Ð»Ð½Ñı": 8278, "ĠCon": 8279, "ĠÑĤÐ¾Ð²Ð°ÑĢ": 8280, "ĠÐŁÐ¾Ð²": 8281, "ĠÑģÑĤÐ°ÑĢÑĭÐ¹": 8282, "ÐĺÐĶ": 8283, "ĠÐ³Ð¾Ð»Ð¾Ð´": 8284, "ĠÐ±Ð°Ð·Ðµ": 8285, "ÐµÐ»ÑĮÐµ": 8286, "ĠÐŀÐ±Ñĭ": 8287, "Ð±Ð¸Ð»ÑĮ": 8288, "ĠÐºÐ²Ð°Ð´": 8289, "ĠÐ¼Ð¸ÑĢÑĥ": 8290, "ÑĨÐ°ÑĢ": 8291, "ÑĢÐ¾Ð²Ð°Ð½Ð¸Ð¸": 8292, "ÑĳÐ²": 8293, "ĠÑħÐ»ÐµÐ±": 8294, "ĠÑģÐµÐ´": 8295, "ĠÐ°ÐºÑĨÐ¸Ð¸": 8296, "ĠÐ¿Ð¾Ð´ÑĤÐ²ÐµÑĢÐ¶Ð´": 8297, "ather": 8298, "Ġgroup": 8299, "ĠÐ³Ð»Ð°Ð²Ð½Ð¾Ð³Ð¾": 8300, "Ð¾Ð³Ð¾Ð²": 8301, "ĠÑģÑĤÑĢÐ¾Ð³Ð¾": 8302, "ĠÐºÐ²Ð°ÑĢÑĤÐ¸ÑĢÐµ": 8303, "ĠÐ²ÑĭÐº": 8304, "ĠÐ¿Ð°Ð»ÑĮÑĨÑĭ": 8305, "ĠÐ°ÐºÑĤÐ¸Ð²Ð¸": 8306, "ĠÐ³ÐµÑĢÑĨ": 8307, "ĠÐłÐ¾Ñģ": 8308, "Ð²ÑĪÐ¸Ð¼Ð¸": 8309, "ĠÐ±Ð»Ñİ": 8310, "Ġ2003": 8311, "ĠÐ²Ð¾ÐµÐ½Ð½Ð¾Ð¹": 8312, "Ð»Ð»": 8313, "ĠÑĢÐµÐ³Ð¸ÑģÑĤÑĢÐ°ÑĨÐ¸Ð¸": 8314, "ĠÐ¿ÑĥÐ»ÑĮ": 8315, "ĠÐĵÐ°Ð»": 8316, "ÑĤÐ¾Ð²Ð¾Ð¹": 8317, "77": 8318, "ĠÐ¿ÑĢÐ¾ÑĨÐµÐ´Ñĥ": 8319, "ĠÐ¼Ð¾Ð½Ð¸": 8320, "ĠÐ¸Ñī": 8321, "by": 8322, "Ð·Ð¼Ð°": 8323, "ĠÐŃÑĢ": 8324, "ĠÐ¿Ð¾Ð²ÐµÐ·": 8325, "Ġmain": 8326, "ĠÐ²Ð°ÑĢ": 8327, "ÐµÑĤÐ¾Ð¼": 8328, "ĠÐ¾Ð´Ð½Ð¸": 8329, "ula": 8330, "ĠÑģÑĥÑĤÐ¸": 8331, "ÑĪÐ¸ÐµÑģÑı": 8332, "ĠÑģÑĤÐ¾Ð»Ð¾Ð¼": 8333, "ĠÐºÑĢÑĥÐ¿Ð½ÑĭÑħ": 8334, "ĠÐ¿ÑĢÐ¾ÑĤÑıÐ½ÑĥÐ»": 8335, "ĠÑģÐ¾Ð±Ð°Ðº": 8336, "ĠÐ¾ÑĤÑģÑĤÐ°Ð²": 8337, "ĠÑĢÑĥÑģÑģÐºÐ¸Ð¹": 8338, "ĠÐ¼Ð°Ð»ÑĮÑĩÐ¸Ðº": 8339, "ÑģÑĤÐ½ÑĭÐµ": 8340, "ĠÐ¾ÑĤÐ²ÐµÑĤÑģÑĤÐ²ÐµÐ½Ð½Ð¾ÑģÑĤÑĮ": 8341, "ĠÐµÐ¶ÐµÐ´": 8342, "ĠÐ·Ð°Ð¸Ð½ÑĤÐµÑĢÐµÑģÐ¾Ð²": 8343, "ĠÐ´ÐµÐ»Ð¾Ð¼": 8344, "Ġsign": 8345, "ĠÐ¿Ð¾Ð³Ð¾Ð²Ð¾ÑĢÐ¸ÑĤÑĮ": 8346, "ĠÑģÐ¾ÑĨÐ¸Ð°Ð»ÑĮÐ½ÑĭÑħ": 8347, "ĠÐ·Ð°ÑıÐ²Ð»ÐµÐ½Ð¸Ðµ": 8348, "Ġuntil": 8349, "ĠÐ¿Ð¾Ð·Ð²Ð¾Ð»Ð¸ÑĤ": 8350, "Ð¾ÑĢÐ´Ð¸Ð½Ð°": 8351, "ĠÑĤÐµÐ»ÐµÑĦÐ¾Ð½Ñĥ": 8352, "ĠÐŀÑĤÐ²ÐµÑĤ": 8353, "Ġrep": 8354, "ĠÐ¾Ð±ÑĢÐ°Ð·Ð¾Ð²": 8355, "ĠÐ·Ð°Ð¼ÐµÐ½": 8356, "ĠÐ¿ÑĢÐ¾Ð¸Ð·Ð²Ð¾Ð´ÑģÑĤÐ²Ð¾": 8357, "Ġtr": 8358, "ĠÐ¾Ð³Ð½Ñı": 8359, "ÑĢÐ°Ð²Ð¸Ð»Ð°ÑģÑĮ": 8360, "ĠÐ»Ð¸ÑĩÐ½Ð¾ÑģÑĤÐ¸": 8361, "ĠÑģÑĤÑĢÐ°Ð½Ñĥ": 8362, "ĠÐ½Ð°ÑĥÐºÐ¸": 8363, "ĠÐ¿ÑĢÐ¾ÑģÐ¼Ð¾ÑĤ": 8364, "05": 8365, "Ð»Ð¾ÑĤÐ°": 8366, "Ð»ÐµÑĢÐ°": 8367, "Ð³Ð°Ñı": 8368, "ĠÐ¿ÑĢÐµÐ´Ð»Ð¾Ð¶ÐµÐ½Ð¸Ñı": 8369, "ĠÐºÑĢÑĥÐ¶": 8370, "Ð¸ÑĪÑĮ": 8371, "ĠÐºÐ½Ð¸Ð³Ðµ": 8372, "Ð¿ÐµÑĩÐ°ÑĤ": 8373, "ĠÐºÐ°ÑĢÐ°": 8374, "ĠÐ³Ð¾ÑĢÑĭ": 8375, "ĠÐ±Ð°ÑģÑģ": 8376, "ĠÑĥÐ¿Ð¾Ð¼Ð¸Ð½Ð°": 8377, "Ð»Ð¸Ð²Ð°": 8378, "ĠÐ±ÑĥÐ¼Ð°Ð³Ð¸": 8379, "ĠÐ¿ÑĢÐ¸Ð½Ð°Ð´Ð»ÐµÐ¶Ð°": 8380, "Ru": 8381, "Ð½Ð¸Ð»ÑģÑı": 8382, "ĠÐ¼Ð¸Ð½Ð¸ÑģÑĤÐµÑĢ": 8383, "ĠÐ±Ð¾ÑĢÑĮÐ±Ðµ": 8384, "ĠÐºÐ½Ð¸Ð³Ð°": 8385, "ĠÐ¿ÑĢÐ¸ÑĩÐ¸Ð½Ðµ": 8386, "Ġref": 8387, "ĠÐ¿Ð¾Ð´Ð²Ð¾Ð´": 8388, "ĠÐ´Ð°Ð½Ð½Ð¾Ð³Ð¾": 8389, "ĠÐºÐ¾Ð½ÑĤÑĢÐ¾Ð»Ñı": 8390, "ĠÐ¶Ð¸Ð²ÑĥÑĤ": 8391, "ÑĤÐ¸ÐºÑĥ": 8392, "ĠÐ¿Ð¸ÑĤÐ°Ð½Ð¸Ñı": 8393, "ÑĢÑĥÑİÑĤÑģÑı": 8394, "aid": 8395, "ĠÐ¼Ð¸Ð½Ð¸Ð¼ÑĥÐ¼": 8396, "ĠÑģÑĥÑī": 8397, "Ð´ÑĢÐ°Ð²ÑģÑĤÐ²ÑĥÐ¹ÑĤÐµ": 8398, "ĠÐ¿Ð¾Ð²Ð¾": 8399, "44": 8400, "ĠÑĢÑĥÑģÑģÐºÐ¾Ð¹": 8401, "ĠÐĽÐ¸ÑĤ": 8402, "ĠÐ´ÑĥÑĪÐ°": 8403, "ĠÑĢÐµÐ±ÑıÑĤÐ°": 8404, "ĠÐ¾ÐºÐ°Ð·ÑĭÐ²Ð°ÐµÑĤÑģÑı": 8405, "ĠÑĥÐ»Ð¸ÑĨÑĥ": 8406, "ÐłÐ°Ð·": 8407, "ĠÐ·Ð½Ð°Ðº": 8408, "ĠÐ¿Ð¾Ð¿ÑĢÐ¾ÑģÐ¸Ð»": 8409, "ĠÐ¿ÑĢÐ°Ð²Ð¸Ð»": 8410, "ĠÐ·Ð²ÑĥÐº": 8411, "Ð¾Ð¿Ð»Ð°": 8412, "ĠÐ¤Ð¸Ð½": 8413, "ium": 8414, "ÐĻÐ¾ÑĢ": 8415, "Ġcap": 8416, "ĠÐ¿Ð»Ð¾ÑīÐ°Ð´ÑĮ": 8417, "ĠÐ¿ÑĢÐ¸Ð²ÐµÐ·": 8418, "Ġboth": 8419, "fl": 8420, "ĠÐ²ÑĭÑħÐ¾Ð´Ð°": 8421, "ÑĦÐ°Ðº": 8422, "ĠÐ²Ð·ÑıÐ»Ð°": 8423, "ĠÐºÐ¾Ð¼Ð¸ÑģÑģÐ¸Ð¸": 8424, "ĠÐ¸ÑģÐ¿Ð¾Ð»ÑĮÐ·ÑĥÐµÑĤÑģÑı": 8425, "ĠÐ¯Ð½": 8426, "ĠÑģÐµÐºÑĥÐ½Ð´Ñĥ": 8427, "ÑģÐ¼": 8428, "ĠÐ¶Ð¸Ð·Ð½ÑĮÑİ": 8429, "co": 8430, "ĠÐºÐ°ÑĦ": 8431, "ĠÐ´Ð¾Ð½": 8432, "ĠÑģÐ¾Ð·Ð½Ð°Ð½Ð¸Ðµ": 8433, "ĠÐ¿Ð¾Ð´Ð´ÐµÑĢÐ¶ÐºÐ¸": 8434, "Ð¸Ð»Ð»": 8435, "ĠÐ¼Ð°ÑĪÐ¸Ð½Ðµ": 8436, "ys": 8437, "ÐºÐ½ÑĥÑĤÑĮ": 8438, "Ġ2001": 8439, "ĠÐ´ÑĥÐ±": 8440, "rid": 8441, "Ġwrit": 8442, "Ð°Ð»ÐµÐºÐ¾": 8443, "ĠÐļÐ¾Ð¼Ð¿Ð°Ð½Ð¸Ñı": 8444, "ĠÐ»ÐµÐ¶Ð¸ÑĤ": 8445, "ÐµÐ»Ð¾Ð²Ðµ": 8446, "ĠÐ¾Ð±ÑĢÐ°Ð·Ð¾Ð²Ð°Ð½Ð¸Ðµ": 8447, "ĠÐ¾Ð¿Ð¿Ð¾Ð·Ð¸": 8448, "ĠÑįÐºÑģÐº": 8449, "ĠÐĺÐ»ÑĮ": 8450, "Ġdevelop": 8451, "ĠÐ¸Ð·ÑĥÐ¼": 8452, "ĠÑĢÐµÑģÑĤÐ¾ÑĢÐ°": 8453, "ĠÐ¡Ð¼": 8454, "Ġ2002": 8455, "ĠÐºÐ»ÑİÑĩ": 8456, "ÑĦÑĤ": 8457, "ĠÐµÐ²ÑĢÐµ": 8458, "ĠÐ½Ð¾Ð²ÑĭÐ¼": 8459, "ĠÐ·Ð²ÐµÐ·Ð´": 8460, "ternational": 8461, "ĠÐºÐ»Ð°ÑģÑģ": 8462, "ĠÐ·ÑĥÐ±Ñĭ": 8463, "ÑĮÐµÐ¼": 8464, "ĠÑĥÑĩÐ°ÑģÑĤÐ¸Ñı": 8465, "ÑĢÑĥÐ½": 8466, "ÑĥÑĩÐ¸ÑĤÑĮ": 8467, "ĠÑĥÑģÐ»Ð¾Ð²Ð¸Ð¹": 8468, "ÐµÑĢÐ¶": 8469, "Ð²Ð°ÑĢÐ¸": 8470, "ĠÐ²ÑĭÐ³Ð»ÑıÐ´Ð¸ÑĤ": 8471, "Ð¿Ð¸ÑģÐ¸": 8472, "ÐĿÐĺ": 8473, "ĠÐ¥Ð°ÑĢ": 8474, "Ð½Ð°ÑĤÑĮ": 8475, "ĠÐ·Ð°Ð¼ÐµÑĤÐ¸Ð»Ð°": 8476, "ĠÐ¾ÑģÑĤÐ°Ð²Ð°Ð»Ð¾ÑģÑĮ": 8477, "ĠÑħÐ¾Ð·ÑıÐ¸Ð½": 8478, "ution": 8479, "Ġrece": 8480, "ĠÐ²Ð½ÐµÐ´": 8481, "ĠÐºÐ¸Ð»Ð¾Ð¼ÐµÑĤÑĢÐ¾Ð²": 8482, "Ġ<": 8483, "Ġ=": 8484, "ĠÑģÑĤÑĢÐ°ÑĤÐµÐ³Ð¸": 8485, "ĠÐ½Ð°ÑĩÐ¸Ð½Ð°ÐµÑĤÑģÑı": 8486, "ĠÑĤÑĢÑĥÐ¿": 8487, "Ð¾ÐºÐ¾Ð»": 8488, "Ġ|": 8489, "ĠÐ¿Ð°Ð¿Ð°": 8490, "ĠÑģÐ¼Ð¾ÑĤÑĢÐµÐ»Ð°": 8491, "07": 8492, "ĠÐ²Ð¸Ð´Ð¸ÑĤ": 8493, "ĠÐ¾Ð±ÑĢÐ°ÑĤÐ¸Ð»ÑģÑı": 8494, "ĠÑģÐ¾Ð¾Ð±ÑīÐµÐ½Ð¸Ðµ": 8495, "ĠÐ¸Ð½Ð¾Ð¹": 8496, "Ġ1990": 8497, "Ð¶ÐµÐ½Ð¸ÐµÐ¼": 8498, "ĠÐºÐ¾Ð¶Ð°": 8499, "ĠÐĽÐ¾Ð½Ð´": 8500, "ĠÐ´Ð¾ÐºÑĥÐ¼ÐµÐ½ÑĤ": 8501, "ĠÐ²ÑģÑıÐºÐ¸Ð¹": 8502, "ĠÑģÑĩÐ¸ÑĤÐ°ÐµÑĤÑģÑı": 8503, "ĠÐ·Ð°Ð²Ð¸": 8504, "ĠIs": 8505, "ĠÐ¡Ð¾ÑİÐ·Ð°": 8506, "ĠÐµÑģÑĤÐµÑģÑĤÐ²ÐµÐ½Ð½Ð¾": 8507, "ĠÐ¿Ð¾ÑģÐ»ÐµÐ´Ð½ÐµÐ³Ð¾": 8508, "ĠÑĦÐµÑģÑĤÐ¸": 8509, "ÐľÐ°": 8510, "ĠÑĢÐµÐºÐ»Ð°Ð¼": 8511, "ague": 8512, "ÐĽÐ¬": 8513, "ĠÑģÐ¿ÐµÐº": 8514, "Åĥ": 8515, "gram": 8516, "ĠÐ¿Ð°Ð¿": 8517, "Ð»ÐµÐ½Ð½Ð°Ñı": 8518, "ĠÐ²Ð¾ÑĪÐµÐ»": 8519, "ĠÐ¿ÑĢÐ¾Ð´ÑĥÐºÑĤÐ¾Ð²": 8520, "ÑĪÐ¸Ð²": 8521, "ĠÑĤÑīÐ°ÑĤÐµÐ»ÑĮÐ½Ð¾": 8522, "ÑģÑĤÑĭÐ¹": 8523, "ĠÐ¸Ð·Ð±Ð°": 8524, "ĠÑĢÐµÐºÐ¾Ð¼ÐµÐ½Ð´Ñĥ": 8525, "ĠÐ¾Ð±Ð¾Ð·Ð½Ð°": 8526, "ĠÑĦÐ¸Ð½Ð°Ð½ÑģÐ¸": 8527, "ĠÐ¾ÑĤÐ¾": 8528, "arri": 8529, "ÂłÐĴÐ¾ÑĤ": 8530, "ÑĪÐ¸Ð»Ð°": 8531, "ĠÑĪÐ°Ð½": 8532, "ĠÐ¿Ð¾Ð´Ð±Ð¾ÑĢ": 8533, "ĠÐ¿Ð¾ÑģÐ»ÐµÐ´ÑģÑĤÐ²Ð¸Ñı": 8534, "ĠÐ³ÑĢÐ°Ð½Ð¸ÑĨÑĭ": 8535, "ĠÐĳÐµÐ»Ð°ÑĢÑĥ": 8536, "ĠÐ¿Ð¾ÐºÐ¾Ð¹": 8537, "ĠÐ¿Ð¾Ð¹ÑĤÐ¸": 8538, "ĠUS": 8539, "ĠÑĤÐµÐ¼Ðµ": 8540, "ĠÑĦÐ¸Ð³": 8541, "ĠÑĢÐ¾Ð´Ð¸Ð»ÑģÑı": 8542, "ĠÐ¾ÑĤÐºÐ»Ñİ": 8543, "Ð»ÐµÐ²": 8544, "ĠÐ¢ÐµÐ±Ðµ": 8545, "Ð¾ÑĢÑĤÑĥ": 8546, "ĠÐ¿Ð¾Ð´Ð³Ð¾ÑĤÐ¾Ð²ÐºÐ¸": 8547, "ĠÐĶÐµÐ½Ð¸": 8548, "ĠÐ´Ð¾Ð±ÑĢÐ¾Ð²": 8549, "ĠÐºÐ¾ÑĢÐ¾": 8550, "Ġoper": 8551, "ĠÐ²ÐµÑģÐµÐ»": 8552, "ĠÐļÐ°Ð»": 8553, "ĠÑĥÐ¿ÑĢÐ°Ð²Ð»ÐµÐ½Ð¸Ðµ": 8554, "ĠÐ¾ÑħÑĢÐ°Ð½": 8555, "ĠÐ³Ð¸Ð´": 8556, "Ð¸ÑĤÐµÐ»ÑĮÑģÑĤÐ²Ð¾": 8557, "Ġbro": 8558, "ÑĤÐ¸Ð¼Ð¸": 8559, "ĠÐ½ÐµÐ´ÐµÐ»ÑĮ": 8560, "ÑģÑģÐ°": 8561, "ĠÐºÐ¾Ð¼Ð¿Ð¾Ð·Ð¸": 8562, "ÑĩÐ¸Ð¼": 8563, "75": 8564, "ĠÐ½Ð°ÑĢÐºÐ¾": 8565, "ĠÐ½Ð°Ð·Ð²Ð°Ð»": 8566, "ĠÐ¿ÑĢÐµÐ¿Ð¾Ð´Ð°Ð²Ð°": 8567, "Ð¸ÑĤÐ°Ñı": 8568, "ĠÐºÐ°ÑĤÐ°ÑģÑĤÑĢÐ¾": 8569, "Ð´Ð°ÑĨÐ¸Ð¸": 8570, "Ð½Ð°ÑĩÐ°Ð»ÑĮÐ½Ð¾": 8571, "ÐłÐ°": 8572, "ĠÑģÐ¸Ð³Ð°": 8573, ",-": 8574, "ĠÐ±ÐµÑģÐ¿Ð¾ÐºÐ¾Ð¹": 8575, "ÐµÐ½Ð¾Ð²": 8576, "ĠÐ¿ÑĢÐ¸ÑĢÐ¾Ð´Ñĭ": 8577, "ĠÑĥÑģÑĤÑĢÐ¾Ð¹ÑģÑĤÐ²Ð°": 8578, "ĠÐĴÐµÐ»Ð¸ÐºÐ¾Ð±ÑĢÐ¸ÑĤÐ°": 8579, "ĠÐ²ÑģÐ¿Ð¾Ð¼Ð½Ð¸Ð»": 8580, "ĠÐ¾ÑĢÐ¸ÐµÐ½ÑĤÐ¸": 8581, "ÑıÐ½Ð°": 8582, "ĠÐĶÑĥ": 8583, "ÐµÐ²Ð½Ð°": 8584, "ĠÐ½ÐµÐ¼Ð°Ð»Ð¾": 8585, "Ð½Ð¾ÑģÐ¸ÑĤ": 8586, "ĠÑĪÐºÐ¾Ð»Ñĥ": 8587, "Ġsever": 8588, "ĠÐĿÑĥÐ¶Ð½Ð¾": 8589, "ÐµÐ½ÑģÐ°": 8590, "ĠÐ¼ÑĥÐ·": 8591, "/...âľĤ": 8592, "ĠÐ¾ÑģÑĤÐ°ÑĤÑĮÑģÑı": 8593, "ĠÐ¿Ð»Ð°ÑĤÐµ": 8594, "Ð¿ÐµÐ²": 8595, "Ð»Ð¸Ð¼Ð¿Ð¸Ð¹": 8596, "ĠÐ½ÐµÐ·Ð°ÐºÐ¾Ð½": 8597, "rent": 8598, "ĠÐ½Ð°Ð²ÑģÐµÐ³Ð´Ð°": 8599, "ĠÐ²ÐµÑĩÐµÑĢÐ°": 8600, "Ġsm": 8601, "ĠÑĩÐµÑģÑĤÐ½Ð¾": 8602, "Ð»Ð°ÑĤÐ½Ð¾": 8603, "Ð´ÐµÑĢÐ°": 8604, "ĠÐ·Ð°Ð¼ÑĥÐ¶": 8605, "ĠXX": 8606, "ĠÐ°Ð³ÑĢÐµÑģ": 8607, "ÑĪÐµÐ½Ð¸Ñİ": 8608, "ĠÑĤÑĢÑı": 8609, "ÑģÐ¸Ð»": 8610, "ĠÑĤÐ²Ð¾ÐµÐ¹": 8611, "ĠÑģÐ»ÑĥÑĩÐ¸": 8612, "ĠÐ¡ÐŁ": 8613, "Ð²Ð°Ð»ÑĮ": 8614, "ĠÐĺÐ³": 8615, "ĠÐºÐ¾Ð¼Ð°Ð½Ð´Ñĥ": 8616, "ĠÐ»ÑİÐ±Ð¸Ð»": 8617, "ÑĩÐµÐµ": 8618, "ĠÑģÐºÐ¾Ð½": 8619, "ĠÐ²ÑĭÐ³": 8620, "ĠÑĦÐ¸Ð»ÑĮÐ¼Ð°": 8621, "ĠÐ¿ÑĢÐ¾ÑīÐµ": 8622, "ĠÐ·Ð°Ð¿Ð¸ÑģÐ¸": 8623, "ĠÐ¿ÑĢÐµÐ´ÑģÐµÐ´Ð°ÑĤÐµÐ»ÑĮ": 8624, "ĠÑģÐ»Ð¾Ð¼": 8625, "ĠÐºÑĢÐ°ÑĤ": 8626, "ÑĩÐµÑģÑĤÐ²ÐµÐ½Ð½Ð¾Ð¹": 8627, "ĠÑģÐ²Ð°Ð´ÑĮ": 8628, "ĠJohn": 8629, "Ð½Ð¸ÑĤÐµÐ»ÑĮÐ½Ð¾": 8630, "ÐµÐ½ÑĮÐºÐ¾": 8631, "Ð¸Ð»Ð»Ð¸": 8632, "ĠÐ¾ÑģÑĤÐ°Ð½ÐµÑĤÑģÑı": 8633, "Ð°Ð½Ð½Ð¾": 8634, "ĠÐºÐ¾Ð»Ð¾": 8635, "ĠÐµÐ¶Ðµ": 8636, "ĠÑĤÐ²Ð¾Ð¸": 8637, "Ġmet": 8638, "ĠGo": 8639, "ĠÑģÐ»ÑĥÑĩÐ°ÐµÐ²": 8640, "ĠÑıÐºÐ¾Ð±Ñĭ": 8641, "ÑĢÐµÐ±Ñĥ": 8642, "ĠÐ²ÐµÐ´ÐµÑĤ": 8643, "ized": 8644, "ĠÑĪÑĤÑĥÑĢ": 8645, "ÑĢÐ¾Ð»": 8646, "ĠÑģÐ¾Ð±ÑģÑĤÐ²ÐµÐ½Ð½Ð¾": 8647, "ĠÐºÐ¾Ð»ÐµÐ½": 8648, "ĠÐ¾ÑģÐ½Ð¾Ð²Ð½Ð¾Ð¹": 8649, "Ð¾Ð¿Ñĥ": 8650, "ĠÑģÐ»ÐµÐ´ÑĥÑİÑīÐ¸Ðµ": 8651, "Ð»ÑĥÑĪ": 8652, "Ġ36": 8653, "Ð²Ð¾ÑĢÐ°ÑĩÐ¸": 8654, "Ġdif": 8655, "ĠÐ²ÐµÑīÐµÐ¹": 8656, "ĠÐ§Ðµ": 8657, "ĠÐ¿Ð¾ÑģÑĤÐ°Ð²Ð¸ÑĤÑĮ": 8658, "ĠÐ¾Ð¿ÑĢÐµÐ´ÐµÐ»Ð¸ÑĤÑĮ": 8659, "ĠÑģÐºÑĢÐ¾Ð¼": 8660, "ĠÐ²ÑģÐ¿Ð¾Ð¼Ð¸Ð½Ð°": 8661, "ĠÐ¿Ð¾Ð¿Ð°ÑģÑĤÑĮ": 8662, "ĠÐŁÐ¾Ð´ÑĢÐ¾Ð±": 8663, "ĠÐ²ÑĭÑıÐ²": 8664, "Ð·Ð°Ðº": 8665, "ÐºÐ¾Ð²Ð¾": 8666, "ĠÐ³Ð°Ð·ÐµÑĤÑĭ": 8667, "ĠÐ·Ð²Ñĥ": 8668, "ĠÐ²ÐµÐ»Ð¸ÐºÐ¾Ð»ÐµÐ¿": 8669, "ĠÐ¿Ð¾Ð½Ð¸Ð¼Ð°ÑĤÑĮ": 8670, "ĠÐ½ÐµÐ¿Ð¾ÑģÑĢÐµÐ´ÑģÑĤÐ²ÐµÐ½Ð½Ð¾": 8671, "Ġnumber": 8672, "overnment": 8673, "ĠÐ½ÐµÐ³": 8674, "Ġorig": 8675, "Ð°Ð½Ð¾Ð¼": 8676, "ĠÐºÐ¾Ð½ÑĨÐµÐ¿": 8677, "Ð²ÑĤÐ¾ÑĢÑĭÑħ": 8678, "ĠÐ¾Ð±ÐµÐ´": 8679, "Ð½Ð¾Ð´Ð¾ÑĢÐ¾Ð¶": 8680, "ĠÐĿÐ¸ÐºÐ°Ðº": 8681, "ÐĽÐŀ": 8682, "ĠÑĢÐ°ÑģÑĩÐµÑĤ": 8683, "ĠÐ²Ð¾Ð»Ð½Ñĥ": 8684, "ĠÐ±Ð»ÐµÐ´": 8685, "ĠÐºÐ¾ÑĢÐ¾Ð»Ñı": 8686, "ired": 8687, "ÑģÑĤÐ¾Ð»ÐµÑĤ": 8688, "ĠÐ¿Ð¾Ð´Ð¾Ð±Ð½ÑĭÑħ": 8689, "ĠÐ±Ð»Ð¸Ð·ÐºÐ¾": 8690, "ĠÐ·Ð°Ð½ÑıÑĤÐ¸Ñı": 8691, "ĠÐ¿Ð¾Ð´ÑĢÑĥÐ³": 8692, "ĠÐ¾Ð±ÑĬÑıÐ²Ð¸": 8693, "Ð¸Ð²ÑĪÐ¸Ð¹": 8694, "ĠÐ¿Ð¾Ð´ÑĥÐ¼Ð°ÑĤÑĮ": 8695, "03": 8696, "ĠÐ³Ð°Ð·Ð°": 8697, "ĠÐ±Ð¾Ð»ÑĮÑĪÐµÐ¹": 8698, "ĠÐ±Ð°Ðº": 8699, "ĠÑĢÐµÐ¼Ð¾Ð½ÑĤ": 8700, "Ð½Ð¸Ð¼Ð°Ð»Ð°": 8701, "ĠÐ¾ÑĢÑĥ": 8702, "ÑĢÑıÐ¼": 8703, "ĠÐ¾ÐºÑĢÐ°": 8704, "ĠÑħÐ¾Ð´Ð¸ÑĤÑĮ": 8705, "ÐłÐµ": 8706, "ĠÐ¿ÑĢÐµÐ´ÑĥÐ¿ÑĢÐµÐ´": 8707, "ĠMay": 8708, "ĠÐ±Ð°Ð½ÐºÐ°": 8709, "Ġ186": 8710, "ĠÑıÐ´ÐµÑĢ": 8711, "ĠÐ²ÑĭÐ¿ÑĥÑģÐºÐ°": 8712, "inc": 8713, "ĠÐ´ÐµÐ¹ÑģÑĤÐ²Ð¾Ð²Ð°ÑĤÑĮ": 8714, "ĠÐºÐ³": 8715, "ĠÐ¾ÑĩÐ°": 8716, "ĠÑģÐ¾Ð¾ÑĢÑĥÐ¶": 8717, "ĠÑĦÐ¾Ð½Ð°": 8718, "ÐºÑĢÐ°Ñģ": 8719, "ĠÐ¿Ð¾Ð²Ð¾Ð´": 8720, "ĠÐ±ÑĢÐ¾ÑģÐ°": 8721, "ĠÐ¼Ð¾ÐµÐ¼Ñĥ": 8722, "ĠÑħÐ²Ð°ÑĤ": 8723, "ÑĥÑĪÐºÑĥ": 8724, "48": 8725, "ural": 8726, "ĠAt": 8727, "ĠÐ¿Ð¾ÑģÐ°Ð´": 8728, "ĠÑģÑĥÑĤÐºÐ¸": 8729, "ĠÐĺÑģÐ¿Ð°": 8730, "ĠÐ¾ÑģÑĤÐ°Ð²Ð¸Ð»": 8731, "ĠÐ¼Ð¾ÐµÐ¼": 8732, "ĠÐµÑİ": 8733, "ĠÐĽÐ°Ð´Ð½Ð¾": 8734, "ĠÐ¿ÐµÑģÐ½Ð¸": 8735, "ĠÐ±Ð¾ÐµÐ²Ð¸": 8736, "ĠÐ½ÐµÐ½": 8737, "ĠÐ´Ð¾ÑĢÐ¾Ð³Ð¾Ð¹": 8738, "ĠÐ½Ð°ÑĢÑĥÑĪÐµÐ½Ð¸Ñı": 8739, "ĠÐ¾ÑĤÐ¾ÑĢ": 8740, "ĠÐŁÐ¾ÑĢÐ¾": 8741, "ĠJan": 8742, "ĠÐ¿ÑĢÐµÐ´Ð¿ÑĢÐ¸ÑıÑĤÐ¸Ð¹": 8743, "ĠÐ´Ð¾Ð¼Ñĥ": 8744, "ĠÑĥÑģÐ¼ÐµÑħÐ½ÑĥÐ»ÑģÑı": 8745, "ÑħÐ¾Ð·": 8746, "ĠÐ¾ÐºÑĢÑĥÐ³Ð°": 8747, "ĠÐ²ÑĭÐ¶Ð¸": 8748, "ĠÑģÑĤÑĢÐ°ÑħÐ°": 8749, "ĠÑģÐ¼ÐµÑĢÑĤ": 8750, "ÑīÑĥÑİ": 8751, "ĠÑģÐ¾ÑĨÐ¸Ð°Ð»ÑĮÐ½Ð¾Ð¹": 8752, "ĠÑģÐ¼ÐµÐ½": 8753, "ĠÑĥÐ³ÑĢÐ¾Ð¶": 8754, "ĠÑģÐºÐ¾Ð»ÑĮÐ·": 8755, "Ð¢Ðµ": 8756, "ĠÐ¿ÑĢÐ¸Ð½ÑĨÐ¸Ð¿": 8757, "ÑıÐ³": 8758, "ĠÐ¿ÑĢÐ¾Ð±Ð¾ÑĢ": 8759, "06": 8760, "ĠÐ²ÑĭÐ¿Ð¸": 8761, "ĠÐ±ÐµÑģÐºÐ¾Ð½Ðµ": 8762, "ained": 8763, "Ð¿ÑĢÐ¾Ð¼": 8764, "ĠÐ·Ð°Ð²Ðµ": 8765, "ĠÑĩÑĳÐ¼": 8766, "led": 8767, "ĠÑģÑĤÑĢÐ°Ð½Ð°": 8768, "Ð°Ð»Ð¸Ð½Ð°": 8769, "ĠÐ¾Ð±ÑīÐµÑģÑĤÐ²Ð¾": 8770, "08": 8771, "ĠÐ´ÐµÑĢÐµÐ²ÑĮÑı": 8772, "ĠÐļÑĢÑĭÐ¼": 8773, "ĠÑģÐ¾Ð¾ÑĤÐ²ÐµÑĤÑģÑĤÐ²ÐµÐ½Ð½Ð¾": 8774, "ĠÐ³Ð¾ÑĢÐ¾Ð´Ð¾Ð²": 8775, "ĠÑĥÑĤÐµ": 8776, "ĠÐ¿ÑĢÐ¾ÑģÑĤÐ¾Ð¹": 8777, "ĠÐľÐ¾Ð»Ð¾Ð´": 8778, "ĠÐ¿Ð¾ÑĢÐ¾": 8779, "ĠIII": 8780, "ĠÐºÐ°Ð¼ÐµÐ½ÑĮ": 8781, "ĠÐ¾ÑĤÑĭ": 8782, "ÑĢÐ¾ÑģÐ¾Ð²": 8783, "ÑıÐ½Ð½Ð¾": 8784, "ĠÐ´Ð½ÐµÐ²": 8785, "ĠÑĤÐµÑħÐ½Ð¾Ð»Ð¾Ð³Ð¸Ð¹": 8786, "ital": 8787, "ĠBrit": 8788, "Ġname": 8789, "ĠÐĴÐ¸Ð½": 8790, "ke": 8791, "Ð¸ÑĤÐ¾Ð¼": 8792, "ĠÐ¼Ð¸Ð»Ð¾": 8793, "ĠÐ·Ð´Ð°Ð½Ð¸Ðµ": 8794, "ung": 8795, "Ð¼Ð¾Ð·": 8796, "ĠÐ¿ÑĢÐ¾ÐºÑĥÑĢÐ°": 8797, "ĠÐ³ÑĢÐ¾": 8798, "39": 8799, "Ġback": 8800, "Ð¶Ð´Ð°ÐµÑĤ": 8801, "ĠÐ»ÐµÑĤÐ¾Ð¼": 8802, "ÑĤÐ¾ÑĢÐµ": 8803, "Ð¢Ñĭ": 8804, "ĠÐ¸Ð·Ð²": 8805, "ĠÐ¢ÑĢÐ¾": 8806, "ÑĢÐ°Ð±Ð¾ÑĤÐ°ÑĤÑĮ": 8807, "ĠÐºÐ¸ÑĢ": 8808, "Ð¸Ð¼Ð¾Ð¹": 8809, "ÑģÑĤÑģÑı": 8810, "ĠÑģÐ¾ÑĤÑĢÑĥÐ´Ð½Ð¸ÐºÐ¸": 8811, "Ð¼Ð°Ð¹": 8812, "ÄĲÅ": 8813, "ĠÐ¸ÑģÐ¿Ð°Ð½": 8814, "ĠÐĳÐ¾Ð¶": 8815, "let": 8816, "ĠÑģÑįÑĢ": 8817, "ĠÐ¢ÐĲÐ¡Ð¡": 8818, "ĠÐ¾ÑģÐ¾Ð±ÐµÐ½Ð½Ð¾ÑģÑĤÐ¸": 8819, "ĠÐ³ÑĢÐ°Ð¼Ð¾ÑĤ": 8820, "ĠÐ´Ð²Ð¸Ð½Ñĥ": 8821, "ĠÐºÐ°ÑĢÑĤÑĭ": 8822, "ĠÐ¾ÑĤÐ½Ð¾ÑĪÐµÐ½Ð¸Ñİ": 8823, "ĠÐ¾ÑģÑĤÐ°Ð»Ð°ÑģÑĮ": 8824, "ĠÐ°Ð½Ð°Ð»Ð¸Ð·": 8825, "ĠÐ¿Ð¾Ð¼Ð¾Ð³Ð°ÐµÑĤ": 8826, "Ð´ÑĥÐ¼Ñĭ": 8827, "ĠÐ§Ð¸ÑĤÐ°": 8828, "ĠÐŃÐ»Ð¸": 8829, "ĠÐ¸Ð·Ð¼ÐµÐ½Ð¸ÑĤÑĮ": 8830, "ĠÐ´ÐµÑĢÐ¶Ð°ÑĤÑĮ": 8831, "ĠÐ¿Ð¾Ð¿ÑĢÐ¾": 8832, "ĠÐ¨ÑĤÐ°": 8833, "ĠÐ»Ð¸ÐºÐ²Ð¸": 8834, "ause": 8835, "ually": 8836, "ĠÐ¸Ð·ÑĥÑĩÐ°": 8837, "ĠÐ¿Ð¾ÑħÐ¾ÑĢÐ¾": 8838, "ĠÑģÐ¸Ñı": 8839, "ĠÐ´Ð¸ÑĢÐµÐºÑĤÐ¾ÑĢÐ°": 8840, "ÑĩÐµÑģÑĤÐ²Ñĥ": 8841, "ĠÐ¾Ð±ÑıÐ·Ð°ÑĤÐµÐ»ÑĮ": 8842, "Ġfin": 8843, "Ð¿ÑĢÐµÐ´": 8844, "Ð¾Ð¿Ð¾": 8845, "ĠÑģÐ¾Ð¾Ð±ÑīÐ°Ð»Ð¾ÑģÑĮ": 8846, "ĠÑģÑĩÐ¸ÑĤÐ°Ð»": 8847, "ÑīÐ°Ð»Ð¸": 8848, "ĠÐ¸Ð¼ÐµÐµÑĤÑģÑı": 8849, "ĠÐ½Ð¾Ð³Ñĥ": 8850, "ĠÐ±ÑĭÐ²ÑĪÐ¸Ð¹": 8851, "Ġwill": 8852, "Ð±Ñİ": 8853, "ĠÑĥÐ½Ð¸Ð²ÐµÑĢÑģÐ¸ÑĤÐµÑĤ": 8854, "ÑĤÐ°ÑĨÐ¸Ð¸": 8855, "ĠÐ²ÐµÐ·Ð´Ðµ": 8856, "ÑĳÑģ": 8857, "ĠÐĳÐ¾Ð»ÑĮ": 8858, "ĠÐŁÑĢÐ¸ÑĩÐµÐ¼": 8859, "ĠÐłÐ°Ð¹": 8860, "ÑıÑīÐµÐµ": 8861, "ĠÑģÐ¾Ð¾Ð±ÑīÐµÐ½Ð¸Ñı": 8862, "ÑĪÐºÐ¾": 8863, "ĠÐºÐ°Ð¶Ð´ÑĭÐ¼": 8864, "ĠÐ´Ð¾Ð³Ð¾Ð²Ð¾ÑĢÐ¸": 8865, "ĠÑįÑĦÑĦÐµÐºÑĤ": 8866, "ÑĭÑĢ": 8867, "ved": 8868, "ĠÐŁÐ¾Ð¶Ð°Ð»ÑĥÐ¹": 8869, "ĠÐ»Ð°Ð´Ð¾": 8870, "ÐļÐ¾Ð½": 8871, "ĠÐ¸ÑĤÐ¾Ð³Ð°Ð¼": 8872, "book": 8873, "ĠÐ²ÑĭÑħÐ¾Ð´Ð¸ÑĤ": 8874, "ĠÑģÐ¿Ð¾ÑĢÑĤÑģ": 8875, "ĠÑģÐ¿ÐµÑĨÐ¸Ð°Ð»Ð¸ÑģÑĤÑĭ": 8876, "ĠÑģÐ²Ð¾Ð¹ÑģÑĤÐ²Ð°": 8877, "ĠÐ´Ð²Ð¾ÑĢÐµ": 8878, "ĠÐ·Ð°ÑĢÑĥ": 8879, "ĠÐ¶ÐµÐ½Ñĭ": 8880, "ĠÐ½Ð°Ð»Ð¸ÑĩÐ¸Ðµ": 8881, "ĠÐľÐ°Ð½": 8882, "Ð´ÑĢÐ°": 8883, "ĠÐ·Ð´Ð¾ÑĢÐ¾Ð²ÑĮÐµ": 8884, "ĠÑĥÑģÐ¸Ð»Ð¸Ñı": 8885, "ĠÐ¿ÑĢÐ¸Ð¼ÐµÐ½ÐµÐ½Ð¸Ñı": 8886, "ĠÐ±ÑĥÐ´ÑĮ": 8887, "ĠÐ¾ÑģÐºÐ¾ÑĢÐ±": 8888, "ĠÑģÐ½ÐµÐ³": 8889, "ĠÑģÐ»Ð°Ð´": 8890, "ĠÐ¢Ð¸Ñħ": 8891, "ĠÐ´Ð¾Ð»Ð¶Ð½Ð¾ÑģÑĤÑĮ": 8892, "ĠÐ³Ð¸Ð¼": 8893, "ĠÐŁÑĢÐµÐ´ÑģÑĤÐ°Ð²": 8894, "ÑĪÐµÐ½Ð¸Ð¹": 8895, "ĠÑĦÐ°ÑĢ": 8896, "ÐµÑħÐ°": 8897, "ÑĢÐ°Ð»Ð¸": 8898, "mail": 8899, "ĠÑģÐµÐ·Ð¾Ð½Ð°": 8900, "ĠÐ¿ÑĢÐ¾ÑĨÐµÐ´": 8901, "Ð·Ð°ÑĨÐ¸Ñİ": 8902, "Ð¸ÑģÐº": 8903, "ÐºÐ¾Ð¼Ð°": 8904, "Ð¾Ð³ÑĢÐ°Ð´": 8905, "iet": 8906, "ĠÐ¾ÑĢÐ³Ð°Ð½Ð¸Ð·Ð¾Ð²": 8907, "ĠÑģÐ¿Ð¾ÑģÐ¾Ð±ÐµÐ½": 8908, "ĠÐľÐ°ÑĢÐ¸Ñı": 8909, "Ð´ÐµÑĪÑĮ": 8910, "ĠÐ»ÐµÑģÐ°": 8911, "ĠÐ´Ð¾ÐºÐ°Ð·": 8912, "ĠStates": 8913, "31": 8914, "ĠÑģÐ²ÐµÐ´ÐµÐ½Ð¸Ñı": 8915, "ĠÐºÑĥÐ»Ð°": 8916, "arm": 8917, "ĠNational": 8918, "ĠÐĴÐ¾Ð¿ÑĢÐ¾Ñģ": 8919, "ĠÐĶÐ°ÑĢ": 8920, "ĠÐ´Ð²Ð¾Ð¹": 8921, "ĠÐ²Ð²Ð¾Ð´": 8922, "ĠÐµÑħ": 8923, "amed": 8924, "ĠÐ»ÐµÐ¹ÑĤÐµÐ½": 8925, "ĠÐ½Ð°ÑħÐ¾Ð´Ð¸Ð»Ð¸ÑģÑĮ": 8926, "ĠÑĦÐµÑĢ": 8927, "ĠÑĥÑģÐ¸Ð»": 8928, "Ġne": 8929, "Ġcre": 8930, "ÑģÑĤÐ¸Ð¼": 8931, "ĠÐ£Ð¿ÑĢÐ°Ð²": 8932, "ĠÐ³ÑĢÑĥÐ¿Ð¿Ðµ": 8933, "ĠÐ¼Ð°ÑĢÐºÐ¸": 8934, "ĠÐ²Ð¸Ð½Ð°": 8935, "ÐŁÐµÑĢ": 8936, "ĠÐ¤Ð¸Ð»Ð¸Ð¿": 8937, "ÑĤÐµÑĢÐ½Ð°": 8938, "ÐºÑĥÑĢ": 8939, "ĠÑĢÐµÑĪÐ¸ÑĤÑĮ": 8940, "ĠÐ¿Ð¾ÐºÐ»Ð¾Ð½": 8941, "ĠÐ¿ÑĢÐ¾ÑĦÐµÑģÑģÐ¾ÑĢ": 8942, "ÑĤÐ¾ÑĢÐ°Ð¼Ð¸": 8943, "ĠÐµÐ²ÑĢÐµÐ¹": 8944, "ĠÐ¸Ð·Ð±ÐµÐ¶Ð°ÑĤÑĮ": 8945, "Ð±ÑĢÐ¸": 8946, "ĠÐ¿ÑģÐ¸ÑħÐ¾Ð»Ð¾Ð³Ð¸": 8947, "Ð¼ÐµÑĩÐ°": 8948, "Ð¾ÑĩÐµÐ¼Ñĥ": 8949, "ĠÐ¾Ð¿Ðµ": 8950, "ĠÑĪÐ°ÑĢ": 8951, "ĠÐ¼Ð°ÑĤÐµÐ¼Ð°": 8952, "ĠÐ¿Ð¾Ð¹Ð¼": 8953, "ĠÑħÐ¾Ð´Ñĥ": 8954, "ĠÐ¿Ð¾Ð±ÐµÐ´Ñĥ": 8955, "my": 8956, "ÑĭÐ²Ð°ÑıÑģÑĮ": 8957, "au": 8958, "ĠÑĢÐ°Ð½ÐµÐ½": 8959, "ĠÑĥÐ¹": 8960, "ĠÐ»Ð¸Ð¼": 8961, "ful": 8962, "ives": 8963, "Ð¾ÑĤÐ¾Ð¹": 8964, "ĠÐ´ÑĭÑħÐ°Ð½Ð¸Ðµ": 8965, "ÑģÐ¸ÑģÑĤ": 8966, "ĠÐ¾ÑĢÐ³Ð°Ð½Ð¸Ð·Ð°ÑĨÐ¸Ñı": 8967, "ĠÐ½Ð°Ð²Ñĭ": 8968, "ĠÑģÐ¾ÑħÑĢÐ°Ð½Ð¸ÑĤÑĮ": 8969, "ĠÐµÐ´Ð¸Ð½ÑģÑĤÐ²ÐµÐ½Ð½ÑĭÐ¹": 8970, "ĠÐ½ÐµÐ²Ðµ": 8971, "ĠÐºÐ¾Ð½ÐºÑĥÑĢÐµÐ½": 8972, "ĠÐŁÐ°Ð²ÐµÐ»": 8973, "ĠÐ°Ð²ÑĤÐ¾Ð¼Ð¾Ð±Ð¸Ð»ÐµÐ¹": 8974, "ĠÑģÐ¾Ð²Ðµ": 8975, "32": 8976, "ĠÑģÐ¾Ð¾Ð±ÑīÐ¸Ð»Ð°": 8977, "ĠÑĤÑĢÐ¸Ð´ÑĨÐ°ÑĤÑĮ": 8978, "04": 8979, "ĠÑĥÐ´Ð¾Ð²Ð¾Ð»ÑĮÑģÑĤÐ²Ð¸ÐµÐ¼": 8980, "Ð½ÐµÐ¶": 8981, "ĠÐ¿ÑĢÐµÐ´ÑĬ": 8982, "erson": 8983, "Ð¸ÑĤÐµÐ»ÑĮÐ½ÑĥÑİ": 8984, "ĠÐĿÐ¾Ð²ÑĭÐ¹": 8985, "ient": 8986, "ĠCan": 8987, "Ð¾ÑĤÐ¾Ð¼": 8988, "Ġmin": 8989, "ĠÑģÑĤÐ¾Ð¸Ð¼Ð¾ÑģÑĤÐ¸": 8990, "ÑīÐµÐ½Ð°": 8991, "ĠEx": 8992, "ĠÐľÐ¸ÑħÐ°Ð¹Ð»Ð¾Ð²": 8993, "ÐµÐ½Ð¾Ð¼": 8994, "ĠÐ»ÐµÑģÑĥ": 8995, "ĠÐ¼ÐµÐ½ÐµÐ´Ð¶": 8996, "ĠÐ²ÑĭÐ¿Ð¾Ð»Ð½": 8997, "ĠÑĦÐ¸Ð·Ð¸": 8998, "ĠÐ²Ð¾ÑĢÐ¾ÑĤÐ°": 8999, "ĠÑģÐ°Ð¿": 9000, "ĠÐĴÐ»Ð°Ð´Ð¸Ð¼Ð¸ÑĢÐ°": 9001, "ĠÐ¿Ð¾ÑĢÐ¾Ð´": 9002, "eng": 9003, "ĠÐ¿Ð°Ð»Ðµ": 9004, "ĠÐ¿Ð¾Ð»Ð°": 9005, "ĠÐ¿ÑĢÐ¾ÐºÐ»Ñı": 9006, "ĠÐ¿Ð¾Ð´Ð¿": 9007, "ĠÑĩÑĥ": 9008, "ÐµÑĢÐµÐ¼Ð¾": 9009, "ĠÑģÐ¼Ð¾ÑĤÑĢÑı": 9010, "Ġsong": 9011, "ĠÑģÐ¾Ð¼Ð½ÐµÐ½Ð¸Ñı": 9012, "ĠÐ³Ð¾ÑĤÐ¾Ð²Ð°": 9013, "ĠÐ´ÑĥÑĢ": 9014, "ÑīÐ°Ð½Ð¸Ðµ": 9015, "ĠÐ´ÐµÐ²ÑĥÑĪÐºÑĥ": 9016, "ĠÐºÐ°Ð¶Ð´Ð¾Ð¼Ñĥ": 9017, "ĠÐ¡Ð¼Ð¾ÑĤ": 9018, "ĠÑģÑĥÐ¿ÐµÑĢ": 9019, "ĠÐľÐ°Ð³": 9020, "ĠÑģÐ¿Ð°Ð»ÑĮ": 9021, "ĠÐ¿ÑĢÐ¾Ð±Ð¾ÑĢÐ¼Ð¾ÑĤ": 9022, "ĠÐ±Ð¾Ð¶Ðµ": 9023, "ĠÐ½Ð°ÐºÐ¾Ð¿": 9024, "ĠÑĥÑģÑĤÐ°Ð½Ð¾Ð²Ð¸ÑĤÑĮ": 9025, "ĠÐ±Ð»ÐµÑģÑĤ": 9026, "ĠÐĲÐ¼": 9027, "Ð¶ÑĥÑĢ": 9028, "ĠÐ´Ð¸Ð°Ð»": 9029, "ĠÐºÐ¾Ð»ÐµÐ½Ð¸": 9030, "ĠÐ¾ÑĤÐ¿ÑĢÐ°Ð²Ð¸Ð»ÑģÑı": 9031, "ĠÐ´Ð¾ÑģÑĤ": 9032, "ĠÑģÐ½Ð¸Ð¼": 9033, "ĠÐºÐ¾Ð¶": 9034, "ĠÐ»Ð¸ÑĤÐµÑĢÐ°ÑĤÑĥÑĢ": 9035, "Ð¿Ð°ÑĢÑĤÐ°": 9036, "ÑİÑīÐµÐ¹ÑģÑı": 9037, "ĠÐ¿Ð¾Ð»ÑĥÑĩÐ°ÑĤÑĮ": 9038, "Ġsystem": 9039, "ĠÐ¿Ð¾Ð»ÑĥÑĩÐ¸ÑĤÑģÑı": 9040, "Ð¼ÑĥÐ»Ð¸": 9041, "rand": 9042, "ĠÐºÐ¾ÑĢÑĢÐµÐº": 9043, "ĠÐºÐ°ÑĤÐµÐ³Ð¾ÑĢÐ¸Ð¸": 9044, "ĠÐĴÐ°Ð»Ðµ": 9045, "ĠÐĶÐµÐ¹ÑģÑĤÐ²": 9046, "ĠÐ¿Ð¾Ð»Ð¾Ð¶ÐµÐ½Ð¸Ñı": 9047, "ĠÑĢÐµÑĨÐµÐ¿": 9048, "ÑģÐ¾Ð²ÐµÑĢ": 9049, "ÑģÑĤÑĢÐµÑĩÑĥ": 9050, "ĠÐĳÐ»Ð°Ð³Ð¾Ð´Ð°ÑĢÑı": 9051, "Ð¸ÑĨ": 9052, "ĠÑįÐ»ÑĮ": 9053, "Ð·Ð¸Ñģ": 9054, "ÑģÐµÐ»": 9055, "ÐµÑĢÐ½Ð¾": 9056, "ĠÐłÑı": 9057, "ÐºÐµÑĢ": 9058, "Ġdirect": 9059, "ĠÐŃÐ»ÑĮ": 9060, "Ð½Ð¸ÑıÐ¼Ð¸": 9061, "Ġgener": 9062, "ĠÐ³Ð°Ð·ÐµÑĤÐ°": 9063, "ĠÑģÐ¼Ð¾ÑĤÑĢÐ¸ÑĤ": 9064, "ĠÐ¥Ð¾Ð»": 9065, "ĠÐ»ÐµÐ¶Ð°Ð»": 9066, "ÑĩÐ¸Ð½Ñĥ": 9067, "ÑĤÐ¸ÐºÐµ": 9068, "ÑīÐµÐ½Ð¾": 9069, "Ð³ÑĥÐ»Ð¸": 9070, "ĠÐĴÐ¾ÑģÑĤÐ¾": 9071, "ĠÐ¿ÑĢÐµÑĢ": 9072, "Ġpeople": 9073, "ĠÐ³Ð¾ÑĢÐ´Ð¾": 9074, "ĠÐ¿ÑĢÐµÐ¿ÑıÑĤ": 9075, "ÑģÑĤÑĢÐ¾Ð¹ÐºÐ¸": 9076, "ĠÐ¿Ð°ÑĢÑĤÐ¸Ð¹": 9077, "ĠÐ²ÐµÑĢÐ½ÑĥÑĤÑĮ": 9078, "ĠÐ´Ð¾ÑĩÐµÑĢÐ¸": 9079, "ĠÐ¿ÑĢÐ¸ÑĩÐ¸Ð½Ñĭ": 9080, "ĠAust": 9081, "ĠÐ´ÐµÑģ": 9082, "ird": 9083, "ĠÑģÐ¼ÑĭÑģÐ»Ð°": 9084, "ĠÐŀÐŀÐĿ": 9085, "ĠÑĢÐ°ÑģÑģÐ¼Ðµ": 9086, "Ġplayed": 9087, "ÐĺÐ¢": 9088, "ĠÐ»Ð°Ð´Ð½Ð¾": 9089, "ĠÐ²ÑĭÑĤÑı": 9090, "Ð½Ð¾ÑģÐ¸ÑĤÑĮ": 9091, "ĠÐ±ÐµÑģÐ¿Ð»Ð°ÑĤÐ½Ð¾": 9092, "ĠÐ½Ð¾ÑĢÐ¼Ð°Ð»ÑĮÐ½Ð¾": 9093, "Ġ#": 9094, "ĠÐ´Ð°ÑİÑĤ": 9095, "ĠÐ·Ð°Ð±ÑĭÐ»": 9096, "Ð¼Ð¼": 9097, "ĠÐ¢Ð°ÐºÐ¸Ðµ": 9098, "ĠÐ¿Ð¾Ð´Ð¾Ð±Ð½ÑĭÐµ": 9099, "ĠÐ¿Ð¾Ð³Ð¸Ð±Ð»Ð¸": 9100, "ĠÐ½Ð°Ð¿Ð¸ÑĤ": 9101, "ĠÐ¿ÑĢÐ¸Ð±Ð¾ÑĢ": 9102, "ĠÐ¿ÑĢÐ¸Ð´ÑĥÐ¼": 9103, "ÑĢÐ¾Ð²Ð°Ð½Ð½Ð¾Ð³Ð¾": 9104, "ĠÐ´Ð¾Ð³Ð¾Ð²Ð¾ÑĢÐ°": 9105, "ĠÐ·Ð°ÑħÐ¾Ð´": 9106, "ĠÐ¼Ð¸Ð½Ð¸Ð¼": 9107, "ĠGerman": 9108, "Ġacc": 9109, "ĠÐļÑĥÐ·": 9110, "Ġstart": 9111, "ĠÐ¾Ð¿Ð¸": 9112, "ĠÐ¿ÐµÑĩÐ°": 9113, "ĠÐĿÐµÑģÐºÐ¾Ð»ÑĮÐºÐ¾": 9114, "ĠÐ¾Ð±ÑĢÑĥ": 9115, "Ð¿Ð»Ð¸": 9116, "ĠÑģÐ¿ÑĢÐ°Ð²ÐµÐ´Ð»Ð¸Ð²Ð¾": 9117, "ĠÐ¿Ð»Ð°Ð½Ñĭ": 9118, "ÑĢÑĥÑĢ": 9119, "ared": 9120, "ĠÑĢÐ°Ð·ÑĥÐ¼ÐµÐµÑĤÑģÑı": 9121, "ĠÑģÑĤÐ²Ð¾Ð»": 9122, "ĠÐĴÐĴ": 9123, "ĠÐ¾Ð±ÑħÐ¾Ð´": 9124, "ÑīÐµÐ½Ð¸ÐµÐ¼": 9125, "ĠÐļÐµÐ¹": 9126, "ĠÑħÐ»Ðµ": 9127, "ĠÐ·Ð°Ð¼ÐµÑģÑĤÐ¸ÑĤÐµÐ»ÑĮ": 9128, "Ð¿Ð¾Ñģ": 9129, "ĠÐ¿ÑĢÐ¸Ð·Ñĭ": 9130, "ĠÐĴÐ°Ð½": 9131, "ÑģÑĤÐ¸Ð»ÑģÑı": 9132, "ĠÐĳÐ¾Ð»ÑĮÑĪÐµ": 9133, "ĠÑģÐ¾Ð·Ð½Ð°Ð½Ð¸Ñı": 9134, "ĠÐºÐ¾ÑĢÑĢÐµÑģÐ¿": 9135, "ĠÐ·Ð°ÐºÑĢÐ¸": 9136, "Ð¸Ð²Ð°ÐµÑĤ": 9137, "ÑįÐ½ÐµÑĢ": 9138, "ĠÐ¿ÑĢÐ¸Ð±Ð»Ð¸Ð·": 9139, "ĠÐ·Ð¾Ð²ÑĥÑĤ": 9140, "ĠÐĳÐ¾Ð¶Ðµ": 9141, "],": 9142, "Ġ1941": 9143, "Ġext": 9144, "Ġarea": 9145, "ĠÐ¾Ð±Ð¾Ð¸Ñħ": 9146, "ĠÑģÐ¾ÑĢÐ¾Ðº": 9147, "ĠÐĵÐµÐ½ÐµÑĢÐ°": 9148, "Ġchar": 9149, "Ð¼ÐµÑĤÑĢÐ¾Ð²": 9150, "Ð»Ð¸ÑĩÐ½Ð¾": 9151, "Ð¼ÑĥÐ½": 9152, "Ð¸Ð·Ð¸": 9153, "ĠÐ´ÐµÑĤÑĮÐ¼Ð¸": 9154, "ĠÐ²ÑģÑĤÑĢÐµÑĩÐµ": 9155, "ĠÑģÐºÐ»Ð°": 9156, "ĠPr": 9157, "ĠÐ²ÑĭÐ·Ð¾Ð²": 9158, "ĠÐ¿Ð°Ñħ": 9159, "ĠÐ³Ð»ÑĥÑħ": 9160, "ĠÐ»Ð¸ÑĨÑĥ": 9161, "ĠÑģÐ²ÐµÐ¶": 9162, "ĠÑĢÑıÐ´Ð°": 9163, "ÑģÑĤÐ²ÐµÐ½Ð½ÑĭÐ¼Ð¸": 9164, "Ð¾Ð¿ÐµÑĢÐ°": 9165, "ĠÐ»Ð¾Ð¼": 9166, "ÑģÑĭÐ¿Ð°": 9167, "ĠÐ¿Ð¾Ð¶ÐµÐ»Ð°": 9168, "ĠÐºÑĢÐµÐ¿ÐºÐ¾": 9169, "ĠÑģÐ¾Ð±Ð¸ÑĢÐ°Ð»ÑģÑı": 9170, "ĠÐ´ÑĥÐ¼Ð°ÐµÑĪÑĮ": 9171, "ĠÑĤÐµÐ»ÐµÐ²Ð¸Ð·": 9172, "ÑıÑīÐ¸Ð¼": 9173, "Ð²Ð°Ð½Ð¸Ð¹": 9174, "ĠÐºÐ¾ÑĪ": 9175, "ĠÐĳÐ¾Ð»": 9176, "ĠÑĤÐµÐ½Ð¸": 9177, "els": 9178, "ĠÑĢÐ¸Ð¼": 9179, "Ð°ÑĢÐ´": 9180, "ĠÐ¿Ð¾Ð½ÑıÑĤÐ¸Ñı": 9181, "ĠÐ¿ÑĢÐ¸ÐºÐ°Ð·Ð°Ð»": 9182, "Ġvar": 9183, "ĠÐ¸Ð·Ð±Ð¸ÑĢÐ°": 9184, "ĠÐ¾ÑģÐ½Ð¾Ð²Ð°Ð½Ð¸Ð¸": 9185, "ĠÐĽÐ¸Ð½": 9186, "ĠÐ½Ð°Ð±Ð¾ÑĢ": 9187, "ÑĩÐµÐ½Ð½Ð¾Ð¹": 9188, "ĠÐºÑĢÑĭÐ»ÑĮ": 9189, "ĠÐ±ÑĥÐ´ÑĥÑīÐµÐ³Ð¾": 9190, "ĠÐ¸Ð¼ÐµÑİ": 9191, "ÐµÐ½Ñģ": 9192, "ĠÐ¾Ð±ÐµÑģÐ¿ÐµÑĩÐ¸ÑĤÑĮ": 9193, "ÂłÂłÂłÂłÂłÂłÂłÂł": 9194, "ĠÑģÑĥÐ¿ÑĢÑĥÐ³": 9195, "ĠÐ¿Ð¾Ð¾Ð±Ðµ": 9196, "ÑĩÐ¸ÑĤÑģÑı": 9197, "ĠÑĥÐ»ÑĭÐ±ÐºÐ¾Ð¹": 9198, "ÑĥÐ»ÑĮÑĤ": 9199, "ĠÑĤÐµÐ¼Ð°": 9200, "Ð¾Ð¿Ð¾Ð»ÑĮ": 9201, "ĠÐ¾Ð±Ð¾ÑĢÑĥÐ´Ð¾Ð²Ð°Ð½Ð¸Ðµ": 9202, "Ð¾Ð¿Ð¸Ñģ": 9203, "Ġreleased": 9204, "Ð»ÐµÐ¶Ð°": 9205, "ĠÐ¿ÑĢÐ¾ÐµÐºÑĤÐ¾Ð²": 9206, "ĠÐ³Ð¾ÑĢÐ¾Ð´ÑģÐºÐ¾Ð¹": 9207, "ĠÑĤÑĢÐ¾Ðµ": 9208, "ĠÑĥÑĪÐ¸": 9209, "ÑĢÐµÑĪ": 9210, "ĠÐ¿Ð¾Ð´ÑĢÐ¾Ð±Ð½Ð¾": 9211, "ĠÐ¿ÑĢÐ¾Ð³ÑĢÐ°Ð¼Ð¼Ðµ": 9212, "Ð¶Ð°Ð²": 9213, "Ġcalled": 9214, "ĠÐ§ÐµÐ»Ð¾Ð²ÐµÐº": 9215, "ĠÑĢÑĥÐºÐ¾Ð²Ð¾Ð´Ð¸ÑĤÐµÐ»ÑĮ": 9216, "ĠÐ±ÑĢÐµÐ½": 9217, "ÑĭÐ²Ð°Ð»Ð°": 9218, "ĠÐ¸Ð¼ÐµÐ»Ð°": 9219, "ĠÐ¿ÑĢÐ¾ÑĪÐµÐ´": 9220, "ym": 9221, "rist": 9222, "ĠÐ¾Ð±ÑĢÐ°Ð·Ð¾Ð²Ð°ÑĤÐµÐ»ÑĮ": 9223, "ĠÑģÐµÐºÑģÑĥ": 9224, "ĠÐ·Ð°Ð½Ð¸Ð¼Ð°ÐµÑĤ": 9225, "ĠÐ¢Ð°Ð½": 9226, "ĠÑģÐ¿Ð°ÑģÑĤÐ¸": 9227, "ĠÐ¿Ð¾Ð¸Ð½ÑĤÐµÑĢÐµÑģÐ¾Ð²": 9228, "ÐºÑĥÑĤ": 9229, "ĠÐļÐ°ÐºÐ¾Ð¹": 9230, "ĠÐ¿Ð¾ÑģÑĭ": 9231, "ĠÐĹÐ²": 9232, "ĠÐ¾Ð´ÐµÐ¶Ð´Ñĭ": 9233, "ĠÐ¿Ð¸ÑģÑĤÐ¾Ð»ÐµÑĤ": 9234, "ĠÐ¸ÑģÑĤ": 9235, "ĠÑģÐ»Ð¾Ð²Ð¾Ð¼": 9236, "Ġdesign": 9237, "ĠÐ¿Ð¾Ð²ÐµÑĢÐ¸": 9238, "ĠÐ¿Ð¾Ð´Ð°ÑĢÐ¾Ðº": 9239, "ĠÐ´Ð¸Ð½Ð°Ð¼Ð¸": 9240, "ĠÐ¸Ð½ÑĤÐµÐ»Ð»ÐµÐº": 9241, "Ð¾Ð´Ð°Ð¼Ð¸": 9242, "Ġmay": 9243, "ĠÐ½Ð°Ñĥ": 9244, "ĠÑģÐ²ÑıÐ·Ð°Ð½Ð¾": 9245, "ĠÐ²Ð½ÑĥÑĤÑĢÐµÐ½Ð½Ð¸Ñħ": 9246, "47": 9247, "ĠÐ¡Ð»Ð¾Ð²": 9248, "ĠÐ¿ÐµÑĢÑģÐ¿ÐµÐº": 9249, "ĠÐ²ÑĭÑģÐ¾ÐºÐ¸Ð¹": 9250, "ĠÐ³ÑĢÑĥÐ¿Ð¿Ð¸": 9251, "ĠÑĥÐºÑĢÑĭ": 9252, "ĠÑģÐ¼Ð¾Ð³Ð»Ð°": 9253, "ĠÐ¾Ð±ÑģÑĤÑĢÐµ": 9254, "ÑĢÐµÐ´Ð°": 9255, "ÐĿÐµÑĤ": 9256, "ĠÐ¾ÑģÐº": 9257, "ĠÑĢÐµÑĪÐ°": 9258, "ĠÐ·Ð½Ð°Ñı": 9259, "ues": 9260, "ĠÐ¾ÑĤÐ´ÐµÐ»ÑĮÐ½ÑĭÑħ": 9261, "Ð´ÐµÑĢÐ¶Ð°Ð»": 9262, "ĠÐĶÐ°Ð»ÐµÐµ": 9263, "ĠÐ²Ð¸Ð´Ñĭ": 9264, "ĠÑİÐ³Ð¾": 9265, "ĠÐ¢Ð°Ð¹": 9266, "ĠÑĩÑĥÐ´ÐµÑģ": 9267, "ĠÐ¿Ð¾ÑģÐ»ÐµÐ´Ð½ÐµÐ¹": 9268, "ĠÑģÐ¾Ð±ÑģÑĤÐ²ÐµÐ½Ð½Ð¾Ð³Ð¾": 9269, "ÑģÑĤÐ½ÑĭÐ¹": 9270, "ĠÐ·Ð°Ð¿Ð¾Ð¼": 9271, "ĠÐ¸Ð·Ð±ÑĢÐ°Ð½": 9272, "Ð¿ÐµÐ´": 9273, "ĠNov": 9274, "ĠÐ±Ð¾ÐµÐ²ÑĭÑħ": 9275, "ĠÐ¸Ð½ÑĦÑĢÐ°": 9276, "ÐºÐ¾ÑĢÐ°": 9277, "ĠÐ¿ÑĢÐµÐ´ÑĥÑģÐ¼Ð¾ÑĤÑĢÐµÐ½": 9278, "ner": 9279, "ĠÐ¿ÑĢÐ¾Ð´Ð¾Ð»Ð¶Ð°ÐµÑĤ": 9280, "ĠÐ¶Ð´Ð°Ð»": 9281, "ĠÐŁÐ¾Ð»Ð¸": 9282, "ĠÑĢÑĥÑģÑģÐºÐ¸Ðµ": 9283, "ÐĺÐ½ÑĤÐµÑĢ": 9284, "ĠÐ²ÐµÑīÐµ": 9285, "ĠÐ¶ÐµÐ½ÑīÐ¸Ð½Ñĥ": 9286, "ĠÐ¾ÑĤÐºÑĢÑĭÑĤÑĮ": 9287, "ĠÐ¿ÑĢÐ°Ð·Ð´Ð½Ð¸Ðº": 9288, "ĠEuro": 9289, "Ġmed": 9290, "ĠÑĥÐ¿ÑĢÐ°Ð¶": 9291, "ĠÐ¸Ð½ÑĤÐµÑĢÐµÑģÑĥ": 9292, "ĠÐ¸ÑģÑĤÐµ": 9293, "ĠÐ¾Ð±Ð¾Ð·": 9294, "ĠÐ±Ð°ÑĤÐ°Ð»ÑĮ": 9295, "ĠÐ¿Ð¾ÑĨÐµÐ»": 9296, "ÐºÑĥÐ»ÑĮ": 9297, "ĠÐ¾Ð±Ð»Ð°Ð´Ð°ÐµÑĤ": 9298, "ĠÐ¿Ð¾Ð´ÑĩÐµÑĢÐºÐ½ÑĥÐ»": 9299, "ĠÐ¤Ð¾ÑĢ": 9300, "ĠÐºÐ½ÑıÐ·ÑĮ": 9301, "ÑĦÐ¸Ð»ÑĮ": 9302, "ĠSchool": 9303, "ĠÐ³Ð»Ð¾Ð±": 9304, "ÑĤÐ½Ð¾Ð³Ð¾": 9305, "Ð»ÑıÐµÐ¼": 9306, "ĠÐ²Ð¾Ð·Ð½Ð¸ÐºÐ°ÐµÑĤ": 9307, "ĠÑħÑĢÐ°Ð¼": 9308, "ĠÐ¿Ð»Ð°Ð½ÐµÑĤÑĭ": 9309, "ĠÐ¼Ð¾Ðº": 9310, "ĠÐ²Ð¾ÑĪÐ»Ð¸": 9311, "Ġmat": 9312, "ĠÑįÑĦÐ¸": 9313, "Ð²ÑĪÐµÐ¹ÑģÑı": 9314, "Ġ1999": 9315, "ets": 9316, "Ð°Ð¿": 9317, "ĠÐ¿ÑĢÐ¾Ð³ÑĢÐ°Ð¼Ð¼Ñĥ": 9318, "ĠÐ¸Ð½ÑĤÐµ": 9319, "ĠÐķÐ³Ð¸": 9320, "ĠÐ·Ð°ÑıÐ²Ð¸Ð»Ð°": 9321, "ĠÐ²Ð¾ÐµÐ½Ð½Ð¾Ð³Ð¾": 9322, "ĠJu": 9323, "ĠÑģÐ»ÑĥÐ¶Ð±Ñĥ": 9324, "ĠÐ°Ð²ÑĤÐ¾Ð±ÑĥÑģ": 9325, "ĠÑĦÑĥÐ½ÐºÑĨÐ¸Ð¸": 9326, "ĠÐ¿Ð¾ÑģÑĤÐ°Ð²Ð¸Ð»": 9327, "ÑĤÐºÑĥ": 9328, "Ð¾Ñı": 9329, "por": 9330, "Ġfeat": 9331, "ĠÐ´Ð¾ÑģÑĤÐ¸Ð¶ÐµÐ½Ð¸Ñı": 9332, "St": 9333, "ĠÐ²Ð½ÑĥÑĤÑĢÑĮ": 9334, "ÑĩÐµÑģÑĤÐ²Ð¾Ð¼": 9335, "ĠÐ²Ð¾Ð·ÑĢÐ°Ð·": 9336, "ĠÑģÐ¾Ð´ÐµÑĢÐ¶Ð°Ð½Ð¸Ðµ": 9337, "Ð¸Ð½ÐºÐ¸": 9338, "ĠÐ¿ÑĢÐ°Ð²Ð¾ÑģÐ»Ð°Ð²": 9339, "ÑģÐºÐ°Ð¼Ð¸": 9340, "ink": 9341, "ĠÐ¿ÑĢÐ¾Ð·ÑĢÐ°": 9342, "ĠÐ¾Ñħ": 9343, "ĠÐŁÐ¾ÑĢÐ¾ÑĪÐµÐ½ÐºÐ¾": 9344, "ĠÐ¿Ð¾Ð´Ð·ÐµÐ¼": 9345, "Ġob": 9346, "ĠÐ¿Ð»Ð°Ð½Ðµ": 9347, "46": 9348, "ĠÐ²Ð»ÑİÐ±": 9349, "ĠÐºÑĢÐ¸Ð·Ð¸Ñģ": 9350, "Ð·Ð¼": 9351, "ĠÐ²Ð»Ð¸": 9352, "ĠÐ²Ð¸Ð½Ð¾Ð²": 9353, "ÑīÐ°ÑıÑģÑĮ": 9354, "ĠÐ¸Ð¼Ð¿ÐµÑĢÐ¸Ð¸": 9355, "Ð½Ð°Ð´ÑĨÐ°ÑĤÐ¸": 9356, "ĠÐ¿Ð¾Ð²ÑĤÐ¾ÑĢ": 9357, "ĠÐ¸ÑģÐ¿ÑĢÐ°Ð²": 9358, "ĠÐĺÐ²Ð°Ð½Ð¾Ð²Ð¸Ñĩ": 9359, "ĠÐ¾ÑģÐ½Ð¾Ð²Ð½ÑĭÐµ": 9360, "ĠÐ¾Ð±Ð»Ð°Ð´Ð°": 9361, "ĠÐ¼Ð¸Ð½Ð¸ÑģÑĤÑĢÐ°": 9362, "ÑĤÐ²Ð¾ÑĢ": 9363, "ÑĩÐ¸ÐºÐ¾Ð¼": 9364, "ĠÐļÑĢÐµÐ¼": 9365, "ĠÐĿÐ°Ð·": 9366, "ĠÑģÑĤÑĥ": 9367, "Ð¾Ð²Ð°Ð½Ð¾": 9368, "Ð»Ð¾Ð½Ð¸Ð»ÑģÑı": 9369, "ĠÐ¿Ð¾Ð½ÐµÐ´ÐµÐ»ÑĮ": 9370, "ĠÐĺÑģÐ¿Ð¾Ð»ÑĮÐ·": 9371, "ĠÐ¾Ð·Ð½Ð°ÐºÐ¾Ð¼": 9372, "ĠÐµÑħÐ°ÑĤÑĮ": 9373, "ĠÐĵÐµÐ½ÑĢÐ¸": 9374, "ĠÐ·ÑĢÑı": 9375, "ĠÐ¿Ð¾Ð»Ð¾ÑĤ": 9376, "ĠÑĢÐµÐ²Ð¾Ð»ÑİÑĨÐ¸Ð¸": 9377, "ĠÐ¿Ð¾Ð´ÑħÐ¾Ð´Ð¸ÑĤ": 9378, "Ġoffic": 9379, "ĠÐ¼ÑĥÐ·Ðµ": 9380, "ÑĤÑĥÑĢÐ¾Ð¹": 9381, "ĠÑĥÑģÑĤÐ¾Ð¹": 9382, "ÑĨÐ¸Ð¾Ð½Ð½Ð°Ñı": 9383, "ĠÐĴÑģÑı": 9384, "ces": 9385, "Ġseveral": 9386, "ĠÑģÑĩÐ°ÑģÑĤÑĮÐµ": 9387, "ĠÑģÑĤÐ°Ð´Ð¸": 9388, "ĠÐ²Ð·Ð¾ÑĢ": 9389, "Ġsuc": 9390, "ÑĢÐ¸ÐµÐ²": 9391, "Ġhist": 9392, "ÑīÐµÐ½Ð¸Ð¹": 9393, "ĠÑĢÐµÐ²": 9394, "Ð²Ð¸Ñı": 9395, "Ð¸ÑĤÐµÐ»ÑĮÑģÑĤÐ²Ð°": 9396, "ĠÐ´Ð¸Ðº": 9397, "ĠÐļÐ°ÐºÐ¸Ðµ": 9398, "ĠÐºÐ°Ð±Ð¸Ð½ÐµÑĤ": 9399, "ÐŁÐµÑĤÐµÑĢÐ±ÑĥÑĢÐ³": 9400, "...\"": 9401, "ĠÐ¿ÑĢÐ¸ÑĩÐ¸Ð½Ð¾Ð¹": 9402, "ĠÐ¿Ð¾ÑĩÑĤ": 9403, "ĠÐ³ÑĢÑĥÐ¿Ð¿Ñĥ": 9404, "ĠÐ¾Ð³ÑĢÐ¾Ð¼Ð½Ð¾Ðµ": 9405, "Ð¶Ð½Ð¾Ð³Ð¾": 9406, "ÐĲÐ¡": 9407, "ĠÐ·Ð°Ð¿Ð°Ñģ": 9408, "ĠÐŀÐ»ÑĮÐ³Ð°": 9409, "ĠÐ¿Ð¾Ð´ÑĢÑıÐ´": 9410, "Ð¾ÑĢÐ¾Ð³": 9411, "ÑģÑĤÐ°ÑĢ": 9412, "ÑģÑĤÐ²ÐµÐ½Ð½Ð¾ÑģÑĤÐ¸": 9413, "ĠÐ¿ÑĭÑĤÐ°ÐµÑĤÑģÑı": 9414, "Ġwon": 9415, "ĠÑĢÐ°Ð·Ð¾ÑĩÐ°": 9416, "Ġseries": 9417, "ĠÐĴÐ¼ÐµÑģÑĤÐµ": 9418, "Ð²Ð°Ð»Ðµ": 9419, "ĠÑĢÐ°Ð´Ñĥ": 9420, "ĠÐĴÐµÐ»Ð¸ÐºÐ¾Ð¹": 9421, "ĠÐ´Ð¾Ð±Ð¸ÑĤÑĮÑģÑı": 9422, "ĠÐ½Ð°Ð»Ð¸ÑĩÐ¸Ð¸": 9423, "Ġaut": 9424, "ÑĦÐµÐ»ÑĮ": 9425, "ven": 9426, "ĠÐ½Ð¾ÑĢÐ¼Ð°": 9427, "Ð½ÑĥÑĤÑĢÐ¸": 9428, "ÑĢÐ¸Ð²": 9429, "cept": 9430, "ĠÐ¿ÑĢÐ°Ð²Ð´Ñĥ": 9431, "ĠÐłÐ°Ð±Ð¾ÑĤÐ°": 9432, "ĠÐ¼Ð¸Ð»Ð»Ð¸Ð¾Ð½Ð°": 9433, "ĠÐ¿ÑĢÐ¾Ð²ÐµÑĢÐ¸ÑĤÑĮ": 9434, "ĠÑıÐ¹": 9435, "Ġlong": 9436, "Ð»Ð°Ñħ": 9437, "ĠÐ¿Ð¾Ð»ÐµÑĤ": 9438, "ÑĪÐµÐ½Ð½Ð¾Ð¹": 9439, "ĠÑĢÐµÐ¶Ð¸ÑģÑģ": 9440, "ĠÐľÐµÐ´Ð²ÐµÐ´": 9441, "ĠÑģÑĤÑĢÐ¾Ðº": 9442, "ĠÐ¾ÑĤÑħÐ¾Ð´": 9443, "ĠÑĢÑĥÐºÐ¾Ð²Ð¾Ð´ÑģÑĤÐ²Ð¾Ð¼": 9444, "Ð½Ð°Ð±": 9445, "ÐµÐ»Ð¸ÑģÑĮ": 9446, "ĠWh": 9447, "ĠÐ¿ÑĢÐ¾Ð³Ð¾Ð²Ð¾ÑĢÐ¸Ð»": 9448, "ĠÐ·Ð°ÐºÐ¾Ð½Ð¾Ð¼": 9449, "ĠÐ»Ð¸Ñħ": 9450, "ĠÐłÐ°ÑģÐ¿": 9451, "ĠÐ·Ð°ÐºÐ»ÑİÑĩÐ°ÐµÑĤÑģÑı": 9452, "ĠÑģÐºÐ¸Ð´": 9453, "Ġrun": 9454, "Ġbuild": 9455, "ĠÑģÐºÐ¾ÑĢÐ¾ÑģÑĤÐ¸": 9456, "ĠÑģÑĥÐ´ÑĮÐ±Ð°": 9457, "ĠÑģÑĤÐ¾Ð»Ðº": 9458, "ister": 9459, "ĠÐĲÐ½Ð³Ð»Ð¸Ð¸": 9460, "ĠÐ¾Ð¿Ð°ÑģÐ½Ð¾ÑģÑĤÐ¸": 9461, "ĠÑģÐ¾ÑģÑĢÐµÐ´Ð¾ÑĤÐ¾": 9462, "ĠÐĺÐ¸Ñģ": 9463, "ĠÐĺÐ½ÑĤÐµÑĢÐ½ÐµÑĤ": 9464, "ĠÐ¸Ð·Ð¼ÐµÑĢ": 9465, "ĠÐ²ÑĭÐ·ÑĭÐ²Ð°ÐµÑĤ": 9466, "ĠÑģÑĦÐ¾ÑĢÐ¼Ð¸": 9467, "ĠÑģÐ¿Ð»Ð¾": 9468, "Ġ150": 9469, "ĠÑĢÐ°Ð·Ð³Ð»Ñı": 9470, "Ð°Ð½Ð½ÑĭÐ¼Ð¸": 9471, "Ð´Ð¸Ðº": 9472, "ĠÐ¾ÑĤÐºÐ°Ð·Ð°Ð»ÑģÑı": 9473, "ĠÐ½Ð°ÑģÑĤÐ°": 9474, "ÑĥÐ¼Ð¸": 9475, "Ð¶ÐºÑĥ": 9476, "ĠÐĲÐ½Ð°ÑĤ": 9477, "ĠÐ·Ð°Ð¼ÐµÑĤÐ½Ð¾": 9478, "ĠÐºÐ¾Ð¼Ð¼ÑĥÐ½Ð¸ÐºÐ°": 9479, "ÑĥÐµÑĤÑģÑı": 9480, "ĠÑĢÐµÐº": 9481, "ĠÑĤÐµÑĢÑĢÐ¸ÑĤÐ¾ÑĢÐ¸Ñİ": 9482, "Ð¾ÐºÐ¾Ð½": 9483, "ĠÑĢÐµÐ¶Ð¸Ð¼Ðµ": 9484, "wit": 9485, "ĠÐ²Ð¾ÑģÐ¿ÑĢÐ¸Ð½Ð¸Ð¼Ð°": 9486, "ĠÐ¸ÑģÑģÐ»ÐµÐ´Ð¾Ð²Ð°Ð½Ð¸Ð¹": 9487, "Ð´Ð°ÑĤÑĮÑģÑı": 9488, "ÐŁÐ¾ÑģÐ»Ðµ": 9489, "ĠÑģÑĤÑĢÐµÐ»ÑĮ": 9490, "ĠÐºÑĥÑĩ": 9491, "ĠÑĢÐ°ÑģÑģÐµ": 9492, "ĠÑĪÐµÑĢ": 9493, "ĠÐ¿ÑĢÐ¾Ð´ÑĥÐºÑĤÑĭ": 9494, "ĠÑģÐ¾Ð»Ð½ÑĨÐ°": 9495, "Ð½Ð¸ÑĤÑģÑı": 9496, "Ġyou": 9497, "ĠÑĩÑĥÐ´Ð¾Ð²Ð¸": 9498, "ĠÐ²Ð°ÑĪÑĥ": 9499, "Ð¶ÐµÐ»": 9500, "ĠÐ¿ÐµÐ½ÑģÐ¸Ð¾Ð½": 9501, "ĠÑģÐµÑģÑĤÑĢÐ°": 9502, "ÑĳÐ½Ð½ÑĭÐµ": 9503, "Ġsame": 9504, "ĠÐ¡ÐµÐ²": 9505, "ĠÐ¿Ð¸ÑģÑĮÐ¼ÐµÐ½": 9506, "Ġopen": 9507, "ble": 9508, "Ð¶ÐµÑĪÑĮ": 9509, "ĠÐºÐ°ÑĦÐµ": 9510, "Ð³Ð¾Ð¹": 9511, "ĠÐ¾ÐºÐ¾Ð½ÑĩÐ°Ð½Ð¸Ñı": 9512, "ĠÐ²Ð»Ð¾Ð¶": 9513, "Ġgame": 9514, "ĠÐ´Ð¾Ð»Ð¶Ð½Ð¾ÑģÑĤÐ¸": 9515, "ĠÐ½ÐµÐ±Ðµ": 9516, "ior": 9517, "ĠÑģÐµÐ·Ð¾Ð½": 9518, "Â»?": 9519, "ĠÐ¾Ð´ÐµÐ¶Ð´Ñĥ": 9520, "ĠÑĢÐ¾ÑģÐºÐ¾": 9521, "Ð¸Ð¼ÑĭÑħ": 9522, "ĠÑģÑĤÐ¾ÑıÑĤ": 9523, "ĠÐ¿Ð¾Ð»Ð¾Ð¶ÐµÐ½Ð¸Ð¸": 9524, "ĠÐºÐ»ÑİÑĩÐµ": 9525, "ĠÐ½Ð°ÑĨÐ¸Ð¾Ð½Ð°Ð»ÑĮÐ½Ð¾Ð¹": 9526, "ÑģÑĤÐ°Ð½ÑĨÐ¸Ð¸": 9527, "ÑĩÐ¸Ð»Ð¸ÑģÑĮ": 9528, "Ð½ÑıÐ»Ð¸": 9529, "ĠÐ´ÐµÑĢÐµÐ²Ð°": 9530, "ĠAss": 9531, "ĠÐ½ÐµÐ¾ÑĤ": 9532, "ĠÐ¡Ð²Ð¾": 9533, "ÐµÐ½ÑĤÐ°Ð¼Ð¸": 9534, "ĠÑģÐ¸Ð´ÐµÑĤÑĮ": 9535, "ĠÑģÐ¾ÑģÑĤÐ°Ð²Ð°": 9536, "ĠÐ²Ð·ÑıÐ»Ð¸": 9537, "ĠÐ¿ÑĢÐµÐ´ÑĥÐ¿ÑĢÐµÐ¶Ð´": 9538, "ĠÐ½Ð°ÑĩÐ°Ð»ÑĮÐ½Ð¸ÐºÐ°": 9539, "ĠÐ½Ð°Ð·Ð½Ð°ÑĩÐµÐ½": 9540, "ĠÐ²Ð¸ÑĨÐµ": 9541, "ĠÑģÐ¾Ð´ÐµÑĢÐ¶Ð¸ÑĤ": 9542, "ĠÐ®ÑĢÐ¸Ð¹": 9543, "ĠÐ¿ÑĢÐ¾Ð¸ÑģÑĪÐµ": 9544, "ple": 9545, "ĠÐ¼Ð¾ÑĢÐ°Ð»ÑĮ": 9546, "ĠÐ¸Ð³ÑĢÐµ": 9547, "ÐºÐ°Ð»Ð°": 9548, "ÑĥÐ³Ð¾Ð»ÑĮ": 9549, "ĠÐ´ÐµÐº": 9550, "ÐµÐ»ÑıÐ¼Ð¸": 9551, "ĠÐ±Ð¾Ð»ÑĮÐ½Ð¾": 9552, "ĠÑĥÐ´Ð°ÑģÑĤÑģÑı": 9553, "Ġcontin": 9554, "ĠÐ¾ÐºÐ°Ð·Ð°ÑĤÑĮÑģÑı": 9555, "ĠÐ´Ð¾Ð²ÐµÑĢÐ¸": 9556, "ĠÐ½ÑĳÐ¼": 9557, "ĠÐ¶ÐµÐ»ÐµÐ·Ð½Ð¾Ð´Ð¾ÑĢÐ¾Ð¶": 9558, "ÑģÑģÑĭ": 9559, "ĠÐ¿Ð¾Ð»Ð¾Ð¶Ð¸Ð»": 9560, "ĠÐľÐµÑĢ": 9561, "pro": 9562, "ĠÐ´ÐµÑĤÑıÐ¼": 9563, "ĠÑģÐ¾ÑĩÐ¸Ð½": 9564, "ĠÐ¿Ð¾Ð´Ð¿Ð¸ÑģÐ°": 9565, "ĠOr": 9566, "ĠÐ»Ð°Ð²": 9567, "ÑĨÐ¸Ð´": 9568, "ĠÐ·Ð°Ð¶Ð¸": 9569, "ĠÐĹÐ°ÑĤÐ¾": 9570, "\").": 9571, "Ð»Ð¸Ð»": 9572, "ĠÐ¸Ð½ÑģÐ¿ÐµÐº": 9573, "ove": 9574, "Ð´Ð²Ð°": 9575, "ĠÐĹÐµÐ¼Ð»Ð¸": 9576, "ĠÑĤÐµÐ»ÐµÐºÐ°Ð½": 9577, "ĠÑģÐ¾Ð²ÑĢÐµÐ¼ÐµÐ½Ð½ÑĭÑħ": 9578, "ĠÐ¿Ð¾Ð´Ð°ÑĢÐ¸": 9579, "ĠÐºÐ°ÑĤ": 9580, "ĠÑĤÑĢÑĥÐ±ÐºÑĥ": 9581, "the": 9582, "ĠÐĺÐ¾Ð°Ð½": 9583, "ĠÐĹÐ°ÐºÐ¾Ð½": 9584, "osed": 9585, "ĠÑĥÑģÑĤÐ°Ð»Ð¾": 9586, "ÑĤÐ¸ÑĢÐ¾Ð²Ð°ÑĤÑĮ": 9587, "ĠÑĥÑģÑĤÐ°Ð½Ð¾Ð²ÐºÐ¸": 9588, "Ð»Ð»Ð¸": 9589, "ĠÐ³ÑĢÐ°ÑĦ": 9590, "ĠÐľÐ°Ð»ÑĮ": 9591, "ĠÐļÐ°Ð½": 9592, "ĠÐ¾ÑĢÐ³Ð°Ð½Ð¸Ð·Ð¼Ð°": 9593, "ÑĪÐµÐ½Ð¸ÐµÐ¼": 9594, "ĠÐ¿ÑĢÐ¸ÑħÐ¾Ð´Ð¸ÑĤ": 9595, "Ð»Ð°Ð½Ð°": 9596, "ĠÐ¾ÑĢÐ³Ð°Ð½Ñĭ": 9597, "ĠCent": 9598, "min": 9599, "ĠÑĦÐ°ÐºÑĤÐ¸ÑĩÐµÑģÐºÐ¸": 9600, "ĠÐ½Ð°ÑĩÐ°Ð»Ð°ÑģÑĮ": 9601, "ĠÑģÑĤÐ°ÑĢÐ°ÑıÑģÑĮ": 9602, "ĠÐĲÐ³": 9603, "Ð¸ÑĤÐ¸Ð²": 9604, "ĠÐ²ÐµÑģÐµÐ»Ð¾": 9605, "Ð½Ð¾ÑĢ": 9606, "ĠÐ¸ÑģÑĤÑĢÐµÐ±": 9607, "ĠÐºÐ²": 9608, "ĠÐłÐ¾ÑģÑģÐ¸ÐµÐ¹": 9609, "Ġearly": 9610, "ĠÐ²ÐµÑĢÐ¸ÑĤÑĮ": 9611, "ÌĪ": 9612, "ĠÐ»Ñĭ": 9613, "Ð´Ð¸ÑĤÐµ": 9614, "ÑĤÑĥÑĢÐ°Ð»ÑĮ": 9615, "ĠÑĤÐµÐ¼Ñĭ": 9616, "ĠÐļÑĥÐ´Ð°": 9617, "uary": 9618, "ology": 9619, "ĠÐŁÑĥÑĤÐ¸Ð½Ð°": 9620, "ĠÐ·Ð°ÑģÐ»ÑĥÐ¶": 9621, "ĠÐ¿Ð¾Ð»Ð¸ÑĤ": 9622, "ĠÑĨÐµÐ»ÐµÐ¹": 9623, "Ġthese": 9624, "ĠÐ¿Ð¾Ð»ÑĮÐ·Ð¾Ð²Ð°ÑĤÑĮÑģÑı": 9625, "Ð»ÐµÐ½Ð½Ð¾Ðµ": 9626, "ÑĳÐ½Ð½ÑĭÐ¹": 9627, "Ġcur": 9628, "Ð½Ð¾Ð´Ñĥ": 9629, "ĠÐ¶ÑĥÑĢÐ½Ð°Ð»Ð°": 9630, "ĠÐ°ÑĢÑĤÐ¸": 9631, "ĠÑģÐµÑĢÐµÐ±ÑĢÑı": 9632, "ĠÐ±ÐµÑģÐµÐ´": 9633, "ĠÐ½ÐµÐ²Ð¾Ð·Ð¼Ð¾Ð¶": 9634, "ĠÐ²Ð¾Ð¿Ð»Ð¾": 9635, "ĠÐĵÑĢÑĥ": 9636, "ĠÐ²Ð¾ÐµÐ½Ð½ÑĭÐµ": 9637, "vent": 9638, "ĠÐ¢Ð°ÐºÐ¾Ð¹": 9639, "ĠÑģÐ¸Ð»Ð°Ð¼Ð¸": 9640, "ajor": 9641, "ÑģÐ¾Ð²Ð¾Ð¹": 9642, "ĠÑĨÐµÐ»ÑıÑħ": 9643, "ÐłÑ": 9644, "ĠÑģÐ»ÐµÐ·Ñĭ": 9645, "ÑĢÐ¸Ð»Ð°ÑģÑĮ": 9646, "ĠÐŀÐ´Ðµ": 9647, "ĠÐ¿Ð¾Ð½Ð¸Ð¼Ð°ÐµÑĪÑĮ": 9648, "Ð½Ð¸ÑģÑĤÐ¸": 9649, "ĠÐ¾ÑĤÐ¼ÐµÐ½": 9650, "Ð´Ñİ": 9651, "ĠÑĦÐ¸Ðº": 9652, "ÐµÐ½ÑĮÐºÐ°": 9653, "ÑĩÐ¸Ð²Ð°ÑĤÑĮ": 9654, "ĠÐ¿Ð¾Ð²ÐµÐ»": 9655, "ÑĮÑĳÐ·": 9656, "ĠÑĢÐ°Ð±Ð¾ÑĤÐ½Ð¸ÐºÐ¾Ð²": 9657, "ĠÐ¸Ð´Ñĥ": 9658, "ĠÑĥÑĩÐ°ÑģÑĤÐ¾Ðº": 9659, "ĠÐ½Ð°Ð²ÐµÑĢÑħ": 9660, "ĠÐĴÑĢÐµÐ¼Ñı": 9661, "ĠÑĥÑĩÑĳ": 9662, "Ġdep": 9663, "ĠÐºÑĢÐ°ÑģÐ°": 9664, "ĠÐ¿ÑĢÐ¸ÐµÑħÐ°Ð»": 9665, "ĠÐ²ÑģÑĤÐ°Ð²": 9666, "ĠÐ¾Ð³ÑĢÐ¾Ð¼Ð½ÑĭÐ¹": 9667, "ĠÐĵÐ»Ð°Ð²Ð°": 9668, "Ð½Ð¾Ð²ÐµÐ½Ð¸Ñı": 9669, "ĠÐŀÐĲÐŀ": 9670, "ĠÑģÑĥÐ±Ð±Ð¾ÑĤ": 9671, "Ð¼ÐµÐ»ÑĮ": 9672, "ange": 9673, "ÑİÑīÐµ": 9674, "Ġfamily": 9675, "Ð¡ÑĤ": 9676, "ĠÑģÐ¸Ð´ÐµÐ»Ð¸": 9677, "ĠÑĥÑĩÐ¸Ð»Ð¸": 9678, "Ġprodu": 9679, "ĠÑĤÑĢÐµÐ½ÐµÑĢ": 9680, "ĠÐ»ÑİÐ±Ð¾Ðµ": 9681, "ible": 9682, "Ġreturn": 9683, "ulation": 9684, "ĠÐ½ÐµÐ¿Ð¾Ð½ÑıÑĤ": 9685, "ky": 9686, "ĠÐ³Ð»Ð°Ð´": 9687, "ĠÐ¿Ð»Ð¸": 9688, "ĠÐĳÐ¾ÑĢ": 9689, "Ġ38": 9690, "ĠÐ²ÑģÑĤÑĢÐµÑĩ": 9691, "ĠÐ¿Ð°Ð»ÑĮÑĨÐ°Ð¼Ð¸": 9692, "ÐĵÐ£": 9693, "ĠÐĵÐ»Ð°": 9694, "ĠÐ²Ð¾ÑģÑħÐ¸": 9695, "aking": 9696, "ĠÐ½Ð°ÑģÑĤÑĥÐ¿Ð°": 9697, "Ð¾Ð²Ð°ÑĢ": 9698, "ĠÐļÑį": 9699, "ĠÑĪÐ°Ð½Ñģ": 9700, "ĠÐ²ÑģÑıÐºÐ¾Ð¼": 9701, "Ð²Ð°Ð½Ð¸Ð¸": 9702, "ĠÐľÐµÑĤ": 9703, "ĠÐ¿Ð¾Ð²ÐµÐ´ÐµÐ½Ð¸Ðµ": 9704, "ĠÐ²Ð¿ÑĢÐ¾ÑĩÐµÐ¼": 9705, "ĠÐ¡Ð¾Ð·": 9706, "ĠÐ½Ð°ÑĩÐ¸Ð½Ð°ÑİÑĤ": 9707, "ĠÐ²ÑĭÑĢÐ°Ð¶ÐµÐ½Ð¸Ðµ": 9708, "Ġann": 9709, "ĠÐ±ÑĢÐ¾Ð´": 9710, "ĠÐ£Ð¶": 9711, "ĠÐĵÐ¾": 9712, "ĠÐ¸Ð·Ð¼ÐµÐ½ÐµÐ½Ð¸Ð¹": 9713, "ÐºÐ°Ð»Ð¸": 9714, "ĠÐĳÐ¾ÑĢÐ¸Ñģ": 9715, "ĠÑģÐ¾Ð²ÑĢÐµÐ¼ÐµÐ½Ð½Ð¾Ð¹": 9716, "ĠÐ¿Ð¾Ð³Ð»Ñı": 9717, "ĠÐ¿Ð¾Ð¿ÑĭÑĤÐ°": 9718, "ĠâĨ": 9719, "ĠÑĥÐ´Ð¾Ð²Ð¾Ð»ÑĮÑģÑĤÐ²Ð¸Ðµ": 9720, "ĠÐ¿ÑĢÐ¸ÑĪÐ»Ð¾": 9721, "ĠÐ·Ð°Ð´Ð°Ñĩ": 9722, "Ġuse": 9723, "ĠÐ¿Ð¾ÑĤÐµÑĢÑıÐ»": 9724, "ĠÐ½Ð°ÑĩÐ°": 9725, "ĠÑģÐµÑĢÐ²Ð¸": 9726, "ĠÐ¾ÑģÐ½Ð°": 9727, "ĠÐ´ÐµÐ¹ÑģÑĤÐ²ÑĥÐµÑĤ": 9728, "ĠÐ½Ð°Ð²ÑģÑĤÑĢÐµÑĩÑĥ": 9729, "ÑĤÑĢÐ°Ðº": 9730, "ÐµÐ»ÑģÑı": 9731, "Ð¶Ð¸ÑĤÑĮ": 9732, "ĠÑģÐ¾Ð±Ð¸ÑĢÐ°ÐµÑĤÑģÑı": 9733, "ĠÑĨÐµÑĢÐµÐ¼Ð¾": 9734, "Ð´ÑĭÑħ": 9735, "ĠÐĺÐ½ÑĦÐ¾ÑĢÐ¼Ð°": 9736, "ĠÐ¾ÐºÑĥ": 9737, "ĠÐ¸Ð·Ð²Ð¸": 9738, "ĠÑĨÐµÑĢÐºÐ¾Ð²ÑĮ": 9739, "ĠÐ²ÑĭÐ³Ð»ÑıÐ´ÐµÐ»": 9740, "ĠÐºÐ¾ÑĢÐ¾Ð»ÑĮ": 9741, "lish": 9742, "ĠÐ¼ÐµÑĤÑĢÐ¾": 9743, "ĠÐ¿ÐµÑĢÐµÐ³Ð¾Ð²Ð¾ÑĢÑĭ": 9744, "ĠÐ»ÐµÑģÑĤÐ½Ð¸ÑĨÐµ": 9745, "ĠÐľÐ¸ÑĢ": 9746, "ĠÐºÐ¾Ð½ÑĨÑĥ": 9747, "Ð»ÑıÐ»Ð¸ÑģÑĮ": 9748, "ross": 9749, "ission": 9750, "ĠCount": 9751, "ĠÑĥÑĩÐµÑĤÐ¾Ð¼": 9752, "ĠÐĲÐ²ÑĤÐ¾ÑĢ": 9753, "ĠÐºÑĢÐµÑģÑĤÑĮÑıÐ½": 9754, "ÑĢÐµÐ¶Ð´Ðµ": 9755, "ĠÐºÐ°ÑĢÑĤÐ¸Ð½Ñĭ": 9756, "Ð½Ð¾Ð²Ð¸Ð´": 9757, "ĠÐĳÑĭÐ»": 9758, "ĠÐ³Ð¾ÑģÑĥÐ´Ð°ÑĢÑģÑĤÐ²ÐµÐ½Ð½ÑĭÑħ": 9759, "ÑģÑģÑĥ": 9760, ".),": 9761, "ĠÐ¡Ð°Ð²": 9762, "ĠÑģÑĩÐ¸ÑĤÐ°Ñİ": 9763, "ĠÐ¿Ð¾Ð±ÐµÐ´Ñĭ": 9764, "Ġmusic": 9765, "ĠÑħÐ°ÑĢÐ°ÐºÑĤÐµÑĢÐ°": 9766, "ootball": 9767, "ĠÐ½Ð°ÑĢÐ¾Ð´Ð¾Ð²": 9768, "Ð¾ÑĩÑĥ": 9769, "ĠÑĢÑĥÐºÐ¾Ð²Ð¾Ð´ÑģÑĤÐ²Ð¾": 9770, "ĠÑģÐ°Ð¼Ð¸Ð¼": 9771, "ĠÐ´ÐµÐ¿": 9772, "ĠÐ¾Ð¿ÑĭÑĤÐ°": 9773, "ĠÐ¸ÑģÐ¿Ð¾Ð»Ð½Ð¸ÑĤÐµÐ»ÑĮ": 9774, "ĠÑĪÐµÑİ": 9775, "ĠÑģÐµÑĢÐ¸": 9776, "ĠÐĽÑĮ": 9777, "ĠÐ°ÐºÑĤÐµÑĢ": 9778, "ĠÐ¿ÑĢÐ¾Ð¼ÑĭÑĪÐ»ÐµÐ½Ð½Ð¾ÑģÑĤÐ¸": 9779, "ĠÐ¾ÑĤÐ²ÐµÑĩÐ°ÐµÑĤ": 9780, "ÑĢÐ¾Ð²Ð°Ð½Ð¸Ñİ": 9781, "ÑĨÐµÐ½ÑĤÑĢÐ°": 9782, "ĠÐĶÐ¶Ð°": 9783, "ĠÑĥÐ²Ð°Ð¶Ð°": 9784, "ĠÐ¿ÑĢÐ¸Ð¿Ð¾Ð´": 9785, "ĠÑģÐ¿ÐµÐºÑĤÐ°Ðº": 9786, "ĠÐĲÐ½Ð³": 9787, "ĠÐĳÐ¸": 9788, "ĠÑģÐ»ÐµÐ´Ð¾Ð²Ð°Ð»Ð¾": 9789, "ĠÐ¼Ð¾Ð·Ð³Ð°": 9790, "ility": 9791, "ĠÑĥÑģÐ¿ÐµÑħÐ°": 9792, "ÑģÑģÐ¸Ð¸": 9793, "ĠÑģÐ³": 9794, "ĠÐ¾Ð¿ÑĤÐ¸Ð¼Ð¸": 9795, "ĠÐ¿ÑĭÐ»ÑĮ": 9796, "ugust": 9797, "ĠÐ±ÑĭÐ²ÑĪÐµÐ³Ð¾": 9798, "ĠÑģÑĤÑĢÐ¾Ð³": 9799, "Ð½Ð¸ÑĪÑĮ": 9800, "ially": 9801, "ĠÑĢÐ°Ð·Ð¼ÐµÑĢÐµ": 9802, "ĠÑĤÐµÐ¾ÑĢÐ¸Ð¸": 9803, "ĠÑĢÐµÐ³Ð¸Ð¾Ð½Ðµ": 9804, "ĠÑĢÐ¾ÑģÑģÐ¸Ð¹ÑģÐºÐ¸Ð¹": 9805, "ĠÐ¸Ð³ÑĢ": 9806, "ĠÐļÐ¸ÑĤÐ°Ð¹": 9807, "ĠÐĿÐĲÐ¢Ðŀ": 9808, "ĠÑįÐºÑģÐ¿ÐµÐ´Ð¸": 9809, "ĠÐłÐ¾Ð¼Ð°Ð½": 9810, "ĠÐ¿ÑĢÐ¸Ð±ÑĭÐ»Ð¸": 9811, "ator": 9812, "ĠÐ¾Ð±ÑģÑĥÐ´": 9813, "ĠÑģÐ°Ð¼ÑĥÑİ": 9814, "ĠÐ¿ÑĢÐµÐ´ÑģÑĤÐ°Ð²Ð»ÐµÐ½Ð¸Ñı": 9815, "ÑħÐ²Ð°ÑĤÐ¸Ð»": 9816, "Ġ32": 9817, "ĠÑĤÐµÑħÐ½Ð¾Ð»Ð¾Ð³Ð¸": 9818, "Ð¿Ð¸ÑģÐºÐ¾Ð¿": 9819, "ĠÐºÑĢÐ¸ÐºÐ½ÑĥÐ»": 9820, "ĠÑĤÑĮ": 9821, "ĠÐ¢ÐµÑħ": 9822, "ĠÐ¼Ð°ÐºÑģÐ¸Ð¼Ð°Ð»ÑĮÐ½Ð¾": 9823, "ĠÑģÐ¼Ð¾Ð³Ñĥ": 9824, "acebook": 9825, "ĠÐ´Ð²ÐµÐ½Ð°": 9826, "ÐļÐ¡": 9827, "ĠÑĢÐ°ÑģÐ¿Ð°Ñħ": 9828, "ĠÐĴÐ°ÑģÐ¸Ð»Ð¸Ð¹": 9829, "ene": 9830, "ÐµÑĢÐµÑĤÑĮ": 9831, "ÐµÑĤÐ°Ð¼Ð¸": 9832, "ĠÐ¤Ð°": 9833, "ĠÑģÑĤÐ°ÑĢÐ¸Ðº": 9834, "ĠÑĦÐ¸ÑĢÐ¼Ñĭ": 9835, "Ð¸ÑĩÐµÑģÐºÐ¸Ñħ": 9836, "ĠÑģÐµÐ³Ð¾Ð´Ð½ÑıÑĪÐ½Ð¸Ð¹": 9837, "ĠÐĲÐ½ÑĤÐ¾": 9838, "ĠÑģÐµÐ²ÐµÑĢÐ¾": 9839, "ĠÐľÐ°ÑĢÐº": 9840, "ĠÐ¿Ð°Ð»ÑĮÑĨÐµÐ¼": 9841, "ĠÐ´ÐµÑĢÐµÐ²ÑĮÐµÐ²": 9842, "ĠÐ¸ÑģÐ¿Ð¾Ð»ÑĮÐ·ÑĥÑİÑĤ": 9843, "ĠÐ±Ð°Ð½Ð´": 9844, "af": 9845, "ĠÑĥÐ¶Ð°": 9846, "ĠÐ¼Ð³Ð½Ð¾Ð²ÐµÐ½Ð½Ð¾": 9847, "ĠÐ¿Ð¾ÑıÑģÐ½Ð¸Ð»": 9848, "ĠÐ¿ÑĢÐ¾Ð¿Ð°": 9849, "Ġpublic": 9850, "Ð½Ð³": 9851, "ÐµÐ½ÑĮÐºÐ¸Ð¹": 9852, "Ð°ÑħÐ°ÑĢ": 9853, "Ð²Ð°ÑİÑģÑĮ": 9854, "ĠÐºÐ°ÑĦÐµÐ´": 9855, "yn": 9856, "ĠÐ¢Ð°ÐºÐ¾Ðµ": 9857, "ĠÐ¾ÑĤÐ»Ð¸ÑĩÐ°ÐµÑĤÑģÑı": 9858, "ĠÐ§Ð¸ÑĤÐ°ÑĤÑĮ": 9859, "ĠDec": 9860, "ÑĢÐ°Ð´": 9861, "ÑĤÐ¸ÑĩÐµÑģÐºÐ°Ñı": 9862, "ĠAnd": 9863, "ĠÑıÑĢÐºÐ¾": 9864, "ÐļÐ¾ÑĢ": 9865, "ĠÐºÐ°Ð·Ð°": 9866, "ĠÐĽÐµÐ²": 9867, "ĠÐ¿Ð¾Ð¿ÑĭÑĤÐºÐ¸": 9868, "42": 9869, "ĠÐ¼ÐµÑĢÐ¾Ð¿ÑĢÐ¸ÑıÑĤÐ¸Ð¹": 9870, "ĠÐ¿Ð°Ñģ": 9871, "ĠÐ½Ð¾Ð¼ÐµÑĢÐ°": 9872, "ĠÐŁÐ¾Ð¼Ð¸Ð¼Ð¾": 9873, "ĠÐ»ÑİÐ±ÑĭÐµ": 9874, "oman": 9875, "ring": 9876, "ĠÐ²Ð¾ÑģÐºÐ»Ð¸ÐºÐ½ÑĥÐ»": 9877, "ĠÐ½Ð¾Ð²Ð¾Ð¼": 9878, "ĠÑĪÐ»Ñı": 9879, "ĠÐľÐ¸Ð»": 9880, "ĠGe": 9881, "ĠÐºÐ¸Ð²Ð½ÑĥÐ»Ð°": 9882, "ÐłÐĺ": 9883, "ĠÐ¸Ð·ÑĬ": 9884, "Ð°Ð»ÑĮÐ½Ð¾Ð¼Ñĥ": 9885, "ÑĩÑĥÑĤÑĮ": 9886, "ĠÐĳÐµÐ»Ð¾ÑĢÑĥÑģ": 9887, "ĠÐ³Ð¾ÑģÑĤ": 9888, "ting": 9889, "ĠÐºÐ¾ÑĢÐ¿ÑĥÑģÐ°": 9890, "ĠÐ³ÑĢÐ°Ð´Ñĥ": 9891, "ĠÐ¿Ð¾Ð²ÐµÑĢÑħÐ½Ð¾ÑģÑĤÑĮ": 9892, "ĠÐĺÑĤÐ°Ð»Ð¸Ð¸": 9893, "ĠÐ¿Ð¾ÑģÑĤÐµÐ»Ð¸": 9894, "ĠÐ±Ð»Ð°Ð³Ð¾ÑĢÐ¾Ð´": 9895, "ÑĩÐ½Ðµ": 9896, "ĠÐ±Ð°ÑĤÐ°": 9897, "ĠÐ½ÐµÐ±ÐµÑģ": 9898, "ÐĲÐ¢": 9899, "ÑģÑĤÑĢÐµÐ¼Ð¸": 9900, "ĠÑĢÐ°Ð´Ð¾ÑģÑĤÑĮ": 9901, "Ð½Ð¸ÑĤÑĮÑģÑı": 9902, "ĠÐ¾ÑĤÐ´ÑĭÑħ": 9903, "ĠÐ¿Ð¾ÑĢÐ¾Ð¹": 9904, "ĠAir": 9905, "Ð°ÑĢÑĤÐ°": 9906, "ĠÑģÐ¾Ð¾Ð±ÑīÐµÐ½Ð¸Ð¸": 9907, "ĠPol": 9908, "ĠÑģÑĥÑĤÐ¾Ðº": 9909, "ĠÐ½Ð°ÑģÑĭ": 9910, "ĠÐ¾ÑĤÑĤÐµÐ½": 9911, "ÑĳÐ³": 9912, "ĠÑģÑĤÐ¸Ñħ": 9913, "ĠÐ¿ÑĢÐ¸Ð½Ð°Ð´Ð»ÐµÐ¶Ð¸ÑĤ": 9914, "ĠÑģÑĤÑĢÑĥ": 9915, "ĠÐ¿Ð¸ÑģÐ°ÑĤÐµÐ»ÑĮ": 9916, "ĠÐ³ÑĢÐ°Ð½": 9917, "Ġany": 9918, "ĠÐ·Ð°ÑĢÑĥÐ±ÐµÐ¶": 9919, "ĠÐľÐ½Ð¾Ð³Ð¾": 9920, "ĠÐ½Ð°Ð¿Ð¸ÑģÐ°Ð½Ð¾": 9921, "ĠÑģÐ¸Ð´ÐµÐ»Ð°": 9922, "ĠÐ´Ð¾Ð±Ð°Ð²Ð¸ÑĤÑĮ": 9923, "ÑģÐ»ÑĥÑĪÐ°": 9924, "ÑĪÐ¸ÑĢ": 9925, "ĠÐºÐ¸Ð¿": 9926, "ĠÐ¢Ð°ÑĤÑĮ": 9927, "ĠÐŀÑĢÐ³Ð°Ð½Ð¸": 9928, "ĠÑħÐ²Ð°ÑĤÐ°Ð»Ð¾": 9929, "ÑıÑīÐ°Ñı": 9930, "ĠÐ¡Ð¾Ð»Ð½": 9931, "Ð²ÑıÐ·": 9932, "ÐµÐ»ÑĮÐ½Ð¾": 9933, "ĠÑģÐ¾ÑģÑĤÐ¾Ð¸ÑĤÑģÑı": 9934, "Ð¾Ð²Ð°Ð²": 9935, "ĠÐ²Ð¾Ð²ÑĢÐµÐ¼Ñı": 9936, "ĠÑģÑĢÐµÐ´Ñĥ": 9937, "ck": 9938, "ĠÐ¿ÑĢÐ¾ÑģÑĤÑĢÐ°Ð½ÑģÑĤÐ²Ð°": 9939, "ĠÐ¿ÐµÑĢÐµÑģÐµ": 9940, "ĠÑĥÐ³Ð»Ñĥ": 9941, "ĠÐ´ÐµÐ»Ð°Ð¼": 9942, "Ġwe": 9943, "ÑĤÑĮÑı": 9944, "ĠÑģÐ¿Ð¾ÑģÐ¾Ð±Ð¾Ð¼": 9945, "ÑİÑīÐ¸Ð¼ÑģÑı": 9946, "ĠÐ´ÐµÑĢÐ¶": 9947, "ĠÐ³Ð²Ð°ÑĢ": 9948, "ĠÐ½Ð°ÑģÑĩÐµÑĤ": 9949, "ĠÐ¿Ð¾Ð´ÑĢÐ¾ÑģÑĤ": 9950, "ĠÐłÐµÑģÐ¿ÑĥÐ±Ð»Ð¸": 9951, "ÑģÐ»ÑĥÐ¶Ð±Ð°": 9952, "ĠÐ±ÐµÐ½": 9953, "ĠÐ°ÑĦ": 9954, "ĠÐ²ÐµÑīÑĮ": 9955, "ĠÑģÑĥÐ´Ñı": 9956, "ÑĪÐ¸Ð½Ñĭ": 9957, "ĠÐ¿Ð¾ÐºÐ°ÑĩÐ°Ð»": 9958, "ĠÑĢÐ°Ð·ÑĢÐµÑĪÐµÐ½Ð¸Ñı": 9959, "Ð¾ÐºÐ¾Ð¼": 9960, "Ð³Ð°ÑİÑĤ": 9961, "ured": 9962, "ĠÐ¡ÑĤÐµ": 9963, "ĠÐºÐ¾Ð½ÑĦÐµÑĢÐµÐ½ÑĨÐ¸Ð¸": 9964, "76": 9965, "ĠÐºÐ¾Ð¼Ð°Ð½Ð´Ð¸ÑĢ": 9966, "ĠÐĴÑģÐºÐ¾ÑĢÐµ": 9967, "ĠÑĦÐ°Ð¹": 9968, "ĠÐŁÐµÑĤÑĢÐ¾Ð²": 9969, "ĠÐ·Ð°ÑģÑĤÑĭ": 9970, "ĠÐ»Ð¸ÑĨÐµÐ½": 9971, "ĠÐ½Ð¸ÑĩÐµÐ¼": 9972, "ÑĢÐ¾ÑģÐ¸Ð»Ð¸": 9973, "Ġshow": 9974, "Âł-": 9975, "Ð»ÐµÑĩÑĮ": 9976, "Ð°Ð½Ð¸": 9977, "ĠÐ»Ð°Ð·": 9978, "Â»)": 9979, "ĠÐ½ÐµÐ¾Ð±ÑħÐ¾Ð´Ð¸Ð¼ÑĭÐµ": 9980, "ĠÐ¾Ð±ÑīÐµÑģÑĤÐ²Ðµ": 9981, "ĠÐ¼ÐµÑĩÑĤÐ°": 9982, "ĠÐ¿Ð¾Ð»ÑĮÐ·Ð¾Ð²Ð°ÑĤÐµÐ»ÐµÐ¹": 9983, "Ð¾ÑĩÐºÑĥ": 9984, "ĠÐ´Ð¸Ð¿Ð»Ð¾Ð¼Ð°": 9985, "ĠÐ²ÑģÐ¿ÑĭÑħ": 9986, "duced": 9987, "ĠÐ¸Ð³ÑĢÐ°ÐµÑĤ": 9988, "2016": 9989, "ĠÑģÑĤÐ°ÑĢÑĥ": 9990, "Ð²Ð°ÑİÑīÐ¸Ñħ": 9991, "Ġfollowing": 9992, "ĠÐĴÐ¾Ð¾Ð±ÑīÐµ": 9993, "ĠÐ¶ÐµÑĢÑĤÐ²": 9994, "Ð·Ð°Ð´Ð¸": 9995, "ĠÐ±Ð»Ð¾ÐºÐ¸": 9996, "ĠÐĿÐ°ÑĤÐ°Ð»ÑĮ": 9997, "ĠÑģÑĥÐ¼Ð°": 9998, "ĠÐ´Ð°Ð²Ð°Ð¹": 9999, "ĠÐ¿Ð¾ÑģÐ°": 10000, "ĠÑĨÐ²ÐµÑĤÐ¾Ð²": 10001, "ĠÐ¿ÑĢÐ¸Ð·Ð½": 10002, "Ð»Ð¾Ñģ": 10003, "Ð±ÐµÐ·": 10004, "ided": 10005, "ĠÐ¿ÑĢÐ¸ÑģÐ¾ÐµÐ´Ð¸Ð½Ð¸": 10006, "ĠÐ½Ð°ÑĥÑĩÐ½Ð¾": 10007, "ĠÐ·Ð°Ð½Ð¸Ð¼Ð°ÐµÑĤÑģÑı": 10008, "ĠÐ¼ÐµÑģÑĤÑĥ": 10009, "ÑĢÐ¾ÑĢ": 10010, "ĠÑģÐ¸Ð¼Ð¿Ð°": 10011, "ĠÐ¿Ð¾ÑıÐ²Ð»ÑıÐµÑĤÑģÑı": 10012, "Ġ1998": 10013, "ĠÐ¸Ð½Ð´Ñĥ": 10014, "ĠÐ°Ð³ÐµÐ½ÑĤÑģÑĤÐ²Ð°": 10015, "ĠÐ¿ÑĢÐµÐ¾Ð´Ð¾Ð»": 10016, "ĠÑģÐµÑĢÐ´Ðµ": 10017, "ĠÐºÐ¸ÑĢÐ¿Ð¸": 10018, "On": 10019, "ĠÐºÑĢÐ°Ñİ": 10020, "ĠÐ¿ÑĢÐ¾ÑĤÐ¸Ð²Ð¾ÑģÑĤÐ¾Ñı": 10021, "Ð¸Ð¼ÐµÐ½": 10022, "ĠÐºÐ¾Ð½ÑģÐµÑĢ": 10023, "Ġbel": 10024, "ĠÑģÑĤÑĢÐµÐ¼Ð¸": 10025, "ĠÑģÑĢÐµÐ´Ñĭ": 10026, "ĠÐ°Ð³ÐµÐ½ÑĤÑģÑĤÐ²Ð¾": 10027, "ĠÐ·ÑĢÐ¸": 10028, "Ġinst": 10029, "ĠÐ¾ÑģÑĤÐ°Ð²Ð°ÑĤÑĮÑģÑı": 10030, "ĠÐ¿ÑĢÐ¾ÑĦÐ¸": 10031, "ĠÐ¶ÑĥÑĤ": 10032, "Ð¶Ð´Ð°ÑİÑĤ": 10033, "ĠÑįÐ²": 10034, "ĠÐ¿Ð¾Ð»Ð¸ÑĤÐ¸ÑĩÐµÑģÐºÐ¾Ð¹": 10035, "ĠÑħÐ¾Ð·ÑıÐ¹ÑģÑĤÐ²Ð°": 10036, "ĠÑĢÐ°Ð´Ð¾ÑģÑĤÐ¸": 10037, "Ð²Ð¸ÑĨÐ°": 10038, "ĠÐ§ÐµÐ³Ð¾": 10039, "ĠÐ²ÐµÑĩÐµ": 10040, "ÑĥÑģÐ»Ð¾Ð²Ð½Ð¾": 10041, "ÑīÐ°Ð»ÑģÑı": 10042, "ÐºÐ¾Ð²Ð¾Ð³Ð¾": 10043, "ĠÑĦÑĥÐ½ÐºÑĨÐ¸Ð¾Ð½": 10044, "ÑĬÐµÐ¼": 10045, "ruct": 10046, "ĠÐ¿Ð¾Ð»ÑĥÑĩÐ°ÐµÑĤ": 10047, "ĠÑĥÐ¿Ð¾Ð¼Ñı": 10048, "ĠÐ¿Ð¾Ð´Ð¾Ð±Ð½Ð¾Ð³Ð¾": 10049, "ĠÐ¾ÑĤÐ¼ÐµÑĩÐ°ÐµÑĤ": 10050, "ĠÐļÐ»Ð¸": 10051, "ĠÑĢÐ°ÑģÐ¿Ð¾Ð»Ð°Ð³Ð°": 10052, "ĠÐĶÐ¾Ðº": 10053, "ĠSouth": 10054, "eptember": 10055, "ĠÐļÐ°ÑĢÐ°": 10056, "Ð±ÐµÑĢÐ³": 10057, "ĠÐ±Ð»Ð°Ð³Ð¾Ð¿Ð¾Ð»": 10058, "ĠÐ±ÑİÐ´Ð¶ÐµÑĤÐ°": 10059, "ĠÑĤÐ°Ð»Ð°Ð½ÑĤ": 10060, "ĠÐĴÐµÑĢÐ¾": 10061, "Ð»Ð¸ÑĤÑĮ": 10062, "ĠÐ´ÐµÐ»Ð°Ð»Ð¸": 10063, "ĠÐ½ÐµÐ¾Ð±ÑħÐ¾Ð´Ð¸Ð¼Ð¾ÑģÑĤÑĮ": 10064, "Ð½Ð¸Ð»Ð¸ÑģÑĮ": 10065, "ÑģÐµÐ´": 10066, "ĠÐ§Ð°ÑĢ": 10067, "ĠÐ¿Ð¾ÑĤÐµÑĢÐ¸": 10068, "ĠÑĦÐ°ÑĪÐ¸": 10069, "ĠÐ·Ð°ÑĤÑĢÐ°": 10070, "ĠÐĴÐµÑģ": 10071, "ĠÐ³Ð¾ÑģÐ¿Ð¸ÑĤ": 10072, "ĠÐ¿ÑĭÑĤÐ°Ð»Ð¸ÑģÑĮ": 10073, "ĠÐ¾ÑģÑĥÑīÐµÑģÑĤÐ²Ð»ÑıÐµÑĤÑģÑı": 10074, "ÑĤÐ¾Ð¿": 10075, "ĠÑĥÐ±Ð¸Ð¹ÑģÑĤÐ²Ð°": 10076, "ĠÐ¼Ð¸ÑģÑģÐ¸Ñģ": 10077, "ĠÐºÑĢÐ°ÑģÐ½Ð¾": 10078, "ĠÐ³ÑĢ": 10079, "ĠÐ¿Ð°ÑĢÑĤÐ¸Ñı": 10080, "oard": 10081, "ĠÐļÐ»Ð°": 10082, "ĠÐ¾Ð²Ð¾": 10083, "ÑĢÐ¾Ð½Ð°": 10084, "ĠÐĽÑĥÑĩÑĪÐµ": 10085, "ilt": 10086, "Ð¼Ð¾ÐµÐ¼Ñĥ": 10087, "Ð¸ÑĤÐµÑĤÐµ": 10088, "Ð¿ÐµÐ½": 10089, "ĠÐ²Ð¾Ð·Ð²Ñĭ": 10090, "ÑĤÐµÐ»Ñİ": 10091, "ĠÐ¶ÐµÐ½Ð¾Ð¹": 10092, "Ð¸Ð½ÑģÑĤÐ²Ð¾": 10093, "ants": 10094, "ĠÐ³Ð»Ð°Ð²Ð½Ð¾Ð¹": 10095, "ĠÑģÐµÐ¼Ð¸": 10096, "ÑĥÐ±Ð»Ð¸Ñĩ": 10097, "Ġair": 10098, "ĠÑĦÑĥÑĤÐ±Ð¾Ð»Ð¸": 10099, "ĠÐ½Ð°Ð¿Ð¸ÑģÐ°ÑĤÑĮ": 10100, "ris": 10101, "ĠÑĢÐ°Ð·Ð¾ÑĢ": 10102, "ĠÐ¿Ð¾Ð±ÐµÑĢÐµÐ¶": 10103, "ĠÐ½ÐµÑĤÐµÑĢÐ¿": 10104, "ĠÐĿÐ°Ð´": 10105, "ĠÐ¾Ð±ÑĢÐ°ÑĤÐ¸ÑĤÑĮÑģÑı": 10106, "ĠÐ¾ÑħÑĢÐ°Ð½Ñĭ": 10107, "ĠÐ¿Ð¾Ð²ÐµÐ´ÐµÐ½Ð¸Ñı": 10108, "ÑģÐ¾Ð²ÐµÑĢÑĪÐµÐ½": 10109, "ĠÐŁÑĢÐµÐ·Ð¸Ð´ÐµÐ½ÑĤ": 10110, "ĠÑģÐ¿Ð¾ÑģÐ¾Ð±Ð½Ð¾ÑģÑĤÐ¸": 10111, "ÑĩÐºÐ°Ð¼Ð¸": 10112, "ĠÐĿÐ°ÑĪÐ¸": 10113, "ĠÑģÐ¸Ð´Ð¸ÑĤ": 10114, "Ġstate": 10115, "ĠÑĪÑĥ": 10116, "ĠÐ¿ÑĢÐ¾Ð´Ð¾Ð»Ð¶Ð¸Ð»": 10117, "ĠÐĵÐ»Ð°Ð²Ð½Ð¾Ðµ": 10118, "Ð½Ð¸Ñģ": 10119, "ĠÑĢÐµÑĪÐµÐ½Ð¸Ð¹": 10120, "ĠÐļÐ¾Ð½ÑģÑĤÐ°Ð½ÑĤÐ¸Ð½": 10121, "ĠÑģÑĤÐ¸Ð»ÑĮ": 10122, "ÑĢÐ¾ÑģÐ»Ð°Ð²": 10123, "ÑģÑĤÐ¾Ð³Ð¾": 10124, "Ð³Ð½ÑĥÑĤÑĮ": 10125, "ĠÐ°ÑĤÐ¾Ð¼": 10126, "ĠTe": 10127, "ĠÑģÐºÐ°Ð·Ð°Ð½Ð¾": 10128, "ĠÐŀÑĤÐµÑĨ": 10129, "ĠÐ´Ð°Ð»ÑĮÐ½ÐµÐ¹ÑĪÐµÐ¼": 10130, "ĠÐ¿Ð°Ñĥ": 10131, "ÑĢÐ¸ÐºÐµ": 10132, "ĠÐ¼Ð°ÑĤÑĩ": 10133, "ĠÐ¡Ð¾ÑİÐ·": 10134, "ĠÑĪÐµÐ¿": 10135, "ĠÑĪÐ°Ð³Ð°": 10136, "ĠÑĤÐµÐ°ÑĤÑĢÐ°": 10137, "ĠÐ¼Ð¾Ð·Ð³": 10138, "ĠÐºÐ¾Ð¼Ð¿Ð»ÐµÐºÑģÐ°": 10139, "ĠÑģÑĤÑĥÐ´ÐµÐ½ÑĤÐ¾Ð²": 10140, "arn": 10141, "ÑĢÐ¾ÑĪÐµÐ½": 10142, "ĠÐľÐ¾ÑģÐºÐ¾Ð²ÑģÐºÐ¾Ð¹": 10143, "ĠÐ²ÑĭÐ±Ð¾ÑĢÐ¾Ð²": 10144, "ÑĢÐ¾Ð²ÐºÑĥ": 10145, "Ð¾Ð²Ð°Ð»ÑģÑı": 10146, "ĠÐºÐ¾Ð¼Ð¿Ð¾Ð½": 10147, "Ð²Ð¾ÑĤ": 10148, "ments": 10149, "ÐĽÑİ": 10150, "ĠÐ´ÑĢÐ°Ð³Ð¾": 10151, "ĠÑĢÐ°Ð·Ð´Ð°Ð»ÑģÑı": 10152, "ĠÐļÐ¾ÑĢÐ¾": 10153, "Ð¾Ð¿ÑĢÐ¸ÑıÑĤ": 10154, "Ð¾Ð¶ÐµÑĪÑĮ": 10155, "ÐµÐºÐµ": 10156, "ĠÐ§ÐµÑħ": 10157, "ÑĩÐ¸Ð»Ð¾ÑģÑĮ": 10158, "ĠÐ·Ð°Ð¿ÑĢÐ¾Ñģ": 10159, "ĠÐĲÐ½Ð°": 10160, "Ð½ÐµÐ¿": 10161, "ĠÐ¼ÐµÑģÑĤÐ½Ð¾Ð³Ð¾": 10162, "ued": 10163, "43": 10164, "ĠÐ³Ð°ÑĢÐ¼Ð¾": 10165, "Ð¾Ð»ÐµÐ¼": 10166, "ĠÐĶÐ¶Ð¾": 10167, "ĠÐºÐ°Ð¶Ð´ÑĥÑİ": 10168, "ĠÐ°ÑĢÐ¼Ð¸Ñı": 10169, "ĠÐ¿ÐµÑī": 10170, "ĠÐĳÑĢÐ°": 10171, "ĠÑĩÐ»ÐµÐ½Ñĭ": 10172, "ĠÐ¿ÐµÑĢÐµÐ´Ð°ÑĤÑĮ": 10173, "lege": 10174, "Ð²Ñı": 10175, "41": 10176, "ĠÑģÐµÑĤÑĮ": 10177, "ÑĪÐµÐ¹ÑģÑı": 10178, "ĠÑĥÐ´ÐµÐ»": 10179, "ĠÐ¾Ð±Ð²Ð¸": 10180, "ĠÐ·Ð°Ð»Ð°": 10181, "ĠÐ¿ÑĢÐ¸ÐºÐ»Ñİ": 10182, "ĠOct": 10183, "raph": 10184, "ĠÐ·Ð°Ð²Ð¾Ð´Ð°": 10185, "ĠAugust": 10186, "ĠÐ¿ÑĢÐ¾Ð¸Ð·Ð½ÐµÑģÐ»Ð°": 10187, "ĠÐ¿Ð¾Ð·Ð´Ð½ÐµÐµ": 10188, "ÐµÐ»Ð°ÑģÑĮ": 10189, "ÑĢÐµÐ»ÑĮ": 10190, "ĠÑģÑĤÐ°Ð½Ð¾Ð²ÑıÑĤÑģÑı": 10191, "ĠÐĴÐ¾Ð¹": 10192, "ĠÐ¸Ð·Ð²ÐµÑģÑĤÐ½ÑĭÐ¹": 10193, "ÐµÐ½Ð½Ð¾Ð¼Ñĥ": 10194, "ĠÐ¸Ð·Ð´Ð°Ð½Ð¸Ñı": 10195, "ĠÐļÐ¸ÑĢ": 10196, "ÑĪÐµÐ½Ñĭ": 10197, "ĠÑģÑĤÐ¸Ð»Ðµ": 10198, "Ġsince": 10199, "ĠÐ¼ÑĭÑģÐ»Ñı": 10200, "ĠÐ¿Ð¾ÐºÐ°Ð·ÑĭÐ²Ð°ÐµÑĤ": 10201, "ÐºÐ¾Ð»": 10202, "ĠÑĤÐµÐ»ÐµÑĦÐ¾Ð½Ð°": 10203, "ĠÐ²ÑĭÐ±Ð¾ÑĢÐ°": 10204, "ĠÑģÐ½ÑıÑĤÑĮ": 10205, "ĠÐ¼ÐµÑħÐ°Ð½Ð¸": 10206, "56": 10207, "ĠÑģÑĤÐ¾Ð»Ð¸ÑĨÑĭ": 10208, "ĠÐ¿ÑĢÐ¸Ð½ÑĨÐ¸Ð¿Ðµ": 10209, "ience": 10210, "ĠÐ¾ÑĦÐ¸ÑĨÐ¸Ð°Ð»ÑĮÐ½Ð¾": 10211, "ĠÐ²ÑĭÐ»ÐµÑĤ": 10212, "Ġnear": 10213, "ĠÐ²Ð·Ð³Ð»ÑıÐ½ÑĥÐ»": 10214, "Ġeff": 10215, "ĠÑģÐ¿ÑĢÐ¾Ñģ": 10216, "Ð¾ÑĩÐ½Ð¾Ð¹": 10217, "ĠÐ¾Ð±ÑĬÑıÐ²Ð¸Ð»": 10218, "ĠÐ¿Ð¾Ð½Ð¸Ð¼Ð°ÐµÑĤ": 10219, "ĠÐĲÐºÐ°Ð´ÐµÐ¼": 10220, "fess": 10221, "ĠÐ¿Ð¾Ð¹Ð´ÐµÑĤ": 10222, "ÑĦÐµÑĢÐ°": 10223, "Ð¸Ð½Ð°Ð»": 10224, "ĠÑģÑĤÐ¾Ð¸Ð»Ð¾": 10225, "ÑģÑĤÐºÐ¸": 10226, "Ð¾Ð²Ð¾ÑĢÐ¸Ð»Ð°": 10227, "ĠÑģÐ¼Ð¾ÑĤÑĢÐµÐ»Ð¸": 10228, "ĠÐ²ÑģÐ¿Ð¾Ð¼Ð½Ð¸ÑĤÑĮ": 10229, "ĠÐ²Ð¾ÑģÐ¿Ð¾Ð»ÑĮÐ·Ð¾Ð²Ð°ÑĤÑĮÑģÑı": 10230, "Ð³ÐµÐ»ÑĮ": 10231, "ĠÐ¿ÑĢÐ¸Ð´ÐµÑĤ": 10232, "ĠÑĥÐ´Ð¸Ð²Ð¸Ð»ÑģÑı": 10233, "ÑĥÑĪÐµÐº": 10234, "ĠÐ³Ð»Ð°Ð²Ð½ÑĭÑħ": 10235, "ĠÑģÑĥÑĤÑĮ": 10236, "Ð²ÐµÑĨ": 10237, "ata": 10238, "ogle": 10239, "ĠÐĵÐ¾ÑĢÐ¾Ð´": 10240, "ĠÐ¿ÑĢÐ¾Ð´Ð°Ð¶": 10241, "ĠÐ½Ð°ÑģÑĤÑĢÐ¾ÐµÐ½Ð¸Ðµ": 10242, "ĠÐ½Ð°ÑĩÐ°Ð»Ð¾ÑģÑĮ": 10243, "ĠÐ¸ÑģÐºÐ»ÑİÑĩÐµÐ½Ð¸ÐµÐ¼": 10244, "Ð¡Ð¾": 10245, "ĠÐ¼Ð½Ð¾Ð³Ð¾Ð¼": 10246, "ĠÑĩÐ°ÑģÑĤÐµÐ¹": 10247, "Ð¸ÑĤÐ°Ð½Ð°": 10248, "ĠFacebook": 10249, "ÑİÑīÐµÐ³Ð¾ÑģÑı": 10250, "ĠÑĥÑģÑĤÐ°": 10251, "âĢĦ": 10252, "ĠÐ¿ÑĢÐ¸Ð½ÑıÐ»ÑģÑı": 10253, "ĠÑĤÐ¾Ð²Ð°ÑĢÐ¸Ñī": 10254, "ĠÑģÑĤÐµÐ½Ñĥ": 10255, "ĠÑĢÐ¾Ð·Ñĭ": 10256, "99": 10257, "ĠÐ¿ÑĢÐ¾Ð²ÐµÐ»Ð¸": 10258, "ĠÐ°Ð´Ð°": 10259, "Ġresp": 10260, "ĠÐķÐ»ÐµÐ½Ð°": 10261, "Ð¶Ð°Ð»Ð¾": 10262, "ĠÐ³Ð¾ÑģÑĥÐ´Ð°ÑĢÑģÑĤÐ²": 10263, "ĠÐ±Ð»Ð¸Ð¶Ð°Ð¹ÑĪÐµÐµ": 10264, "ĠÐ±ÑĥÐ´ÑĥÑĩÐ¸": 10265, "ĠÐ¸Ð½ÑĦÑĢÐ°ÑģÑĤÑĢÑĥÐº": 10266, "ĠÐ¸Ð·Ð¾": 10267, "ĠÑĢÐ°Ð·Ð²Ð¸ÑĤÐ¸Ñİ": 10268, "Ð¡Ð°Ð¼": 10269, "Ð¸ÐºÑĥ": 10270, "ĠÑĢÐ°ÑģÑģÑĤÑĢÐµ": 10271, "78": 10272, "ĠÐ´ÐµÐ²ÑĩÐ¾Ð½": 10273, "ĠMarch": 10274, "ĠÑģÐµÐ¼Ð¸Ð½Ð°": 10275, "ĠÑģÑĬÐµÐ¼": 10276, "ĠÐ²ÐµÐºÐµ": 10277, "ĠÐ¿Ð¾ÑĤÑĢÐµÐ±Ñĥ": 10278, "ĠÑĦÐ¸Ð³ÑĥÑĢ": 10279, "ĠAll": 10280, "ages": 10281, "ĠÐ±ÐµÐ·ÑĥÐ¼": 10282, "Ð°Ð»ÐµÐ¹": 10283, "Ð½ÑıÑħ": 10284, "ĠÐ²ÑĭÐ¿Ð¾Ð»Ð½ÑıÑĤÑĮ": 10285, "ĠÑģÑĢÐ¾ÐºÐ¸": 10286, "ĠÐ¿Ð¾ÑĤÐµÐ½ÑĨÐ¸Ð°Ð»ÑĮ": 10287, "ĠÐĹÐ´ÑĢÐ°Ð²ÑģÑĤÐ²ÑĥÐ¹ÑĤÐµ": 10288, "ĠÐ·Ð°Ð¼Ð¾Ðº": 10289, "ĠÐºÐ¾Ð¶Ñĥ": 10290, "ĠBe": 10291, "Ð¾Ð²Ð°ÑĤÐµÐ»Ð¸": 10292, "ĠÐ¾ÐºÐºÑĥ": 10293, "Ð¸ÑĤÐµÐ»Ñİ": 10294, "ĠÐ·Ð´": 10295, "ĠÐ²ÑĭÐ±Ð¾ÑĢÐ°Ñħ": 10296, "ĠÐ¸Ð½ÑĤÐµÐ½": 10297, "Ð½Ð¸ÑĨÐ°Ñħ": 10298, "ĠÐ¿ÑĢÐ°Ð²Ð¾Ð¾ÑħÑĢÐ°": 10299, "Ð·Ð¸Ñİ": 10300, "ĠÐºÑĥÑĢÑģÐ°": 10301, "ĠÐ¾ÑĤÐ½Ð¾ÑģÑıÑĤÑģÑı": 10302, "Ġbegan": 10303, "Ð¶ÑĥÑĤ": 10304, "ĠÑģÐ¾Ð±ÑģÑĤÐ²ÐµÐ½Ð½Ð¾ÑģÑĤÐ¸": 10305, "ĠÐ¼Ð¾Ð´Ñĥ": 10306, "Ð²Ð°ÑİÑīÐ¸Ðµ": 10307, "ĠÐ¿Ð¾Ð·Ð²Ð¾Ð»Ñı": 10308, "ĠÐ²ÐµÐ¶": 10309, "ĠÐ°ÑģÑģÐ¾ÑĨÐ¸Ð°": 10310, "ĠÐļÐ¾Ñģ": 10311, "ĠÐ¿ÑĢÐ¾ÑĪÑĥ": 10312, "ĠÐ¾Ð´ÐµÑĢ": 10313, "ĠÐ¿Ð°ÑĢÐ¾": 10314, "ĠÐ½Ð°ÑĢÐ°": 10315, "Ð¾Ð²Ð°Ð»Ð¸ÑģÑĮ": 10316, "ĠÐ¾ÑģÐ½Ð¾Ð²Ð°Ð½Ð¸Ñı": 10317, "Ð¾ÑĢÐ¾ÑĤÑĮÑģÑı": 10318, "ĠÐ¡Ð°ÑĢÐ°": 10319, "Ð·Ð¾": 10320, "ÑĩÐµÑģÐºÐ¾Ð¼Ñĥ": 10321, "ĠÐ¿Ð¾ÑĤÑĢÐ°": 10322, "ÑģÐ¿Ð¾ÑĢ": 10323, "ĠÐĿÐ°Ð¿": 10324, "ĠÐ¸Ð¼ÐµÐ½ÐµÐ¼": 10325, "ĠÐ²ÑĭÐ¿Ð¾Ð»Ð½ÐµÐ½Ð¸Ñı": 10326, "ĠÐºÐ»Ð°Ð´Ð±Ð¸": 10327, "ÑĤÐ¸ÑĩÐµÑģÐºÐ¾Ðµ": 10328, "Ð½ÑıÑĤ": 10329, "ĠÐĶÐ°Ð²Ð°Ð¹": 10330, "He": 10331, "ĠÐ¿Ð¸ÑīÐµ": 10332, "ĠÑģÐ²Ð¸Ð½": 10333, "ĠÐŁÐ¾ÑģÐºÐ¾Ð»ÑĮÐºÑĥ": 10334, "198": 10335, "Ð·Ð°ÑīÐ¸ÑĤ": 10336, "ĠÑĦÐµÐ´ÐµÑĢÐ°Ð»ÑĮ": 10337, "ÂłÐ¼": 10338, "ĠÑĢÐµÐ°Ð³Ð¸": 10339, "ically": 10340, "Ġdid": 10341, "ĠÑĢÐµÐ¶Ð¸Ð¼Ð°": 10342, "ĠÐºÐ¾Ð½ÑĤÑĢÐ°": 10343, "ĠÑģÑĤÐ°ÑĢÑĪÐ¸Ð¹": 10344, "Ġformer": 10345, "ĠÐ¾Ð±ÑĬÐµÐºÑĤÐ¸Ð²": 10346, "Ð²Ð°ÑĤ": 10347, "ĠÑģÐ¿ÐµÑĨÐ¸Ð°Ð»Ð¸Ð·Ð¸": 10348, "ĠÐĶÐ¶ÐµÐº": 10349, "Ð¸ÐºÐ¾Ð²": 10350, "ĠÐŁÑĢÐ¾Ðº": 10351, "ÐºÐ¾Ð½Ð°": 10352, "ĠÐ²Ð¿Ð¾ÑģÐ»ÐµÐ´ÑģÑĤÐ²Ð¸Ð¸": 10353, "ĠSeptember": 10354, "ĠÑģÐ¾Ð±ÑģÑĤÐ²ÐµÐ½Ð½ÑĭÑħ": 10355, "ÑĩÐµÑĤÑĭ": 10356, "ĠÐ¿ÑĢÐ¾ÑĤÐ¾Ðº": 10357, "Ð¾Ð»ÑĮÐ½Ð¾Ð³Ð¾": 10358, "ĠÐ½Ð°ÑģÐµÐ»ÐµÐ½Ð¸Ðµ": 10359, "ĠÑĥÑİÑĤ": 10360, "ĠÐ´Ð¾ÑģÑĤÐ°ÑĤÐ¾Ñĩ": 10361, "ĠJanuary": 10362, "ĠÐ¼ÐµÐ±ÐµÐ»ÑĮ": 10363, "ĠÐ¿ÑĢÐ¾Ð¿Ð°Ð³Ð°Ð½": 10364, "Ð¾Ð»ÑĮÐ½Ð¾Ð¹": 10365, "ĠÐºÐ¾Ð½ÑĨÐµÑĢ": 10366, "Ġ400": 10367, "ĠÐŁÐ¾ÑģÐ¼Ð¾ÑĤ": 10368, "ÑģÐ¿ÐµÐºÑĤÐ¸Ð²": 10369, "ÑĦÐ¸ÐºÑģÐ¸": 10370, "Ð¾Ð±ÑĢÐ°Ð¶Ð°": 10371, "ĠÐ½ÐµÐ»ÐµÐ³": 10372, "ĠÐ·Ð°Ð¼Ð¾Ð»": 10373, "Ð°Ð½Ð½Ð°": 10374, "Ð¿Ð°Ñħ": 10375, "ĠÐ¿ÐµÑĢÐµÐ´Ð°ÑĩÐ¸": 10376, "Ð¿ÑĤÐ¾Ð¼": 10377, "ĠThey": 10378, "Ð¸Ð½Ðº": 10379, "Ð»ÐµÐ¼Ñĥ": 10380, "ĠÐ²ÑĢÐ°Ð³Ð°": 10381, "ĠÐ¾Ð±ÑĭÐºÐ½Ð¾Ð²": 10382, "ĠÐ²Ð¾Ð´Ð¸ÑĤÐµÐ»ÑĮ": 10383, "ĠÐ´ÐµÐ²ÑıÑĤÑĮ": 10384, "ÐµÑĩÐ°": 10385, "ÑģÑĤÐ½ÑĭÐ¼": 10386, "ĠÐ½Ð¸ÐºÑĥÐ´Ð°": 10387, "ĠÐĴÐ½Ðµ": 10388, "Ġdisc": 10389, "ĠÑįÐ¿Ð¸Ð·": 10390, "ĠÑĥÐ´ÐµÑĢÐ¶Ð¸": 10391, "ĠÑįÐºÐ¾Ð»Ð¾Ð³Ð¸": 10392, "ÐĽÐ¸": 10393, "ĠÐ½Ð°ÑĩÐ¸Ð½Ð°Ñı": 10394, "\"),": 10395, "ains": 10396, "ĠÑģÐ²Ñĭ": 10397, "ĠÐ¿Ð¾Ð¼Ð¸Ð¼Ð¾": 10398, "ĠÐłÐµÐ´": 10399, "ĠÑĤÐµÑģ": 10400, "Ġsim": 10401, "ae": 10402, "ĠÐŁÐµÑĤÑĢÐ°": 10403, "ĠÐºÑĢÐµÑģÐ»Ð¾": 10404, "ĠÐ¶ÐµÐ»ÑĥÐ´": 10405, "ĠÑīÐµÐ»": 10406, "ĠÐ¶Ð°Ð½": 10407, "ĠÐ·Ð°Ð±ÑĭÑĤÑĮ": 10408, ".].": 10409, "ÑģÑĤÑĥÐ¿Ð¸Ð»": 10410, "ĠÐ¡Ð¸Ð´": 10411, "ĠÐ¿ÑĢÐµÐ´ÑģÑĤÐ¾Ð¸ÑĤ": 10412, "tle": 10413, "Ð°Ð»Ð¸Ð·Ð°ÑĨÐ¸Ð¸": 10414, "ĠÑĢÐµÐ±ÑĳÐ½": 10415, "ĠÐ·Ð°ÑĤÑı": 10416, "ĠÐ¼ÐµÑĤÐ°": 10417, "ĠÐĿÐµÐ´": 10418, "ĠÐ¾ÑĤÐºÐ°Ð·Ð°ÑĤÑĮÑģÑı": 10419, "ÑģÑĤÐ²Ð¾Ð²Ð°Ð»Ð¾": 10420, "ĠÑįÐ¼Ð¾ÑĨÐ¸Ð¾Ð½": 10421, "ourn": 10422, "Ġ1980": 10423, "Ġhead": 10424, "Ġorgan": 10425, "Ġpass": 10426, "ĠÐ²ÑĭÑģÐ¾ÐºÐ¾Ð³Ð¾": 10427, "ÑģÐµÐ²": 10428, "ĠÐŀÑĤÐºÑĢÑĭ": 10429, "ÐĿÐ¸Ðº": 10430, "ĠÐ¿Ð°ÑĢÐ½Ñı": 10431, "ĠÑģÐ¿Ð¾ÑģÐ¾Ð±Ð½Ñĭ": 10432, "ĠÐ¸Ð½Ð¸ÑĨÐ¸": 10433, "ĠÐºÐ¾Ð¼Ð°Ð½Ð´Ðµ": 10434, "ĠÑĦÑĢÐ¾Ð½ÑĤÐ°": 10435, "Ġprogram": 10436, "ÑĩÐµÑģÑĤÑĮ": 10437, "ĠÐ¿ÑĢÐ¾Ð²ÐµÑĢÐºÐ¸": 10438, "Ð½ÑĥÑģÑĮ": 10439, "ĠÐ¯Ð¿Ð¾Ð½Ð¸Ð¸": 10440, "ĠÐ»ÑİÐ±ÑıÑĤ": 10441, "ÑģÑĤÑĭÑħ": 10442, "ÑĥÐ¹ÑĤÐµ": 10443, "Ġband": 10444, "ĠÑĢÐµÐ·ÑĥÐ»ÑĮÑĤÐ°ÑĤÐ¾Ð²": 10445, "echn": 10446, "Ġpartic": 10447, "ĠÐ·Ð°Ð´ÑĥÐ¼ÑĩÐ¸Ð²Ð¾": 10448, "ĠÑģÐ¿ÑĢÐ¾ÑģÐ¸ÑĤÑĮ": 10449, "ĠÑĢÐ¾Ñģ": 10450, "ĠÐ¾ÑĤÐºÐ°": 10451, "ĠÑĤÑĢÑĳÑħ": 10452, "ĠÑģÑĤÐ°ÑĢÐ¸": 10453, "ĠÐºÐ½ÑıÐ·Ñı": 10454, "ĠÑĤÑĥÐ¿": 10455, "ĠÐ¾ÑĤÐ½Ð¾ÑģÐ¸": 10456, "Ð»Ð°Ð³Ð¾Ð´Ð°": 10457, "Ð»ÑĥÑĪÐ°Ð¹": 10458, "ĠÑģÑĤÑĢ": 10459, "Ð»ÐµÐ½Ð½ÑĥÑİ": 10460, "ÑĢÐ°Ð²Ð¸Ð»Ð¸ÑģÑĮ": 10461, "ĠÐ§Ð¸": 10462, "Ð¶Ð´ÐµÐ½Ð¸Ñı": 10463, "ĠÑģÐµÑĢÑĤÐ¸": 10464, "ĠÐ´Ð¾Ð·": 10465, "ĠÑħÐ¾Ðº": 10466, "ĠÐĵÐ°ÑĢÑĢÐ¸": 10467, "ĠÐ¡ÑĤÐµÐ¿": 10468, "ĠÑĥÑģÐ¿ÐµÐ»Ð¸": 10469, "ĠÐ¡Ð¸Ð»": 10470, "ĠÑģÐ¿Ð¾ÑģÐ¾Ð±Ð½Ð¾ÑģÑĤÑĮ": 10471, "ĠÐ»Ð°ÑģÐº": 10472, "ĠÑĥÑģÐ¿ÐµÐ»Ð°": 10473, "Ð½Ð°ÑĢ": 10474, "ÑĤÐµÑģ": 10475, "ĠÐľÐ¸ÑĤ": 10476, "ĠÐ¡ÑĥÑīÐµ": 10477, "Ð¾Ð±Ð°": 10478, "ÑģÑĤÑĭÐ¼Ð¸": 10479, "ĠÐ½ÐµÐ¸Ð·Ð²ÐµÑģÑĤÐ½Ð¾": 10480, "ĠÐ¿Ð¾Ð¿Ð°Ð´": 10481, "ĠÐĺÐ½ÑĤÐµÑĢÐµÑģÐ½Ð¾": 10482, "ĠÐ³ÑĢÐ°ÑĦÐ¸": 10483, "Ð¶ÐµÐº": 10484, "ĠÐ¿ÐµÑĢÐ¸Ð¾Ð´Ð°": 10485, "ĠÐ¾ÑĤÐ´Ð¾Ñħ": 10486, "ĠÐ¿Ð¾Ð·Ð°Ð´Ð¸": 10487, "ĠÐ½Ð°ÑĤÑĥÑĢÐ°Ð»ÑĮ": 10488, "Ð¡Ð": 10489, "ĠÐ´Ð²Ð°Ð¶Ð´Ñĭ": 10490, "ĠÐ²ÐµÑĢÐ½ÑĥÐ»Ð°ÑģÑĮ": 10491, "ÑģÑĭÐ»Ð°": 10492, "ÑĩÐµÐ½Ð½ÑĭÐ¼": 10493, "ĠÐ¡ÑĤÐ°Ð»Ð¸Ð½": 10494, "Ġgu": 10495, "Ð´Ð¸Ð»Ð°": 10496, "ech": 10497, "ĠÐ¿ÑĢÐ¸Ð±": 10498, "Ð·Ð²": 10499, "ĠÐ´ÑĥÐ¼Ð°ÐµÑĤ": 10500, "Ð½ÑıÐ»Ð°": 10501, "Ð¸Ð½ÑģÐºÐ¸Ð¹": 10502, "ÑģÑĤÐ¾ÐºÐ°": 10503, "ĠÐ²Ð¾ÑģÑĮÐ¼Ð¸": 10504, "ÑĤÐºÐµ": 10505, "Ð½ÑĥÐ½Ðµ": 10506,
[...]
